/**
  ******************************************************************************
  * @file    network_data_params.c
  * @author  AST Embedded Analytics Research Platform
  * @date    Tue Dec 10 13:53:40 2024
  * @brief   AI Tool Automatic Code Generator for Embedded NN computing
  ******************************************************************************
  * Copyright (c) 2024 STMicroelectronics.
  * All rights reserved.
  *
  * This software is licensed under terms that can be found in the LICENSE file
  * in the root directory of this software component.
  * If no LICENSE file comes with this software, it is provided AS-IS.
  ******************************************************************************
  */

#include "network_data_params.h"


/**  Activations Section  ****************************************************/
ai_handle g_network_activations_table[1 + 2] = {
  AI_HANDLE_PTR(AI_MAGIC_MARKER),
  AI_HANDLE_PTR(NULL),
  AI_HANDLE_PTR(AI_MAGIC_MARKER),
};




/**  Weights Section  ********************************************************/
AI_ALIGNED(32)
const ai_u64 s_network_weights_array_u64[61358] = {
  0xa17fb489e33a2242U, 0x48cde32f233730beU, 0x23c132e08c6bbdb1U, 0x32f17f3a13171108U,
  0xf93115100a98041fU, 0x66e00edeaadf3e0fU, 0xc7e7152a007ab2bfU, 0xabfb2a138d093d1U,
  0x1ad3812fe01255bbU, 0x201ec2aaf36122dU, 0xf3901f639be0554fU, 0x15cd2e14237fbd05U,
  0xec6415fe6a1dd03bU, 0xf2e5bf81b9501244U, 0xf6bb0f5f1543473cU, 0x602e7935ed2f2196U,
  0xfe0b109d3bbeebdU, 0x2f382dc4a366df81U, 0xc43fee997f2cea5bU, 0xceaff30e0dfeb40aU,
  0x4f38dc0ff62e6284U, 0x5d2b68c3d2286394U, 0xda7fd29709c3e6cbU, 0x293614418fea4e2aU,
  0x90f0b70f7f3d967fU, 0x1b8ba00a683495fcU, 0x5a0a634adcb24aa0U, 0x5b08bbe6ecef7f13U,
  0xf98a12cda77ddb12U, 0x9c67ab9319e557d0U, 0x32fdd958af8e67b2U, 0xc1af06a41742f9faU,
  0x377fe907510fbc07U, 0xb04be961f3243f35U, 0x7fd00561ec2d3ae8U, 0xcc4dfbec4759b602U,
  0xc8e5f546ffd8c5f4U, 0xe20a3f5b421fb0d2U, 0x481de4ae5beb3bfU, 0x95c82d55f331c613U,
  0x89b783f11fdf9ac8U, 0xfd0d2257093ab793U, 0x7f49429cb23c75ffU, 0xa1e0cbda27fa3640U,
  0x84c09868eb2351d1U, 0xcb7f99a270f0181U, 0x1e1e35458316e132U, 0xcd1cae4abdfb0b25U,
  0xa093267ee227f27U, 0x39361e1f1ed5b10aU, 0x1d40fb903c0bec2fU, 0x4157f22724ae6f7U,
  0x43185c45e7d1e1c2U, 0xf641aed9a637ef3bU, 0xffffcb1d00000f0aU, 0xffff8fa000005ef4U,
  0x22e0fffffc69U, 0xffffe384ffffd8a9U, 0xffffc2c1000032f1U, 0x5de4ffffe21eU,
  0x439400001238U, 0xffff85ffffffa353U, 0x8168e34dbacb817fU, 0x8153934c7ef39032U,
  0x137f4adf73bd4604U, 0xf9697ff5167260beU, 0xef11c101edfd63e3U, 0x70ef99ef812c7181U,
  0x191904e624d7d317U, 0xfcf6769b9241370cU, 0xeb81fdb8360e4efU, 0xc0e140faccbb91b5U,
  0x66e46f0be37fb694U, 0xc32db77f6b817f9aU, 0xd2bdf906ab02d5bfU, 0x2e03f16341051d59U,
  0x2041787f8120e986U, 0x5581469cd15c2fd6U, 0xb3787f96492a1f26U, 0x2b2929cfd990c99U,
  0xfffffe92ffffff9eU, 0x1d2000001caU, 0x276ffffff4aU, 0xffffff0cffffff9bU,
  0xce00000137U, 0x24000001bfU, 0xfffffecfffffffccU, 0x1d00000137U,
  0x4a21a23336d8c0ecU, 0x6ade6543b29d8b7fU, 0x5c4182dd2881de15U, 0x58ab2f4f371233c0U,
  0xd0a62833c7c5d181U, 0xd044303c1dc02ecfU, 0xfdc8345dd4a9d523U, 0x15a9fd5742b8197fU,
  0x92c64a42209d9afbU, 0x28a0d7ec2281c212U, 0x17915dffa3cb119U, 0x4bcd72a2eb64ce7fU,
  0xb948283417e29a7fU, 0xd60429cff19dd25bU, 0xae0781d95f08cd04U, 0x2db4e4ea12a441b8U,
  0x905f2b1e0cb2b2eU, 0xe3c41f81da0bed50U, 0x2cfaed58db1cdb14U, 0x17383a7ffb25def7U,
  0xe58f7fe2c4e211b2U, 0x14f921932f043654U, 0xfc59bbbd3ff013bfU, 0x8f7fb1650bd9a35eU,
  0xa4035f2c7f77f9daU, 0x35744cd2c935236fU, 0x12d433db2766107fU, 0xac4de9e55abb4e77U,
  0x22fde9e5e0142a36U, 0x330be67f24352639U, 0x6de44b24e4fcd0bbU, 0xdafcd47f16c7c1f4U,
  0x16a90a3537cfe37fU, 0x1bee0f31a8212203U, 0x4c811ab8bb32de25U, 0xf4e8b2db8c381245U,
  0xb41cbbaaf1991073U, 0xdf28f6016ffc7f05U, 0xaab92e547a75812dU, 0x2c637d1de9fa03a2U,
  0x152605f1e9c327bfU, 0xe047050afb8120f7U, 0xa4bbf78144364ef0U, 0x5e1921012cdc9ac5U,
  0x9ec01df2c495b43dU, 0xfbd851a26381cfe5U, 0x43400d5fb206f909U, 0x61b8ba7f5ada2c07U,
  0xb2d323ad297f0911U, 0x371ffcc2fe01041dU, 0x69c42015a2944681U, 0x22544b8787aba8b7U,
  0x29e1ba811d48f7c8U, 0xc8bdeab41b4efd19U, 0xea882e54d7e37f79U, 0xe509d6c4446847c7U,
  0x6eeb1c93ffbb2f36U, 0xf0509dda81cd4de8U, 0xb328bf769113c660U, 0x1e43c97fc44ccf2fU,
  0xcddce7cf89fa5d12U, 0x341422f429cb7f90U, 0x2c23414e5c1e081U, 0x49c32b05f90de92bU,
  0x19e0000042eU, 0x24dfffffee5U, 0xfffffebb000000bfU, 0xfffffffd00000110U,
  0x5e0000021fU, 0x1f3ffffff56U, 0x8bfffffe6cU, 0xffffffbc000001a5U,
  0x3000000259U, 0xfffffda300000131U, 0xf0ffffffb2U, 0xfffffee300000104U,
  0x2efffffedfU, 0x105ffffffbbU, 0xffffffe900000072U, 0xfffffffcfffffe7dU,
  0xe47f1ce6a077dd1dU, 0x54b43dd2ac256c9U, 0xc06f733fe52b4291U, 0x784f41e16ce6b07fU,
  0xab5d81c7851cc9dcU, 0x1ec6c6f6438a7f8dU, 0x4056c122bd18fa8fU, 0x1608aac8fabc8163U,
  0xb963c9c88154817fU, 0x70c02382e58131cdU, 0x81d430cc9c7f05c1U, 0x81f21f09140e2a67U,
  0xaa6b8766f17a90f7U, 0x617f7f23a1fd574cU, 0x6d7ff3d881e245bcU, 0x7d7f2e6546c446feU,
  0x8119358f2c7fc064U, 0x3d0b09aad61129ecU, 0x1af87f810d391568U, 0x7f394fe6386b1fc9U,
  0xc057d22a1e7abb77U, 0x37f165a5c92129a4U, 0x57601da8a02c5eceU, 0x26f3cb4381785bc4U,
  0x3770a26d9b053310U, 0x7f2c9752ad16574bU, 0x216f3eff4bcbe826U, 0xa2281fa53b6d657U,
  0x12e71e81be784cbaU, 0x61129881aeb31248U, 0x2f11d1a58c9e81e9U, 0x377f877f9c7ed188U,
  0x3f4daed2d4baaba1U, 0x509f83197fd55a81U, 0xbc64fbf99c9d6f7fU, 0xdd4ad65d877f9095U,
  0x26fffffe68U, 0x440000000cU, 0xffffffba00000072U, 0xffffff02fffffeb8U,
  0xffffffc7ffffff36U, 0xffffff4effffff5aU, 0xffffff1b00000069U, 0xffffff810000002eU,
  0x1ec00000004U, 0x16effffffd7U, 0xffffff62fffffff4U, 0xfffffe32ffffff7eU,
  0xee0000005cU, 0xffffff1600000108U, 0x730000001cU, 0xffffff22fffffebdU,
  0x5544feedc0530623U, 0x544c09e42de6fc69U, 0x52f05cb4e3005c29U, 0xa7f721226b8108c9U,
  0x65531aa55631f648U, 0x268bc6d705f94a26U, 0x67407ff7f7a0a0adU, 0xbd1b51ea98829668U,
  0x47ffdaa17f1adc05U, 0xce06206c2b573428U, 0xf233fa1f803c5d5U, 0xfb1516e5ec16051dU,
  0x5c1bb9d400e6e341U, 0xd110031a00bc3da9U, 0x3c87fe210824cec3U, 0x22d94aaac662ca7fU,
  0xc32047c243f2e2daU, 0xecff8f0bf2222f5bU, 0xd05519d1dd33a7caU, 0x3db15b66427ff61bU,
  0x2f93fd2aaef0ede8U, 0xa67fc32931dbfc19U, 0x3517b63b371855f4U, 0x50acd00233d32fc3U,
  0xe82dc334beab3d24U, 0x463975da81c1e711U, 0xf5db0cdb4f7c61eeU, 0x4500b79563de0831U,
  0x8128fe35de009ccdU, 0x564ce20d46dd01daU, 0xf61b5e47e5d7f31aU, 0xf0593b7d7bb8b027U,
  0x9ff3c9c8be719f7fU, 0x896fe6e335502044U, 0xf73034a70b3a089eU, 0xc3e419c3b7a5e03aU,
  0xe50ada434f156097U, 0x1b4db411c01c46e3U, 0xe6167f971d423fdaU, 0xdeafc4343f4828aaU,
  0x41137e1d7d33987fU, 0xeecdc6a9414e52f4U, 0xfe2af1016daec69eU, 0x3892dcac07eb4394U,
  0x1c16ef46e8431139U, 0xc981b0e0de3f5d1eU, 0x2e2b0a114fd3bf43U, 0x5cedd028a2d41fbeU,
  0xf3d7ca103526bdd2U, 0xf14c2502bac236aaU, 0x11f0e53f190f4d2fU, 0xc5cb54d0d36cce81U,
  0x1012d3ad1b060e20U, 0xf564ae098a1e3b81U, 0xd52b4ddb1c0146f5U, 0xd3faa3c1f3d1177aU,
  0xbc41e26ba1eba3cU, 0xf4a6ead102016ae7U, 0xa3afd003820137fU, 0xfab00ae5e00bde71U,
  0xa0fbf222e5138417U, 0x1781e7d21f0866faU, 0x329c15920ea9f1eU, 0x9f2e8bb00f2ad02dU,
  0xccf21e2b72193abdU, 0x10a2247f5c1c4470U, 0xd613b1d5393fb11cU, 0x1b0440fc2d28d625U,
  0x39b8f71dbd66f4feU, 0x38fbb5453b0b22e0U, 0xfcbbbfe3f263124U, 0x7fc4e0c8d509e3f0U,
  0xe7992c11170d58f7U, 0x81000b0a0b5a4cb9U, 0xbe249fe97234201cU, 0xf2de7e0e1e85b09U,
  0x3339bef6a0d0a934U, 0x8154bf0577f311e0U, 0xf245aa3662e4c228U, 0x211df5ea35ef2df5U,
  0xcc51dc2e10527437U, 0xcea332e7a97fb128U, 0x88d8252cb7a9ce38U, 0xdf11f1fbe2481ea7U,
  0x2f37b57f151b55ffU, 0xd7d14eb638ffe823U, 0xed4526f51be8cdaeU, 0xd4f4de380d18d0d2U,
  0xb8c6d73e35f4df8fU, 0x33f40577a13a7730U, 0xb0239c8106540325U, 0xd06fa276c92ac9e4U,
  0x5be113cda62fd0e2U, 0xdbf609bd3ce424f2U, 0x375122bd39d47f23U, 0x62fcf74bb705f9f1U,
  0x81e71507ff26b22dU, 0xb4f7cf23d2373d02U, 0x2283b0fdaeb2d42U, 0xe0d14d1c906e13aU,
  0xbf182051edad83bdU, 0x7f9b91d2ca0cfbe6U, 0xb824d937d14e42b9U, 0xa074ebd93ba999dU,
  0x24bdbb331bfb06deU, 0xb908e536d17f9c1fU, 0x252bd10ccb40f74bU, 0xedbf57004732cc3eU,
  0xb8c7cf1214bcf3c3U, 0xba1ee3a7cab9d381U, 0xc6ad93c94256dca2U, 0x6d808c4b31b4900U,
  0xe626ad7f08ff474fU, 0x5872c9e1e4053da1U, 0x42cf22d2c5a2145U, 0xfdc4d61e3a3ef519U,
  0xe4bc88f465d8190U, 0xbed1d19c22369302U, 0x28e273a0f4b2fd4aU, 0xef8f39a2cb09dad8U,
  0xcf635313fec72c4U, 0x50c57d157fa55d71U, 0x3e701b22afe8dde0U, 0xd3a9e51606504e41U,
  0x32ffbc3bb804f8cdU, 0xe6292f25607fa841U, 0x4ca5eacd91f1d71bU, 0xfaf8db220ef122cbU,
  0xe7dddd03fec31b2dU, 0x81364624e80320dfU, 0xd6dc043a190529dcU, 0xa0d8df1917270835U,
  0x1781041248a91907U, 0x7923b8903df05363U, 0xca1ed349e1d71707U, 0x6d541b94ead130f6U,
  0xd4bb255f14324081U, 0xbd503a3aca33f03dU, 0xdbfa0b4c0798e66cU, 0xcf53b21fc1b6fe70U,
  0x813953d95ed8fd12U, 0x10e3071cc2d42fdaU, 0xa10e5b6097cd1050U, 0xff2e0ae02cf13bdbU,
  0xd37ab42765db0c4bU, 0xf9ba58a154f1f743U, 0x220df2ea9c3b1cb1U, 0x81332be0a2c82e2fU,
  0x48e1a26b3acb4b22U, 0xd2fb5e2694f303dfU, 0xc1f2d0bdb81f34b3U, 0xf815af0a0f100f8U,
  0xd103547fdd1efd13U, 0x71b64cbaa760e3a7U, 0x415f1be701749acbU, 0x7dc8c658705da60eU,
  0xfa4e25070c4bcd3fU, 0x28fbd1afb5ddaff6U, 0xefeedf56aa47e941U, 0x1b4240921ea1781U,
  0xfd963843b9cd72e6U, 0x314f18aeef04485aU, 0xb010e47606e0231dU, 0xe35850c83981feebU,
  0x816f33023e22ca54U, 0xa1edcfc119015607U, 0x444fc80dac511101U, 0x2838f34302734dd5U,
  0x4a0568a7a591e70dU, 0x809afc151d45f9aU, 0xd4bb4ad10e0d2866U, 0x9f5a4f2ab07fd8c4U,
  0xf9511481c43d2413U, 0x1721427125d8ed26U, 0xbe23e4ec39eee1bU, 0x76b82e9defea9716U,
  0x1f89d8a4d40feaf0U, 0x8184bf4ae87c016U, 0x1541da81385a4e49U, 0xba4730c32117e8eaU,
  0xf8091d38f905df12U, 0x2d3eca274ff57f35U, 0x271544dc45f0abbfU, 0xe6e666ef0ebc412cU,
  0x3c4fbdf9dbad4426U, 0xf3b8c766e2a158efU, 0x4eb990cc7f2c0905U, 0x24dcba093e4932fbU,
  0x515a4859b077d7ddU, 0x15f643cfe41797a7U, 0x859849af3359e9d7U, 0xf8181c94a081a0d5U,
  0x380455811e1501ccU, 0xeaf4e453f257edfcU, 0x37102ae8f1064687U, 0x3218da41da4326faU,
  0x2142fdc9e20c14d4U, 0x3eea0dda14812a9fU, 0xd432fb425d2b02ddU, 0xa2e8665da71f5996U,
  0xe970972593d0d92aU, 0xce5401532c6c813aU, 0xabf891c21c7afecaU, 0xae27b3c7fdf22fd8U,
  0xfb2dcc9a24c2c8eaU, 0x819fd657b2fb1f47U, 0xd88ada4a1fe91f33U, 0x68f05606b0f4f3ccU,
  0x1cab603c3cb85fddU, 0x2ab42b29ce630d7fU, 0xee8e4a1f1edafddeU, 0x28c1c4331a303f42U,
  0x3cca0b3302fb321eU, 0x31f3321ee7cdff05U, 0xf4d01b28aa39e31aU, 0x7fb40827aae204d5U,
  0x4a004c6b22480cefU, 0xb513db746662903bU, 0x7fd7311cf6aff3fbU, 0x490186524915b3fcU,
  0x34d8f4d55248b0b6U, 0x41f4510f26f7ffe7U, 0xf837ffffd6acd213U, 0xf6f6a97f49090f73U,
  0x7f51d9dbd8a45b58U, 0x7cfe54537c5cf19U, 0x3e7b9bba1bdec4a3U, 0x1c12eaa20596d19bU,
  0x7148f0503a2ffd98U, 0x6ee8064225af3527U, 0xf3f148e5cee42e06U, 0xfe4c55b1ed4f814dU,
  0xcd3b81ad3d2c9b14U, 0x35fac0dbdb2a043eU, 0x695fc29c3f902d47U, 0xde11ee5d335f17c6U,
  0x32e2b779f773ac18U, 0x39168f308bcfeecU, 0x4af4e4465b7f1ebbU, 0x79f3ec37ff58c4d0U,
  0x49e33fefb09de56fU, 0x2f0d607feaa49ec8U, 0xd454edd97acd1446U, 0x29f1f41803910373U,
  0x429d491e34be91bcU, 0xb33638c293cea5c0U, 0xa8c0ac29dd4fefffU, 0xfb8dfc81d9d9bec8U,
  0x4990e3661181331cU, 0x23c1a135510ea21U, 0xce8d5c294c4c49f8U, 0xe1cdefeb001602ebU,
  0xda1557db1e5bf0caU, 0x6618fc371e169d3aU, 0x1de29e7b0bfa4ffU, 0x4a2f151ce0118138U,
  0xffffff35fffffd78U, 0xffffff2e00000283U, 0x4ea00000000U, 0xfffff773fffffd70U,
  0xfffffd9cfffffc56U, 0x33000005c0U, 0xfffffb19fffffd6dU, 0xfffffd76fffffecbU,
  0xfffffffe0000067cU, 0x13a000003d4U, 0x3600000092U, 0xfffffb27fffffd47U,
  0xfffffc14fffffcdeU, 0x1b00000679U, 0x2ffffffb91U, 0x43000000365U,
  0x358000002ceU, 0xfffffc8f000003c6U, 0x312fffffdceU, 0xfffffd82fffffb72U,
  0xfffff8fd00000376U, 0xffffff7cfffffc53U, 0x147fffffd2eU, 0xfffffc7a000001c7U,
  0xfffffba4ffffff49U, 0x3f40000013cU, 0x22a000008fcU, 0xfffffdbf00000614U,
  0xfffffb48000003f7U, 0xfffffb91fffff9f7U, 0x707000002dbU, 0xfffffcec000008daU,
  0x20d050815b2f7e2eU, 0xc21dba46f45b4181U, 0x7f982d21c8a15681U, 0xe1dc63d681fd81bdU,
  0xf9045ccd81157f7fU, 0xdbd9dd1c85e69ee7U, 0x10013ce336a21b0aU, 0xde53fafb273d7406U,
  0xf1336bb36d5920f5U, 0xecd2f4686a67a42fU, 0x372e7f0f19f12dc2U, 0x984a7f05eabc3fd1U,
  0x6226cb8dccd1522dU, 0x2c5821f4813ae46fU, 0xf63b261cddb18128U, 0x8870375c5ee20b36U,
  0x4633c2d127e8b18cU, 0x141625b62301814eU, 0x39b8f6d18f9649b2U, 0xf0f057387c812081U,
  0xc8e5cefbdf306078U, 0x3433eac730cd6209U, 0x210b10344d22959dU, 0xe0556e1146bf55d9U,
  0x2fcd79a0c7186c7fU, 0xddb948604c6e70bdU, 0x5fd55d5f2cc6d4ceU, 0xd67f30d460b63861U,
  0x51b89884b5fbcb68U, 0x6349a20c047487b5U, 0xf748311ff3819b7fU, 0x3d7f553d07813632U,
  0x69ff78db6837dbeeU, 0x6e9436757f7f6bebU, 0x3f607f7ff5e4b7c2U, 0x876a603d61db160eU,
  0x7f9fad5abd35210aU, 0x4530517fe17fc577U, 0x519ff37f4fac1f42U, 0x332aee130ac378e5U,
  0xe61e9bb9962881a9U, 0x1d8160f74b2c380aU, 0xdeca6d27c91dc30dU, 0xf6edcb7f98bf8fa1U,
  0xf88102ab017f4cfcU, 0x7f0e502eef1a7f40U, 0xce819b50f2b3b7c9U, 0x8110172ea3b92079U,
  0x7f29e83e813c3915U, 0x41e07f7ff00322e4U, 0xe555cc5c3bd281fbU, 0xf254bcc5c99e4677U,
  0x4eb5ee901bc99d1fU, 0x17c86de64fdf71U, 0x3a57b8eb09bb124eU, 0xa7e73e7f2ed1317fU,
  0x7d0359d2963b0046U, 0x7fd02b4cedcfec59U, 0xe77f3c41e7f0af12U, 0xa57dc91d4cade835U,
  0x56d281f52466c4f3U, 0x72817f5dc721c47fU, 0x19fd06e25383344eU, 0xdc5281f581127f20U,
  0xec7f7fe8b37f95faU, 0xc8b6770642a2bb25U, 0x2bd07fcf7f81fccaU, 0x7fbb00d6d314db0eU,
  0xbd2099811f5fd404U, 0x5e477b603fc243cbU, 0x81a381de7f22494cU, 0x83205512d3d7c855U,
  0xffffff3500000091U, 0xffffffe3fffffe6eU, 0x1c00000037U, 0xffffffba00000119U,
  0xffffff120000001bU, 0xfffffecafffffeeeU, 0x15bffffff9bU, 0xfffffeef00000012U,
  0xad0000004dU, 0xfffffebe0000001fU, 0xffffff7400000068U, 0xffffff630000004fU,
  0xaffffff3bU, 0xb6000000d8U, 0x5dfffffee6U, 0xffffffe6ffffff7dU,
  0xffffff740000000fU, 0xa7ffffff5fU, 0xfffffe0700000011U, 0xfffffeb20000001dU,
  0x26bffffff25U, 0x5ffffffe3dU, 0x87fffffefcU, 0x103fffffefeU,
  0xffffff99ffffff25U, 0x1affffff09U, 0xc100000074U, 0xffffffbe0000006eU,
  0xfffffe75ffffff15U, 0x34000001f6U, 0x2fffffffbdU, 0xffffffe2fffffe61U,
  0xe79fb308cfd9bc1cU, 0xa4de26a7f98a30deU, 0x595f1cf0b1dce5eU, 0xd23543fd0af01390U,
  0x3b97b95ccc2bfaabU, 0x56e2d4ad16bd6181U, 0x8160236fcc900ceU, 0xe0aeb70ec857c20dU,
  0x2ee2253707edb3d1U, 0xdbe2a9cbeab4c6d8U, 0x1eb5991517e61eU, 0x81d2dd42b7d1dfe3U,
  0x28ed294e39de0ac8U, 0x4f1ff4d5c5da4cd5U, 0x2acef43e79c30f7U, 0xfcd936221cbe2b1eU,
  0xcd42182614ca347fU, 0xa1a6b8303893d7ffU, 0x41ec4c039c27a309U, 0x6c301cecde14d2d8U,
  0xd8d9943bf5c415dfU, 0x320340150dfde8c9U, 0xff690ac4df56d01fU, 0xf8f6dd4fc9d6c017U,
  0x2b2e05161635980dU, 0xfba16414e5ede826U, 0x35cbb8352994c54dU, 0x30082b390c58f02bU,
  0xe0f7e3fce4260841U, 0x2d1c653db6115405U, 0x1fcc1cc29e7f35f1U, 0x1d390a4152c32b11U,
  0xd976e6280f19ae27U, 0xc3130452d61de4b7U, 0xa6253d71eec31c2aU, 0x43fb6ad6f3a7fd74U,
  0x28306601234aa2d3U, 0x7f01eb38d4c6fed3U, 0x910cda245c04d463U, 0x3a0547d9b9b2e707U,
  0xd3e6363e0902fb19U, 0xcbf55e0bd2e03fb3U, 0xda32f77fa82a755bU, 0x224b021b611298abU,
  0x5041b8bca650445fU, 0xf749f49c464068e2U, 0xf20a0e11433fd7ffU, 0x45762035bd48548U,
  0x43f207042a40f2fdU, 0x2938c6be0c962af6U, 0xe216ecd008d6c781U, 0xd812c12ef6d8da0cU,
  0xfa91f4cee8ddd5ebU, 0x5b0e6e50d60548d8U, 0x529911ec15100d00U, 0xb122c9afc93f169aU,
  0xc8cc0fe6dacd189bU, 0xe812c048cc15ca1cU, 0xec42a9ca14c0ebf3U, 0xf71659d717100b7fU,
  0xedfe20c4f3f81b3aU, 0x16152417cbd4aa1dU, 0xf4e8b61a51c5ddd9U, 0xe11709d32deb24daU,
  0xbce3ffd2fa1a05d0U, 0x1ef281a2e20690c3U, 0x2932e6cc1330ac34U, 0xcf411ff6dcc0eb37U,
  0x342a322cc71708fcU, 0xedefcde9bba4bfd8U, 0x7cc010414f6f5c8U, 0x1d21373f4e662c0fU,
  0xecd142003034e9c1U, 0xda3abe3f9dabf52bU, 0xbd37ff1613f831U, 0xe7e5ffdee7eb05edU,
  0x1a06e5e933f4cb25U, 0x29ed2d057f361134U, 0xf406e815d64d270bU, 0xeb5fece9f2f6e711U,
  0x55d4df05e561bcb2U, 0x4846f0f0fa0f2ae7U, 0x13fa19fd60ff373dU, 0x45170256e7cb4928U,
  0x1ab233bd03abdff1U, 0xa6074f0771c1cf42U, 0xf981a8fa0c06c544U, 0x3fd92909b0b3d42eU,
  0xef164324db03fe26U, 0x13fb392602d6ccdaU, 0xc7f2032accf6e5d4U, 0xb0b2d163cc0512c1U,
  0x173420f8e4a9e10eU, 0xfc1734f9c51d20eeU, 0x4b7f32dc48eee728U, 0x56cfdee31dbde616U,
  0xf44d2a43af175f74U, 0xd450ae656eaa54a5U, 0xef5a4cfe2668ff1U, 0x82d581c5dd834b21U,
  0xfb9332e0353902f8U, 0x1404d4a4073d9e18U, 0x4dc44504e221d42eU, 0x412008a32ee344a1U,
  0xa02ef8cd00dd0fe1U, 0xf437abe6d62da4daU, 0xf3c29e10fa11d220U, 0x40ec12e0543fe6cfU,
  0xc93639d70532ead0U, 0x35d3b012e6b67f08U, 0xc10ed83cc22f23bdU, 0x3cd91263faf9e96bU,
  0x25ed432e45f032aeU, 0xc3bd27140093cd6cU, 0x350f44fee2943034U, 0xc8bdac2c31132b30U,
  0xdb2b12ce654003dfU, 0xe5d169f8415249e0U, 0x21f87f1fe9ecbfcbU, 0x40d9c157dedff909U,
  0x530988201a32fa2aU, 0xfc222722ff7feacaU, 0xb609f0ab4f4272ffU, 0xc868040d1a5dce28U,
  0xed51edcd05cb3800U, 0x2adbe4e22a1d17eeU, 0x29e62a68f2f40504U, 0xdd3037b9afa0f0d5U,
  0xe3c4d272e5bde430U, 0xe5c252cf1e01a9d5U, 0xb13bbd29e7400e44U, 0xc8c2a038d3f7e77dU,
  0xc9d4574cfc8aecbU, 0x7f6c3e17980b0afaU, 0xbfd538b66fedfdc5U, 0x1485ff9b66721e9U,
  0x23da05da4a5bd409U, 0xaa1bbbab15ccb9ffU, 0x49f142f136cff7b4U, 0xbcd30029124fcf25U,
  0xb6f0213a2e010653U, 0xe1ab45e4b41d1a3aU, 0x3cb4f1e2f4cdf67fU, 0xad1d34300fe83cfdU,
  0x9eafe086570fd253U, 0xa11c5041d90505c7U, 0xb2063dccff0eff9fU, 0x6a39e5c4403e37dbU,
  0xbefc29d1ccc98f94U, 0xc83064f5f577b881U, 0xe82dbafbc8242561U, 0x25d91bea2eb692fcU,
  0xda1bf321f3ef032fU, 0x1c479a81be320eebU, 0x1327cb45edff2e7cU, 0x1ca2fea21bd6ed0fU,
  0xcca7ec3222d51053U, 0xffa9cf3ef7d84ec8U, 0x1f5d23031cf11f5fU, 0x171e182bbde04cceU,
  0x3af00cf8cc3d75beU, 0x76557919b94c0ceeU, 0xf5a0e1f64d1c17cdU, 0x1eee30d5dd1ae16aU,
  0x28f7cb4e27aa41e4U, 0x2d3e718aba8cf1dU, 0x327f75e1df38462fU, 0x390e2ea0b90959faU,
  0xeeefdd4a35d6d540U, 0x107488d5d3ffefc5U, 0x9bf12edcc1641225U, 0xe4b2ce3f1db514deU,
  0x12920b39eeea4c1U, 0xa9478e81f8822e28U, 0x17dac2a7abd02fe9U, 0xf72fd997ef6d1bd9U,
  0x1d392cbc1bd55820U, 0xecd5ef1d2c81abc0U, 0x9fd7ff2bf3d3c7d2U, 0xaeb0e8052715650bU,
  0xd2c80901b9fc47f2U, 0x2735bcc32c0cd0d6U, 0x12e6c3df3edc05ccU, 0x1cebb008c964412bU,
  0xcfc1eab1ffc8e6f2U, 0xce0e202e7316c344U, 0x32e32fd250e8cdd4U, 0xc5400217dffee3acU,
  0xdcefe75f5d166cf8U, 0xf0ae8b5f4094022U, 0xaaf7005d127fed5dU, 0x5034babe0072a2dU,
  0xb2811f5930e23adcU, 0xbf36d3dd9de36ff6U, 0x56192d39454bc0c2U, 0x430c9b62eebd337U,
  0xb9371ce501dbc5afU, 0xa0c2fd12d95ec92cU, 0x10fd29d6abe5a631U, 0xff35dd463109ee22U,
  0xff8cb608012418e8U, 0x63e93ad7c41d5666U, 0xd930fae74c1a2ee4U, 0x23d50606db2d3724U,
  0x13ed29531eca133dU, 0x35ee6fc3081adfbdU, 0xe2816745b43305c7U, 0x7d4463e10c3b1e9U,
  0xd05025cdfc9c41edU, 0xad00da2739365408U, 0x64335d0fd1e1f2cU, 0x267c02b19095808U,
  0x66f5c2e9f081320bU, 0xeab6dba8504c44f1U, 0x46d24df146ac40U, 0x4d5e11b8190cd42eU,
  0x4c0df90e33d2ca92U, 0x5045317082b6fU, 0xea3a275af51edcc3U, 0xcae98e0f0717d781U,
  0xe30b32dbfa0935abU, 0xcaf1f6b6c22824c8U, 0xf8ff1b3a000de6f8U, 0xe5e6be0041e60ad3U,
  0xaa51fcc081fe3834U, 0x60d4541f00fc090eU, 0xb7fac9f026c49e86U, 0x27e0e9b6f2f6f205U,
  0xb6edae26a3f7bd23U, 0x2fb0c1adc686db00U, 0x11d10e54571b3b47U, 0x4006ecaca1851d96U,
  0xb9072fa146e360e8U, 0xc4f7e8dc0d42d930U, 0x2a1736cdde0ce9c1U, 0x45686ad35f599efdU,
  0x2dae89aab30dc6f5U, 0xfba1e97fd6cea3e0U, 0x64129c4ebfd6c817U, 0x9bad28a4ed03c3U,
  0xb4dfe15aeedcfe7cU, 0xcb07efd1b7113cfdU, 0x9ec2250c64e5a17fU, 0x70826b3c4e5e719U,
  0x400ac4d80c47d463U, 0x344dc4dbc7ea09aeU, 0xf4060958fe0a6dd9U, 0xf42812245db72808U,
  0xc1b2e0c944be4c0aU, 0x1e9312d8fd8e3dfU, 0xb6da0540cde104feU, 0xf94f3b38ddc2d2d0U,
  0x23b3552bdcc7bf42U, 0x431d2ba5ba1af9bdU, 0x12f9812cbd334a05U, 0xe0ddb2ddb4492cf6U,
  0xfdbfc895dd555f3dU, 0xdfe5c73e2ae2609cU, 0x79dacac3f9777fc9U, 0x537138422cd372c9U,
  0xc328e5bf61c0af73U, 0x29a31dd50af785aU, 0xb5fddee70f66ca06U, 0x3e0be3b857fc4b0fU,
  0x41ba9877762a8de5U, 0x32a62b44e82c9e97U, 0xef7f4faa37eb0d49U, 0x9fab2ed2d990adf6U,
  0xc22893154ec74c72U, 0xcfca75bac686f7f3U, 0x19de397e5de5ce97U, 0x68619f5959b5c1a3U,
  0x8839a59a8e579cbdU, 0xe9815465233f44deU, 0x6e162aaacf42U, 0xb529c36c07d4e110U,
  0x46cd0a613cf218c4U, 0xcfacfb2a13b0cb16U, 0xfedf39ad3401c53eU, 0x4bc3a027ac1d192cU,
  0x21ef07b73dd1d0baU, 0x3c2b333254fc357fU, 0xcc11d434080e4817U, 0xd4dce3f4faefe4ddU,
  0xa59fba0c88021724U, 0xc2da48e9c104fd35U, 0x3d1cb151235d1eaU, 0x12cab990bf183d25U,
  0x880eb40545ddde38U, 0xe10d2231627f3b96U, 0x52e3d9ed05bac1cdU, 0xef5dfc9850036e08U,
  0x371ca3eb6290ff17U, 0x990f3794aba7efe3U, 0xac000c1e51630e0eU, 0x62cf0449264ef4bcU,
  0x28e5ee430d581fbaU, 0xbfd0bb88ede12dc5U, 0xb317a72b0f049203U, 0x1cca201f19c25bbaU,
  0xc1ad22cb365cf41dU, 0x2e331beb27c6d381U, 0x3af6e7cd3eea0be3U, 0xe1193ea5bb45fb2fU,
  0x5e331d251f1cf21fU, 0x7f02eab05251fac3U, 0x39fb1e5e6d37dbb8U, 0x19b73e4dd0498ca3U,
  0xb609f413d955474cU, 0xe8efbcb113ff23edU, 0xcdd029ae57acd24dU, 0xf523f73fb4a711ccU,
  0xb0503da4d1df2003U, 0xb511ec0fdf002aeeU, 0xb281da5e0820d5ecU, 0xf6b8f868d3cdd3adU,
  0xdeb70e3a919b41bdU, 0x2ec71a20cefde9f0U, 0xe1ed0b2a15dc56faU, 0x2a232bc21bf82df0U,
  0xf4313f3cb5abc810U, 0x4f4f1bb24fef1f6U, 0x44044336b1b11c3eU, 0x11ee44f14142fd7fU,
  0x21eced9f4e10ed7U, 0xd0f5bc192940f626U, 0xbe000d4ae63123b5U, 0x2021fdd40a403ed9U,
  0x170c31dc441bdbd2U, 0xc55ba640b1d5d7d3U, 0xd9c42895c4c8e3deU, 0xb842362e214816cbU,
  0xe9e912eb393124abU, 0xb0a3aaf7fb8c913U, 0xc40d1c13f6e256aeU, 0x3146bd1e4bd78e92U,
  0x8155a24f0fa2cf0bU, 0x45c556cc322ce313U, 0xd47731902915f10eU, 0x2ae80915cce46109U,
  0x2c69e0aae3f0b4dfU, 0x33e9d2665f093c0dU, 0xb73ac5f2430c5aa6U, 0x9eb2fe700cc123bU,
  0x45c40eeb230ed8d6U, 0x6244b0af41de168U, 0xbe023d02b3fbc6d2U, 0x42d036d2f311dee5U,
  0x36c7f60c16a412bdU, 0x3fc3067f05ca5506U, 0x59a6cfc7d3171bb6U, 0xed1ce6f9d9083fc8U,
  0xbf3ede5c37edfcdeU, 0xa981e9af643af935U, 0xfe5c0a16e23cfad4U, 0xbb28274fc9552453U,
  0x10a7cf2e0bac9418U, 0xfbcc0e19b7113bc7U, 0xe959ea20c10ff225U, 0xcedee839aa2b64d7U,
  0x4471b7c03e577ff4U, 0xef4971c260531bcaU, 0x2eb6cf03ff6834e4U, 0x402596c757e6265cU,
  0x412746c1976c47acU, 0x365cb1d9c2cda8f2U, 0xc61458aee938064fU, 0xfac0ecbbb09d1ee7U,
  0x1c33e228ec6fedb1U, 0xc61127fffda24865U, 0xf25364e49202f3aU, 0x8e2fed2cee1d1e48U,
  0xc21f3c52c571fd7U, 0xc31f7fb43c5b07e9U, 0xfbe75b1b00fbfd17U, 0x3b9ebec9f7e20a26U,
  0xdc4bffb436fd4206U, 0x1a02402073e7db13U, 0x9f9ef23ba2741b9U, 0xfcd714d3e5023928U,
  0x81db2c30f30cf12cU, 0xe8e6cc53e2b92bcaU, 0xd5e10136ef360e25U, 0xc3ee11aa0dd31bd3U,
  0x3f63ec78b9cd2415U, 0x52c65a1b3484dfabU, 0xdcbd7f3fe616c9e9U, 0x98aed763e4ba2662U,
  0xc06d9d1c98f192aU, 0x9de020b3ba2398cbU, 0xea631ac24ca4d917U, 0x37f7f927f0d00437U,
  0xaff4a7c3ab5eb34cU, 0xbb08ddb57f2e668fU, 0xabd650e5c426cab5U, 0xb0170aff04ec0416U,
  0xc0db37373af355c2U, 0x43f1220c7416294fU, 0x24cababdc25a52fbU, 0xdf2e41ed36380598U,
  0xd759cdcaf8ff5043U, 0xe25d2d1fe955bf0aU, 0x90bbf4a2a92f2ea6U, 0xe2d90b05cac5aec7U,
  0x9364f52ae0d2faf9U, 0xcd14dfaff0dcf3d1U, 0x87fe73044d132e0U, 0x1502e6c956d7a70dU,
  0xc404f7d8769abe1aU, 0xdaf5196a525ab902U, 0xed6ad98e6d2eade6U, 0x1ef318ada7bec538U,
  0xacf0206726040a15U, 0xc23aa8ace04210c5U, 0xedabd77fb1d63abeU, 0xf9ce4bae4303bbbU,
  0xe3a33a0f17fd4e00U, 0x121ce62903301ecdU, 0xded910fbf3d5ae06U, 0xd5e5e2f4d0aa1dcaU,
  0x28d7e62cc9d2814eU, 0x92df927261fc825U, 0x451af629fdf64a0bU, 0xde2d43e0b6d0d7beU,
  0xb62fda339d1c1b06U, 0x2bcacf4ce75b3aU, 0xac292e2ab2fe8df5U, 0xe0b6582620f8e424U,
  0x3d0ebb94fcd72e28U, 0x4debc7f2debee0fU, 0x4421b4a940e3f556U, 0xd14f2b21ae9d68caU,
  0x2c504cc94ffc595eU, 0xeed42c81d04fa1e4U, 0xaa5acc8c05322c03U, 0x9ac4fb0131cd512bU,
  0xca0efbb951baedbbU, 0x5b2ef75740c022dfU, 0xe9db70a54536a8b6U, 0x2c135d7dccd3303U,
  0x2cbbb2b720bd3d45U, 0xf7192534ebf13774U, 0x5ff1b6b2b896c13cU, 0x4d497a5609f4d5d8U,
  0x751e7ecb45678cf4U, 0x3b226f1dc37054c5U, 0x29e425f85cb63527U, 0x36818bd5e608a4cdU,
  0x3da726156d29570cU, 0xc224abb69bfa3408U, 0x254d9852d598814fU, 0x139dc895ab3b6169U,
  0x1be403236727e750U, 0x4019e33a63af3c29U, 0x11bce34dce2e0263U, 0x5c3ae357de2e303aU,
  0x8be75c29171b552cU, 0xab7aee8cf7912d15U, 0xec57a712255df05dU, 0xfb5752a5434dbad5U,
  0x69931fbd263956c6U, 0xcbecaa067f74d51aU, 0x412df7d2c5eeefa0U, 0x7d12c4bd01abaf90U,
  0x11b7780bc4a6ba36U, 0xc9bf3bdd4e2222f3U, 0xc930e6981e8eafa1U, 0x51b81ef0533ad2aU,
  0xe371bfe644c01eebU, 0xc16ccf4e4e91b733U, 0x3e1abed4926e40dU, 0x5d0cf6f8eaf5f7d9U,
  0x4cc908b9092c42d4U, 0xee2e0ce8d0e0d6ffU, 0x561ed2e226d43527U, 0x427f1c0bece5061cU,
  0x1312f314a6bc50edU, 0xf4d31bed1c08f511U, 0x15f7d13c926cdc05U, 0xdb00d8c20a21f9cdU,
  0x4ce1fa06e3355cceU, 0x14e1fb24d9ab25c1U, 0xbe3f27e44b2c5d12U, 0x222ae9dbfc030231U,
  0xe95551cd95503381U, 0xcab5ec145f098b2dU, 0xf8e4e3db85551c55U, 0x382224c80dc7dadeU,
  0x232454c62af107f9U, 0xc7d035dfe301f462U, 0x4482061ecdb619c2U, 0xc181918df7a3d2d6U,
  0xa40b03f9452e0646U, 0xdf3ad69d179fc037U, 0xa2aa395807f5dd02U, 0x4a710a47391a9738U,
  0xc7e339e2b6eb1dc8U, 0xdcc5dfe8a8451a52U, 0xc6ffe4c1ebd05e00U, 0x1e5b3ecaca890499U,
  0x44325d14235cbdeU, 0x380e07197fd565fdU, 0xbdc32f5dbf473ee2U, 0xac3001e61aa01e2fU,
  0x5c21e7f8c3da1f25U, 0x7fe83e4bdddb4833U, 0xd96ded57033205e4U, 0x5b3ecf6f0fe3815U,
  0xd51925e200113a37U, 0xd62bcecb1d1a364aU, 0x45343230c0f3e1d5U, 0x724fe1a1e0928d2U,
  0x3c40000050dU, 0xfffffafcfffffffeU, 0xfffffc23fffffba5U, 0xfffffda6fffffd11U,
  0x1940000035bU, 0xffffff93000001c2U, 0x5ff000002e8U, 0x1ae00000144U,
  0xfffffb800000020cU, 0x21d00000520U, 0xb9800000134U, 0xffffff8cffffff57U,
  0x50b0000043aU, 0xffffff6c00000157U, 0xfffffa38fffffd28U, 0xffffff8a000000e7U,
  0xfffffcb90000009cU, 0xfffffeb1fffffc59U, 0x23000000110U, 0xfffffe28fffff814U,
  0x2e900000142U, 0xfffffdb300000322U, 0xfffffeb4fffffe87U, 0xfffffd9f0000013eU,
  0x1abfffffb99U, 0x4cb00000468U, 0xfffffab0fffffd67U, 0xffffff9600000268U,
  0x8fb0000011eU, 0x2ed000001c1U, 0xfffff90800000728U, 0xfffffcd3ffffff76U,
  0x35be4f7f277f89c1U, 0x5881c87f409c1515U, 0x4f8e8812f3a6855aU, 0x9a81d93cd8d0bb7aU,
  0x53ffe7676fc3c5d4U, 0xfc0743beec7f721bU, 0xa7ee81f915642808U, 0x8e812d44d87f7ff1U,
  0x65f9b86ee76790e2U, 0xdc4815f5d54d7c6U, 0x83ae97ea9081fcdbU, 0xd0fa368d23a681bdU,
  0x7fdf2f372d973e81U, 0x50620cbfd0f97fc4U, 0xa9b6c148fe24a40eU, 0x8cf4c41f8172d47fU,
  0x3db092362c2b05ceU, 0x4d7f7f4d16a3fb0U, 0x9c00135dfd86db16U, 0xa9d8e5a17d81dec6U,
  0x1a0246b723f615f1U, 0x6f7bb5d73b78e233U, 0x9d1f8fb066ebecb6U, 0x56183402b77f05f7U,
  0xed814e58752a8cadU, 0xa792ef574bc8e6deU, 0x759c9829bef08107U, 0xe881a6f8d8b09a4fU,
  0x174b717ff5a9e684U, 0x4e2a7f1ea2f31281U, 0x9675dd1df841b5b4U, 0x90c47f4ca51b2d58U,
  0x78d6747fa4558181U, 0x81b2904571307ad0U, 0xab3bb681d4bebe7fU, 0x8fda84e9c3be109eU,
  0xf27f0dddc5817fcdU, 0x3b7f824edde708ffU, 0x814f84bf397f2abaU, 0x8907117fd0b4737bU,
  0x7ffb3f387f53b39aU, 0xb496bda717cf2a81U, 0x8b1389f8b69fd3daU, 0xcae4ac06feaf1881U,
  0xae82756b7fb4de1eU, 0x7f1fcc6544477c98U, 0xf6f01c81212f81b1U, 0x6466fae2393b2c56U,
  0xfb777fd08cb733d6U, 0xfabaf1297fcb7403U, 0x7f0cfa7cd48a961cU, 0x8102ec74eb4ad243U,
  0x9b772c1cb7ed2009U, 0xd23f5f81e4ba329fU, 0xcd5bdad4ba0ba3f8U, 0x1482e458b33a1b1cU,
  0xd5c45cf5ab22a5ddU, 0xbc999e635a1e7fd1U, 0x407f81b882a3a965U, 0xaac5607fb9ed210aU,
  0x870b522715b68d81U, 0x644cdacf7fcc4716U, 0x147f1c878168cb81U, 0x69ab98613018d174U,
  0x3ff6e4c6a80a9219U, 0x1b02e3b3317ffc92U, 0x1c6ec00881a3bb47U, 0xb8947f657fab2550U,
  0xde9a7fbb24cca7a3U, 0x31e657a33a6f9fdU, 0xd25bef82ff16bff8U, 0x7f292ef50b0b4ec9U,
  0xffffff420000000fU, 0x5500000010U, 0xffffffd1ffffffeaU, 0xffffff87ffffff56U,
  0xffffffa4000000d0U, 0xffffffd400000018U, 0xf0ffffffddU, 0x181ffffff6bU,
  0x8dffffff86U, 0xffffff9c0000001fU, 0xc1fffffff6U, 0x12ffffff97U,
  0x11ffffff91U, 0x310000002dU, 0xffffffb4fffffff8U, 0xfffffe9b00000084U,
  0xfffffff4fffffd89U, 0x8000000acU, 0xffffffc2000000c8U, 0xffffffa500000006U,
  0xffffff29ffffffd2U, 0xffffffcaffffff5cU, 0x2a00000055U, 0xffffffde00000058U,
  0xffffff4a000000c5U, 0xffffffc70000003fU, 0x7f0000002aU, 0xbeffffffb0U,
  0xc5ffffffcbU, 0xffffffceffffffc0U, 0x59000000b7U, 0xffffffd400000094U,
  0x41cb5739e8c681daU, 0x28d8e2dc2807dec7U, 0x333d99fc02081cb7U, 0xd2d15f54b553e917U,
  0xa806ece489c04c65U, 0x1827b6d1b322e2f7U, 0x35ccff9ed0c7dcd6U, 0x6ca6d9d26af815bbU,
  0x22295f44c9363493U, 0xb32f5c6f5c97fa7U, 0xe50d48355a0565b6U, 0xd3c1ca26c5c6580cU,
  0x91e949b0d45641ecU, 0xba8e13dac4d47d36U, 0x51f3a5101c3b235aU, 0x7e3d45da85487c3U,
  0x1135b4f9320bf0beU, 0xc97fb91dd7c3cbceU, 0x1bcaf02d24d133d9U, 0x26cbe423eff811daU,
  0xfcc1d84fc6ea18e4U, 0x19d82b2304fcebefU, 0xfcfd630cd9e8e520U, 0x7204f72301f9fca9U,
  0xfa69fa5f06b3007fU, 0x6f3fcee0441f4a05U, 0xdba5c64dbc5c3f26U, 0xfdd560c517dfac5cU,
  0xcc250d1368c1e853U, 0xdeea3313e0d4a03dU, 0x3918310523e63afaU, 0xdffdb019f50411ddU,
  0x52198cfc6ceb720U, 0xc1af043531db4a04U, 0x7fd81439653dcd1U, 0xf0b6f8f13106ee31U,
  0xd829b7f23a37084fU, 0xc7bd1e273adf0afdU, 0x584d38c8b40bbe04U, 0x440d183be0ce3025U,
  0xdbe7e9b53a9e05ebU, 0x3a07cfdb092ecefcU, 0x619fd9e50d35f623U, 0x1d3a2bc42e3bcf5fU,
  0xbcbde1af44fed4d7U, 0x28c181fbeaea24bfU, 0x299c1fcf0ee6ec4fU, 0x20ca16b8f6b2ee49U,
  0xdfdb1fede3ca4659U, 0x812dcacd335d2712U, 0x2f180fc1b7dafec2U, 0xdbe127fe0d174f02U,
  0x4518b58bb367d12bU, 0xcce016edb418df91U, 0xffe019b0d3a843a8U, 0xaad2f955b4cf67d2U,
  0xbd27a9eb092cc5f5U, 0x41eae9d8fde838aeU, 0xc49c1d22b03bd427U, 0x3da2fd344131ff9U,
  0x2113fc233202110aU, 0xb2c9f1f600f31a1cU, 0xfd01501ed190323U, 0x7fd309daa4cc3548U,
  0xbe31ad07165c0305U, 0x18bb31812197f81bU, 0x1d6a68e2e9aa1144U, 0x36f645da1d2005e4U,
  0x32d5a712d6a7fa10U, 0xe033ccf1d9f6d8e5U, 0xe7ebaedff4d72f17U, 0xf628e8ffd53d08bfU,
  0x602f405c52d1fbeU, 0x38f613b4d0e3e0e0U, 0x39a159fb26be39dcU, 0x97f61905b14fd70aU,
  0xfed72dfd1ab90b22U, 0xc714ca4118e4812fU, 0xdc5709d0e08a2842U, 0xf13001eaeeb3f7b8U,
  0xebdaca410a30d054U, 0xad06410938e5391dU, 0x3e3d1bd9bcd0df29U, 0x54462542ba2b81dcU,
  0xe10938c0ce4c341cU, 0x26f9c113d71c5d2aU, 0xd420a37d71fddddU, 0xeebac4c454fb041dU,
  0x5c226fc20c933f0U, 0xbcedcc3d26febd21U, 0xdab6db044205d119U, 0x51de100fc500e8baU,
  0xe8c70de92f1600d5U, 0x5e7fcf62814f50eU, 0xda1f1a07ea7f1723U, 0xb1113fea26f1d5e5U,
  0xafc2273fd35cbec8U, 0x7f4f3b50e4d822acU, 0x273313d7c45ab161U, 0xe2ad24e12a4446dbU,
  0x9ac566e4e8ecce27U, 0xf7e011121938011eU, 0xdbae9c2cd2dbbbc2U, 0xf5f1398554bfd70fU,
  0xe1e52fe82ee93392U, 0xaeede089800f332U, 0x70103fe2220400cU, 0xe619171fdf095fcfU,
  0xcf3f5c012e2cfbc1U, 0xeec0fcbbea7f04feU, 0x379aca20c4f129f5U, 0xcebe893b9ba460ccU,
  0xd3042555b319571bU, 0xbf4be039e9b9e992U, 0x2bbabe261e02e7e9U, 0x35d1d91354ac7359U,
  0xec34f454944cb254U, 0x81d2d2e9162cae97U, 0x31a2b3bae0493dc7U, 0xea361b56df3a4fccU,
  0xdd282600ccc3b72bU, 0x26a3e923e5dcdac7U, 0x51c2d418d1fd22dbU, 0x13e2d7c6e0d9dddcU,
  0xeffd04def3b4c317U, 0x38706a0b10ff59b7U, 0x6b5eca11501c50afU, 0x7fb3f5ede60b3f2cU,
  0xb27212bcb501fa3eU, 0x812cad1bd7bfe8deU, 0xbbc1be2d15b05efeU, 0x3b352ef8bfc8c7c6U,
  0x12870b6f307c02b1U, 0x19f32ee6f0b1518eU, 0x40f00dc4ecb4c76U, 0x164861f1b714e671U,
  0x7fc527b126d169caU, 0x8de6d2f9bf1a43eU, 0x2d5901bba5cb3dU, 0xc45eba1000ec6903U,
  0x28dc8b1c2accaedcU, 0xfb4dd91704030f1dU, 0xa903b3252ca3ec5aU, 0x284b5acd884ff9e4U,
  0xe3e581cb0e0c2f36U, 0xd9433bf69bbe2fd3U, 0xefcef94007ed3826U, 0x8ee1a2918adfb9bU,
  0xdb16d104fb080c2cU, 0xce52b9d3192cf83aU, 0x1cac9792eb8e11ddU, 0xced0c7efcc2a5e3fU,
  0x142ad83f0cac2f01U, 0xb3efd233fdabd738U, 0xfe1d96f4708819e5U, 0xfa7fe36541260ebcU,
  0x350db9ba231a5008U, 0x5d621bb1dbfce961U, 0x29cc382514bfd5beU, 0x9ae9cc3500c2bafdU,
  0xa3fd41b778125ab0U, 0xe6cf44dcc29824a4U, 0xf120cb59cbd56db8U, 0x53e9814daf321934U,
  0xbda8232a950704f6U, 0xbd244e1431b2aba0U, 0xe2de46164a29f748U, 0xda0c1fed187869d2U,
  0xe2dad0f4cd35e3f7U, 0x5e323e36e311f3U, 0x34d560b7e702be1dU, 0xd149fc3cb8e324c0U,
  0x848503e33a2b2b2U, 0x52f9041245284ab0U, 0xce0f37e4cd95813aU, 0xdd1cbd81d18c4d0U,
  0xe532d77404d8220cU, 0xd44a4ff636b54f03U, 0xbbe8ca1bf91cd770U, 0x151229c681f73be3U,
  0x3341ede91d275cfbU, 0xda2b75fd16d2df66U, 0xbfe2a53060b210e7U, 0xaee8470614e7e966U,
  0xc1e95ec254c85f0fU, 0x2c03ff92540cdcc6U, 0x3313f2de492e081aU, 0xf40e7f380ae6b7f6U,
  0xcde6baf675aa372eU, 0xbd693b484fa0da2cU, 0x1f06d903d19b71d9U, 0x212ce7e8c5fa10e4U,
  0x28fb52e02f222808U, 0x814412c899f3bdc3U, 0x2b0cc91a3920461aU, 0xf7d140c557b1e43fU,
  0xe1cd13442b0be5bdU, 0x36f8fb0667bd091eU, 0x21bc58030f35b34eU, 0x3d94d38ac7d0ba0aU,
  0x956d3279b5ccfa14U, 0xb87c6e0b50134b5cU, 0x497bdbe706afc022U, 0xfed10dd02c64b4aU,
  0xc53781e105ee56a4U, 0xab145c38083d2ae4U, 0xf51842d6f3afdac3U, 0x1b370da8b37edcacU,
  0xc2f70beaefe3327fU, 0xfee71008bc1c2b2cU, 0xb61f0412fcdbcce3U, 0xf4294b16f819d521U,
  0x91f31389b394dcaU, 0x1ed05dce6a51f0aU, 0x41ee21394f25085aU, 0xfe25f9f32b0827daU,
  0xdceb0bd1ec1e4236U, 0xbdda50e4ce37cb17U, 0xcbff04e2143cd10cU, 0xc4221f810887caf1U,
  0x4949c536b2b246b0U, 0x3aaac0733107ded3U, 0xd33afc15d0051c42U, 0xf1d34f301ad3aa3U,
  0x8e4ceb810ddd1de1U, 0xf5ecef599119e4faU, 0x1e2edfbb14b21003U, 0x5703d31bc85d18b7U,
  0x9c848d924bacc36U, 0xc242e4bec3b8bb39U, 0x21c753d813d1531fU, 0xd15454ec0d8c29dU,
  0xb89fbe1eb3cb51c3U, 0xd5cd3b32ad44a5bbU, 0xaa2238c442b90df0U, 0x943e79dcc53b3e1U,
  0x5a275ce90990a281U, 0xc56ae612968bddd7U, 0xfde01c1850bbd84cU, 0x350fc31e86d8d5bcU,
  0xc009812c685ddab9U, 0x4b69220e38362079U, 0x61db14a8f5283d18U, 0xfa17db2c22b6d3b2U,
  0xe4ab67dcd5bff8b1U, 0x6e597c6e454b349U, 0x46af4f72ec9caefeU, 0xf4a88df9d3d6f037U,
  0x16a91dd848b29539U, 0xe0bc995e0f43219U, 0x3f53ad816b1c621dU, 0xaed24be9780b382bU,
  0xa8a63c3763d9cdc4U, 0xf4c6c4c266fd4c07U, 0x9be3fe89dea796a8U, 0x30173daca98ee1e4U,
  0xd802e9ae0d06ed19U, 0x2ae74c98a781d5c0U, 0xbdd82943fed2c2f2U, 0xd9bde00dda29b8U,
  0x4ffbcde4c3cf4bebU, 0x271d53c9caf33fe3U, 0xbb32439021c0e2cU, 0xc53a642c7de431fU,
  0xd2e9c82908491863U, 0xf76a6946e3f31e46U, 0x7f6454d3ef46ca69U, 0x504f31371df1c511U,
  0x102a40e9470d3dd8U, 0x5b09133fe618f96cU, 0x40f92a4937ccceabU, 0x4adfda1d2fec0e67U,
  0x3ef00f1100f61a2aU, 0xdac6b636e146d8d9U, 0x537fd5c001033a0fU, 0x361c1fe8adf4e0eeU,
  0x9e4cb2de17e8072bU, 0x1227031701e0d4e8U, 0xc9c5cc3220182fd9U, 0xfcd5f2123c292a0fU,
  0x2d3bf6fb0cf6e9bdU, 0xdf32ace3d16ae45U, 0x3ff50bb13098c00fU, 0x55cef20eb1122119U,
  0xbbcbf6bf39d9d8aeU, 0xf2cac81c9e0494e1U, 0x43e21b0a18e51530U, 0xf2bbfe81210b3126U,
  0xe0873be53e18db03U, 0xdd9eda0eeb09ca01U, 0xf7f8983dc5e107aeU, 0xc36eef6c16e6174eU,
  0xbda2cddc72170f06U, 0x572574263afa2740U, 0xb6b061bb12fde7e2U, 0x1f3913fd81b3beb2U,
  0x3aca33373bb8440eU, 0x155be3f5021a6c9cU, 0xbd97e73c814c2bbfU, 0xeaefc4f63ebeea0bU,
  0xd8b15311f002240fU, 0x2bfc50f0dd359845U, 0xba36fe8b54453e1aU, 0xec20d5fc15293d08U,
  0xf328eff9f2eb7c6U, 0xcc48da8f305387c1U, 0x7d01b0cf1ebd804U, 0x2855d8effeff2a0bU,
  0x52cec5183e45d611U, 0x53343bc47e30b2eU, 0xbe47277507062adcU, 0x567fc7c84b3bffecU,
  0xd5c6aec417bab4a9U, 0x3a2d162d12812c91U, 0xd0c3e62aa4ae0b47U, 0xc9c0bc848380233U,
  0x655cc9153bebcfc3U, 0xc807fab2f7e0c150U, 0x3ce91f9207d5dc52U, 0x7312cbdaee2d447U,
  0x360ddeff12600cf2U, 0xff81d17c6310becU, 0x2ede247f6fb49c30U, 0x42692dd432dc4240U,
  0xce16c1c2375ec28bU, 0x492512974597cdb5U, 0x28c3f2e767f0b1dbU, 0x4249ab121f1942b0U,
  0xbae9bbbf08384322U, 0xe0fada5726f432beU, 0xd39b08fcab46be3cU, 0xe13921be0ab957dbU,
  0x54fba7dde84e441dU, 0xcfbe19f7a8cd37acU, 0xad190002d98126d6U, 0xb81bd22f20304e5dU,
  0x24d61e032f00d8f3U, 0xe4fcef9cf8340a5cU, 0x5d0e7241f6a5f181U, 0x9441ddca10d3c3b7U,
  0xecedd0f5d398bea6U, 0x8b0ee301d271209U, 0x4b0c10cfd3002af9U, 0x2d424feeeb2624feU,
  0xa726f8da2ca3504cU, 0xec358bf9d981fedbU, 0xff03bb0ae0cdf1d3U, 0x18fef4233319df2aU,
  0xe103b5ee4848d916U, 0x2bce441de6a6e3e4U, 0x5c0424c4fa455d5fU, 0x213fc8f2a534d403U,
  0xe8da28afbb2ad6daU, 0x7f0c1d95cc7236d2U, 0x3c8b30e3b72b5cfbU, 0xba05e525082843fdU,
  0x3c2bc3c5174418e3U, 0xe222185f52da310bU, 0x3738e4f5feca0e20U, 0xee728212ed00ffdU,
  0x9a2fa2a2f38138a7U, 0xef560e0a36f21cecU, 0xf8b40f13bbe3453U, 0x3b4affd418d0eccdU,
  0x3dc4f8f92e71ead1U, 0xf8cbfdf7dce4c8d7U, 0x5032384f0e643417U, 0x18e1e0541bb6c8b9U,
  0xbed5f0bcdaccff49U, 0xbb70e6f1dae9fa00U, 0xd6334bf4301b81d6U, 0x9efd93dd0cbfa11U,
  0x333b4c1e1e1713cdU, 0x2a413ae0ecc3ff47U, 0x7ba9c942c90fc334U, 0x12130d15a7c652f6U,
  0xcdb81e71618034aU, 0x253bbbeb2905dddfU, 0x60d011cd6914ee30U, 0x7c7302f41a5b2292U,
  0x41f30d489dfc24c8U, 0x99a1e4dffd7e380aU, 0x3eadbbfc10abeeedU, 0x33e1c1ad4ad7ee48U,
  0x611e5911f54610f7U, 0x275981b126299bb6U, 0x191de8f23d27cfa2U, 0x3ae9e54b312d0261U,
  0xf95a327f277c872fU, 0x2c4c21a72fba7c08U, 0x6cc53f91406e0adaU, 0x1610fce63f14122dU,
  0x6bb7ef09b2f1a746U, 0x14ee43bb6203da77U, 0xd34c418c7f513356U, 0x77fe2df7bfe408e7U,
  0xcf924e5125011edcU, 0xaf9b9e0049cde243U, 0xe13c41162bf4b157U, 0x480e9cf741f419U,
  0xf3abfd3afe2b78e9U, 0x672862a1b9f0ad41U, 0x3444e127571fc635U, 0x256628ce2b0ea0f0U,
  0x11b919f21fa47103U, 0x7f112b5a2339e74eU, 0xe1aa0009f2de0370U, 0xccfce3344ff450faU,
  0x113048ad0192e2d1U, 0xfa11d23d22e722c6U, 0xcf3c84c3d1ea29ebU, 0xcce1c2d33bc40d6bU,
  0x14b4f312f6fb5bdbU, 0x109c3a0e73fa100bU, 0x5321cf7f46fcb824U, 0xf44ce162dd35e038U,
  0x7f2de00b0c14d8faU, 0xf62f50ea262c0312U, 0x52e00b1359e827abU, 0xe1301700f1d020ccU,
  0xdbfd0af4fa34c323U, 0xaec5d317e0072fe4U, 0xc2ede73035270406U, 0xdf9734110635eebaU,
  0xa2e1213b1d562563U, 0x52eed47f492a1b13U, 0x1649c2e4927fd6f7U, 0xf4d1ced6bd0f24e0U,
  0xfc33eacfa85af9ceU, 0x14f5fea7c7d4cf08U, 0x200ad507e5e7e60dU, 0x3e35e4fe32f60dfaU,
  0xebe2551cf27b4f1U, 0xbb12f71f1623e2c3U, 0xed5073cca6f5042aU, 0xd18a165781f975d6U,
  0xae773cbdcd30de06U, 0x2225f6081449080fU, 0x3306a71d05d5bcd4U, 0xd8695951c5e320fcU,
  0x81b6f6c00bbd306fU, 0x184c3bac1113d1e9U, 0xf5c631ddf0362e26U, 0x5332970051de01c9U,
  0x1628241033e65025U, 0x1bf2111500df9a65U, 0x611903da4a082056U, 0x1839023c4c5095f6U,
  0xdaae3c9edaf94949U, 0xc85bef2b25c1b425U, 0xf8a718e4759f29b4U, 0x3225f615df42e9b7U,
  0xe5df1be3efdf04abU, 0xdd811bc930be0131U, 0x131fb6ed0efadb11U, 0x39cf08c2eef7ee20U,
  0x3ec2f8e4dc184f15U, 0x535c13723cf8969dU, 0x72a68102eee175c4U, 0xcd8bcc2bb5e70911U,
  0x2e5cd967f2cf0e4bU, 0x99acfa25ed1cf464U, 0x42b30903e48627a9U, 0x5f65d6a6e1d526c6U,
  0xb3e71095ba192c7fU, 0x58e0c9fcd70a03d7U, 0xcab006562547cb21U, 0xd703d761d9dd08fcU,
  0x42c4dc101e18480bU, 0x2143d6fbf30d43d8U, 0x46a05ab340eefce9U, 0xfddf3fe3dd33e75fU,
  0xe430360e120cd2e0U, 0x1b16f2e4025955c4U, 0x2dd881f9cb3f36ddU, 0xf1e30ec38eed813U,
  0x342ccdf50f48f850U, 0xd2cbfeeef3ad1615U, 0x39eab6b7093e442aU, 0xf5d4f6ca36b2f0c8U,
  0xf222dc29c03eea08U, 0xfb2bc317aad1e6e0U, 0xccad52906bd75910U, 0x36290af9491ba8ebU,
  0xe45b91eb2784c4bU, 0x81a41a47da25e928U, 0x38f64e530ba6fad8U, 0x90fa3055c7020b19U,
  0xcf614b1e371c04c9U, 0x2dc4cfe9fa430d4dU, 0x415c2dd757b4f5faU, 0x5e0b28f4cbf5fad1U,
  0xc83ea73cda1e491dU, 0xfa50c1dd9c1605ebU, 0xeb133b2565d17fa0U, 0xf79dc7361e5cf2fcU,
  0x2c0aca201542fb36U, 0x203c14b8a51efeb3U, 0xaed730c201adadf8U, 0x292c8182ebc8f0e3U,
  0x20cce2cbcac6d3caU, 0x13cdc3cfb714ed31U, 0xeadadf03e8c1b412U, 0x52490e1ecc3104acU,
  0x17bbf0e40858182dU, 0x5066dd7f41cf19ebU, 0x16c32b3c34dd25b7U, 0x5a59bbeff1d175cbU,
  0x420e011019c10fd0U, 0x37bb39d79d995237U, 0xcd0e704fde6afccU, 0xdcff7c829f1fd43U,
  0xb60014bf1d79cc39U, 0xc4750073b1c7fc1U, 0x2aabe64c46451003U, 0x3754db0e2c54fccbU,
  0x24380801de54bfe1U, 0x331ac6ec212b13e3U, 0x1deea6c3f8331b57U, 0xe72dfbf953e2f73fU,
  0xd353f24795f6e7cfU, 0x7fbc32790c0c96b1U, 0x4ebb17f3b6af4ed8U, 0xae2f31ebe63ada65U,
  0x519fc74e22ec1a2cU, 0x3405fe860f14073cU, 0x49e751df0a292d61U, 0x2c3f3cf6ecb2f0fcU,
  0x3451d23ee7021f3eU, 0x32dcbda3fc919d4U, 0x2edce3b720494300U, 0x55f913e2cee7cf27U,
  0xf90fb22fb8481824U, 0xa1e6db3a1ad11f17U, 0xcff023dbea30d9fcU, 0xcc0139814ee91bbeU,
  0x17e7f8a2e004f1d1U, 0x2b0d4d49f0bbedfaU, 0x520985ee36cf2442U, 0x2ed615e41e3d5842U,
  0x4fcc02e91921ce3dU, 0xc5ef035bd02723ecU, 0x2ee84b7fdce1a1d5U, 0x542ba5d5ebc2accU,
  0xb1d3e9c64c6157b9U, 0xb7f5ab6017f71c50U, 0xb54dcb0fd394e7b2U, 0xdd9df3207fd5e08aU,
  0xc21bf0476e3d46d2U, 0x152c5313721e302U, 0xf7f88bee2f66330eU, 0xdd62c12b21e017b0U,
  0x809fe02e6264bcaU, 0xefca6dd4c1f9a1eeU, 0x35fd7f2af2be09e1U, 0x18fb0ee5431e2e17U,
  0x192347c24bc6e5f5U, 0xf09e9606d9d532f8U, 0xd1ef0746e6b7c306U, 0x141198d30cdad19U,
  0xfcc1888e34b506d3U, 0x270e125213ec2d2cU, 0x9aefec70e0c1cda1U, 0xb9a9e26160c0f53U,
  0x19811e5a313fe519U, 0x97012a30d069ff9aU, 0x24ab3af120451850U, 0x1456133fc115053dU,
  0x1cfe8a11f0ed026U, 0x40274814e6a11821U, 0xe6852eb87fdd3726U, 0x7d325a053438b024U,
  0xccc7d712cf3cd43aU, 0xb55722eef13cbf3aU, 0xe744ef1804ebf311U, 0x53fa3600671edc9dU,
  0x91e43530d628d351U, 0xb72b61f51d02fac8U, 0xe0e47fcc4493051aU, 0xefb0c0bd34cc050aU,
  0xf961067fd2ca08f5U, 0x57070f9eb00a3141U, 0xa21d279431b6f960U, 0x3279c71b8c2e38faU,
  0x7f3ec1ffde3d4bc9U, 0xe63334beebdacaefU, 0x777550efc915442bU, 0xedcac829aa1ee1cbU,
  0xaabf341debe2e8e6U, 0xd6161b2d303adec7U, 0xd9c826aa2b20dc36U, 0xfabfd1b5ed19c90cU,
  0x240ddb76b8c01134U, 0xb2c2c21e4eaf12c9U, 0x4715d33c915ee11eU, 0xe9beda03f00dcdbcU,
  0x7623ee814fc41a7bU, 0x9167be19140f3838U, 0x1ecd2de00ff05b28U, 0xee2df83bd40b4642U,
  0xf2030b3aeee64a0eU, 0x8125f920ed3255c0U, 0xdd2deaa8e52a3325U, 0x5306f921aecfcedaU,
  0xebf1e1cae1133d0fU, 0x4126ea133941e511U, 0xcdc029f52b1a2adcU, 0x3de61a4903cae2fdU,
  0x33cda5a6d2c1b7b8U, 0xbf326e7df1743beU, 0xfef52b0ccb27dae2U, 0xef2be80fed5cfb5dU,
  0xf4c332f8fd124820U, 0xd422d91bd71bfa1eU, 0xde3629becfed270aU, 0x7ff3ebabd0d4e2e7U,
  0xdee6c2a5af4fd00aU, 0x3606012b2adfbc29U, 0xeace1e0f7f9cfcc6U, 0x52cfec480ddd0bffU,
  0xd703e22341053020U, 0x1ad0f5f2f5cc07faU, 0x47e11434ad0c11eeU, 0x239ffdc4244c05b4U,
  0x9bac15e25f05b20cU, 0xcbdb7f18c6fc1df9U, 0x3bf488412c2cfe05U, 0x3099b8a3c7a30e22U,
  0x1ebfc246474136dfU, 0xe3dfb0b9950cf48dU, 0xb45abe64344f1ef8U, 0xb74ef9e8d751550bU,
  0xb8e6cfffe1b4e803U, 0x81fafffa351cc41fU, 0x22ebe6e4a369da0eU, 0xe14d2fca0ace0706U,
  0x8b8eb0dd700f241U, 0x25ecf3dfcf4de4f7U, 0xbb21d64cb9fd23c2U, 0x77120f21d2cd281bU,
  0xe753a5ab560fbd0eU, 0x120b7fd30ceee155U, 0x1ac7e1d0318cebe6U, 0x133b781e10024421U,
  0x3538b0fbfdb2b1d4U, 0x1204c5f340c2e32aU, 0xece8295387b7d9fdU, 0x487fdce979b82b02U,
  0xff73bd02c34d901U, 0x224239c39164175dU, 0xeba7cffee5dc81b2U, 0x9fb14c31650e3ceU,
  0x34e816b4b8f7dfddU, 0x6eed0e38ba29dd3dU, 0xe0bea8ce2a66fb3bU, 0x4b6eef6cb470e0bU,
  0xc24f1be328e9e349U, 0x1eeeb4f11601e5bfU, 0xfdf004bc59f94414U, 0xd01925ffd918340aU,
  0x3aabec2cfb5efbd8U, 0xd0da0106fdfd5aefU, 0x7fbe27510b3ad342U, 0x4338d5f1fd3a1c19U,
  0xeb9611c9bdc56a1cU, 0x16ed635a8f81154aU, 0xdce7f2214eefb2f2U, 0x1fd0b0f0589a10e6U,
  0x16b025580bddc6e3U, 0x3ac4bb099e5d5fdU, 0xcdb8e8d526eb4bfbU, 0x455229a2d85da0c6U,
  0xbc90fde0cfa157fU, 0xf6333bfcbd2be11aU, 0x3f22a21e951324f9U, 0xd5e8f824caf632f5U,
  0x1f5bf30ef32c2af8U, 0xcdee145cb15dccbU, 0x385911074a1516eeU, 0xd01cdd5dc8ca0c0fU,
  0xd1d0def6ec04dec3U, 0xe53a31ce0508be44U, 0x262dafdd49460cebU, 0x34e1e481fac7d8e3U,
  0x1a0b0aa8ef1acaccU, 0xcf21abed02a4573fU, 0xb8515938fe7252d7U, 0xf26515b4cd47f20aU,
  0xe71ed8dbdacd0ce3U, 0x44a2dd0ac2aab808U, 0x604341b1426ee27U, 0xaf2fdda7101439e5U,
  0x5425cabad3b4e8fcU, 0xbd127ecfd3defe3U, 0x1f30d370481c51fU, 0x6b531ec21a19110eU,
  0xd4bdeaf63670f2aaU, 0x5f59eb0621db909fU, 0xa0f2c1f5d13c26f1U, 0x8e34dba8dfe2e892U,
  0xb11b3ae10f8dbe27U, 0xd18130e0e501cf39U, 0x3e427d5637a6bb65U, 0xdc28d9c90ced25bfU,
  0x40f907390228c3dcU, 0xe20fdf5aeeadc73dU, 0xf79ca5b53feb1ec5U, 0xd53ad70af31ad51cU,
  0x34d816c3a127ce22U, 0xf52831df5a093f49U, 0x6ff8e7d44681e4U, 0xf35f403233efbbc3U,
  0xc610dfdafa13f9c8U, 0x24f5d8e2cdf2522dU, 0xbfd5d750015a444eU, 0xe1bc96f81102bd03U,
  0x2faaaaee1f401e5bU, 0x32c409b72107cd87U, 0xf093e689dfd741bdU, 0x3881ce9accadacf1U,
  0x2e31f64414200629U, 0x32eeefd0002c23a6U, 0xddd2c5e0d2452f10U, 0x58a9093609f83efeU,
  0x2bddf0eadce0ebd6U, 0xf936da59fcc91edcU, 0x1345c708ff371a06U, 0xd9811bc1361cd634U,
  0x166cbec1cf41c01U, 0x35e3419b16c2fd0fU, 0x23f007e7d9f224b7U, 0xf8c55a13bda9132bU,
  0xe1fd8defd97d314U, 0xcff3d6f1ad00f8d6U, 0x2ca7f0befa9baf8U, 0x1c2f1bbe192cd4e8U,
  0x18eee99da402e3a8U, 0x4dc30d2c2115691aU, 0xdee6adfd69cfd63bU, 0x69279181072ae2e9U,
  0x1ce4dfcdaf36c3e9U, 0x5cfdcebb3c76b3fU, 0xe4d9dadbfc35d601U, 0xda0be90d092853f7U,
  0x9d32b50e47c8aff6U, 0xe520419e1ac0144dU, 0x15ebedd0cc6e5e58U, 0x3b1c0291b3dd9f19U,
  0x362eeadcf14b28deU, 0xc00ccc50dce72246U, 0x46ce0a2843cc7f9eU, 0xbb1bfb835e2020e4U,
  0xc5c6ad00003e19eaU, 0x83a4e9ddaf22c09U, 0xb291a8e1eef9cbd5U, 0xa3a43a9847ad21d5U,
  0x2ea82581f4ef4526U, 0x8de427b6ac4482d1U, 0xbfb2e6e870e5a4d9U, 0x5be0a103bd0bb365U,
  0xb214312c650232f7U, 0xeeea66e6aa63aedcU, 0xeaf3d1315aece52bU, 0xe0604ca03c52b539U,
  0xed86d6173f8d57deU, 0x61ec28e90625adc9U, 0xe1327f0549aad117U, 0xc4ed203043daa4e2U,
  0xc38f240af7e05807U, 0x4864e7e3c628b43aU, 0xf224107f3df2df3U, 0x15cacf46342b00U,
  0xf0a11cbb320e1fbeU, 0x4bb42c01fc37ad4dU, 0x2fc3c342132ad430U, 0x24c4afe0ede9ec81U,
  0xebfc0c52308124fcU, 0x61ff8edd341ac23U, 0xdd221f3983ebef16U, 0xdcfdd70ee9a4fbe4U,
  0xb2e3e425b61c4f45U, 0xd7b119e3ee3997eeU, 0x206d28d553e8fea9U, 0xcaab08c12de1e64bU,
  0xe308b5cdc81abaf8U, 0xc2d3d51308dd2afaU, 0xd00d3e1cfd192224U, 0x1ea8d41a57c323dfU,
  0x35c8f6fa4726ea11U, 0xe81bfcde51f434ddU, 0xe0ecfeebe0bcc747U, 0x7f0436bdc1e1fe03U,
  0xaeeb08a631442f5fU, 0xba0f331dd1edd9fdU, 0xcffeda97fbeb515U, 0x3cb851fea9a2f806U,
  0x3fb3f833cac5b99dU, 0x20b31beebc7deddU, 0x1e194ffd2ba93013U, 0x2d19ebc80b05ea9fU,
  0x17e0befdd7f431f0U, 0x1b3be63ba7e3b3d7U, 0x1eec00f9cf0f0649U, 0x160baa2e0204f2a9U,
  0xde2cbd4daec717bcU, 0xccd125a581162518U, 0xdf480bd6d057fcffU, 0x1f6fcc63cd7102dU,
  0xe4ebd7edc141ca57U, 0xb339432df2c78147U, 0xe6d758c4018fc297U, 0x13fecf44d0075ee2U,
  0xf5a42bbffbaef7aaU, 0x28c302b0d2e8f31fU, 0xf1f804b007ceeb19U, 0xd3df5f6b5dcc6f1U,
  0xeff20fc0f4f165a7U, 0xec1f2218f8d71ec9U, 0x1f5b10eedbc460cU, 0x8fadf7e50de91e00U,
  0xd2bc031feb5232f6U, 0xca9a934d8eb59bdU, 0x6af47f48305a0d18U, 0xa9ab22ffecbd02e4U,
  0xd9d5025915fdd115U, 0xe1c3ffbec33011bdU, 0x81d816d111c00234U, 0x47fcab9c04d4a5e6U,
  0x3e349e1319c42870U, 0x7df77ec2d6970237U, 0xf74aeb0eca21cefdU, 0xf0e9c63964b2e232U,
  0xe525e4b616d0f5c6U, 0xd7e9ce0a0f033503U, 0x3b6014a20052c25U, 0xd8361cc658d63d2eU,
  0x3caf18e0fd3622fdU, 0xda11470530f218f2U, 0x22363f13cd3ffa3eU, 0x7f443dd2ed2df6eeU,
  0xc27f1f10d8f11d26U, 0x34e055a2a2e8bcf0U, 0xea3ad82d35036992U, 0xf84c30d2ae11fefcU,
  0x5937d8e7a69ed746U, 0xed9bbffdb81492e8U, 0xf1b90cfb49f8d754U, 0xd3f69c8e0c270192U,
  0xe7fbf1bdd2e93251U, 0x32cbc21d51cb86dU, 0x1acd351414ffd42cU, 0xe506fb1614f34e13U,
  0xb1f4450201aeead4U, 0x322dae836dbb85eU, 0x53f716abeb2ed200U, 0x447f405ebeea08d3U,
  0xf6fdfa4f3a7f1432U, 0x6a38036ad2f32eb6U, 0x6f927e239bda5b4U, 0x5935da1be2113a0bU,
  0x5a4f115dadebffa6U, 0xe9c726d3909e1b5dU, 0xbb0dcdfb5d3a414U, 0x5352228552420e0cU,
  0xe419e50b2740694fU, 0xe0533b49a904e9d0U, 0xd42fd7fcefcbc39fU, 0x20e4bbffd0dd28bcU,
  0x3714297f0ab3d4a7U, 0xc7bb05e1d212eda6U, 0x43fc15ebf497e001U, 0x43643f043e09e2d0U,
  0x82bf376816c05106U, 0x3629baa97f28ba46U, 0x31bec7c33399701fU, 0x2cdffe2a4632e214U,
  0xe153ba962203ba8U, 0x2526c7e7b4a4f90aU, 0xc55455a7ca1615cdU, 0xd3b7e5c1def742f1U,
  0x2e1ba5f0ab002757U, 0x3ec2b0b9cd0d3b34U, 0xcee8e6bff93b2a00U, 0xff2df2f997c52fdbU,
  0xf016e01a00c0dbf2U, 0x45cec5fcf323b8fbU, 0xc9a2fc81d9ccb244U, 0xc4c320323651a740U,
  0x16070fc0056a6c2eU, 0xd02bd5e440af8af6U, 0xd8b5ee25d8b322c8U, 0xc21cff2fd0c11c3eU,
  0xd2cfe9101db3a9d9U, 0x1610d3b62507111fU, 0x281c8e1b92e456eU, 0x374349933413fdfU,
  0xcbe7e6e22daff52cU, 0xc208dae2e4d318eeU, 0xecb5fb038142d91dU, 0x31ded4efade20efeU,
  0xeedf10f4f1e22be0U, 0xffd3eee0f63d2de4U, 0xe51748d7cc1541ecU, 0x7ee4910c4070725U,
  0x1931b4ec2fcf15a8U, 0x1340db4ee323eb05U, 0xfd1fe7f588ff5052U, 0xe3c1e85119372aa9U,
  0xfba04cc41bf2e7d8U, 0xd5df33053a1a3004U, 0xfe4aafe8dcff2013U, 0x7fe029cde4e6f820U,
  0x6218b1f1d6e28949U, 0xb102147f1a09df22U, 0x50d4eeaac4d84cebU, 0x3c14c50c22293ab7U,
  0x3b60ebbfe7fd1f27U, 0xcddf229e8622634eU, 0xbcd2adae28314d2dU, 0x2907decce7416425U,
  0xd5fd11c80f0bbcfaU, 0x8b51751924c3939U, 0xc3c266ae538be4ccU, 0x2202a8146981321dU,
  0x3a3ace351f0cd3c9U, 0x62f2d0ab4609f2e6U, 0xb9cd00c578e7df1bU, 0x5cd7c8feb3b404fbU,
  0x2e2d3fe4c00ded10U, 0xa8819d3d0be429b1U, 0x40f40cbddd7cd54bU, 0x3ddedee6d84967f3U,
  0x5ec2d44ac5d3212fU, 0x33d012cff0c07eb5U, 0xf24bd567589d761dU, 0x69ce12e019df5e54U,
  0xe89803adfb0c8e5cU, 0x36d0faef15ad3473U, 0x1cf973dfe95ca318U, 0xe86f675f0e33ce27U,
  0xf02e7eb215f91cddU, 0x500ef07f5418f55aU, 0xc227f8fa3cc81d59U, 0xbeb6f8bd37b4d35eU,
  0x7f7434d364a3c24U, 0xe5980ab3e01f09bfU, 0xcf24dbb0c91573afU, 0xbd45153f9edbffe5U,
  0xf9d4e231c8a2a6e4U, 0x1f2e81165d422505U, 0x3e5a623422e2ccc9U, 0xe227d4a55afed6fdU,
  0xd8a79f811853bd30U, 0x76e0c90db3b3da93U, 0xa82ba70f110c4c50U, 0x562c2fba67034f12U,
  0xead1593a29312cddU, 0xd1112c3bd417d344U, 0x2d3a5dc819df683cU, 0xd41724562251db3cU,
  0xe2e2ee808dd1d05U, 0x1ddf06fca46af737U, 0xb8b6a8daccf74159U, 0x8109b6411704fedcU,
  0x29a31940f22ec23aU, 0xd3d5d0cc48c3e45cU, 0x1b3d27f0cd22136cU, 0x422c0ab53da0c203U,
  0x23c20d4123640aaaU, 0xf0691e6021d4c196U, 0x7462b183949eb00U, 0xe3ebfbb1cfef625eU,
  0x200ef306ecd7f236U, 0x319fc2bc864f1acdU, 0xaa81c80306b73411U, 0x37d8122cfbbdce9fU,
  0x36c7098f6063643eU, 0xb1f0acc1a8656ac4U, 0xc61a7f03da47f2a5U, 0x180b4bd9279b7b1bU,
  0x39e9137bcac55b49U, 0x19198d00105a28fbU, 0xd5c2ca37a4b2d01dU, 0xfb339c0956534cd8U,
  0x60bdcc4025e003eeU, 0xe6caacf9cf45d329U, 0x692ef8213a4e440aU, 0x2939e91ff30181cfU,
  0x2cc8436cadeb1bd8U, 0x24abd8a02940eb53U, 0xf960c6bf4f5ddefaU, 0x30e827235860d508U,
  0x2119230c6048ccc8U, 0x700ab0e643f34e3fU, 0x47af42f463d4cc02U, 0xe6cee901c050663dU,
  0xcaf128d11221233cU, 0x18e5d720fb1f193fU, 0x6481cf0d354bded1U, 0xd00b2fe9414bc728U,
  0xf1460822df2700c3U, 0x5adb2da3d22839d7U, 0x37b0afb014fe3cf2U, 0xfa4a8148ddd856f8U,
  0x17e6be4d59db1fdbU, 0x2db743639d05fbeaU, 0x1fbacae6cf3fe249U, 0xb6abfeb6fb31cdU,
  0x26e1fbb622f15cffU, 0x231910d0ec2a5550U, 0x18cf34cfee430f89U, 0xc750ffee1a0fc90bU,
  0xee9c152d2d7fd2e5U, 0xce0fa7f75650f6ddU, 0xde094ee4afc1f646U, 0x409aeba9fbe2e946U,
  0x3e2e1aa4281c3f50U, 0xe6b3f216220d4169U, 0x476ffcc75e1fe01aU, 0x135c06eeabfc3e81U,
  0xd33eb4c3aa5948cdU, 0xe52c18b7d626572aU, 0xc34a4b27ea410844U, 0x4ecbbe31ae3bfecU,
  0x20efffffc63U, 0x2f0000002afU, 0x5c8fffffb11U, 0xfffffe9a00000501U,
  0x57a0000018eU, 0xfffffe6afffffe7eU, 0x3eefffffeeaU, 0xfffff78300000108U,
  0xffffffde00000040U, 0x3ba0000039fU, 0xfffffdaefffffebfU, 0x4b70000011dU,
  0x21b00000231U, 0x3ae000005e9U, 0x30200000601U, 0xfffffec00000045cU,
  0x6260000016bU, 0x35dfffffd49U, 0xfffff889fffff950U, 0xfffffc8400000281U,
  0x188000002d3U, 0x40ffffffdd4U, 0xaf000000423U, 0xd1100000367U,
  0x93efffffd28U, 0xfffffa8900000647U, 0xffffff8500000315U, 0xc7afffff78dU,
  0x5c70000084eU, 0x1a60000016dU, 0x2a00000c7dU, 0x39c0000017eU,
  0x2f00000430U, 0x5eb000008c7U, 0x744fffff2cbU, 0xb02fffffd4fU,
  0xffffff9cfffffcddU, 0xffffff8afffffaa4U, 0x4a20000015bU, 0xffffff12fffffc88U,
  0xfffff9e30000083cU, 0x62b00000636U, 0xc000000119U, 0x45d00000793U,
  0x38afffffc91U, 0x65efffffb57U, 0x9bcfffffe9dU, 0x5acfffffeb7U,
  0xc6000009a7U, 0x74cffffffb9U, 0x2c7fffffea4U, 0xfffffc0a00000011U,
  0xe7b000001e8U, 0x3be0000016fU, 0xfffffd42000003e4U, 0xfffffebb0000011bU,
  0xfffffac8fffffbb5U, 0xfffffe54fffffc6fU, 0x30ffffffde1U, 0x3b6ffffff07U,
  0x3b400000321U, 0xfffffba4000002d6U, 0xfffffdc70000009eU, 0x66e000007fcU,
  0xca7ded878fb5383eU, 0x7f965e15e1c6e4b3U, 0x190b0a9c4ba7f553U, 0xcec77f964f0141beU,
  0x974f811e2510ba81U, 0xf1631696fe7fdc66U, 0x674e24f7aa4f38deU, 0x819038e9af155d81U,
  0x10e4adfe854bc581U, 0x81276f2481bc541bU, 0x46e418367f5809f7U, 0x7fd536bbee1ad94aU,
  0xa407ff981eb7fcbU, 0x7ffa367fd116fc50U, 0xb928654e7f35a024U, 0x4338ee56e97f8161U,
  0xda7abbb3088a7f54U, 0x1c0075ecb7abae81U, 0x2a815d7fd6d42eeaU, 0x3aec3cdf39322b07U,
  0xe7f68ed47ff79946U, 0x5b7f52bf8136770cU, 0x7f247e9a300f8181U, 0xb9842823f1829897U,
  0x137ff5dd0e1f0562U, 0x87003b18a3d97088U, 0x2ea6814af83e85e1U, 0x6861fe818118dc4aU,
  0xc5223fb8bda3f2d5U, 0x2c3edef80bf9817fU, 0xb9337f7f743919c4U, 0x7f1e1963a35fe40dU,
  0xbf22b2ff3c0f6124U, 0x2c521e0e11a09c92U, 0xfb37fb6ee99d500U, 0x1f1d6f812f9759cfU,
  0xe3e42fc902e50061U, 0x15503f171bbaf7eeU, 0x7fde2bbd470fc6e2U, 0xd5814cec8a819bceU,
  0x81147fd1d76901daU, 0x61f0c4733a62c51U, 0x68189fe0e546a823U, 0x4653aa8caa175f01U,
  0x7fcedd1752877e81U, 0xc92956f0264ff3f7U, 0xb9106e99054921e7U, 0xec7f517f1b41d055U,
  0x9ff151dc8106247fU, 0x40812160429e9ed2U, 0x764b15c1f3dfda5U, 0xb18534d37f2e09c6U,
  0xb638f347b59581aaU, 0xde29655ab0c67f0fU, 0x297f12b2ec7f96ceU, 0x25ec5566b7cf3398U,
  0xd1d5e68196647ff1U, 0xe2ee139108787f33U, 0x74c44d4e6d7faa3eU, 0xf9f40fdcaa49b91fU,
  0xb981734f9881b254U, 0x2ac5d0403aebf735U, 0x812fdc22f6eae500U, 0x4ef8ef37811f1a0dU,
  0x811b0be4e1810954U, 0x44c540ee678181bcU, 0x7f1d07cf42ef7f81U, 0xb6bac7df21a24109U,
  0x813ec55ae2939fd2U, 0x7f5f5d1e91e962d2U, 0x3fe6ddb8be1d8bfcU, 0x76197f7fb5e3f907U,
  0xaa30c1550055680cU, 0x5381b3f63b585681U, 0x7faf964164540e7fU, 0xe2f38121e47f813eU,
  0xd8317e95e82151U, 0xcc8312aa6a24982cU, 0xc57ae77e1e7f32abU, 0xa2d7f97bdd23a3aU,
  0x2fda81a135c4e109U, 0x22e2c406dd2bcd4U, 0x14d06d71749c7610U, 0x6a81e9c130aca037U,
  0x27f507f875e20902U, 0x7d72157fb6a93328U, 0x8cefa8159d33651U, 0x19ef08298109810fU,
  0xb04e05de087fa85dU, 0x7eb58e2832e26bceU, 0x5cd143fdf2509663U, 0x3e1b9b00d25d27fbU,
  0x1cf02f7f00e97ed8U, 0xd81f0af6e54a40eU, 0x848101b825023e8fU, 0x3f371ac0cbe12266U,
  0x828150b105f7572dU, 0x7e8ec871c9e5ee0dU, 0x6c7502863f7aef02U, 0x8161cd2d51638430U,
  0xac7feb18c0dc2521U, 0xba6106c8cf004f7fU, 0x35f645ef2f92316U, 0x9950422defc0affU,
  0x3ddc46e8b1667531U, 0x74da8181da7f2672U, 0x4dccc7b5621ff340U, 0x48d88f29c9015a7fU,
  0xd9f4f1514838506U, 0x16af8d26387f1e3dU, 0xf1308ea3be7b8104U, 0x18d1fadc16430857U,
  0xce08e0813e81e0e9U, 0xd9d5817f16d79743U, 0x653be257f9087d57U, 0xcc5c7196e7f8159U,
  0xcc30147fe881f8d4U, 0x15277f571fe132b1U, 0xea70bf188170f637U, 0x60123d64ee99365dU,
  0xa23fe4958161ff59U, 0x2d9de6b14701e605U, 0x50813ec8fb67dd79U, 0xbf81fbe5a139d4f9U,
  0x25af623ef1f697baU, 0xd79281cd7ff7231bU, 0x95aa9e3a3c0fbbf5U, 0x100d1f121d0fd7fU,
  0x1fd863c5f81df90fU, 0xaa5db66f7ffdf003U, 0xf0e817957f7f2a39U, 0x341cf3121c29817fU,
  0x275224f9c1bce121U, 0x75393970fec1f116U, 0x2060814bbcd5fae9U, 0x45a94241dff02c4fU,
  0xcbd1beb597edb6d6U, 0x8bf088d1381a30deU, 0x5cfe99811b3c8166U, 0xa38efd0c99d1f127U,
  0x1a9f0ec8678520bcU, 0x10f321e4613fcc28U, 0xddc816a14d30f381U, 0x5638e1e9e6972548U,
  0xfffffee0ffffff3fU, 0xffffff8700000095U, 0x4e00000113U, 0xffffffee00000018U,
  0x990000001cU, 0x6b0000003bU, 0xffffff3e0000002fU, 0xffffff56ffffffa1U,
  0x36fffffffaU, 0xffffffa2ffffff2dU, 0x8200000017U, 0xfffffff600000035U,
  0xffffff4d00000022U, 0xffffffdf0000009dU, 0xffffff75ffffffe5U, 0xffffff9effffffd5U,
  0x5400000054U, 0x2f000000faU, 0x1c00000019U, 0xffffffaeffffff5dU,
  0xfffffffbffffffb2U, 0xffffff8200000051U, 0xffffff90000000b4U, 0xffffffa9000000bcU,
  0xffffff5fffffff61U, 0xffffffc200000080U, 0x66ffffffbaU, 0xffffffcc00000006U,
  0x590000005eU, 0x4fffffe9aU, 0x1fffffff1bU, 0xffffff93fffffeedU,
  0xfffffe4dffffff77U, 0x290000007dU, 0x3bffffff6aU, 0xe9ffffffd1U,
  0x6900000063U, 0xffffffe3000000b1U, 0x220000005dU, 0xffffffac00000023U,
  0xc50000009aU, 0xe00000013U, 0xffffff350000008dU, 0xfffffed500000005U,
  0xffffff4fffffffdcU, 0xffffff66ffffffadU, 0xffffff86fffffff3U, 0x22ffffffd6U,
  0x1200000052U, 0xffffffe5000001daU, 0xffffff03ffffffe5U, 0xffffff48ffffffceU,
  0xffffff7affffff67U, 0x4d000000e7U, 0x470000002aU, 0xffffffd7ffffffafU,
  0xe000000f0U, 0x81ffffffb9U, 0xffffffbaffffff4aU, 0xffffffdbffffffd1U,
  0xffffff9600000007U, 0xa9fffffffaU, 0xd6fffffffaU, 0xffffff8b00000006U,
  0x40dfdecfe0f8f01fU, 0x41e6e6bd020fe4dcU, 0xcaee0fd82d159939U, 0xd3012613d8f848faU,
  0xf3d918c1cdaf3917U, 0xdb0f2ee129d6c735U, 0xd7340a22ef3e0235U, 0xe53a243526f32fd9U,
  0xcdf349c681e4ed0aU, 0xe52d48c0f6da1723U, 0x210fe132240a3f1eU, 0xe106d21846e71b11U,
  0xf1c4b3fffef8e1e3U, 0xfe15fe3bf9002f43U, 0xc9f4decdf4cfbb00U, 0x41ea231822e5ccedU,
  0x1506d6dd04121a01U, 0xedd42e3307dcdb47U, 0x16080d221f48fde7U, 0xdc39c4503033d9e4U,
  0xddfc052a02402edeU, 0xc4c8dbfdc81becfbU, 0xfcdef5bc0bc9d6e1U, 0xe23aecefb424133bU,
  0x240d00c837e306e0U, 0xf2a61010b34bd403U, 0x454fce1ccf27eaf5U, 0xfbeebce60c47e738U,
  0xb8fabbf04b1b024aU, 0xf826ccf2982c05ffU, 0xe41dd02481263bb8U, 0x1131fb3416d7dd1dU,
  0xe23029dee24ff7fcU, 0x1f2204d305e9cd2eU, 0x3b281cf822e35a22U, 0x1cffb8de251926fbU,
  0xcaf6e3122a13e72fU, 0xd0d3a0eb1abde9c8U, 0xb60f12d3d3e2eee6U, 0x453dd6eddb07dd38U,
  0x6ed19eff53204c8U, 0xb60400e0bc29b6f3U, 0xedf0f4fac2b1d80aU, 0xba0fd924e42613dfU,
  0x8130a011af816f0U, 0xb1d5218133fdd2cbU, 0x13271f153e1df319U, 0xe3103e138fb350cU,
  0x1af4e00d79a738d6U, 0x106d34530a22373bU, 0xa534a320d8b0fdeaU, 0x92e1ca544ab22c14U,
  0x10dd31cffc9c0abcU, 0xd913c6f53c02ee1bU, 0x7d41d0b2e1d20d6U, 0xa33608065855a799U,
  0x3fb8119f7cad3d9U, 0xfbb33bd10fcb20e0U, 0x4c0e3dc774eb38f3U, 0xb9a4ea32ecc2f7d6U,
  0xd5ee380ac6baf341U, 0x37da2e23b1eed6eaU, 0x261f25da241aba1cU, 0x204d7cef20de038U,
  0xf610da43241047cfU, 0xf4b6fbdae50b4f18U, 0xd954e2dd02161d25U, 0x624b92c3c4ef151U,
  0x29da0eacc33e2a35U, 0x2a134d09e031b2bcU, 0x1d118ff49ecdeb4bU, 0xdedff72dcea81939U,
  0x1c2bebee29fcd32fU, 0xe912dfcde3e63d3fU, 0xf32831f6101b0f03U, 0xacc7cf50e218ce09U,
  0xd810ce20800fc18U, 0xd50318471a1416e6U, 0xa9d6deb4d1c732c4U, 0xe81ef5baf22ed909U,
  0x49fec6bc1be8fc91U, 0xd9e70ceaed4fd90eU, 0xe3a0fbf5539edce2U, 0x4f1a6abc5501bf33U,
  0xf8944d470825fca0U, 0x8119a61ffec6b707U, 0x3b2a55d6e803381bU, 0xe3d87cf93dee38faU,
  0xe35941d1f6d4021eU, 0x2d4db106d89fd845U, 0x2ae4d41235fe2e47U, 0x44c441269bd3c91dU,
  0x12d323ca0f03deffU, 0xe9b6d42d347bd9bcU, 0x459ebde5e6b80de1U, 0x14b710020cb1382fU,
  0x480ef015d4d22dfaU, 0xfc222a4581ff07dbU, 0x32eef40bf232e0efU, 0xf2d3ee14f910f545U,
  0x45b729312a40050aU, 0xb35dc3e0b2efa22U, 0xc713e2bac2300f18U, 0xd6dbc0271b26eb2cU,
  0x23bcfb1cece3e202U, 0x1ae0e3cc01ecfff9U, 0x25f604cd32a8dae2U, 0x31274afe34cf0d06U,
  0xd2d2f3f3cce6fcc8U, 0x1d003dcb1f34ccd6U, 0x5bf521f133c20627U, 0xfc4c37f8072302f5U,
  0xedbb28d3f5e51624U, 0xe405b5fcb9d6ff30U, 0x3050fb0e9b43d4d3U, 0xf9204d0df50714d7U,
  0x22c45a0b4b3ebcddU, 0x142e01f748384147U, 0xa3f83e04324161a3U, 0x81d720d90058eacdU,
  0x2525143e16cf1f08U, 0x36b53401e943c90eU, 0x9d8ffd1ed0cfa02U, 0xd7cdf8353f061bb8U,
  0xbcb0dad22eff18f4U, 0x3ef1f0ff8404441eU, 0x4428fa48e616f6e9U, 0x1e02ecfb01ed1ce4U,
  0x2a31d41a2fe850afU, 0xac6b47f1c67d5cU, 0xb55a08e3ba2cb3b2U, 0x7ff0d6e33718db36U,
  0xeeed23c84163fccaU, 0x2df949f4e6312800U, 0x243f2eabd3eed0d5U, 0xdeebf6223ad8ded7U,
  0xd22012d82a18cff6U, 0xed20de67df3df3fdU, 0xb44322421441f7f2U, 0x9a1b3cf1fbcdef46U,
  0xc30bbb2b01eed4b2U, 0xc9f9383a1cd1f339U, 0x11304e3116fb133dU, 0xf467496b3cf8cb0aU,
  0xb4eb1e5869d03718U, 0x4b3e4a595d5acc16U, 0xbe0e0bddacc35217U, 0xd9ec472ff03d460eU,
  0xce861c12d612dad8U, 0xd4695a1013c22df9U, 0x81ffd3031bc9b2c7U, 0x4da1015bdd24e97aU,
  0x34ccd91e150fca06U, 0xb62ba90db0b63fb0U, 0xdb3301eed738e29aU, 0x623d7295038efb4U,
  0x2e9cc2b312e6b9f5U, 0x210db7eff4e74e38U, 0x5219890d4d28b9d7U, 0x3bd044bb4e78c09dU,
  0x5dbec0a2b1412bcU, 0x240ba9dae55ffd3cU, 0x2a10e4e1b93d0a4fU, 0xf03f1611f0f2370cU,
  0x30e5f741ea284604U, 0xdbf17bc210fbae3U, 0x1830d1fcf0fc2019U, 0x53da3e4f0ee3e7eU,
  0xf0e4aa04d8f4d1e7U, 0xd4f0fbfefc1dfde9U, 0xc9cf14ecd83e395eU, 0xfa09aadcb98119d1U,
  0x26ffe3105fd4304dU, 0xf85530cac5350712U, 0x503d933bfd2d33e9U, 0x2e227f7dfae1c09U,
  0xc80e52cd3a1e4ca8U, 0xc352a2d0ea05830U, 0xe03a281e07f9e6d9U, 0x318b210825ddb0f8U,
  0xd924da62dfd88137U, 0x5e502393d12a0253U, 0x5813ddb5a9482516U, 0x4f361de3a04e654eU,
  0xc6d7d4a52fdcf3c0U, 0xc7d7b858f937bbdcU, 0x6841c0152a08bbe3U, 0xed1daf31432209c5U,
  0xf0d52d492eed3a09U, 0x36e8dff449d9e544U, 0x9e36b83bf0e1b6f4U, 0x9910eaffec2655fcU,
  0xfe17b0b954098fd5U, 0xb134bdf044d95305U, 0xc43c96fcc80025bcU, 0x2404fc17f208c4e4U,
  0xbae3bbe1281038a1U, 0x55ee0c8c1829bc58U, 0xf4fc23ff0f3148f1U, 0x7fe3f5a73bbbeec1U,
  0xfb3a010adb4dd1b8U, 0xec11b3eba5f44704U, 0x21bfa0d630d3fc7dU, 0xf00556e09de01ec8U,
  0x27263b00ff77ef21U, 0x49dfdc2a682ae786U, 0x30ecb0bffb2e381eU, 0x5733ac16ddab2ae4U,
  0xcfffed1e7243709U, 0x24fceefde41a38f1U, 0x21ddbc2249e8d409U, 0xfe08f1d6e6febdeeU,
  0x110dd63eedcef8c1U, 0xc3c906e6d70b17f4U, 0xafddcf11305e514U, 0xce7f15eae7fbda25U,
  0x27d91502dde708eaU, 0x2d0516f5f9282424U, 0xf10c0fdfdaf645d2U, 0xb9fd16d8d911cdfaU,
  0xf7f7cf1e04170f01U, 0xcef4d9d0befc071fU, 0xfd07e51cc2cb1fbfU, 0x1e31eb2108fb17f6U,
  0xded600181a4730d0U, 0x30f47db287fdb43U, 0x27fac80b262d30dfU, 0xdeed9e9161eabcfU,
  0xdae1f4f909f04007U, 0x171633f4d7e234e8U, 0xe1efc091ebbe7e0U, 0x729252de8d7fe22U,
  0xdf2d2cee3ec113cdU, 0x150c22d4031af50fU, 0xdbf131f619ff06ceU, 0xce070737e903e5ccU,
  0xff0bb6c200121b35U, 0x6cdede8b4f108daU, 0xcd410050b34e5e5U, 0x23201519fe241adaU,
  0xb2e8cd1d36884de6U, 0xe0e25bc4af1755d5U, 0x18b2dbb9b4ebc6daU, 0xeb11c8193e45153fU,
  0x430b1214c2c31e1eU, 0xc916021edadd0481U, 0x53bf6416c8e1f718U, 0xd0d8fa11d7dcc6edU,
  0x1f093c5f213448d5U, 0x88c52c3250d30822U, 0xf4583c154e5c28bcU, 0xf329e5eecf1a3c96U,
  0xe1b0edf4c8c91b35U, 0xcf0d7f424eee8deU, 0xd22dd504c9371b07U, 0xc7fe0fa20a1bf233U,
  0xf43c3b05c026e0b6U, 0x20d944c11a4fc43bU, 0xd024c5bbd6f0bb34U, 0x50553e49b0bfd05U,
  0x1f51ff0c38c9bc03U, 0xfa173d10cf54fee5U, 0x27a014e8e24d5d28U, 0xe9e911fdec2a0d12U,
  0xe1beefda03e826e4U, 0x1fdfcdb7d0c2c620U, 0x59ddec6d83343dd7U, 0x11f5094e2cc757daU,
  0xdf03e71820f9f43cU, 0x3b021a1413e5d0dbU, 0x72d810dd605e501U, 0x57fecdce4cdd4955U,
  0xd1a1b11138befb10U, 0x5252d92e19c8aa07U, 0xdb19daddd606df03U, 0x30d9e0493fb6ccedU,
  0xb0ec22f5f60fdb1dU, 0x3fae6e9f8409b3eU, 0x7f28d95a1a44d0cfU, 0xd2d80215fcced3d9U,
  0xd5500b32fc3cfce3U, 0x1e36fac350f5f52fU, 0xb4042d124adebceU, 0x1e1f334ff4fc23fdU,
  0xcebc36e1c9dd60e5U, 0x48b810e2e8f4f6e4U, 0x2c38c20ed4b9c38cU, 0xac33f90bbb0a0530U,
  0xa60d2b2207c5297fU, 0x3007c5dcc3d6dfc1U, 0xf131d108e4f3ef0eU, 0x16efc5d286d44eb2U,
  0xa5fcc8bc180c0cd9U, 0x2894c7eb4ff92413U, 0xfe2bcca7fc07fb10U, 0x15443529d3e31417U,
  0xe50b3adcf027f82eU, 0x230a020ce21a4a26U, 0x59d83148083725d1U, 0x1b41a4fc3e46f026U,
  0x104fe42412ae4d69U, 0x141f25e2d11f5b2eU, 0xde23ba1fcd443624U, 0xe1ecf94836421befU,
  0x35f41af8ffc9d1f0U, 0xf66928ba3b0d3ebdU, 0xd07c51416ebcba7U, 0xce21e843cee9ec79U,
  0x56246735bb525615U, 0xe71a003ab4fabe34U, 0xdc933f31e2bfba38U, 0x38db9bd703d8eea0U,
  0x2e27056235fe4a2bU, 0xabd024a4f2d3c09aU, 0x1802c7813f02cb55U, 0x4f18f0344d852a11U,
  0x9ee560a99733b3f0U, 0x26190769e4e53d0fU, 0xb50dfbed271cdeeeU, 0xc61eb02d68fb902bU,
  0xe1ec242d013fcdc8U, 0xe8050105c90714b5U, 0x32e1c1ef1b35af09U, 0x26e30e38a2c907aaU,
  0x46f6efd32c06cee5U, 0x21f8b60b1e044a35U, 0xe520573e24dbb5feU, 0xfd4143436f1602c2U,
  0xd5ee12e2f39b32d7U, 0xd3050a19ef20e119U, 0xecf3d123ffe63c62U, 0x4d321e3baedb37d8U,
  0x457fb8af13f231d0U, 0xf319d9d40912e2d0U, 0x28e650fc4fd153c6U, 0xe41ec5ef30090cfdU,
  0xed45a0ae2da0ef1U, 0x960c7fdef4e8ecfeU, 0xfdd51ca802e99d06U, 0xd8aa34f9a438bc3cU,
  0xe500e09827f7c430U, 0x2a052bd9e8c14ac1U, 0xcc2a322008e31a5dU, 0x34018915bd0417f5U,
  0x6304136641090c3aU, 0xae3245f80fffabc1U, 0xff6fc47853bf60bU, 0xe1beda23bf9e1fa5U,
  0xfe2f05e5d7dae67aU, 0xcafa49f2e5e8c008U, 0xefb769eef9923adfU, 0xa3f11aecf5c3aecbU,
  0xdd7ff4e229af5ebaU, 0x9f08231ba725e136U, 0xd7e4e9c511b3080dU, 0x12ed1fdd4b380debU,
  0xf9f8f7cd051f69e0U, 0xd508c90207390ec2U, 0x18ba1af0dca9e4e8U, 0xe1b1d03de3e041eU,
  0x27adf4e5c90e333cU, 0xf5c41ac7b1f1d907U, 0xf3c746161ed62c39U, 0xf7d24738ed1c2fb4U,
  0x34cba0b600bbb716U, 0x63a520c16f2bcdcU, 0xf0ea2bdec2d8c8edU, 0x3e20fbf7d94eb5fbU,
  0x5341b9462828fbc9U, 0xc6c8bdf8f4813143U, 0xc0dbc813d4c9f0f2U, 0xd328e7f618cfecbcU,
  0xd62b592cfcf0a433U, 0xdce034f46f20caeeU, 0xf3eb02bb4cf2a63cU, 0xe1301d405cd7f5c1U,
  0x92b5beeff436f62eU, 0x1314d7efe6320243U, 0x1e2afa02e1fb2e64U, 0xd2215b2e309cf0eU,
  0xff66db0bb6f5e4fcU, 0x11fadc727cfbccbU, 0x314ec24bf9133b24U, 0x40edd3fac852279eU,
  0x3de3c9e525eb1aecU, 0xc428e90e2becc407U, 0x1311f4f4efe4040aU, 0x10dc130ddae4d0beU,
  0x17fa1c190c0045e1U, 0x200cd2178071ff5U, 0x81f3b8a6d6d8c13aU, 0xff17d5e7fa58c6f3U,
  0xcbe7e834fb2eb12eU, 0x2bae08d716cd43d6U, 0x14f0e608b6dabd0cU, 0xd21905e8e7e9d3ecU,
  0x81dda16f70dfd2fU, 0x1dee0202f1d11307U, 0x5313e3d9073ae728U, 0x48b7f5210ae431b8U,
  0xcd29edc96606d1c5U, 0xb8016602c810ffcbU, 0x51211c101c61be3U, 0xc72655e552c21fdeU,
  0x1d747f1f19111bbcU, 0x1e32d416dfaa2900U, 0x98f5c90f192de81bU, 0x65c439a31811ece6U,
  0x669838c5252bf465U, 0xbcf2514dcc96c421U, 0x12b61609fdddde68U, 0x27c137eba9f9d6c8U,
  0x31e5da120fbfcbc4U, 0x134e1a39cf02f734U, 0xeee93b2914bf712bU, 0x1f20bcb3d946baa1U,
  0x46f03e510af8f707U, 0xbdbe00e4db45fdf3U, 0x1c14bcd3d919382eU, 0xbedb20e2e2d8f4e6U,
  0xdd06fbddb8ee27ccU, 0xe5b104fe141ad6b6U, 0x22020dafda3203f3U, 0x7f25eaf1c9f4ea2fU,
  0xd6e4be1307fab30fU, 0xbe2bca6c10bf0029U, 0x1d08f959ce4f0758U, 0x8c511dcd43230c3U,
  0x3156da0f4fe30d05U, 0xc63f9ffe0bffcbU, 0xe2d5c0bff0b6e5feU, 0x51bd28b7e811d1d5U,
  0xd42aea7797b5e507U, 0xc3abd7bdcddce8b5U, 0xfe19fb3f3c0322dbU, 0x3ec4dee10aab12f0U,
  0xc4d84018c4e6be29U, 0x43309b2c27371f03U, 0xf54666f27294c766U, 0x1cb8b24d610dd40fU,
  0xc7ad34b77f5c4df3U, 0x6ca8d25c4f20cdfU, 0x3e2a1f32a0d83a5eU, 0x1dec2659a51340d9U,
  0x2165c4af4eb5fbc4U, 0xfdfa01ad1d3718c9U, 0xc635e19dc5de184fU, 0xdc02ba2d0c3af3d4U,
  0xf7c6170e3c3252dbU, 0xadd1b43ed116369cU, 0xc534cbe3fdee96beU, 0x5101220514813dadU,
  0x3a9e55e4b228ac5dU, 0xd5c2403af7c34accU, 0x99070408e545301bU, 0xfc2321f03acbe8b9U,
  0xc4d418ad47f8cbc7U, 0xbfcaeb42a6abe898U, 0xbff0e9edda0652e8U, 0xd20afcbc4245cd82U,
  0xe7fe3ec0a8260d61U, 0x105daeb14c9c2a8U, 0x119385f43bcc637U, 0xf5a4d05c0c6e904U,
  0x3e9d2fb3d4fe0aU, 0x5200f932bd91094fU, 0xea49e22d0230a012U, 0xf2cad277c33a0e03U,
  0x28d3170fead26306U, 0xfac731d301cf6342U, 0x1d46a6c25742b22aU, 0x8c07d630da3147e8U,
  0xc7883a505801f1bfU, 0xd3eb050c1c5aa508U, 0x2836e30e2735f81eU, 0xb330650a1f7fba91U,
  0x2c189fa2b9bb212U, 0xacc12e63f8d2ae6U, 0xd836ff109aa1aa0bU, 0xf5efe904793fb10cU,
  0x1edbcb1111f43334U, 0xf706d8ed0b1df028U, 0xbf08cedcd32809edU, 0xf2cd07f5d3df23f6U,
  0xcc1ac1c508d1f90aU, 0x2dadc81d13df2dd2U, 0x2e182dfd130110f2U, 0xe61f3f31de1527U,
  0xf04506e14ac21017U, 0xcd7fbd0bb5ed31f2U, 0x7f34723fbe9fbd1U, 0xee02551340ded3bfU,
  0xe31ffad303cdf701U, 0x5b72016321846edU, 0xc709f71513e8d30bU, 0xdef8cd1aea16dfd5U,
  0x58a2514eb6952fd5U, 0x98ae251e465217d4U, 0xacde262fff9ac60eU, 0x180f022e6315ed36U,
  0xfd6d8af18d42d2fU, 0x34d913ebc645a2e0U, 0xe51039aed4c717e5U, 0x2c22372dd12fd12bU,
  0xc7ded947c04f25c5U, 0xd650f62b154419fcU, 0x365de3e5d4d2fcd1U, 0xc01fec5ed4c111b5U,
  0xdad2eb2feb1ac000U, 0x4040e9e216e281a8U, 0xa1cc306d4f23a2fU, 0x238bd0d8c12e1962U,
  0x5045ff0b4cf934a9U, 0xd3275da9f6d80151U, 0xeb3fd619ea441ef2U, 0x590e3ef6edbc228cU,
  0x64270a06e9f40e1fU, 0x3b5972c32d3a2620U, 0xd6e49a8107fd1507U, 0xc1f326c206056944U,
  0xa047fb119a300a1fU, 0x1fc2324cdfc59e23U, 0xad5000d2bcb73e24U, 0x4048aa1130c3131eU,
  0xa642be6e919e31bU, 0xef51b3c9bf444deeU, 0x7f0d0b92dc231e11U, 0x51edd8d34acb20ceU,
  0x13fd1a00f83f0ed8U, 0x130f033fe3240aebU, 0x2ce729dce5d80a37U, 0x1e20a270d1218b1U,
  0x2fc61808ccd10affU, 0xe719b52a05181f02U, 0x8113df051f291427U, 0xf8cffad6ebd51c0eU,
  0x27fad3ee1ed0fde4U, 0xc4fc2b111ad322d7U, 0xd3bdf80505d801fcU, 0x1cde0ffa23e3dcdeU,
  0x101e0820433400bdU, 0x32105e730e71dc9U, 0x5ad4f6fe23e7d019U, 0x1f121ae929e8d2d1U,
  0x120bd1abb9b80ba3U, 0x123be215dc281bdfU, 0xe639f32aa2f51a3eU, 0x3e806fe3e32f833U,
  0x14af20ab15372138U, 0xa7cb0ff638c5cab3U, 0xbbdeede024b723feU, 0x5aebeacab2c0936U,
  0x7fa5f30c222c0214U, 0x4252edf9e4dc4bcbU, 0x48dcfdfbdabfc52aU, 0xf810f6259ef223fdU,
  0xfec22d4b2df5fcfdU, 0x13f006f20feaf2f1U, 0x15f791d71fd7a5dbU, 0xd70b2ac50332ea3eU,
  0xad8f20806f8fcbeU, 0x457d2b1f6cc45c4U, 0x16d519c800dfddc0U, 0x133efd33fff41eaaU,
  0x10b757a93a14e4ceU, 0x201518acff3dd0e9U, 0xd4fb25dd0ccffe54U, 0xa9e2b10b4705c2a7U,
  0xfad14d58e30e9ecfU, 0xdf1918440af0f4b0U, 0xa6e2f9f5c60a10e8U, 0xdc2bdba345c0fd00U,
  0xc54412c0b749dfa0U, 0xcfff1c81433220f0U, 0x23fe2af216c1e11fU, 0x1ceae83156edcb26U,
  0x37ffbb4e2a3c15afU, 0x23f128c022177f10U, 0x9e3bd6f4d734c2d0U, 0x68480e0b26ffd4ffU,
  0x16415f0ae2d135e9U, 0x271561c65e479558U, 0x473c1ed955f5be01U, 0x8c5d060fb4cc6e5U,
  0xb11eec4cafd70aacU, 0x33030ed5fc8585f7U, 0x912e24180506d2caU, 0x8a33acb435995b1cU,
  0xfcf741ad2317fdaaU, 0xe71c21f0e0b2fa26U, 0xe9dcfbed2ad87d36U, 0x5db9eb2f09ac04fbU,
  0xd6427c0f34fc4b5U, 0xf4e6c1bbd2fd5832U, 0x44725ecbacdcdc8U, 0x26b5e7083722d537U,
  0xdaf2f2d7eff6403cU, 0x2ab1030b3f2afe20U, 0x11ccabdf5bd11b2fU, 0x142f301f0b233fU,
  0xde1dc9ad01084f1aU, 0x2f28b11a58e4283aU, 0xf232a2ebfd0cfb89U, 0xf827f10a18e6e58eU,
  0xdacee1eb192718d5U, 0x3b1c7f3cc2d3bb53U, 0x99dd18c6bb36c903U, 0x1ef845dcc341de4fU,
  0x2bb01201edbfca12U, 0xe739001bebfbc0b7U, 0xba142c22e61f39e6U, 0x42cce0d82ef318efU,
  0x6426f1d3052e23cbU, 0xd2019cee1d15c1e8U, 0xb704030926381affU, 0x13dce1aeece9edbfU,
  0xec28094014caf316U, 0x1111470fd1e502c2U, 0xecadf5cd40812c30U, 0xbdf0a37cc1d270aU,
  0xbc044329a0652124U, 0x432a19e0dddee8a2U, 0x4d34d4f843115accU, 0xf0150f2c1b1d35e2U,
  0xc315d335d9d43b00U, 0xdf11c71af140f90eU, 0xd3dc41f0def438beU, 0x15de1616f70d0e11U,
  0x2a93e1ce3f061be5U, 0xf9d881ec26fe00daU, 0xd2c626de34d3cb11U, 0xdbdee3f8403e1415U,
  0xe6e5f7db50e8c00aU, 0xcc2acc0edcf0e2f5U, 0x2cd73e41e4031d10U, 0x41082f10ac09b3d8U,
  0xc9e508e5c4c1e7c9U, 0x3cbd27ed400f1b0cU, 0xdbbcc83d1af5df05U, 0x2b4ada12181610deU,
  0xc22e3cfb0546d252U, 0x49231728bba63eb1U, 0x455303de2435ed02U, 0x11253635810709fbU,
  0xf9fd1cbc15ddf6f0U, 0xf2f22047d9f448cfU, 0xd60ad76812cedc73U, 0xe64c2513fd17a936U,
  0xdecdf2d2e0ad4a02U, 0x92701eacd10bfc3U, 0x40c4df2582d2663fU, 0xb253dfac591b3838U,
  0xebf80aec2d98fbe1U, 0xf40bb235fd81fc61U, 0x1c10e64eac20ef16U, 0xecbe0f0b43e3253dU,
  0x1bcdd93af5774535U, 0x1c16ce0e32c27f31U, 0xbac8b8f7283694cfU, 0xeaf4bb5cbf4212e6U,
  0xe5d6508e3bc664d3U, 0xbdab0937260f0be3U, 0xb7c000b7f516fe22U, 0x25c33d1530e1bf5fU,
  0xb9cdff2bef6498caU, 0xf218383f6bf52d04U, 0xea2788f6003af5U, 0xd0d9ee27ed53d531U,
  0xdaeaa4d11a2cc70dU, 0xce943bd07f3df40U, 0x5cbfcbdd19d81048U, 0xa605c1372622004cU,
  0xfdd10fb3c14a226U, 0x4134de17ea285535U, 0xf4c82dcab7faccf1U, 0x3344ca0c3afaec21U,
  0x18024e10e31cee2fU, 0x3fd3d7e2001731d5U, 0x81c8e35dee021b53U, 0xcf23d1ead413018eU,
  0xfdf31d491bf21a3aU, 0x1ae92ddc30cdfa0fU, 0x24fceba921dabdffU, 0xdef41eb76c121a2cU,
  0x182b1723bbdc0152U, 0xb9f90c16260d56f1U, 0xd1e86b41312aa029U, 0x39ebff33d130403aU,
  0x113bd00904c3102fU, 0xd4cce20bda3f2a0bU, 0x2ae3ae4a41c621f7U, 0xf4321f4c3f4f232U,
  0xb618c7ef1744aad9U, 0xdee8e128aee31a19U, 0x7fe20db6000434acU, 0xe261f0e231f1d6f1U,
  0x4ae249fa20081c24U, 0xd8c669d9ff0ee60fU, 0x92cd530e6dd3af0U, 0x2514ce01b941efc2U,
  0x43f40e2fef0cdccfU, 0xc6e225ded71940e0U, 0xc6ed99f09fded3eaU, 0xf7ec55e85bb40e35U,
  0xd6ffd040ed986abeU, 0x33d1422b60fcffcU, 0x3b51c93e08db58d4U, 0x4c9e3bdd7014bde7U,
  0x4c921022ef1351faU, 0x53e9190c08d0f50cU, 0x4d239f3fa06110bU, 0x2cb4181e290c8a33U,
  0xde05f807484da2ecU, 0x3a3db8583fd05408U, 0x58f22281cef91634U, 0xeb5b21ddc210b4efU,
  0x83abb40d8273ee4U, 0xb6becf36dec2a7f9U, 0xd6de08c5d423dceaU, 0xf4a71590de3f3dbeU,
  0x4edee00611020ebdU, 0x70ddcc40efb161aU, 0xf729bae8d5d53b29U, 0x32501996c2dedd3dU,
  0x3bf7d2f5058815dcU, 0x3db3f036321e5609U, 0x27f90e47063eeebfU, 0x35304346e5575165U,
  0x7d5b4101c81982cU, 0xee10e03ed79aa1a4U, 0x8814f4173bf3fd08U, 0x1c11be7000e0a81U,
  0x2498cb09b6eb5027U, 0xabd5d02118c0c23eU, 0x2ab882522dfe141bU, 0xea13230724073441U,
  0xdce82db8dade46e7U, 0x2008b8c02cddbaf1U, 0x312c942415d4e314U, 0x647cb31cf0f005cU,
  0xb6c9c04c1b11cc4eU, 0xfcad283625e62b35U, 0xea59ebf2c3c144daU, 0x2342631cf314dc30U,
  0x3254cbcb18d5adcfU, 0xe628454eed02ffaeU, 0x1443ee042c2ef30eU, 0xc510cff6ec0033f0U,
  0xcc8c336f842fef9U, 0xbd29a6f881e5371dU, 0x1b39dbde0dea35f1U, 0x1af6ffd8ecf7e837U,
  0x4c05dee1cc51ee68U, 0x602f2d3515ae990cU, 0x2c0bd92732adf9f6U, 0x4beade06bd0df932U,
  0xe66f2cc5184d3dfcU, 0x8df862ee440d10a2U, 0x995533553f0fee0bU, 0xbc0eda99dd11037aU,
  0x45b5db19c8d81846U, 0x4d554ba07d2fa26U, 0xe547cbd7ecbf3155U, 0xb390a7c21b3af34eU,
  0xb2e4ea427622d4fdU, 0xb8513e1986c00f33U, 0x1a0ef128b352c534U, 0xfa18d9e39e81ed3dU,
  0x4de63f4ef6eebfdbU, 0xababae15f91b2450U, 0xec04fe0f353908d5U, 0x2bf9b3cf0208da1bU,
  0x62aad48632bc7f9bU, 0xe030aec34c62ba0U, 0x28ece1c6f6c7acc9U, 0x13413733d5fbf6d3U,
  0xe2a2dbe6e37f9af7U, 0x35bebb6f171c5721U, 0xf7eaa9991026ecb6U, 0xa50ffe42342dca22U,
  0xf8aac110d9cb290aU, 0x40d8ccc1cdd03b2bU, 0xe23a42b1f21c464bU, 0x1f08b4e35abe2628U,
  0xfc41cbe40fc5d9b1U, 0x419d172f3cebe725U, 0xe414fabd57fddd27U, 0xeb3cddcb562a1112U,
  0x5312b5fbe81b4cdaU, 0x933ffa08b7ca1658U, 0x812d0c9de5f94411U, 0x4e2cc8d9ff252bb4U,
  0x351d7fc16292a1bU, 0xc1c3b646e0b42160U, 0xe0d6fb2e4bedee17U, 0xdbcd21c91619004aU,
  0xf00e2035d8dfcca0U, 0x94e12e7bcfb3315U, 0x3e10259e3db6cdbeU, 0x2cdb0ff52a2b2596U,
  0xe8ebd3f117df45c3U, 0xecf0b422ba00d4c1U, 0xcae526f1facf3010U, 0xfcd555fc37523cdfU,
  0xe2a12bd4ad1b53a9U, 0xb6d5aaeed7ea1b1fU, 0x3bcca7b81cc71e0aU, 0x1901d0b4dd26d415U,
  0xd61bd1cd23cd201aU, 0xfc55d9364bd10f3eU, 0xebcc2b15edf5d708U, 0xff02dfe7d0ba40e2U,
  0x2ee94cd581e2b400U, 0xdfb4d809f0e10eeaU, 0xbff2c23e3f0244bfU, 0xc26128d41045ddbeU,
  0x5248f220eebd3f11U, 0x390ac5edcded0507U, 0xed1816c2fee52516U, 0x4103de11451c16fdU,
  0xfc8118feff0926a6U, 0xb8562a2defabab43U, 0xf48faffb4d6cff3U, 0xbd00f824293343bbU,
  0xf5f130b113fade14U, 0xe9292215d70fb430U, 0xdbf628fd3c1aa2ffU, 0xf41a2aeebae7351aU,
  0xc5ad3c13bbc8c4a6U, 0xeb442b10d721fc02U, 0x11f0ead749d1fdf3U, 0xfe1d323ce2f42cc0U,
  0x110c07bb0c31a612U, 0x36f61e702ebe0c22U, 0xf955a41dbd91c804U, 0x62e6fdd29204e5d6U,
  0x232516d25d3907fbU, 0x440b01ff66fd59aeU, 0x1f94d72b4fe23363U, 0x1af3fd2200f0653cU,
  0xd9064332bceab729U, 0xd9a317cb1fcddd10U, 0xab7f9db81f1f923U, 0xf5d7f3da03b51f38U,
  0x3c0bcc053f5e1043U, 0x3f1fe33410f84f0fU, 0x10bb36293103b2dU, 0x51eab33901f8f748U,
  0xf433d3ce27aa0543U, 0x21e648ecfffb0e44U, 0xb7411901f0fe15cbU, 0x4cc5390696f71574U,
  0xdeb9d8bc283fb31dU, 0x61fc22659d5cb84cU, 0xe1cdb09a8d41accU, 0xf643546eb90b93c0U,
  0xd12d2a72cb432cc0U, 0xe007e013ff15fe2dU, 0x60336bf096cadb05U, 0x351ff20d13fecd1cU,
  0x21e27054625bda91U, 0xae729d95e1f0720U, 0xe9294705b203471dU, 0x1f7f241e29db6006U,
  0x221845a951c8bcd5U, 0xb7ab5a2a741523fdU, 0xe36d1b9f62913dc0U, 0xb9525ac61e3015cfU,
  0x476ca64bd8f823a7U, 0x9ee710dfd595a2d4U, 0x2f1ed7f1026effe4U, 0x289cda6815042f9U,
  0x44931cda39d7a9e3U, 0xbf2e91fcc03421c7U, 0x9e60f0513a0d9233U, 0x5ad7a8581f4eb925U,
  0x69f2dae805de4c4bU, 0xc9f1092478cdd6bfU, 0x23e6e9dc7341d5e3U, 0x66d5bfe758d0e3caU,
  0xaa09c44740451612U, 0xff3936f42cf5eec8U, 0xbe19f50fc1362433U, 0x71be0db2dc2cd72aU,
  0xa10df213ed26073cU, 0x451cc49510301e54U, 0xbbe2d4d28f8ce40U, 0xe5ca2b32bfbd1eadU,
  0x533fd3e16203ba28U, 0xdb3b06753d2e1ff0U, 0x2801455ddb21b8ceU, 0x42f9326cdb7026f1U,
  0x4d52162cd18131adU, 0x539f4dfc012c56dbU, 0xfdc006e765ad48f9U, 0xae4af725edcc3ae3U,
  0x3e1817e0f7bbfdU, 0xae2fdba3f78bbbfeU, 0xa6ff162e4df1f0d9U, 0xf8551aeea636e70aU,
  0xc874db3329acf1d7U, 0x1381d7c93214e62cU, 0xb0c7d3872cbe2559U, 0x17ed132a31dcf5b1U,
  0xea0d24febfe6d00fU, 0x15e6e7f8f6fc0d0bU, 0x1bda2ff7ddf51e36U, 0x3e602a2e58aa2e4dU,
  0x16fc3a14272433e6U, 0xf4442bd71f8afafdU, 0x2ff7f1262062b9b7U, 0x78f3eae1f000c8b1U,
  0xfa2caa34bf3ef623U, 0x13312fd4d1e875eeU, 0xd2dc3610f8d23c64U, 0xfef0425494ebca06U,
  0x4c3caaef32edad26U, 0xcce8e0c2e04ac9feU, 0xd50db0c1f07f509U, 0x1fe50737b930d6cdU,
  0x16ebb83e064e33ffU, 0xc12f3d3e3235033fU, 0xc217d5661adbdf37U, 0x1220f8eefb221f0dU,
  0x28d5bac5dbeb17d3U, 0xd136b64981f90e01U, 0x1d21caaa03f1cacaU, 0xdd2b3819fedfd7efU,
  0xddccdc0a0fefdcd8U, 0xc9d3ee63fad8121bU, 0x37fd9821ea4b0cecU, 0x92cf1dc2ef00c2dU,
  0x49e9f19fe40fc905U, 0xf1ade3ea57496d26U, 0x311accd7ddd517ddU, 0x4605173df3201be3U,
  0x14f5ca0f0cb0811cU, 0x24ab110d19e929f7U, 0x1ebcc5f4122016d0U, 0x14d6152bce044aadU,
  0xfbcd5352f22244cU, 0xfe15e6f7efea1fd0U, 0x2cc695e7e0eb02bcU, 0x3a361df8221f27a0U,
  0xf4f7f61409ed333eU, 0x3d05bb8b1a3dd4eeU, 0xea1dc229e2a5931dU, 0x3e3abffdcde1f14U,
  0x1e152a2faeb5c4e0U, 0x18b734f0d4c609c0U, 0xe8a8e80f5f92e5c1U, 0x3600685713811010U,
  0x115adc1216b11bc3U, 0x3445b1e7e4f232d5U, 0xe2663e45b2e5b43U, 0xb31609199b2f1bb9U,
  0xec4400d0e2aa4d1fU, 0x61fa9cf4ccd8ab1cU, 0xc825b714c3feb606U, 0xc6ae2c64529d9b7U,
  0xc94c4329a942cf0cU, 0xcb0d03bf0e1e2a20U, 0x24f207fef1a0c6cfU, 0x20debe3bfbd8da1cU,
  0xe62bd6fe4defffe4U, 0x19f4f3ca1622cadcU, 0x33120501c125e7c5U, 0x16d052cc3c14d623U,
  0xe8c91dfc03ea0fedU, 0xdf2d2fe6acd2cef8U, 0x12b91b4dfb22c305U, 0xe03bd41aeaf33345U,
  0xf3d3c7446a2fa8b6U, 0x9bfdb481200beaaeU, 0xfb23d3b117cf264aU, 0x13df2ae3cad343c5U,
  0x138128d430bf3a0cU, 0x2b01fa12c21846cdU, 0xc75541b8250c13d9U, 0x4cea17df0ae3df29U,
  0x119c10642328e3cU, 0x2b63f6cfd1353615U, 0x172dc25ba6d301ddU, 0x5de2c9fb00e2f4beU,
  0xdc15130301a19939U, 0xdc20bdb764f4a4cbU, 0xd7eee62bffca1a08U, 0xf9125251314132b6U,
  0x59405906344709e2U, 0xe446cfcaffc6d4e7U, 0x2fc3061fe6b3fee7U, 0xd8eb57deb8bf470dU,
  0x1455f5b8582206edU, 0x143315dbbed5f7f1U, 0xe3333235a5f0ee2aU, 0x4c8e22719c83e54U,
  0x1cbf243b1731bef7U, 0x48bfe6f823e44741U, 0xacebc6afc109b913U, 0x7f2d0bbd25cae6e0U,
  0x125fca1b21b9fd20U, 0x3a144de3d5011231U, 0xd7cbd7e653e8d2f0U, 0xc5ed0ccc3bdd0ccaU,
  0xfb20d33810f14d3fU, 0xee1659e972b1ff0eU, 0x242e1e023037f7U, 0x1234f2cada1c35e6U,
  0x361dd333cdcdf3b4U, 0xf60266c20939753cU, 0x9f1b30ff020e731U, 0xe40436f10811ccd1U,
  0x16a316233521d00bU, 0x63cbb3dfb20f4edU, 0xc8ead2f639fc1e19U, 0x480ada2f41d41332U,
  0xd8cbf62c63e7c13fU, 0x1327b91e0cb7d3ddU, 0xd1d9e004c8425aecU, 0xe601c7c9dbfae607U,
  0x57f26a2f336c321U, 0x9fddf05e43cf8e4U, 0xd73da0bdcbd436ebU, 0xf0e7c5ec2a13ef9cU,
  0x49a5fb474f4ad823U, 0xa5de48af5b442f1U, 0xd5d7e81a378bbaf4U, 0xd0bed81d97ce4541U,
  0xf1e6fbf0ec5dc5f8U, 0xe4b6cdff45dabc08U, 0xb9b483e240620e9U, 0xce6042734f556d4U,
  0x28023009a6a90513U, 0xe743dc36dff9edefU, 0x10efd937d292477bU, 0xd4ca06bec9b6ecf3U,
  0xec3ec621c4dec21bU, 0x267feaf410b1bcc2U, 0x150de4c4b6d7fc63U, 0x522fa8c7420555ceU,
  0x1181ff133416c309U, 0x1a13d9f8e93402eeU, 0xd31447d70a210f2bU, 0xf0c955063d12da36U,
  0x5ae501c1d261bcaU, 0x2002e5483939d9f2U, 0xc2ce1e6ec30bec2U, 0xe40df7eb19e8d6ceU,
  0x33ee1f2fd110ab0cU, 0x6eb302212e3e730U, 0xf2ee2d9f2c151be5U, 0x4ef20c0dbdf031eeU,
  0xfb0216bedf0dc8d3U, 0x2f214331c30426deU, 0xf31603cc4ff900d0U, 0x15d602153bebd8c5U,
  0x178d2ec446deb817U, 0xe40a2213420244d5U, 0x7c4fcf1cc071b17U, 0xcc014beb25c1cb4cU,
  0x1242de2d32baeec2U, 0x2eece8fc201dd7f4U, 0xded723cc1cdb3544U, 0xfff855ccd3c5a71bU,
  0xf26e517dd54defaU, 0x81d1ecd7d3335fcU, 0x153abd81fe5d5528U, 0x494f35554620101bU,
  0x17b2db5995ff3e06U, 0x4acffc71d92c1bedU, 0x2afa27e2fbedefa6U, 0x645edaf21a38d034U,
  0xb0ba4daf9a813deU, 0xf3bfba2415e03639U, 0x35b3f2c6133fbab5U, 0x790c2d06f418d57cU,
  0x3ef0140aed3116d6U, 0xf11509b5cef5aa12U, 0x4c3317068120c3f5U, 0x2f2cb816fadb1bd7U,
  0xbd71bed2ef1cedbU, 0xfdfdd74d1bd1f035U, 0x3b73ce0c0b511eabU, 0xf6b2233915ace042U,
  0xe8c5dfd5e3fd1a11U, 0x32fa2038aa4dda35U, 0xe005f92ff3b9fb27U, 0xdfd6cc04dcdec213U,
  0xcbf41f144b2ecde7U, 0xbae2418f081908c1U, 0x3f6f0eec14c3bac2U, 0xd400b522d9b18facU,
  0xebb46510a5f2ccb2U, 0xcef02e1f08b614edU, 0xb0dee61917d8fa01U, 0xfb523b4c22bcccf6U,
  0xe280eff1a12d293U, 0xe29d352b4cda0e02U, 0xddd1531953234311U, 0xcd3ed1df060640cfU,
  0x8deadcd3e8ede8f3U, 0xd74bb527ad1e3741U, 0xafc807f7f7f7e6e2U, 0x2adbad167f62ff2eU,
  0x1e9ce1f01f20f5b2U, 0x3421e1ce2e1311d6U, 0x18e710bef9dc122cU, 0x360935e0cc112dabU,
  0xbbc090d3f01da0eU, 0xebd106ffdd0e0d4eU, 0x4c23b415fa27cdeaU, 0x1c816904f11619bcU,
  0xbb29e0c014d4c603U, 0xc231b74721093aceU, 0x2eb0edfd0ef7e3c4U, 0x68fef1e3cfef2df4U,
  0x211637c08b3046ccU, 0x46cb001d3bfe00c3U, 0xfbe5d4f469233cc4U, 0xf2fcf1a4da172015U,
  0x2622ed3acc1a259aU, 0x5033b34fe32fe1dU, 0xa241cd3faebeccaU, 0x5df155c13481bd16U,
  0x4e133ff1d8f3f0e6U, 0x20e0aaf7e1bd56f3U, 0x3c1acbf85db92806U, 0xdfc4c2f034e81c39U,
  0xcdc35f432e0f9cdU, 0xcf0aaf64b06ed30dU, 0x8b2209ffba00e0U, 0xcdc6f2d6a5260831U,
  0xd152e3303ad315cbU, 0x2fb519b82de3a197U, 0x3fd0ee09e104fbe5U, 0xd55d31c94000989eU,
  0x7fb9e7df043cba0bU, 0xbeceb3da10df020cU, 0xe238bc22ef0ac0a4U, 0xcd16202603db1d30U,
  0x3603300e14261413U, 0xdfd1194de6faefbaU, 0x1e132841201ce50dU, 0xe7c40f3f5d02d558U,
  0x7e129ccedd2ba49U, 0xd8feb5120908cdb7U, 0xfa19e2f40e35051dU, 0xf6bd05fc36cb2333U,
  0x1c2400ddd5dd4d55U, 0xecee0114ede5fdd0U, 0x3dbdfedf2f0c2643U, 0xefc079c2eecf4a3U,
  0xc62fc9f40f6ce404U, 0xe4ea51abfdfa5921U, 0x1bd1a7d5bcf52c06U, 0x2d5abe11ce33bd0eU,
  0x4305dcdbe631785bU, 0xfcded3ed0adf2eb6U, 0x49b6d2051e8147f6U, 0xbe68dd1dfbd7f9ebU,
  0xef1106e60e6af2e6U, 0xad300b41db140715U, 0xb8c1b80c0e21311cU, 0xb039be22b14d14f5U,
  0xc60817dbd0feef4aU, 0xbbd1e8fd22c8a2e5U, 0x13ab1e3ec8032b1fU, 0x31e629c925ebe5f8U,
  0xbe34f5b1fe261e3eU, 0x5148ea23b550c78dU, 0x21cf2bd080de50aU, 0xfbf62a9f0bf03bd5U,
  0x8064908ddbf17d4U, 0xe299fe3a4a3e2702U, 0xb836f519e11a4c3aU, 0x171f47453adcc423U,
  0xcc190423c0b52915U, 0xd33a27a11b08bad5U, 0x53b1fdcac7f07ff6U, 0x3360fd51bf2effaU,
  0x13e09ae3c9a5a446U, 0xe04c03ebe6e1305dU, 0xbb34070fdb01dd41U, 0x3d54f02d77bdcf19U,
  0x5329192939382be2U, 0x207042cd2fff2410U, 0x30df0dd4fcd2309U, 0x171217c5e244ebf6U,
  0xf6fa1d5ad719a1d4U, 0xd02706f8fee1ef3eU, 0x42d4cc67fe073518U, 0x39db1ae430deff08U,
  0xd80ad9c6a3d2fcfdU, 0xf729aa63f119c71dU, 0xb847fb51fdbee916U, 0x3211f3222d81cff2U,
  0xe8c73ca8c057f31aU, 0xfa3ddc0dd63947c6U, 0xf52ce5ed0b2e25ceU, 0xd3e1f1d32507d3daU,
  0x1ec7def4a703c0f9U, 0x5cfaf100c01e3a24U, 0xc7dbb22edfed9c04U, 0x19ca044a0b671920U,
  0xf9c2a74d56bbcc34U, 0xe3691db8ccf13bf4U, 0x513402e0193350cbU, 0xe5173d22e3d50218U,
  0x2c18181dea4a8bdeU, 0x32d44af55232dc2dU, 0x4119fa965506031eU, 0xafef34f84c584125U,
  0xbea5f929c57f4ad1U, 0xd03f131db80cfafeU, 0x5dcda12ccabb41c3U, 0x8c18ebb5b503ac65U,
  0x96105053edce227U, 0xdf3f482ce5ad42U, 0xeb5428411ad33953U, 0xc93f13dd431d39f3U,
  0x2d83647d553e717U, 0xb40c49fd2fe5810eU, 0xfe3fe7272a202f49U, 0xd515b5273e64b00fU,
  0x14206134c33dc605U, 0x4d9d48fdfacee746U, 0x23bce50f54a6dfbfU, 0xd9f0035972bcb445U,
  0xafe5e344421f3f58U, 0xcc090919bd3b2619U, 0xc44904e329dffab6U, 0x1912cd226d7c909U,
  0x4ad70c3eedd6241eU, 0xd50bf93cf35c33efU, 0xc92ffdee222af9e8U, 0x2536c0250b62157fU,
  0x450edb2fed163b2eU, 0x44d41b1bc3e8d7b1U, 0xfa1ccddad1c9d319U, 0xdb28e423cfdadf43U,
  0xc204d13f2eeead9U, 0x547d61edf192149U, 0xb10023d00f76289dU, 0x799041fd9c9db02U,
  0xe8cf25da04e0e003U, 0x2d03d1142911cf34U, 0xdafff2b303c03331U, 0x223818fab8f039e3U,
  0xe2fc15e2d77fbf98U, 0x23e02c091425df41U, 0xde163436dde3193dU, 0xeebd29ffe7340a16U,
  0x64b4e505250068f3U, 0x27929fee2a36fbf1U, 0x6bec4e41bd6c2f0U, 0x1e540819c33c2dedU,
  0xd5e2f93f5061d42dU, 0xa2315f7b62530dcU, 0x3f6bcdefbb42b1cU, 0xe9a1c946c49efd4dU,
  0xde12f056bee1ededU, 0xe7c7d45ba0fde5a6U, 0xde22cece33371fccU, 0x2853fcf935203323U,
  0x3c00e04125a926dfU, 0xd52e58c9b932ffebU, 0xfbab11343c2fef6U, 0x45962fa717012574U,
  0x3135132723cd201dU, 0xcfab47f202fc12a8U, 0xe6e0f0cc23aff507U, 0xc2e15d031b55eb0aU,
  0xe750d1b80981e3c6U, 0x2f013d30612730fcU, 0x661126d71bb82826U, 0x2d60d191be1cdc4U,
  0x2ca6b91beed80be7U, 0xc8b142029ff329d4U, 0x290cd2eb29e70cdfU, 0x27524d98ddd65842U,
  0xdf2203dc7a332deaU, 0xdb0628dbd4340cebU, 0x43df4420f017335aU, 0xade7a412e772d2d2U,
  0xc83515122f4fbcdbU, 0x172810ea4d11fd0dU, 0xba87199fcf15ddbdU, 0x57f0ec917f924d07U,
  0xf119bfd48afea4dU, 0xc1d557241ac04721U, 0xf70e4c1c5eb2104cU, 0x8ad0e52612ddd5f8U,
  0xf8fd2c5123d0514eU, 0x115ece8002b3ccbU, 0x24216402110816ccU, 0x2a6f3bc3e948fa9aU,
  0xf71bb82934012781U, 0xe032bad8a7f6ff08U, 0xcb21141520bf39d2U, 0x9556740a81c71a5U,
  0xca009d93cef3c930U, 0x33bd142443c85f17U, 0x45ac21e06008332dU, 0xc1ceec3d3157dd09U,
  0x7eb1e0fffd6a04b8U, 0xead4d037f8f63314U, 0x523f4bdae9f741a5U, 0x28f592fafbd0fbe6U,
  0x6927a4ad6e608943U, 0x34d522e9a42ac10eU, 0x27f9b84a83441b63U, 0x698ccce06f3cdfd8U,
  0x10f181a94a28b2dbU, 0xdfafdf8f200295cU, 0x9150cc11eccff2fcU, 0x61bf8134209354aU,
  0x3c959155f3c1ae6U, 0x17d9e0d462dac308U, 0xa5020edc25cf4d31U, 0xdc1ab3c9a44cc901U,
  0xd6382623963b472eU, 0xa5cfdddfce9cf11dU, 0x17beb294bfc2e0cdU, 0xaca3dba91710b723U,
  0x17faae164bfa1a19U, 0xd434474a9f2edbebU, 0x1d0d05043712eefbU, 0x3eea00bf12f33926U,
  0xd912ea1a52e4fdf8U, 0x37c4de87afcff3deU, 0xd7f61e06ca1bd7dfU, 0x26fb2459581c451aU,
  0x5ed466e17f3be21fU, 0x5be9dead2e4ccec1U, 0x959f29d1f7e42bf7U, 0x4c07add218f999e3U,
  0xb1af1c4bb6e409fbU, 0x4a1f0018f0afdde4U, 0xc831e31abed3ef15U, 0x39614034cf4f24ccU,
  0x99f8db55cf4cd96eU, 0x2998c0d569b9dea8U, 0xd4e21d04fff4e948U, 0xeda64311d405e3b4U,
  0xbcebf6b8b60331c7U, 0xd9ab23ef072c212bU, 0xba45f420251f51f6U, 0x1be32c2857559a22U,
  0xd220e63923ed25c7U, 0x60ef2667a3a1f6edU, 0xd13f2011aee224f9U, 0x1c6447e1bdb5ce34U,
  0xb3dca37ed16cf06U, 0xf34c12222b2c1934U, 0xdad8c2e8bb08e326U, 0xb8b31120cf6213c3U,
  0xdbdbf61efbc61a36U, 0xfd107fcdf6c24341U, 0x8fce2f0909f330c8U, 0x23591fe84f0737e8U,
  0x3df8dbb1bf105ffbU, 0xe333e1d9d6166731U, 0x2dd08cd3ac5c1ab9U, 0x247d81e41e01bff8U,
  0x5cdc043c3a44e444U, 0xf8da2aba5c4ef22cU, 0xfb2cd216c0df272cU, 0xae4017afd239fb21U,
  0xff330c7530d0c3aU, 0xccc6f4a44fd58a25U, 0x9737f7f7bced2901U, 0xcbf6c869c30d69d5U,
  0x494a23bbfa1d56f6U, 0xcb03d68ccefc2513U, 0xe9fabeb190b73746U, 0x28aa20ddf5133fb7U,
  0xf3c5f990a11dd802U, 0xf5b5243a03fafffcU, 0x515eafed501ebfaU, 0x293f01ef35fc1958U,
  0xd5cd9d162c200916U, 0x18ec52aff80509ddU, 0x751331d0c2d2e032U, 0xb0d24d2c033bfd7U,
  0xf7f503eacc5ee8e0U, 0x12e5eccd1725f71fU, 0xd6e0c7e2cccac91cU, 0x3cf4f31504f70d0fU,
  0xdebb28ec16d3d217U, 0x12f2f92f2d02a841U, 0xe8e4f1e627f8ec9fU, 0x2052f6a5d724c77fU,
  0xeccfdc5a58e61becU, 0x3dcc742a60bf377U, 0xaed34c28b6e999baU, 0x330dcc1d03170c2bU,
  0x47cc169d21152921U, 0x1925d1cb1b2e5101U, 0xe136d9ccead4f3edU, 0x2d9cf6e7bd7e959U,
  0x53e7f70a06b0a125U, 0xeedcce314b2cd428U, 0x2a11182fbff4f8a9U, 0xc9cd4a2343a3e609U,
  0xefb5daa006165133U, 0xd1ff3729e013187fU, 0xf81406e7dcf92507U, 0xf04fbb63e1572c34U,
  0x13052d3ffaeb2c0fU, 0xd0d733e03719e0e7U, 0xf40d1ccd3038ed3cU, 0x12022eeee3359b1aU,
  0x1b104c0017e32e30U, 0xff10f01c4500f5afU, 0x6cabd325e517c820U, 0x3ff6c9685aeabd23U,
  0x8cdb2a3bc0113619U, 0xc5fd81ee04f5fe05U, 0x32e44fc7cdec433cU, 0x1c54d80cca22f7ffU,
  0x3614a527aafe48c9U, 0xb8d0bc1c350fd002U, 0xb3d46f6fdd25413U, 0x38d0cd1f084e05daU,
  0x2fbc4d255c44a47U, 0x724a5abec2ad00aU, 0xad9b9d7b920e4e8U, 0xd603a413e16a1c0aU,
  0x18214cf8ed1f0306U, 0x4ad60e0a4fd6c60eU, 0x32eb2cc726efda35U, 0xdbec4fa2758c716U,
  0x90341b2ef048bfa0U, 0x234fe4f62f81e8cdU, 0x11aa09c90dec31e9U, 0xf806eeeefc2925e8U,
  0xf24015caf825395eU, 0xe03301f957d7f60fU, 0x173d96f3a20d3d50U, 0xfed9eaa3a92d1bb5U,
  0xd5f118bd154f3dcaU, 0x50d5b8c31804c401U, 0x21c6dc1de5bf3ee2U, 0xe3f70423e9f73cU,
  0xe3f73acf283acdf5U, 0x18bcbe442fe6fff5U, 0xe7c3d7ccb3c24cddU, 0x4241f81bc600f255U,
  0xefea0eadc5d0d930U, 0xfcce4ad161303ad0U, 0xd5013da41f2b3fdfU, 0xccc30200b92cfadeU,
  0xdac41c20cd9df87fU, 0x2528ffc902404bdcU, 0x9ed5fe08e33c3396U, 0x1aff0dc4d73734d9U,
  0xc3290eed0ba941ebU, 0xc5e8a0ca370b5651U, 0xf4381cd32522d4a5U, 0xde46f4ebb9812507U,
  0xf6fbf0e22d2826e7U, 0xe7494aafc5f0ed07U, 0xcfbf3bd2421b4b3U, 0x280618f31c12fcabU,
  0xc40d11ef8ef83c00U, 0xb2adb373ce3190aU, 0xe83d1c66d4ede9beU, 0xd2e51af92afeee27U,
  0xce0f1842d8daf0ccU, 0xbd1ee8c92a214e33U, 0xb134400fc2eb814U, 0x24dabcd9e2d930e0U,
  0xccc2cabac2ea41cbU, 0xb8ed4bec0027d52cU, 0xa52be5c21cfafc0cU, 0x160c0e18133e894bU,
  0xdbddb6f8dbe2f208U, 0xca88452f21abc1e7U, 0x1c152d1301bc4d32U, 0x3412ecdfbd5bb12fU,
  0x46e637281cc81cb3U, 0xc55319d7f2902309U, 0xeffb3d699dbeebeeU, 0x2c30e217e4de8fa4U,
  0xe93216047f0ee1f8U, 0xc63b29c336d4afc7U, 0x58930ce6b0ccde04U, 0x24f65df33de5b54fU,
  0x2c64f6dfd9f70e16U, 0x90a1538e8d8ef3cU, 0x3c04af0bb433dd6eU, 0xbf56d0233464ef2fU,
  0x28acee2d0ee042bU, 0x1f062f87210854c5U, 0xaeceead3f7f13443U, 0x4ab3b494ef25c0dfU,
  0x51eb14f5e9f5ea11U, 0xfae1f753ce9d274dU, 0xfe41f91e221c3ac7U, 0x1629333e353645d9U,
  0xf3143a604cf63651U, 0xf1b00cb47fae4ee3U, 0x14dbc71cf04f16a2U, 0x534038c1484201dfU,
  0xa4dff90be8bf114cU, 0x1c00efdc1edf3fc9U, 0xfd0414cc38474e00U, 0xf03dc31cbce21249U,
  0x923f1809f8b313ceU, 0x1ce036c3b02eae06U, 0x42ccdb09392a190eU, 0x244404153cf2f43bU,
  0x13c7bfedcbfff8bfU, 0xcfc42307e816e7f8U, 0x343ee74116e1c725U, 0x972bc727dc1e4ad9U,
  0xd92bdf301dee1f16U, 0xb4e62f81624d2ff7U, 0xcf7bfd458318a32U, 0x63e4cae128b45d16U,
  0x2630e1e2ecd6f028U, 0x7197f29484c0b0cU, 0x17decc2122a9c923U, 0x9db28cc1dddff28U,
  0x2fb030dca203834U, 0x32c85df9e41dffe9U, 0xbefa02dd1dc92026U, 0x1430344ffc190606U,
  0xe42047e618d902ccU, 0xe52ace40eed3c0f6U, 0xbd5ae233de41ff07U, 0x1f43f1ed1cc649dcU,
  0xe1c81ddcfff3eedeU, 0x2b12b33eee0f064dU, 0xf2f109af18b9c447U, 0x15183b04fe05e90aU,
  0x150ee2de09c066d9U, 0xd6d2aebc18625ee6U, 0x20151eca091121d2U, 0xd65ed0c6f8d9b1cfU,
  0x14ba60e7c100f40bU, 0xf419c1b4f14ab534U, 0x10bfd8dae4b312faU, 0xe4fd2e2bf2070315U,
  0x150f0126f22a4a01U, 0x930e6bbf006c7c5U, 0x815255581c175f04U, 0xceeed171dc90b2bU,
  0xbccea8f8bf540034U, 0xce6ad1f00de83f01U, 0xba2f5a2a25f83025U, 0x24df16c0430bc7U,
  0xc72f4502157fffd7U, 0x48202548090f2ae6U, 0xa11db334012dd3bU, 0x33f2dae39a40d5c5U,
  0xf10ffddb05021343U, 0xd3eb1814dfc2071dU, 0x5218ec0811e8f321U, 0x1afc0ae0fa1147c0U,
  0xf90800adb7f3d6d9U, 0x4807f908e1ec0cb1U, 0xb538be24f7e8f4caU, 0xe5d4e42dd6061f06U,
  0x5044dcedf6bee00bU, 0xca46bdde3604e236U, 0x310a3c220aa600ffU, 0xc839eb1c2f0106e3U,
  0xd42e33d0ebadafebU, 0xb439b20b2610000eU, 0xe32ac111d7f61effU, 0x8df2e9656d12104U,
  0x3d235bf71f221dc2U, 0x4ad725ca0010d20bU, 0x231d17cad626db67U, 0x62fd1621ff11ea07U,
  0xffd19824d8f4fb03U, 0x46d8abfef9e9a8f1U, 0x1ecaff051715de6cU, 0xc53a1007ab0545feU,
  0x4822f7d6fb27d8e3U, 0xcf1c6fd1fc44cffeU, 0xd312f1d9fd81334dU, 0x14bcd00b5a0e3307U,
  0x1cc5f654f64df0d9U, 0x3a1cdb04e739274aU, 0xd2ef11028b113510U, 0x6e044b06d703d746U,
  0x4925d53003713746U, 0x36cc5e13c1d9e839U, 0xeaac4fb7fe3990cU, 0x8afbd6b2e02101d9U,
  0xec143acfe3db031aU, 0xe1f0471437beecfaU, 0xa30ec89c24e43317U, 0xf5d6c700cedf3debU,
  0x1b1a4efd20e4ddcbU, 0x3ff7fd739de6b0d6U, 0x5642eb0dbf0059e6U, 0xfd3cff06e5024df4U,
  0x10dbcb48dbc9cebbU, 0x17c120013f1f914cU, 0x53c117ca18580e2bU, 0xc9f363f2f803e52dU,
  0x461f1109f63e02fcU, 0x8031a6bd71ea911U, 0xc7d336baa42431deU, 0xc44e593f09f0d6beU,
  0xccf70481b678c8U, 0x8e26ccb8e1d0001cU, 0x24ae527d67f7623bU, 0x57f0460426c607afU,
  0x34f6eec4b2b9b0e9U, 0x1d4ddb6f462a918aU, 0xcc28151286231811U, 0x5a9aaece5fee04b3U,
  0x9e8df2f48f6e00aU, 0xbac8fac6079e3d7fU, 0xb79ee036ee2b993aU, 0x2ea7b30b0e10e524U,
  0x2562feca2030d722U, 0xebf41d0253c6e235U, 0xf4ad28fbfde03350U, 0xd82d0558f51b2a0fU,
  0xc1ade40e08e1d10dU, 0xead0260b41b7a315U, 0xdd4ffcceebb6066aU, 0x22d71c11ca90cecbU,
  0x30d2cf0fcfd32004U, 0x16e1414eed7593dU, 0x4ece3a0129ed6050U, 0xf90bd207df29fbfaU,
  0x461fc146e9f8d404U, 0x1b69b6cbd74cffc7U, 0xf7eaf614122a464aU, 0x271a8157d20fcb01U,
  0x542626ead317e7dbU, 0x620e0ffbbbddb8e6U, 0xe1f2debde000c211U, 0x4e11c337c6c90018U,
  0xc71af7432ac9d125U, 0xda43f70bd3d20804U, 0xe3f9f7c4ed2e4340U, 0xcae1071edae4c6f2U,
  0xce69f0512f69b735U, 0x21506abfe06d6afU, 0xc921a9e2ca33e837U, 0x9a5d6f4e0d41805U,
  0xd5e9c6082cd81bd5U, 0x5de40ed31ae146e4U, 0xf94534d60ade142fU, 0x38181ea1dafbba23U,
  0x31ceefddaed5bce5U, 0xd93545f0d4e1e8f2U, 0x4a60d7d6480fc897U, 0x1102752decdd12b4U,
  0x2b3843e5301a4725U, 0x3d42b7f242d9db7U, 0xbb3221cee920dc20U, 0x120ba7dce441063cU,
  0x570acfa4fcf90cc2U, 0x20dc15cf354a043eU, 0x2e44a1e4ffcea23U, 0x17f2042cdacb2ef4U,
  0x343a3ebafb1844fcU, 0xff2dab0c2500bbdfU, 0xf91ad5c6f8042c37U, 0x4e1d4aa7bae3e0b5U,
  0x2b210ad9eb2b7ffdU, 0x26f0b9d6212624c3U, 0xe2fda50077a7c7e4U, 0x3206ec2bacfd3be8U,
  0xccc6f82c0926e032U, 0xbef2f0cb40290ad2U, 0x4b9cc31f04037d3U, 0x23ebe1f213df2616U,
  0xe3ec5f8da2f133bU, 0x1ad42809e9d8be39U, 0xe115b1c7baf1284bU, 0x28a1d0a8f12440e0U,
  0xe5cb02f7352fe6d2U, 0xea4a2c04202ae2f7U, 0x61ac81de1b523cdU, 0x120953afec3bf8aaU,
  0x4ef18df2732fc08U, 0x4ceefeb6df472b2bU, 0x3226c60e75e02331U, 0xd1b19abd1e6e30cU,
  0xfcf4394bf9edea34U, 0xf505d6eafae6ddd3U, 0xec47d89ce4fe58c3U, 0xe6fee822bdc0d913U,
  0xf45027c5d746fd53U, 0x23454f13ac1dd712U, 0x3414c7ff00cf7fecU, 0x1321fbc7291defe9U,
  0xd91ffc122ac1fe22U, 0x1fd043edc6948b26U, 0xb70c36f9c518a224U, 0xd2e74100a80720f9U,
  0xa7e3dee634d8a831U, 0xf4aa220b1c1d3cdaU, 0x390e1aa84b465c23U, 0x2a40187ec530b612U,
  0xdf1be52511e2500aU, 0x8511fb0995d61e30U, 0x18570333c7c338aeU, 0x205f0f6bac343734U,
  0xb81d244120275db7U, 0xd2f681f7edd6c246U, 0xd83d22d31adeefdaU, 0xbe1405ccaac04234U,
  0x3ec30ce4017fe10dU, 0xeec821c8ebe6e8c2U, 0x2b3101d4f9210207U, 0x204317a9d7e712faU,
  0xdbacc40a21400813U, 0xaa27e6ca15debac9U, 0x46f4e0de0624331aU, 0xacd3f29606d81338U,
  0x21042ad54b32320bU, 0xa52a5445fbe5e52fU, 0xc4b27ee028deb20U, 0xfa2cefe0b757e5e9U,
  0x23f6afff2b18bde2U, 0xdaeac9bdd54e31c6U, 0xd115f5e1ffcaace8U, 0xd0b81bcce32ec82eU,
  0xd17fcf0fcf5bc155U, 0xd7473dc130ecf73bU, 0x6b90510cad8de08U, 0x5ce01cab4db3e70eU,
  0x4940b01cefd3e460U, 0x66fc0610eb003a34U, 0xfd9c2dbc410d26f7U, 0x11dfd84a01b5cd1fU,
  0xf2210cf9fc4420eaU, 0xd1b14001ecdf54c9U, 0xf021161302d8ccf4U, 0xd4f52e1af91853fdU,
  0xb22aa5f65857ed1cU, 0xcaf2031c2ff6b227U, 0xbe151623dccebfd6U, 0x24d1c3d422c52a2eU,
  0x248ce375a2b9fcbdU, 0x36faead2ff08efc9U, 0xef1ff7cd06320eefU, 0x2ac604ee5735d4cfU,
  0x3f1100dc22f536e2U, 0x4817d4f2e1042217U, 0xddbf30e8230dcaddU, 0xbab4e63ae1fc020bU,
  0xc61ff0d3d6c219e0U, 0xd1fbd8d12b2fafecU, 0xbc8f7b62636f94aU, 0x21d52407e5fe1bf0U,
  0x4ef630c7d0181581U, 0xd60139b5edf9e7fcU, 0x143542293edc2bf7U, 0xb12cc2445c1629caU,
  0x2fd457f21125c8d9U, 0xfc56c23807ce5234U, 0xdabc0317eea5ca57U, 0x16b60d02cf565005U,
  0x31dd37bbcc7fba2eU, 0xf2a2ab4352b0ec2U, 0x3b010af74f46c0efU, 0x583299d40a26f01bU,
  0xd0ebe03f44e1f737U, 0x1c1adad9c1ce2fc0U, 0xed35d239efc741d6U, 0x95008e746dd5ff2U,
  0xd11f0fff1c584b1bU, 0x205014fb1fd5ee03U, 0x2b08c2c7c9cbf624U, 0xd15c595df0431e3U,
  0x3217bf35e59d3a03U, 0xde38ed9906072df5U, 0x177ab3f7f20a2affU, 0x5496acec113a36c0U,
  0x2eebc9ad28cea554U, 0x1f2838b10419b8a7U, 0x162e3234a9b4f2f8U, 0x6034e7e83d40a7edU,
  0x1129aa70e92817cdU, 0xfa05f476a7f80905U, 0x47fecb18c87fe9cbU, 0x8fcdd21224cbecd8U,
  0x604ef70c4538fe05U, 0x8e83fe46392e2c3U, 0xd319eb35070000c5U, 0x25c0d5e325152708U,
  0x5b3be216202112d6U, 0xcd0e0014b4f8b713U, 0xae1802e5f339440bU, 0xb6010807c4eb2f0eU,
  0xfef05023d8c33cc4U, 0x28f7d84b4a4ce219U, 0x6009e803cc41c243U, 0xf723fdc34decd3c5U,
  0x815425fd30ce070bU, 0x97f606e8c939c9d0U, 0x5b0c51ea15d63720U, 0x1aa5d43b55ef314bU,
  0xdfecffec0ae961b0U, 0xbac1314632fc704U, 0x6043c924d614ce1bU, 0x4b230508dff5740eU,
  0xc10bf4c7d891daeaU, 0xe330ff9ff14cbf1cU, 0x18fa2524d5e812edU, 0x2cb203ddcfdbbcdfU,
  0xcb28c83d071d7ffbU, 0xa635d6cce0ee14d4U, 0x20a0ebf6d4dbf42aU, 0xdd0c0e3d9eee9e3U,
  0x4d19e9244201f409U, 0x1e3fd7a7a7b017ebU, 0x40d4fcbd3e0ff647U, 0x30d4034bdbfe41c6U,
  0xc646e74dbe4c232aU, 0xe629d1f24ac4373bU, 0xbbd89e901800dec8U, 0xb4c7dceb2ea1fffcU,
  0x1bfda14c04eafbe3U, 0xc2d19943c7d5d70dU, 0x450c0ef9e2ca50a3U, 0xd337ca1210ee0981U,
  0xe718b5073bf60f3fU, 0x9000acbe406eec4U, 0xfef02500e5e9c8f4U, 0xe40c0befc0f6e6a0U,
  0x220acc48283e2ccfU, 0x808de1221f8ddb9U, 0x47f2167108dc15caU, 0x1ed5c0b71532fed0U,
  0x1017d84db7dae9c4U, 0x2ce831e9e6cafc09U, 0xba29291f4a0c4cd4U, 0x18ed0e151ec0bfbcU,
  0xf9bed5de43e31a14U, 0xa5cef01ae9cd0308U, 0xe11df92900feb503U, 0xe420ea681f3a2157U,
  0xbe16f40cc5c7a228U, 0x19bbb2260e31b1U, 0x8534dfd4074509dfU, 0xb041e338f917c8ebU,
  0x4100cafd1160a21U, 0xfffa97eaca06d324U, 0xf9df25d61dd926baU, 0xf6c22bf81ac313bbU,
  0x34faabad0709bfdbU, 0x191b1ed481f6344cU, 0x5ce9633dd6401708U, 0xef1bcc9fb8c3030fU,
  0x75dc4bfd1e289d25U, 0xde32d8824b22d430U, 0xfefb0eb6e3f93911U, 0xbd2447b7f556f713U,
  0xb3ff70aeadfe2ca7U, 0xc8a029cc00cfa820U, 0x99861cfb5affaac3U, 0xc541b7a40f1cdf1aU,
  0xe03ba0133a142addU, 0x3f1f6ca543084640U, 0x80723f53dc54e52U, 0xd0b5eaeabecc7f01U,
  0xf678d104b0eb65fcU, 0xf1f1282931f4f0a4U, 0x670da8b7f4f0ed9fU, 0x3dcbfc3fe1eed98aU,
  0xf6ea28e3d54f50c3U, 0xb51e5445f024110dU, 0xd85d19dadb2eeaf6U, 0x23d5fceadec827c8U,
  0x5d30deeeb161152U, 0xca0dd1d9e90c9a26U, 0xd104b7fbc52c1a28U, 0xf5c9f5aed4271df9U,
  0xd1eb19f216f623f6U, 0xd7e8db0ee717273dU, 0x374af32b11ead029U, 0x44ef4b011b10d609U,
  0xbefae03b7f189bbbU, 0xbd2bedd2eb25ab3bU, 0x39d9ced429be043eU, 0xae1415da3fc3033cU,
  0x51e506ce2be2ddefU, 0x1617ccbff9222d9fU, 0x2c150afc41cffd0cU, 0xfceed63fecc212adU,
  0x14b0b53beb1e063cU, 0x633acff3e2b5afdaU, 0x2b2507ad494ab810U, 0xefe0cfe0432efc41U,
  0xf040ca297f29ec22U, 0xe645de55d3fc050bU, 0x5f4d4c4adfdbc54U, 0x1c2df02ef45cddf2U,
  0x483408bf52e3e50fU, 0x1b8cc092a1f8fc9U, 0xec015ef00f055247U, 0xb5bf46183fcfd5aaU,
  0xf52d0e221e1d54edU, 0x202a022ced16c0cfU, 0x291d2ad1a0bfb21fU, 0x5de3c2415cefea57U,
  0xf4812828d4ee0705U, 0x5dbfb1f624df3c3aU, 0xf60614aeb11b1306U, 0x4f46c73a31a04f43U,
  0xdc03e54168a0b8b0U, 0xcc50bedcccbed515U, 0xa5d93bf113c72367U, 0x7ea1ed2573c6f9fU,
  0x18473e29e53b0b39U, 0x53df7ede3f2d6703U, 0x39fce1212ad6f95eU, 0x4ee32a1534e41227U,
  0xcbe457050e1536deU, 0x585c47b1a627a40cU, 0x4db8add50f0bcd34U, 0xc6bfcde24111f01fU,
  0xc9b9f017e9bb592eU, 0x853aeeb10ed4a4U, 0x44d2ea3920341245U, 0x5639fd42254cd030U,
  0xd707dd1fecf3491fU, 0xfa5ef4f818ca40dbU, 0x5c1b7f6af9e65356U, 0x1000f52621d8f234U,
  0xd6b443e015e25e2aU, 0xd1f2baa810ebcaecU, 0x48d7b9a804e39ff2U, 0xec0b0722d6f7b02cU,
  0x22c33ff3f03af31eU, 0xfff83fc615cacb22U, 0xd72fdd3819ce1d27U, 0x50eff1f1c60334c3U,
  0x38380dcae7c1cf25U, 0x8122dbf5e9fc0130U, 0xdc0b1c1defdae90dU, 0xcf681744d04dc149U,
  0x1fe213bee1cd311U, 0xdae11522d2eacf46U, 0x40d8e01fd5b12acdU, 0xf717ed36482455eaU,
  0xd008ac0bd7f0d110U, 0xf84a0adaa9c240f4U, 0xdefa11f221f0caU, 0xf0172ebf0ff5541bU,
  0xf1c4fb190bb4611fU, 0xdec3922a57d5f637U, 0x4421b0560328ca81U, 0xe46c53d918843db0U,
  0xebd32639ee3a3a00U, 0x5ad9ffddfe6e1105U, 0xccc202425626f4e5U, 0xb0e9b84129cb17c9U,
  0x2d50ddbdf2291fbfU, 0xeeea35c1e035fe0fU, 0xf0f22b5324eb12ebU, 0x56bd82ec4b45f0edU,
  0x501a33308229668cU, 0x204e3d3ab9c5e7d8U, 0xd015f333e293f4eeU, 0xda2a933121d52dd9U,
  0xbe129b216a82ff5U, 0xf754e873e4caafdeU, 0x1d1043220a28320aU, 0x3baa524328dd0df1U,
  0x56f57fdcf4f66259U, 0x8917d973f134bdc2U, 0xd73ad616f3f63876U, 0x11b3d6011b1cb32dU,
  0x24fc0c42dfb2ac06U, 0x10372ac05ff2b0bU, 0x15cf03c014b6e1a9U, 0x94965d3ea07cce8U,
  0xe5d2c042eb34a7dbU, 0xf6205445e1f4ddcdU, 0xd30c20eef2122a0dU, 0x4bfa1db53a4aec20U,
  0xe1622ed2f3fe30d7U, 0xcdd62c1ae3a8091cU, 0x3ae4e91a08121916U, 0xede2b0f9e81911efU,
  0xc69bdb2c0532baebU, 0x20fe20e416fa1912U, 0xc743af1864f542edU, 0x7fd5dabadde01c4fU,
  0x13183b161a21f520U, 0xe21fbafeacb72ed0U, 0xe21804150437e93aU, 0x16010e4ce0f5f3bcU,
  0xbc0c47f7e1dcee0dU, 0xc8cc008f45123f1fU, 0x32f005f7042629faU, 0xb10f9c40efb02cdU,
  0xcccc3337c1ff1d12U, 0x489fe83314db7dabU, 0x35caeed0a621b4c8U, 0xda20a67cb034cab5U,
  0x2a5afadd0fbe2acbU, 0x4ce13028f13c20c3U, 0xfaed3b1ce6bb56c7U, 0xdc47f538cc3311c5U,
  0x160a2906023906a9U, 0xcd19213cc6ccc3edU, 0xe71cf511fc7dfc39U, 0xb14bcc0ad01f4358U,
  0xfb4181a1f1ea3144U, 0xe82beee0e397f9ddU, 0xe82b1313cce9fcb8U, 0xb83202084834d6d8U,
  0xb31440cc34ed1401U, 0x181b1ab51e27e7cdU, 0xca0b09e1e9100f02U, 0x44353112a72b03f9U,
  0xc8e3100af0e2ec19U, 0x13f21933d9f82e09U, 0x9eb1400f622c40cU, 0x563b0928bdf8ed09U,
  0x1de649b7d6cdf924U, 0x2ddedcfd283fbee1U, 0x41cdd97fd2db0eb4U, 0xe3ffe4eb54ebf9eaU,
  0xd42df0f5061decd8U, 0xc215c8d9eee72b0eU, 0xae12941bda0ef729U, 0xdf34dbefcc164cf3U,
  0xcfb40b193db41a0cU, 0xdce31d3e2ab998f7U, 0xebd9b8db0ef6e854U, 0xe4d8c92493e04edcU,
  0xd01f2523cd1818e1U, 0x241bfe1d160f55e5U, 0xae20f622fad1f3e5U, 0x216de1f9c93b1a48U,
  0x1afbe224ffa640f1U, 0xb202120a819de6d3U, 0x2adf2de2c24b61acU, 0xda2b644d6787fa16U,
