<<<<<<< HEAD
/**
  ******************************************************************************
  * @file    network_data_params.c
  * @author  AST Embedded Analytics Research Platform
  * @date    Mon Jul 28 15:33:30 2025
  * @brief   AI Tool Automatic Code Generator for Embedded NN computing
  ******************************************************************************
  * Copyright (c) 2025 STMicroelectronics.
  * All rights reserved.
  *
  * This software is licensed under terms that can be found in the LICENSE file
  * in the root directory of this software component.
  * If no LICENSE file comes with this software, it is provided AS-IS.
  ******************************************************************************
  */

#include "network_data_params.h"


/**  Activations Section  ****************************************************/
ai_handle g_network_activations_table[1 + 2] = {
  AI_HANDLE_PTR(AI_MAGIC_MARKER),
  AI_HANDLE_PTR(NULL),
  AI_HANDLE_PTR(AI_MAGIC_MARKER),
};




/**  Weights Section  ********************************************************/
AI_ALIGNED(32)
const ai_u64 s_network_weights_array_u64[17058] = {
  0xfc061224f4eede23U, 0xebf509d0d615e15bU, 0xc725f6e1d11cd003U, 0x1cf00a05f91bdd24U,
  0xdea2ad6fc12d37fU, 0xf801e6f5cd2cdc13U, 0x3629f507090fe4f5U, 0x2512f7e2dc00b927U,
  0x16f11afcf903c102U, 0xdcf61d0b0963f4f4U, 0xe11e1fc9eb5d1bd8U, 0x24262bda0d412ed3U,
  0xedfb40100e4706e8U, 0xce1b11caee5ee9fcU, 0x11151ce3117fffdaU, 0x1d0bfee2f841fdd2U,
  0x4f7d7fe0942e213U, 0x1e072e020568eef1U, 0xbc51e000fd23e3fU, 0xeedbeae54cbb1d4bU,
  0x2e8b720eccdfc14U, 0x712f90c24843170U, 0xecdce80544983463U, 0xeae8d92b0cb61e0aU,
  0xfc0d3eff0aac3020U, 0xdfe201e51381252aU, 0xdbe6f40d11a53327U, 0x214a1031990c1221U,
  0xef5213d4a619a758U, 0xb47fe4bdcdd9c339U, 0xe232f1dde2f1fdd0U, 0xef75bacd11ecb513U,
  0xfb7ed2fbe1ecc9edU, 0xd43ae8fff1d4079fU, 0xeb4bb1f6d1fce0c5U, 0xca13e813c2fc011cU,
  0x2e293f2d22a70902U, 0xcdeae8ac0dd8f6c5U, 0xf8f6f406f8f31205U, 0x3801ff0e30a643d8U,
  0x8c0f81c4a411979fU, 0xf4edefccbb3f112fU, 0x3d062c1134fa1fe3U, 0x214ce16cc3191e1U,
  0x340dc83ac022b234U, 0xf9ca19250aeb0e18U, 0x1d50f25ef26e328U, 0x24930f10f732267fU,
  0x7ba1708f20d031fU, 0xf2c6db2010cdf76aU, 0xf6dfd01f08d5175dU, 0x2dd435e421f319f7U,
  0x42ad1e0e30c23e31U, 0x3b9c0fd50ee23240U, 0x66130af5f2bc3446U, 0x73d224fe07f27f2dU,
  0x1b061a09fef41404U, 0x6d12f7f5f4b55a52U, 0x78e80bf6bce7744fU, 0xff09ece0eaf20f11U,
  0x39460106edb55257U, 0x2a04c7fec6186729U, 0x4517a5e6a4214ae7U, 0xb2cfbcc3f6151f81U,
  0xc1e696f21213f3beU, 0xcc7c70730ea02b8U, 0xd4f620efe1130605U, 0xf9e0080d3723d5fcU,
  0x5c26a06517e8badbU, 0x3bce28e012083bfdU, 0x2ce0380c29f40940U, 0x486cd95ff0eff10cU,
  0xfc11e221c4cddf0cU, 0x115c8d4c5d3ddf6U, 0xc53105d0edfed5e7U, 0xdeec9500e1cddb28U,
  0xdeeb8114dbdc101cU, 0xe6f4d6ffc5d2fd19U, 0xf8d3b6fae4c5fa06U, 0x5c4c409d2db1af6U,
  0xcdf4e7f0e3e407e4U, 0xc8d3f8f8d317dbcbU, 0xfb0fe2ebdf38e4ffU, 0x172afa2ce111aef9U,
  0x2205f9e1fa20d3deU, 0x3c8137d02a0d2e2bU, 0x22d5091e220abe2dU, 0x22e3fd09da0604c3U,
  0x3c905ab7f70b183fU, 0x8ac10384ab62726U, 0xf7b24cedd3dfdbbU, 0xeb7f2cbacc4d08a9U,
  0xec6321cceb2501e5U, 0x44c0ecae814f1c9U, 0x5f3ff6fb260b9aU, 0xed522feae0351ad5U,
  0xf0291002f5e02bbfU, 0xfa541dfeef0b2dadU, 0x164bfce2d2fb21e7U, 0x1c19f70ee6e0fdffU,
  0x1106101eefc9f70bU, 0x37f4fffb02f3e302U, 0x1c0e242e09afff03U, 0x2f00141b2081f610U,
  0x18f1ef0704c3fa1bU, 0x1706fd2c00c1e818U, 0x17020c1212a30333U, 0xfbfd070107de130eU,
  0x22070e16e6e10edeU, 0x44d44423c6dd10c7U, 0x12ef06042914d0f5U, 0xcb5527d4e96316U,
  0x1de47f22c8c209e4U, 0xdf2fcfd26fee8f7U, 0x34e850dd1ed51516U, 0xd0042dd11c51608U,
  0x2f0b22f3f9e3e010U, 0x32e60821faee0d14U, 0x210afae94afef925U, 0xf9ec04f407fa11fdU,
  0x3018fef31ee8f719U, 0x253debbf7ff90a2fU, 0xea010dfceef40e03U, 0x62208ede10f0bU,
  0x2e2811f711ecf014U, 0xf51b190409f0f404U, 0xdbff2c41e1e1c8ceU, 0xe8df110021c4cae9U,
  0xf6100efe1801d225U, 0xd9bc26f6efc608f6U, 0xf5c307cc7fc62d4bU, 0xccb105e612ee0944U,
  0xf9db28e21adb2ffaU, 0xe6b10fd034dc0af7U, 0x3b7fc06e2ccde15U, 0xf9d644fe3f23fcf6U,
  0xb508531c603bedcfU, 0xd6e3680420ec0111U, 0xbfbe0a16391404e0U, 0xf4ec03097f37eccbU,
  0xffaf5811280418ffU, 0xf5ca2c12f61e0a1fU, 0xe6a916334d3509e5U, 0x3ba047fd45fc2511U,
  0xa431c526e84fabc3U, 0xfdfe1d06de59e8caU, 0xedf2ea14e818d2f8U, 0xa7fc39150b40fbf2U,
  0xd9cb2ddfed36a8c6U, 0xf3fdfcddfc31cde8U, 0xaf03efe9081394daU, 0x97043fcb494081ccU,
  0xfee6d1e12520e28eU, 0xaa04f4c5eeed06ccU, 0x81e7e2b2dbe4f0f9U, 0xe614e6e8dbd513fbU,
  0xc70211d4fbe4d6b9U, 0x81e62fb3fef1fe07U, 0xb5d6f9f316d20b13U, 0xb33ce1020dbf12daU,
  0xc9f314e8f1dd0803U, 0xd4e9fb042acc04e7U, 0xd4e4f216fcf11768U, 0xd9aed64120db0f7fU,
  0xe1e3cf3223db090bU, 0xebe7e337050be275U, 0xec99de4d08c4007eU, 0xf6afec2508eb1530U,
  0xfcf7f31df012f23eU, 0xddf0df1df5df164bU, 0x904ec00fefd28f1U, 0xb2c62daa4f2953b0U,
  0xe4d6b9cf4bea42faU, 0x27faa65a0fcd0c12U, 0x1c3589669fc7f93U, 0xe1c2d2e653da6edcU,
  0x1e159a30ce07fa03U, 0xf222cf40adf6becU, 0x242b11eed8fa3b01U, 0xf54efd6d25be7dbU,
  0xdf25fe20fa1956cdU, 0xfdf512521ff630c9U, 0xcb0e01293139fef5U, 0xfeeb0bf1cc037cedU,
  0xf1f80feb05147f06U, 0xe901faeb26df53f1U, 0xe6bbffcd04126704U, 0x2dc10bf1bf67f06U,
  0xe3f2f7fc181435eeU, 0xfd13f6d862f4df1bU, 0x1502180853c21fdaU, 0x2700133709cdf9d7U,
  0xfa1b220571cbf31cU, 0x12eb612919813cd4U, 0x1028301228b8e7ceU, 0xec0aff013fc50112U,
  0x10f6410e2abcfd22U, 0xf6fa0d0637daf2edU, 0xf9cebc02c3f62119U, 0xe30fcce7a4fa0717U,
  0xe90fc9d1d5d61400U, 0xfdc8f7e6e1f14809U, 0xe9d7b5d7dfde1c1aU, 0x1bf1d203d4d1053eU,
  0xecdcbabce3ff2aeeU, 0xeeea81d3c92517ecU, 0x14d4c3d2b510e607U, 0x315d306eae53c0bU,
  0x3ed1c91b3e035522U, 0x20f7d8260ceb1fefU, 0xebf9dc231334ebf0U, 0xf9f78118053ddac8U,
  0x1de0c081a11cb00U, 0xe01017f7fe36e602U, 0xd4f10bf3da70cbccU, 0xe6eee8e4f046d40dU,
  0xd3e8125b2e07c30bU, 0xe5e30133feb690f1U, 0x23fc14e819afef19U, 0xeec816794bb9a440U,
  0xdfbb447f40aeb134U, 0xf3bb14e804aa0335U, 0x5e1095e12ecf62aU, 0xfce0124f47e0eb0fU,
  0x6ba121b3bd21643U, 0xfc8cfcc05bc1ecbU, 0xfbf8edf82bed27b7U, 0x34d6302630f1f321U,
  0xb1f299dfba37fc81U, 0xe4f4b0d4c328ebdcU, 0x3c0dfaf60ac803fcU, 0xe302b30a0d52db9bU,
  0xd0bbe170059baf0U, 0x5007ed5123fee632U, 0xb4f817d830dfcaf6U, 0xb2eb2613f4e1e1f6U,
  0xf4002210eefcdd14U, 0xb1e13615fc01bd0fU, 0x81c52418c606bc1eU, 0xeff9170aeaf4bf2bU,
  0xd820f80fecfcbbe6U, 0xbdde27ead6f9933bU, 0x2b010bdff4e9d905U, 0x277fc2d668f1bd52U,
  0xf51eae082f09052bU, 0xe0d90901defde415U, 0x1420dcb53f12033aU, 0xf1e90afe950127fbU,
  0xfbcc33fcf105e316U, 0x13d142bc19ffeefbU, 0x17b07b111fde4128U, 0xf6ef2d1900e6f330U,
  0xd60111c922e2fc02U, 0xc1f1f7b7dc2dfce8U, 0xd31e1bbbd32cc60bU, 0x170f4409f2e0fd1cU,
  0xe3c4dde2813bc9d5U, 0xde46ffa8be10c935U, 0x31381c0d051cf928U, 0x32f55325fa392130U,
  0x212a09dfd321c825U, 0xcc06d5a7e518ecd5U, 0xd8cff89bc50e25fcU, 0xd3f20adee32bff48U,
  0x1af2f299b1f24df3U, 0xd588088581032408U, 0xd9bcfaafe2cd0e33U, 0xcf2abd150821feU,
  0xd3ce24e715edfe17U, 0x1fc1f7ddfff50414U, 0xe031e60608d6ee07U, 0xdc3fd83a34d8d91bU,
  0xca300a2418e7eadcU, 0xa64ed50f2cf7f7baU, 0x816d021823e8bec4U, 0xbd3df1491ed6e9d0U,
  0xac51ed2a1816e5d8U, 0xb566fc08cbf3fbe7U, 0xd3622631f3001ef7U, 0x27f2190eca1a45f9U,
  0x1410fafdc02308eaU, 0x120ae61d0014f42cU, 0x30ad2bc8d2e45e0bU, 0x35da18d92ae77f07U,
  0x11dbfc05ee022a14U, 0x25d207ddd6121b15U, 0x13e502c5d6202412U, 0x19d903fefd11d71eU,
  0xffffedc200000436U, 0x10a00001641U, 0x1339fffffd79U, 0x3b00002356U,
  0xb60000031dU, 0x23a3000010eaU, 0xac100001c5fU, 0xfffff72900000900U,
  0xfffff3f4fffff262U, 0xb6fffffff42U, 0x1bba000000ddU, 0xfffffa57000007adU,
  0xfffff61e000022a1U, 0x1723fffff6c5U, 0xcc2fffffc45U, 0xaebfffffd14U,
  0x564cb72ac735ababU, 0x82b49f0e10dddafdU, 0x103922154c3f20c7U, 0xdcf4140032217fefU,
  0x2fda277014f4090bU, 0xdd306e9ec1905faU, 0xff6bc8e91aba3ecfU, 0xf404d97ff8fa4717U,
  0x2bda3fbc9ad7fcacU, 0xfa29017f00e2dc36U, 0xb2e35b792fbaf8a6U, 0xffa5fcc59fe611e1U,
  0xdcd7c01e24b10b96U, 0xac60d21a77fc033U, 0xb6213f45de8fce39U, 0x180c2be010aa3092U,
  0x2f81f656dd9f1847U, 0x7876bb49c31421ebU, 0xbed6fd2913cf4af1U, 0xe9357ae6002f8d05U,
  0xc7ffec81f8f0ed09U, 0x30d15dbf1c1f984dU, 0xdde80e121b3ed9aeU, 0xef1b3602df11c7f3U,
  0xfb034a406228c617U, 0xe8391ce6dceac17fU, 0xac339940ee2a32bbU, 0xec65e0e4ceeec701U,
  0xd307542d16b43310U, 0x1aba84b1e5261ce5U, 0xbcade5f6f340f8feU, 0x8dcb417f322d241eU,
  0xd97ff3dbf8ae1a54U, 0xdaf3df791bdae5e1U, 0xccf0083402f4fe06U, 0x2bc9f603e3f4ccc8U,
  0xed0e1703021eeae2U, 0x17e5ea540464fceaU, 0xc6fc5f141d1e7f36U, 0xf5ec1d0d15f12ae5U,
  0x64e2eef57f0169abU, 0x5f0dfacfed2508dfU, 0x6595487126612733U, 0xd74db014afce4041U,
  0x12290bf5310a3e3cU, 0xfb10fb14385a39f7U, 0xf3b811c2326f8e8U, 0x41b30bea97cd55ecU,
  0xf040ef0d033acbe8U, 0x31a0b007d00f322U, 0x1fbc7fd5f516fb28U, 0xa33b05d708f5bf4eU,
  0xf10baf37ee81560fU, 0x36aa0ca29539b49aU, 0xb3b1eba2c8ed0ed7U, 0xbe61f2e1c764df03U,
  0x2da4ba724f6e6f6U, 0x4ee81322dddd4e7U, 0xbf39e0feaf141856U, 0x16e2230acd491264U,
  0xb8dc8b41bbed714U, 0xfef6086e3b59c7ebU, 0xdabe0007a705d322U, 0xa47b81f08df9e52aU,
  0xfffffaa6ffffffa7U, 0x1a3700000acfU, 0x6a7ffffec4dU, 0x11c9fffffd29U,
  0xffffd01e0000048fU, 0xfffff5f1ffffdac3U, 0x4635ffffd464U, 0x1bcf000001afU,
  0x20e701f501b8023eU, 0xc6811430cbdc04b8U, 0xe30f2e51fcb331f5U, 0x551713f8ab7f4dd9U,
  0xb7811eee43440120U, 0x79df5c191a1312d9U, 0x9fbfec819cf7e54cU, 0x10d6da1c04401645U,
  0x1dd4405efb1009d1U, 0x740f7f43bc3e5cffU, 0x1af0ca4cde0cb6beU, 0xe95b1e1605da177fU,
  0x19663c1cbec5ee22U, 0x962e81f918d807c2U, 0xc3f828221f7f260cU, 0x88eba7412d142f44U,
  0x210bf4141e814d47U, 0xe32d54bd25c7ee95U, 0x2481dbb632a6e3adU, 0x66ef2ee81e6afeecU,
  0x3a081cd6fa2b3405U, 0x2f097fee00f7f6f1U, 0xb48f001f7f09b1f1U, 0x5fdf2427085634fcU,
  0x7f00bbe8398a33cdU, 0x21f9f89de3c0e5e3U, 0x2f7bda1fe5dd0c1dU, 0xe54a7f0fd7a549fdU,
  0xdfc681f2d5f64de6U, 0xdcd91cfc1034ebaeU, 0xa95c062b1e18fc81U, 0x335dddc413bef017U,
  0xefe28e1e7ee8804U, 0xe92878d9e006812fU, 0x64e26441aae9d8ebU, 0x3f476e1ed2818af4U,
  0xfce181fbf7f8134cU, 0xfee92b09130fefcfU, 0xfb1bca012dcfeb7fU, 0x243e3f07c72640f1U,
  0x3caef306eedb0f1fU, 0xcbda1c1081d951e6U, 0xd10ff4aa9f2781f2U, 0xffebad20beba095dU,
  0x3be8e7252217f21fU, 0x3376f02e15f0157fU, 0xcf7ff00132ba156eU, 0xe7ffc325251401c6U,
  0xf5360a13a300e323U, 0x1c3e207faf50d8b1U, 0x815e1a3c4ffca7U, 0x77fd032d99d232dbU,
  0x26508125f6c24c16U, 0x3bd71cc90d33f0aaU, 0x29033f7fd4409800U, 0x77d37fe9b5703aecU,
  0xf839c40905ba324dU, 0xf5f3c90b487f6e95U, 0x1537ec3101b90df3U, 0x261bde1bf20ce481U,
  0xf5ce225d7f346402U, 0xf3e8def5ebd5460cU, 0x87296507c730d081U, 0xd29f24ee23ecaa92U,
  0x7fca0e2d24349f5bU, 0x1a7dbff2a8182a78U, 0x3182d81e155034eU, 0xe100ee2b570809f1U,
  0x412c2f24b381ebbaU, 0x1f282faab59a2d15U, 0x7f3c122d56d556d2U, 0xf852350a1a2a3d0bU,
  0x33ead67f051fefd8U, 0xdc1416001cf4f602U, 0x232e42cdcdff0753U, 0xcdd4d0c630810a67U,
  0x11c20e4be041655U, 0xf90204aa211e8115U, 0xa24a4befa04b0e81U, 0xf8c42cb81401f1d9U,
  0xfc1a0f562d7f0312U, 0xafc6a7042916702bU, 0x28c10f4b7f5d01bdU, 0xf5f13bc315f63fdbU,
  0xe31772df0f7d5c3eU, 0x50d17ff604cf2049U, 0xcd0111b1c45581ddU, 0xdc3c8b58b2556beeU,
  0xa8bba85bb7d9cc08U, 0xf47fefdf4d103530U, 0xb0031d81b60fdf28U, 0x171aec71efcc0925U,
  0x150ad935f574c0e8U, 0x177f2a0407c72b64U, 0x8bf37ddfaa0072dU, 0xa3e416f381081febU,
  0x7f21b44aefc573ebU, 0xed0276aee321a0feU, 0x10f3112b4cec27feU, 0xe1d025811cf0ff29U,
  0x8ce0ee21adad31eU, 0xb01c0481433af7e8U, 0x6a14a56081d10a40U, 0xed1b64f9026c7b8fU,
  0x8c6fe7ff0622e06U, 0xb8ef96cb074bede0U, 0x5339c45d5106d8f9U, 0xe10dd6813d1700cbU,
  0x45d3e01081eae0f8U, 0xe311c71e06e902d1U, 0x23da1dcce6a7f1f3U, 0x7317fd30ea7ff2cfU,
  0x64a6df0df3f2d076U, 0xa7f31f438124202aU, 0x6c3095f63d814701U, 0x1d1943cedb51f1e9U,
  0xa27fe0c537513153U, 0xe8d5b81b103272e8U, 0xbd469fb629c73213U, 0x70cbead8ec3781ddU,
  0xca16cbfbfe815954U, 0xdb2a22d8e313e7e1U, 0xc3e6fcfeeb2eecefU, 0x18ffed7fe2fe0501U,
  0x1452e80d811bb7feU, 0x432dd749855b0f9cU, 0xd10fd252b71be3beU, 0x6223ff7e81453a9eU,
  0x74c00000a10U, 0x6a0000050dU, 0x23100000473U, 0xfb100000496U,
  0xfffffefd000003d2U, 0x8b900000808U, 0xfffffe13fffffd69U, 0xfffffd24000000d6U,
  0x3900000f15U, 0xfffff1c3fffffd5cU, 0xbe100000096U, 0xda00000883U,
  0xba600001392U, 0x8b7fffffa07U, 0x7250000062dU, 0x45e00000217U,
  0x2240000087fU, 0x21000006d2U, 0x5d10000056bU, 0x75d00000138U,
  0x298900000707U, 0x87500000c23U, 0x86c0000039fU, 0x1b6000007d8U,
  0x573000017eaU, 0xfffffde8000000edU, 0x1fd00000d17U, 0xfa00000513U,
  0x72b000009d0U, 0xfffffdd9000002c0U, 0x40b00000337U, 0xb6600001bd7U,
  0xc04c3f1b3922262aU, 0xf03f4d81c05b6be6U, 0x450f1523e07ff4e3U, 0x8106810581b2c228U,
  0x3317810073f8b7f6U, 0x300f41d6e3408b7fU, 0xb556a7d681fc0f7fU, 0xada6c4477fdc81eeU,
  0x6a445d0d21f1142eU, 0xd77f7fd40bd98bb3U, 0x112ec47534c93d37U, 0x4352a181d9b781ccU,
  0x1f28b275e97c6704U, 0xc0ef517970e1cf40U, 0xe12381236c6f1aa7U, 0x4ab7357f71b30be3U,
  0x75d2f2a8d7cbfc15U, 0x901d92e3ea1bc1e6U, 0x12ec50905ec5147fU, 0xdffbf4daf3cd9caeU,
  0xfee2ffe7ab7ff724U, 0x39dd7c7fdf24e583U, 0x2a9cfa7f1935fd06U, 0xcd0516330f812b0eU,
  0xec6215703f792a81U, 0xd7fd25c2d981eb7fU, 0x35f6472350787fe6U, 0x320fa96c6493e17fU,
  0x81391a7f7fee8bdfU, 0xbfab08ae7f05e11bU, 0x817f9ac11ba5371cU, 0x183ee7d56d21f6d1U,
  0x7f7fee1a91747fb1U, 0x965d59f781d21d6aU, 0x7f81c917ed456f24U, 0x54bca7e3a48193bdU,
  0xf67faa0876377bd4U, 0x827fe3254481c021U, 0xcf049305e82f7fd4U, 0x67f7fdf5de90b7fU,
  0xf0e24ee1ad81e426U, 0x81b5f02806f8fd3aU, 0x1f158111f0fdbe21U, 0x500a44ad56c3a413U,
  0x1826bb0f26c0170fU, 0x73131726e70a783eU, 0xf19fce71aa69d8cbU, 0x81cf2aacd7027810U,
  0xa8dd3a7ff479cf0eU, 0xdc1718cd5b006ab6U, 0x37140522f4e0fdb5U, 0x8f810f676bda13edU,
  0x32ccf6443e8681d8U, 0x4907babb0f19f031U, 0xe208bb082d0af2d2U, 0x7296c7d7ae17ff0fU,
  0xf6eabfe4ed090645U, 0x87f1c0dc5b787fc8U, 0x4af6eb817f61fbbcU, 0x1d9a25a846f3ddf8U,
  0x21d5d2d29d8e57fU, 0x81db81c5d9e52636U, 0xc4b06c8e3c40946U, 0x7340fbb3a2029ecfU,
  0x9b9e811f81aad4e4U, 0xe5f8014533ecf41eU, 0xf13e2d15ea2af5e3U, 0x7d36fec9bfe2833U,
  0xfbf05923a7d5e4caU, 0x340b18d4a6287fbaU, 0x174211951281e2feU, 0xb24de70efa5e37e7U,
  0xfffff925fffffff1U, 0x1328ffffffd4U, 0xfffffd90fffff408U, 0xfffffe8cfffffe95U,
  0xfffff4eefffffd85U, 0x172ffffff18U, 0xffffee0b00001a41U, 0x1303fffff8f2U,
  0xfffff0b400000082U, 0xfffffb49000001a3U, 0x480fffffe74U, 0xffffdac100000049U,
  0x3be1ffffff4aU, 0x3b0000231bU, 0x1f3500000c36U, 0xfffff9860000155fU,
  0x9a1ffffffacU, 0xffffe689fffffeb4U, 0x170fffffe1e9U, 0xfffffe6effffecfbU,
  0x33bfffff75dU, 0xfffffd54ffffff6fU, 0xfffffba9fffffea6U, 0x130ffffff79U,
  0xfffff9e500000009U, 0x308ffffffa4U, 0x43effffffe4eU, 0x1d27fffffe94U,
  0xffffff28ffffff18U, 0xfffff1f000000bfaU, 0xffffffb5fffffeb7U, 0x98ffffffcdU,
  0x852a3c87d7bf99ecU, 0x59032693ff45d9bfU, 0xe60fc8aebcc5f5d1U, 0xf635be2b0cf5ca05U,
  0x2e62eefc2459bd04U, 0x73eff0412cb9e202U, 0xd3e2b53e4679e395U, 0x288561691e810fb7U,
  0xa60b3d817cef9223U, 0x18e09a6c0962d819U, 0x28ee13e20eb26241U, 0xb54bdd230cf234f8U,
  0x3e33caf12e2aa3a3U, 0xc9d3122525fdc19fU, 0x6711f8ecc6f0493bU, 0xe75903d7f6bb95ffU,
  0xa7ece5b110593cd1U, 0x66effd229cf92afaU, 0xeb2f4bc6b95f1d1bU, 0xc91df225b541e23dU,
  0xc714202bc5bc5c0fU, 0x13d7c81fc2f435e7U, 0xfccd78ee7fe1e09dU, 0xde46443c296445c4U,
  0xcffb07e80b51fb4dU, 0xb1fece0d12d93b22U, 0xea391d6a4db95509U, 0x436db3d82d271324U,
  0x1fcac8dc6cd63622U, 0xe015f07f59f95807U, 0xce0daf7e3fb21faU, 0x161ac5e4a129a744U,
  0x5b9000001ecU, 0xffffff73000001d1U, 0xe76a7f7381443233U, 0x1e8110080fef7fe6U,
  0x9a5bbc7fddf25881U, 0xf361367fea7f3425U, 0x816f371cdb7f0b25U, 0xe77ff7b0aa7f1955U,
  0xba76f67fb1f60f7fU, 0x7fbfa8466c967f8aU, 0xcde2027fe003f881U, 0x548182a7107f5f10U,
  0x81201961cf2c237fU, 0x8c7fed7da433247fU, 0x7d7e81fde624207fU, 0x91387ffb7f569c24U,
  0x2271e28165cc81d2U, 0xbd10257f70c18123U, 0xe5a3f27f815e1626U, 0xd2206881812e53c8U,
  0xc57fd02ec2017f8eU, 0x811a18b02e2c818fU, 0xf17f0ce6e37f5d1fU, 0xb37fd668d80cf27fU,
  0x2c7f056d2b84277fU, 0x81402768a87f226aU, 0xdf661f7fbe534881U, 0xf47f92a5eb504681U,
  0xd69d3c7faa7f3bc1U, 0x560f1e81ee7fe73cU, 0xd1bff28181441445U, 0x158142eaa6b1d07fU,
  0x275a367fed387f04U, 0x967f54e9b8141e7fU, 0x7e210000ff07U, 0xa97200009ccbU,
  0x79e600007fdfU, 0x6de30000d772U, 0xfe5500007458U, 0x77400000afb8U,
  0xa3b50000ab64U, 0xa1390001918dU, 0x78e1000063bcU, 0xf23e0000a188U,
  0x8d0d0000669fU, 0xf7a6000092b3U, 0x88fd0000863fU, 0xfdc700008027U,
  0x6a74000081deU, 0x8333000080caU, 0xa6c30000a953U, 0xd6ac0001929aU,
  0xacf40000df66U, 0xc1df000090f6U, 0x7f730000c442U, 0x168de000056ceU,
  0x996c0000f713U, 0x96ef00009174U, 0x15d4a00005f09U, 0x8c2d00008c3fU,
  0x71330000cbabU, 0xa44000007ab2U, 0xabf20000d417U, 0x792c00007c74U,
  0xb42a0000a012U, 0xdb5b0000b72dU, 0xb6314e22de1d2e1U, 0x1decd305fcd51207U,
  0x39c201dd062cd3d0U, 0xec2b4229e64d3203U, 0xe33eb8ecf7de13d1U, 0xefd40f0a41dc2331U,
  0x1d2c81510fccc9f7U, 0xed20ce81ac0ae01U, 0x54bfed2affcf1f0dU, 0xb4e3c0230c0753aaU,
  0xde399bfccddfb8d5U, 0x1c4c481e33ae7efU, 0x22eef5013e05fdefU, 0x1f00f8de49a5ca7bU,
  0x1ac338d882e5fda5U, 0x1ff6b58f3a1fc70bU, 0xba123f21c62d2f5U, 0x29aac62de97f0312U,
  0xcfdf5616dff5e9e0U, 0xe5adf6f3e5bb113bU, 0x1cbe6e0a42a54d4U, 0xe6d7c6034728d306U,
  0xd2cf1d4c1d00fd16U, 0x1add2fd7cd3af902U, 0x4bd2e6e904dac2afU, 0x5ce417c5e92338ebU,
  0xbdbeeec401b87f24U, 0xeaf0054c3d1ee7edU, 0xc9e9d4fd4afdf9bfU, 0xa2bfeee904e0e6d4U,
  0x100654f62af2be0eU, 0xe039d8ba096e05c0U, 0x3de755032d27ce14U, 0xb8ebf829055e231eU,
  0xdf101d2c7112d4cbU, 0xf7c7e1fd2545eb30U, 0x1c1a576748430f0cU, 0x290e0df7c458471aU,
  0xd63a092b089c283cU, 0x7f6307b0df1331f8U, 0xbcd62a073b0a431dU, 0xa27042de8091314U,
  0x1626c829144ac016U, 0xdef0ccc544730caU, 0x17b7e605f0cb370bU, 0x14227f081b1ad6e1U,
  0x144c30cbe9eac5e9U, 0xd9f7143c6911ed2eU, 0xccce1018e5e45306U, 0x3202c1b808fe4861U,
  0xf10c0ce7b7181b35U, 0xe9f0f3f03cc2fc13U, 0x1f313c43000a00efU, 0xdbd6dff69001d04bU,
  0xcb310b4e0911447fU, 0x42e2ab27b42b003dU, 0x3e7dafd0d22a9bcU, 0x23f4bce3d608ef33U,
  0x5f93fcd21e34d622U, 0xc517f0baac64bed2U, 0x98104cf614ccecb1U, 0xd9c76992d4023448U,
  0x26ffe33637c53a24U, 0x81a5270baec81d8bU, 0x10cbf2142de212e8U, 0x3e3b2e14d5bb1c54U,
  0xc3ed1cf7f76ae1e4U, 0xde22537a9afc029U, 0x50c1dd2110104f7U, 0xe5e505091a9f19c9U,
  0xe72030faf3120928U, 0xe681f23840d62808U, 0x2381bc30247717ebU, 0xf0caedb6c2aaa808U,
  0x1123f40bfdea39f4U, 0xd2472238dde83cf6U, 0xe7daf1c1c5bcddceU, 0x5e94948d834e39dU,
  0x25a879109e27a9d2U, 0xfd38055b3fd333eaU, 0xe7246d2f0009021bU, 0xbd051bbafdf70c33U,
  0x815374237a77ffeU, 0x293abdf1e24bea17U, 0x25a23a46f9325529U, 0x4d38030bff30c3a8U,
  0x412fd91f89e7ec9cU, 0xac86c0e2a3f7c914U, 0xfd3d4386bddd8129U, 0xfc020e0a2d16b85cU,
  0x2b63f73ad0e6d9f7U, 0x11adf5e811252ec0U, 0x54cd18f32427b328U, 0x1f2d044ed01726feU,
  0x2e25adebfd442923U, 0xadd8fc55f1d31341U, 0xdfd50bee09328137U, 0xd6e796332eb1c4b8U,
  0x1006c11dcdb2100eU, 0x11a3d4d7cf0a702aU, 0x45f91efc13d0093cU, 0x271248f9ec09e600U,
  0x4b5de418c3fb18f4U, 0x5f0c1fa5efeee13bU, 0xda41d94054c05111U, 0xad6065dc40fc421U,
  0x3412640e1844f11aU, 0x20ecf79424e7e99fU, 0x24ff5711141be51cU, 0x1060a687ffb3429U,
  0xc8feeceeda7719c7U, 0xd237fee3d0bcb82dU, 0xd02dcee70520fcbcU, 0xa17d3e12f21f533U,
  0xee851fab0ec9fc57U, 0xba0989cf05d51909U, 0x8db904e6fb27f781U, 0xc99e09fced274110U,
  0xcbeb4441153df930U, 0xeff0fe44213809a2U, 0x34fb0d0e4c5be545U, 0x26ae320d210b294bU,
  0xb23c6415dde414dfU, 0x1cda9c1079cd25baU, 0x3204e6e5e8e32f2fU, 0xa1f7f3724fc4ffcU,
  0xe9c17acee4cf0457U, 0xcfab2c2520bd1e28U, 0x81e3132f00bce702U, 0x35b92d4622cfa0d8U,
  0xe607fbef40c1f974U, 0xe18a9e6ebebd3f7U, 0x1cd2fcf97827c31aU, 0xf100e21c3ebd1bf2U,
  0x4ccf3bcf79efef5U, 0x4ffa5326d46b4708U, 0x69eabb360dc53db3U, 0x1bdd79080d28eee8U,
  0x12bbf2c01ab11bd5U, 0xe0eb278d4cf97fe8U, 0xbee1ba506359e8c9U, 0xe4ce2b0c09e593b7U,
  0x548405e0eb544968U, 0x1c1f5712a9cff99dU, 0x2ab9f8bbf286000eU, 0xc32723feb849bf28U,
  0xe7053bec2d1c1f34U, 0xef4ff366ef0a2b77U, 0xfa31ede09caec5ebU, 0x9ff10ef185334bfU,
  0x2a0cba0f22ec310fU, 0xfa2eeeea53247fe8U, 0x2e3dfbf2bcf8f0f1U, 0xeef22e241822eb43U,
  0x421b81f156e12bc7U, 0xd9399cd3e02af84fU, 0xf02454eef1ff16ceU, 0xf8f1f40523033ac6U,
  0x9246214b970b8af5U, 0xfcdd6524b003d0fbU, 0x21be4aba19d0d446U, 0xc964e8ef051be8ebU,
  0xcd1bf3132b15f1daU, 0x4715c6b5f6e593e7U, 0x36bc253df7c1123eU, 0x3131c1690017d132U,
  0xf9e3507f4715ec20U, 0xbae630000aeddb56U, 0xfebbd2d80afefd81U, 0x2d213bd4b78ee325U,
  0x74961f9550124da5U, 0xb8d1054216d139ffU, 0x94ba2d2e1cb37e95U, 0xb8a723c60afbb8f7U,
  0xfdbb12cd4864eacU, 0x31004f3144aa02bfU, 0x36d2082322f2e5e3U, 0xfd68ca3658140bc2U,
  0xf5f912e4daf3ee50U, 0xf5241ebe7f38124dU, 0xeea5e4b412ca4d04U, 0xe9062ef312fa5919U,
  0x3ffd932ee7e09ccU, 0x24edb7f81d0bb3eeU, 0xa3c52cf1264fa135U, 0xf320ab0e3feef3daU,
  0xfa52ebf83e003657U, 0xa693d64d85c4e81U, 0x19cd86b506383616U, 0x2325b34ddec23fc5U,
  0x5a533d9fcd1e201U, 0xcfeee5a726ef7925U, 0x1902fffff595U, 0x125700000befU,
  0xffffe8f1ffffe045U, 0xa2fffffffe0U, 0x92d0000038cU, 0xfffffac000000591U,
  0xffffe8a1fffffa72U, 0xffffef6200001202U, 0xfffff1150000115cU, 0x239fffffd41U,
  0xcdc00000927U, 0x22dffffebc9U, 0xfb1c14e1ea09e8d2U, 0x1981e00c2ce6e31fU,
  0x210f850208e4c41cU, 0x41e7c045b66a1efdU, 0x1381f9f9b4f0001bU, 0xfadf196d15fa0b16U,
  0x31d6b6d756df4422U, 0x10278552f7230381U, 0x77121067d215cd55U, 0xf227dc19720cd381U,
  0xe16f628f37be116U, 0x24d502f8f23ef13eU, 0xfed5ebe62202097fU, 0x250115ff3901c48bU,
  0x21db1e33dc711cbU, 0xc3d5044e3ed907f2U, 0x81dff332cbbe25a7U, 0xbc31d0930e60a0cU,
  0xe3e1d7f006fb81b9U, 0x1b4902ed11d84c16U, 0x2c1433d205384673U, 0xcce5f321fff315fdU,
  0xddef48e5dcec27cbU, 0xf0811df816cd3838U, 0x421af3f81cf11bedU, 0x487f208f1705f94bU,
  0x42dc51fb192408a9U, 0x9a12f0c1e7fecf1aU, 0x81020f3e42e82beeU, 0xe6fcbc250b05f2fcU,
  0xaf3b1ec350ab1edbU, 0xf5fe8d2238fc09d1U, 0x7f42d3eec43a9d11U, 0xec949055a68f5fdU,
  0xfe1810ae9b6424aU, 0x6311c125e3e4a70cU, 0x4b384d81fb3636a1U, 0xa962ee42fae5ee9bU,
  0x105afa2c9fcaf78U, 0x18091310f1c881f6U, 0xd12120f05b50bf03U, 0xc7063cfe32193022U,
  0x47b561d5dba5b512U, 0x9e7130518e43503U, 0xc9c2ef217ffd5519U, 0xe2f8f501cd5c5e29U,
  0x3dfe35230c81cec1U, 0xf70ffe3c09f4122dU, 0xa421ef17f4f1f4f2U, 0x11dc0cf82c52fafbU,
  0x915b17fed0dfff5U, 0xcad9f753aea9e5f0U, 0xeb061614fdff17d3U, 0x137f43c9fce44dbdU,
  0x578c7ff42178108U, 0xabb3b43d3171efe2U, 0x6ac1fcf9c221d1fbU, 0x2a9301bf023a7fccU,
  0x47d6d01147d212eeU, 0x45e1fc56c8a9fa0fU, 0x270ddcd240222618U, 0x67ffadfcdc1d8f5U,
  0xd90238d80ef64222U, 0xa5cf25f30d0afaffU, 0x15c61630d141e216U, 0xd804e51e54f0c97fU,
  0x7fbc2b0d075ac2eeU, 0xebdbc0fcf5f87103U, 0x640f1208cfacb4f2U, 0xdc0bfc6ddd0f07fU,
  0x9f620dc48efaba7U, 0xd9fdd9c93920df20U, 0xbdea2164131183eU, 0x81948410e81750a1U,
  0x3f1126680f17980fU, 0x1787e7247f0a0a64U, 0x3b23a70412f10ba3U, 0x2b16d2cd1629cd16U,
  0xdce7eeb911f4c27fU, 0x17fed03f4006cebaU, 0x361cbfcb20100fc4U, 0x1ad040f216dce8faU,
  0x29cecb1ee9b813a8U, 0xee8136466df33869U, 0xc9bb04ece216ef0aU, 0xf10e3f9cdcc2a30U,
  0xf538ebc07f140546U, 0xc13207c857f6e93cU, 0xa618b0392e46f203U, 0x7f09a0b8a415f3dfU,
  0xb2833cf491a36d6U, 0xdb430230054918beU, 0x352481eee20ef73eU, 0xfd7a3921f3ee2309U,
  0x2aaae5db81faedb1U, 0xd64f12ecf2a7ee48U, 0x25b3cbdaecd7337fU, 0xc4dbfaea63e68fe1U,
  0xfc09dce61d022a10U, 0xe2d1df37c9343625U, 0x1fe02249e6e73cc9U, 0xf620d87f20fada0eU,
  0x192029e6a9060ffdU, 0xcc2138ee12eee57fU, 0x34d3929ed42081aU, 0x257ad65fb1efbeffU,
  0xd349dc107f079f54U, 0xe7ee303eae1e3cecU, 0xed12e7da6325efdfU, 0xcfb0a17ff0230ea9U,
  0x23a0700341ebd46U, 0x170004ed4e250ee8U, 0x181dc8e40e0d2418U, 0x7f1afb1c03da08ecU,
  0xc23d4535df010981U, 0xfe0501b09cf10d2aU, 0xd22a043629af2849U, 0xccd53c0f24ef5b9U,
  0xeb72272e00fd70d1U, 0xf7293bca983e8159U, 0x471d6f0c25257fefU, 0x196e23f34212bccU,
  0x20bd2fabca5cbffU, 0x100de2fe81dfe5c8U, 0x40110bafdd8aa62U, 0xd6ee13c9cc0d129dU,
  0xd42ae68d11bc90d9U, 0xfa47c79797dc1a7fU, 0x540214f6d0352afdU, 0xbd6162ee1db0f39U,
  0xf167ffd111d0a08U, 0x8b0cdef82cf01bfbU, 0x33aa19d210211360U, 0xd9fdfa2d7f08d4c5U,
  0x708ea1ded42c4e5U, 0xcf4cbad634bfbbeeU, 0xfa3c91467f55e2d5U, 0x7a2e0d1e4d545f9U,
  0x3daa7b79ced792e1U, 0xe4a6e5fd2de6cf0bU, 0x81ac5b334c761a31U, 0x71d136fe3b321714U,
  0xe6f7f38c8becea33U, 0xd3ba7fe6ecdd66deU, 0x19dd1300a45c9c02U, 0x10fa04215de1f424U,
  0xef1bda7fdf42f7a6U, 0x8af40c293cbedfbbU, 0xe62ce7f50ac100c1U, 0x432afccad27f1949U,
  0x7fa7d99838362a1dU, 0x2100b0bbd1b25d45U, 0xf5f7200123e4d437U, 0xd406d8cbf4db19a3U,
  0xbd343b81c16d0143U, 0x28b4c2e3ed13c42aU, 0x26284802d5362ccfU, 0x3e9fa22812a5aeeU,
  0x451b33f7ddc3e1daU, 0x1304f2957fe514e9U, 0x1201b741f9043fe2U, 0x4d03fce1df181f15U,
  0xd652fc1a93d5814dU, 0xf5ea20ce3023f4dbU, 0x1a26822b3c37be84U, 0x62435fffbf128a7U,
  0x3d14be4581054312U, 0xfc1f02220fe2cb13U, 0x500ebc02383404ffU, 0x9807dfde9510f8d9U,
  0x7fea61fca9e1e1aaU, 0xf8e95413ee4c1f95U, 0x3d8ec7f0c8fa5ad9U, 0x2318b67fe40694fdU,
  0xe30ea6ce64b7ec00U, 0xf73b8178345b25d0U, 0x66c6b8f6083cb929U, 0xbdeb317f040b3183U,
  0x39afc31f1d44ffffU, 0xde7172405ced430U, 0xcadd24cc23e02774U, 0x45c6fd7a0af305ffU,
  0x722511b8e30c7fbfU, 0x142dccff3e571b81U, 0x3d15d260cc2864baU, 0xf6c91020151346ecU,
  0xcbc6420c32e91010U, 0xfc0c3350cc12d935U, 0xd42acef47f52b610U, 0xea32728197e7cc03U,
  0xf65507e533fd6174U, 0xe61ff211a836a7f1U, 0xf11d06d4c3462891U, 0xc81b1f13f00ed427U,
  0x7fb1f7d2dac4a644U, 0x46e136f4412bf3cdU, 0x4f0e33f89ef34333U, 0x2506d73911be037fU,
  0xb8e4216e44bf23a3U, 0xd7db08afc67fd9cfU, 0x93f10c0f39e35160U, 0xe44be8d4f937ccbdU,
  0xb25f2a0b1f3901fbU, 0x132cd9f4812dbaffU, 0xd5e948d4072cef43U, 0x577acf31180c7f33U,
  0x4df0235507daef10U, 0xde7fe213d418a8U, 0xe7021be531e4c745U, 0xf85e3346c1032c4cU,
  0xa7b115d6e7c6471dU, 0x2213f3e219b66b19U, 0xd24109fae0435181U, 0xcbfb717fc207b8ceU,
  0xa0a114eb15b6017eU, 0xa9bf52e1a948b6bdU, 0x4bf028dc285e199bU, 0x2081016ba1b57ad0U,
  0x24c6020363fba0deU, 0x61bb55c032cb4a11U, 0x1df53ce7b03155dcU, 0xe8e57f954ca5ca3cU,
  0x6f45f0c338f4c533U, 0xa54805becb3a9fc4U, 0x2281da8331818d12U, 0xd02dbed0cc92617U,
  0xc4f8f5167f23dbe1U, 0xf401f9dbffd350cbU, 0xdbbbe3105f011024U, 0x32c4844c200b390fU,
  0x312c352753d32f81U, 0xf040d32dfbd2ba81U, 0x1e1327fd3673ff2eU, 0x9f25d2f2f44b1214U,
  0xe8e82739012bd606U, 0x41ce3c2e3be5cad1U, 0xbe7fd842ea5605edU, 0xb4cb3434eb5b2bbfU,
  0xbd89cbe002643724U, 0x5791ba31f0b8ee7fU, 0x3ee850fee157f940U, 0x7f9bf1defdc9fdfeU,
  0xafc0ff1c0f2421e0U, 0xa4d9a5d0bd1393e2U, 0xf6bb1f197f0d081eU, 0x217f2b5fec0262fU,
  0x3bcac1ffb0fb2251U, 0x68eb7ff8d2f1dbceU, 0x940cf5eaf9a9eff9U, 0x1cd0b7bb42471ce2U,
  0xdb40c146b0d547c6U, 0x643ca7cf1216f97fU, 0xf8f5efdd14a77f23U, 0x6dfeddfafe2dceecU,
  0x7ece4c1eb9f5315U, 0xc811233f151e0afcU, 0x3303e663a7d32081U, 0xe30f1ac2dacedac9U,
  0x502017deab2cf5fdU, 0x7ff533c0ab810f7U, 0x8135ec2f2c0906bdU, 0xd5151647c3f1ce14U,
  0x24b245a6a3436998U, 0xf8f1bd435793d481U, 0xea1bfec95af0d203U, 0x147f07fff824e315U,
  0xf8ffeec8de0224acU, 0x1ad12f2d074e3db3U, 0x33f4ed0c184441d1U, 0xf4a5d75ccdd38104U,
  0xe8b253d63f849U, 0x269ee7b7cff42c1cU, 0xd4fff73624ff7fa4U, 0x1b8a521d06e43e56U,
  0x62eff37f16f13a1bU, 0xfe07cd0f3dfcb60fU, 0xb92d617f25e29cedU, 0xd113ed254019bd0aU,
  0xcf5db455523a612U, 0x9f921d101c181eeU, 0xdfeb0bca06553d1eU, 0xe0cb32fcff07120fU,
  0x72c701b108184660U, 0xed1c7f4a17ae12b6U, 0xae66f9cad1ed32ffU, 0x32ccb1b5c3517e5U,
  0x37bb8715253b32b8U, 0x7f300a18f242fd26U, 0xa06927034212bcd9U, 0xf1da819fdbb01008U,
  0xe33bc326277dbccfU, 0x2b1f27c5af56ecd6U, 0xeee604818c674d22U, 0xff61a55db7ea0745U,
  0xc22c15ff81288ae2U, 0x444b46c72ec1d40bU, 0xce37a8e9ce0cacacU, 0x15ffefc4908bc81U,
  0x210af7c1c92e362aU, 0xf8f109e36c29195cU, 0xce94013d1429ffbaU, 0x59419deecda0460dU,
  0x397fca13ec84ecf7U, 0xa409cb04054e12b4U, 0x3b001445a822ff10U, 0xecfd0bc40a812826U,
  0x3a8141b84cfc644eU, 0xea2cf22eb6b358edU, 0xa27cd103cf4c4e8U, 0x6b240d4b23e0903dU,
  0x7f3ada01f4f74717U, 0x2c06a592f8fbe423U, 0xbe51dd23bc09e2b5U, 0x287f57da25faf81aU,
  0xecfdd3f84ad3af15U, 0xb1ca1e1719cfeef1U, 0x2ad4d71bfa7ffdd1U, 0x6c303362d1d97fdU,
  0xe3d6350011f381fbU, 0x3c4d153c454dc0b8U, 0x249897285cd38a17U, 0xfd18e2c246e4e0d6U,
  0x173dfae68126190fU, 0xf8c93bf62ebee0eaU, 0x2d2d20d3e681c00eU, 0xd10cf7e74265e032U,
  0x29310f161e3b261cU, 0x60ef052230c3dd3fU, 0x4b22c21c00ccd9d7U, 0x81e84bef14d470e0U,
  0xbe125467f0e2a1fU, 0x6ef73fe6bd4b1af7U, 0x436bdbb69254c805U, 0xf634db2dda5181b3U,
  0x7261afe20c6fe17U, 0xde02b924f21df3f9U, 0xfc0034f417ea6a53U, 0xeaa41a5b35210fc1U,
  0xf4ecb67f09dc15f5U, 0x2621d70cf01436f5U, 0x4e2f60515f902fcU, 0x1b33030a81e4fed9U,
  0xde5290039edeffbU, 0xf5f0e539d6d02981U, 0x8dcee2729e20e32U, 0xa486258149c5d93aU,
  0x17ea081fe9db358fU, 0xf3e3d3c335f7f039U, 0x2cd0af2edf10c0eU, 0xa221217ca0ddee4U,
  0xefe3fde57fbfed33U, 0xa97cf1c34537f2fU, 0xedc691a648dfd0caU, 0x9c558f795fcf18bfU,
  0xc32ce0143eafcae6U, 0xfb35f01b327ff600U, 0x23c81ec1eb0e3144U, 0x7f52be23c91c51c9U,
  0x25e6b3136eec0246U, 0x5424165c82f8acecU, 0x21891196752df050U, 0xfbe1814d4ee54002U,
  0x6b3de4f695683d31U, 0x31fc1e3711fc15f4U, 0xe0b40d293dd48114U, 0xf5cdc632d20d090aU,
  0x6dc455d6fc81f314U, 0xeccafee80d3c260eU, 0x6ee1e46d24f3190fU, 0xcdd3eecaabcd1dc6U,
  0x2b81147427340cbcU, 0x31e0d02510f4ff12U, 0x9c47393a032308f3U, 0x600d4cee7f410facU,
  0x4ce9ce4025e5f02bU, 0xef10d4fe217f2185U, 0x4841a6b686d7574cU, 0x1da4e330383c9cb3U,
  0x217db519cf81f5c8U, 0xf614abac4916a502U, 0x8bdfd620d099fd0dU, 0x1856b88115b3c6eaU,
  0xda3420d3314dd6d7U, 0xf542120a05fd28beU, 0xc2fc3602f2fbfda4U, 0xfa2be3d5207fdd09U,
  0x33d60a42a7d63901U, 0xee160b0104f70301U, 0xfaf9fecefa0b057fU, 0x2fd2334dcfdf101U,
  0x7f469adc6ae85e65U, 0x911387d342a5150aU, 0x2c5e35bd050369c0U, 0x37a164e4ff6a0b03U,
  0x1fe80b2ff5ef1cefU, 0xdbe63e227ff9155dU, 0x810219cee1fc120bU, 0x1e3e45d03ecdedb4U,
  0x76ddc0f03e735bdU, 0xa3297f081e6df9ddU, 0xceb8b5eda8240fcU, 0x177827abaf0f45fdU,
  0x25fe81181ad71d43U, 0x4c392a1c58d98aa5U, 0xcef3ea2c4692f921U, 0xf93a38382df13581U,
  0x2e313422b7e8f2ccU, 0xcff803389f03fb02U, 0xedb764e0384b4424U, 0x8df57f2619ec5898U,
  0x5debda858af7cf2aU, 0xc6f06081b5f213e2U, 0xbfc13b7f9a10157U, 0xea023c19b968b8beU,
  0xfdc0ffe74fd0e4ebU, 0x83b8114ee5817882U, 0x13dffe49550303f1U, 0xe91ddd5324d9ffdfU,
  0xdb0d1d01f576c4c8U, 0xf764f67ffbffd894U, 0x31b04f0ce253f912U, 0x30d52e2fbbbff5e6U,
  0xbae432b7fd93b4aU, 0xdffce5200041f00aU, 0xca2cdb21dcf0fdf2U, 0xea7fc109280beeddU,
  0x10b87c7b0ae9ad5U, 0x6811efad2eae1c14U, 0x8f811cfa0b1d2e49U, 0xf008d20327177f20U,
  0xcff5912706130b3eU, 0xfb5aaefbef1dded0U, 0x16c00000562U, 0x11e0000067dU,
  0x28000003e7U, 0x1c1fffff599U, 0x245fffffcc2U, 0x4430000018dU,
  0xfffffa64fffffefbU, 0x2540000008dU, 0xfffffff9ffffff1aU, 0x21800000090U,
  0x2c9000000c9U, 0x77600000203U, 0x1c2000000f6U, 0x4200000046eU,
  0x2d0000022bU, 0xffffff8000000260U, 0x16000000302U, 0xfffffc00000001b1U,
  0xfffffe65000003c4U, 0xa23fffff9d7U, 0xe20000020cU, 0xfffffee1ffffff6cU,
  0xb8f0000014fU, 0x320000061fU, 0x155fffffcd6U, 0x882ffffff61U,
  0x26e00000099U, 0x214fffffa86U, 0x154fffffdb4U, 0x1adfffffff4U,
  0x266fffffc9aU, 0xfffffec60000028bU, 0x3170000010aU, 0x4b9ffffff6cU,
  0xfffff525ffffffbbU, 0x1e6000001daU, 0xffffff9c000003c5U, 0xfffffec40000029dU,
  0x16800000134U, 0x1040000050dU, 0xffffff8100000137U, 0xffffffcaffffff9eU,
  0xfffffa5000000153U, 0x8d000001d1U, 0x1910000002eU, 0x21f000003e8U,
  0xfffffb2800001137U, 0x22300000188U, 0x38400000084U, 0x13000007bbU,
  0x2e00000554U, 0xfffff97600000834U, 0x310000000fcU, 0x275000000b9U,
  0xfffffeecfffffce3U, 0xffffffe100000160U, 0x10400000108U, 0x1160000010eU,
  0xffffffd300000116U, 0x17c000000e6U, 0x1b500000e13U, 0x47d000002adU,
  0xa0000015bU, 0xffffff74fffffe14U, 0xffffffc60000005aU, 0x4a60000002fU,
  0xb00000488U, 0xffffff1c00000093U, 0xffffffe9000001d1U, 0x1610000000cU,
  0xfffffef7000001f9U, 0xfffffea900000616U, 0x7a3a58f251877f96U, 0x2c7d0fffb314cac5U,
  0xffdb95e80046b9a7U, 0x8181770590e8f420U, 0x2d32b55baab6ac33U, 0xf7c4e9e22b79a32bU,
  0xd5e28281008ee64cU, 0x4e4b0bc9092ac512U, 0xfa707b0733e1013cU, 0x39811b50c8811281U,
  0xf11663810de54f4bU, 0xf01548d6d0157f1eU, 0xca06ff3927c7ca3bU, 0xc07fc8b611070b61U,
  0xe50cab26c07ff4eeU, 0xfdcb12f9f809f7b4U, 0xaaebaf4b13ecbf1U, 0xd153b4bc3675e27fU,
  0x81437fa404d9f381U, 0x7fd957d7a11981f4U, 0x21738176bdf95ddU, 0x6912c8ad02d9dff3U,
  0x11de047f81818b1bU, 0x8a81caf7c978ebd7U, 0x1d740335219306deU, 0xf67ffa24fc7f0581U,
  0x7f4cc1ff7027f381U, 0xe01481f9a3ded405U, 0xf81b81b04fab4744U, 0xc8f448e307495763U,
  0x188e817f7f0dd535U, 0x35779c06d82fc17bU, 0xea592205a9d01c13U, 0x9936af9981817f46U,
  0x5da6f286815800b2U, 0x3cc4817f3d8225fcU, 0xb29f4289c14c4e1U, 0x34e0058c10ff0181U,
  0xeceb1f09e20623ceU, 0x470b7fd459f2a3ddU, 0x2ede81f190996b0aU, 0x1dbaef17c237b7a5U,
  0x5353816f54ef033cU, 0x810402f7f9f5d6f3U, 0x250b7ffafb942682U, 0x120f28a603b4fc17U,
  0xd0faacc628b220e4U, 0xde81b306d8f9e1e8U, 0x532ff810167f3950U, 0xbf9bd818dfd4e0aeU,
  0x3c0369a6c1f6fbU, 0x90aefde01ff66689U, 0x2e0596fef488630aU, 0xd5959fc1ecf7b9a9U,
  0xea2337c60c0a27ccU, 0xf120d7fb22af1eeU, 0xb71445fedc38910fU, 0xfb5216afc02c147fU,
  0x17c3ee1faef1c503U, 0x81d0ebcc81138aecU, 0xdcdec86381cf0b7fU, 0x389e167ff10c1485U,
  0x2ab86e3e52ddd6edU, 0x54f66c81f2bf9919U, 0x4b7f67c4a1203481U, 0x81e07f333026b524U,
  0x7f9fead7e1a346feU, 0x4e68e4a6de0bd081U, 0xc27f7fdd23351f23U, 0x6038b681ac29ab00U,
  0x16b2a29358132bf2U, 0x5d0e03de0b81ee27U, 0x6d7fc37f29810aa4U, 0xc1e47fc681005cc7U,
  0x7f7f7f817f7f81feU, 0xffe083818a7fe920U, 0x8153d525ae2b8181U, 0xcddf7f81d2d92c0aU,
  0x1a02af0d96817f4cU, 0x4623813c817cdf95U, 0x649a08b8817f8164U, 0x7f25e17f78b1814eU,
  0xe963791e2881814fU, 0x8616c17f5181dfe2U, 0xe981b8e13821590eU, 0x7f8d8181817f81d5U,
  0x98bdbac729ec7f7fU, 0x1c817f9cb032117fU, 0x35810081527f7e81U, 0xf2f1cb477f397f00U,
  0xc413bed3812324d2U, 0x6189ff3db103018eU, 0x1919fee84b1ec9f5U, 0xe1020ace7f0c1502U,
  0xed7f901c913547eaU, 0xe12925be6cbf8181U, 0x473ff5b5420120f2U, 0xa86f9b14000b81a1U,
  0x8d8182dddd080736U, 0x8cc916e01cf0206cU, 0x3ee402b036b7f230U, 0x7d60e08041c1da7U,
  0xe20fcd21db6b272dU, 0x92ddda2e821c007U, 0xccb8fe817f130203U, 0x81100e12be10e1eaU,
  0xa99dec330afe45f0U, 0xda0bd222022814b4U, 0xf241d64d16a15a54U, 0x197f01fdfd3346c0U,
  0xbbf8ec17c77c12eaU, 0x286f614813f71354U, 0x4c0fb81c912a0304U, 0x42bd22abdb9ca20U,
  0xd0f1f1cd96cc4f26U, 0x15cbd52f189cf8dcU, 0x13e0677feaa0f529U, 0x3537b8f0fb20c150U,
  0x4c4cda2e5ddaebd5U, 0xb12b71db1e0f337fU, 0x370e0ed0d9e9cc7fU, 0x17a514d0ee25d1b1U,
  0x81ffd24ada04f70aU, 0xb960ebecdf29bb23U, 0xdcc085f7331c810cU, 0x7f81004ced361331U,
  0xd4e4871635e4f2a3U, 0xd31c4141d27ffb31U, 0xedfff3cb061e978bU, 0xb4f390bded0bb737U,
  0xa167100f1a1cae23U, 0x2df346d1ebb3d123U, 0x2c7ffdd813077004U, 0x25c5de4edcfccec1U,
  0x2a1f4e18a631f1b2U, 0x6f621f1b7007d657U, 0x7ffddd5081d6b8fcU, 0x8b2ef1257fec1c06U,
  0x4bcbecd2a3d481dfU, 0xe3d3a8b316f3db32U, 0x2f940cc50016e406U, 0xa31f2fd5d7d3ef31U,
  0x22b4659fe8fcd80eU, 0xbe6ec7902b256bcaU, 0x49e2f8c800d3e306U, 0x349a19f720d721edU,
  0x290ae30de1d5d781U, 0xe3c8a33939f08113U, 0x47c2c8dcf60e7208U, 0xf32a09a16781c3eaU,
  0x8101f80eebf00b88U, 0xab1eefa816cbdfebU, 0x1c4309293deffc25U, 0x1792d11681e1eb0cU,
  0x30da22a7f5d2d6a3U, 0x8347ecbcd6efe5f7U, 0x1505f8d6fdc0fc1aU, 0x31d3a3e4f1061bbeU,
  0xa6ec2edd3fd1eefbU, 0xa037f3260307f2cdU, 0x810281cd17d89ff3U, 0xe0451fda95c802dbU,
  0xfffff26100002b6cU, 0xfffffebf000019f2U, 0x21dfffffe8fU, 0xfffffc8ffffffc68U,
  0xfffffe99000013bcU, 0x2102fffff3e0U, 0xfffff38800000072U, 0xffffe9bcfffffeeaU,
  0x237c0000183cU, 0xfffff869ffffe3e0U, 0xfffffaf60000123fU, 0xfffffe8efffff546U,
  0x1316ffffeae2U, 0x23afffffb4eU, 0xfffffe6e0000183bU, 0xffffff45fffffe5bU,
  0x16ec00000047U, 0x2d1500000730U, 0x10bfffffec49U, 0xfffffc2bfffffcbdU,
  0x1ed000000de1U, 0x730ffffffe0U, 0xfffff7bb00001bd9U, 0x18f9000011daU,
  0xffffda0afffffda3U, 0x14e50000225aU, 0x16be00000019U, 0xffffff75fffff79dU,
  0x1e3d000020fdU, 0xd93fffff9d6U, 0x18c0fffff747U, 0xffffff2cfffffa3aU,
  0xf14ffffff3aU, 0xfffffe92ffffff9aU, 0xfffffb99fffff66fU, 0xfffff76900000219U,
  0x20b2ffffed7bU, 0xfffffdce00001af7U, 0xffffff4bfffffeb3U, 0xffffe711fffffeb3U,
  0x63fffffe50U, 0xfffffb490000258eU, 0xffffffe300001c5bU, 0xfffff031ffffed1fU,
  0xfffff501fffff9a1U, 0xfffff3dd0000001bU, 0xfffff645fffffad1U, 0x2d9ffffffeacU,
  0x168ffffe9e4U, 0xfffffd0dfffffcf0U, 0x1b78ffffff91U, 0xfffffc60000018c3U,
  0x22fc0000089aU, 0x13b3fffff710U, 0x22d000001b84U, 0xfffff38d00000333U,
  0xfffff82ffffff4b5U, 0xfffffe4afffffadeU, 0xfffffd5b0000061eU, 0x1bf8fffffef3U,
  0xffffff01fffffd95U, 0x1f4effffffc8U, 0xfffffe7000001f39U, 0x211efffffe0fU,
  0xfffffeaf00001777U, 0xffffff48fffffba1U, 0x233000001d36U, 0x1c00003236U,
  0xfffff82e00000371U, 0xfffffbdcfffffdd7U, 0x1a8effffff9bU, 0xffffff7bfffffdeeU,
  0xdf34ec4ee7e37f11U, 0xaffb8d711bf0c61U, 0xc3ec09d6ccaf4f0cU, 0xc2bb1c04230fc3c8U,
  0x324d20eed4a718adU, 0xef93954efb16f6bdU, 0x11ff3dcb272146c5U, 0x4b5c1f00e78906d3U,
  0xfa2d23f0e962ea24U, 0xb5ec0803fbbfd7f4U, 0xb3bb9669d4331e1eU, 0x3422d3145b4ac4e4U,
  0x2bf73eea0049eb34U, 0x273ba06829145241U, 0x2755545db046e802U, 0xdbc2d0ad1c10fd88U,
  0x6cd26bd682c1ef0U, 0x180c35eae6d6ffbbU, 0xb99b4c32997ef026U, 0x4ddb3c27e512f034U,
  0xd6dda859fc554211U, 0xfceddee14a0afaf5U, 0x60c339590553b5ceU, 0xf5f1c0aa10970f91U,
  0x5b38e2322a22fdfcU, 0xe422c6302aee5f40U, 0xf663b01cdc0de3efU, 0x1c1305313b170de5U,
  0xd95e238043bf6cfU, 0xdc9f0ee9fe3e27ddU, 0xda0bf944cce0e4bfU, 0x36d40b0eebc355e5U,
  0x3581c024fe290abaU, 0x52a00d2205662850U, 0xd51fecb03ed1953bU, 0x27e9143926fb14c6U,
  0x1eeeefe19b119bcU, 0xc9e217c9a4fde93eU, 0xb8e0e718cde28518U, 0x1905dc122571f1e5U,
  0xd1c802f45d028cddU, 0xc344b0701d16a658U, 0xe295afc8e6f5dfdbU, 0xb81c34cb16228a00U,
  0xe2d26f0d7c9dff6U, 0x415f2fe3506e205U, 0x36fb98d5338d23c1U, 0xea0992fafcaa9029U,
  0x37ed35160101d513U, 0x3ad82733c3fdabb6U, 0x81081f33444dadd9U, 0x4aadfb9dded3fe8U,
  0x3f0626372f612546U, 0x4cc515c540ff1f23U, 0xb5dd14c7969fc715U, 0x2f0c3e4d05f1bfacU,
  0x68d6ce2000d1cc56U, 0x46eacfd7dc371261U, 0xe60d61fb11eb1734U, 0x3becceaa5f2d6e2aU,
  0xfddd5158d964480eU, 0x8123730131060063U, 0x93ddfa686e34cc5U, 0x2b2fdfee4deb3410U,
  0x1d1a7122bd1449d9U, 0x9f2d4f0d0daeb43U, 0x5113d1614e18abeeU, 0x68a353f1cf1bafbaU,
  0x19445e334f3b645U, 0xf350e132271efbe7U, 0xdf0ddbb7ae51f81fU, 0x5350c00d1dfcfaffU,
  0xe536da4d22030128U, 0xd8b85739e7386d27U, 0x1d2fba278137c66dU, 0xd3a8ebf546281fd7U,
  0x18fadbe321a40335U, 0xd7d835f92dcf3332U, 0xd79f1155f4d70909U, 0x16f9031b3c6c14ecU,
  0x1271ae517cc0363U, 0x1815fcd86614f19eU, 0x20ceb5e1e2ed2ea3U, 0xdbdfee6be1dbbe4U,
  0xd3c41fdcc61153ebU, 0xd26a9cf2810bc01U, 0x96ff8f3ed8b0d0f3U, 0x1b1d42bfd5e1f600U,
  0x13e6da461e02c1caU, 0xf8f179a5dc1741e3U, 0xb50419c81221fb5dU, 0xf1cafe650810b10dU,
  0xf641fe3115e800e1U, 0xefee0ef7f6dad3cfU, 0x4babf9043d4c1604U, 0xd6ead56b38170f2aU,
  0xdb6ccf0de16b711U, 0x69fe1ef40ec0fd43U, 0xe8c7a02d1c0c1433U, 0x37150822baf9191aU,
  0x9e1fd61153141503U, 0x3dda071ac61724d3U, 0x601fcb32923b008U, 0x551673e5bf041105U,
  0x7f47cedd0afaa9cdU, 0xd5f605c41fe2aebfU, 0xf8530fb6322411c0U, 0xf9385bdec3de02f2U,
  0x2bc0000006eU, 0xfffffdf9fffffe85U, 0x16f000000f0U, 0xedd7da8158112da7U,
  0xe10d66e04481b850U, 0x7f5590d032dfb281U, 0xd426761aadf7f54U, 0xff27e0817f03e716U,
  0xb81aadb36d5a9d7U, 0x7f23b8c2e31a6a81U, 0x81a7e7a42529d9d0U, 0x7fe8359e69fa3689U,
  0x3d641cc081163e69U, 0xeadb189c874b1481U, 0xfb815d08f405717fU, 0xe77f518c7f03a8f2U,
  0xe40e814d87cfd529U, 0x497f3eb9102faab6U, 0xeafe7f0813fd9916U, 0x44e8d17f6849ed81U,
  0x5fc081c3541c36e1U, 0x7fb225280a4c819fU, 0xf7f92906d728fec3U, 0x7fe1a99f22087f02U,
  0x4a1b32569f81a4faU, 0xce8d7f6c238189f7U, 0x7e6381106a2201cdU, 0x2b1b7fb943d44822U,
  0xa7a7e840d886f77fU, 0xef5a7fecb0e87fbcU, 0xb603277fbef2afc8U, 0xa12b7ff67fd0c019U,
  0xd7f02aa4a27412aU, 0xe27f81f0b7d61202U, 0xc9037f1d681b29d4U, 0xef7ff66fcef63126U,
  0x7f300c7f02109259U, 0x58c957362ec6dad9U, 0x3ca87d248d7f8136U, 0xb77f4fd3e3347f0dU,
  0x60224c81b7345b6aU, 0x656fbcf2f9810aa1U, 0xde1a317ff9f4c717U, 0x12fcc40551597f52U,
  0x7f67ce490ef17f72U, 0xdaed81b952c539dfU, 0xba672d81fca681c1U, 0x490bf781c4baa30dU,
  0xe24c0b1981f9449aU, 0x278141c26679818cU, 0x3753b9267f08fa31U, 0x7f097fe3c7cb4587U,
  0xdd00f9d91dc1a92aU, 0x1cebe6007ffc7f14U, 0x8191eeef81f7ee0dU, 0xc4b8137f4ef39038U,
  0xfed4d7f57fc92db8U, 0x8170b97f32fd0324U, 0x5f417f5d1dc00ad7U, 0x36d8e750ec7f1a7cU,
  0xf74b7fee1fe733b1U, 0x96dd7f077f411f63U, 0x3a9421b281457165U, 0xe31bb9f181df7ee1U,
  0x4ab5652e7f17c943U, 0xa0fe9bf8176815dU, 0xc2c6f8e72508b281U, 0xa644efe87f63d4bfU,
  0x8141e50f0ab47f00U, 0x811b928182a64fd4U, 0xe83a5f0d1201d50aU, 0x537f10edefd7677fU,
  0xd0c445dac9567f87U, 0xf43599f07f99e3e8U, 0x81ec12ff82d63a7fU, 0x4ec1a7861015ca81U,
  0xc1ee3637fa8f81fcU, 0xc715254f7f452c81U, 0x3d347fb70efe412eU, 0x7f041445e57fd4d2U,
  0xdb4c8150ada94218U, 0x81b72fcb7ff5fd17U, 0x987f52252e6e5881U, 0x619c81f2190c09afU,
  0x137fe57f24ddb1b8U, 0x81a6395adef70ed6U, 0x7fe5d86a314e24b2U, 0x37dc5f44d0317f11U,
  0xf510e6e17f53361bU, 0xcd29fd0e81da207fU, 0x1ed5ef7f3f0ed245U, 0x18a77fb67f37d144U,
  0x3ab45d7fa5cbcba7U, 0x6f8155f91e2cfc7fU, 0xae07fb9559740778U, 0xfe8169df052a7f2dU,
  0xa1c60fcd26d1811bU, 0xaf7f60c57f44cd06U, 0x19c4fe13e581d9fbU, 0x3481ee388e0e3581U,
  0xa1cba90d1d6f223aU, 0x7f0eef3d28e37f42U, 0xf6dfd3ef7fa1af41U, 0x77bf5b251181e70aU,
  0x7fdca8e93ac5810eU, 0x3f7f1a29a381390bU, 0xe83f4a23e8744ca7U, 0x7fdffe18ef517f48U,
  0xf1da7f6ac9e33dc1U, 0x15377f3e64f20d7fU, 0x7f6600c8b81c1985U, 0x79d20000f2c2U,
  0x109cb0000db35U, 0x5fdc0000d367U, 0x7f590001aec2U, 0xe3740000c498U,
  0xba720000b3cbU, 0x1079d0000cb6dU, 0x9fa200012b6eU, 0x9f2a0000d3e2U,
  0xce7000008e38U, 0xb45f00008672U, 0xeb9c00007634U, 0xedf20000c2d2U,
  0xb0fa00009e18U, 0x6c2d00013abcU, 0x164260000e7bdU, 0xbd940000a210U,
  0xa0980000f573U, 0xb0970000732cU, 0x9c6a0000cbf1U, 0xae460000a3f9U,
  0xb87c00007f41U, 0x9e2e000087dcU, 0x118740000ec54U, 0x15cba0001c9a5U,
  0x9e7a0000b7aeU, 0x1197b00007cf8U, 0xc15c00007928U, 0x87a100009d62U,
  0x15e5a0001c843U, 0x14e5600010017U, 0xb70500012a63U, 0xdf06000102b6U,
  0x72fb00009782U, 0x124910000cad0U, 0x615a0000b1b1U, 0xd4c30000a094U,
  0xc9e900013950U, 0xdd9300017f21U, 0x1a3570000e9f4U, 0x6cbe0000abeeU,
  0xaee60000ba27U, 0x89b90000b607U, 0x6d5300010590U, 0x78020000c344U,
  0x9d1d0000af9aU, 0x11cbf00015b65U, 0x113a600006a54U, 0x7d3b000096f8U,
  0xb36900005cf1U, 0xd69e00005f09U, 0x1f3690000cb49U, 0x16720000090ceU,
  0x82b30000ce28U, 0xa7b3000073fbU, 0xecc000012363U, 0xaa6f00013fdfU,
  0x433100007d35U, 0xc07d0000bc5dU, 0x11df80000acabU, 0xd62f0000b500U,
  0xb9c700009d76U, 0xadbe00009530U, 0xdf2500014711U, 0x8e6b000092d0U,
  0xd1220000d2faU, 0xcfca0000c541U, 0xb4930000d656U, 0xd95a0000fed0U,
  0xcab80001a97aU, 0xfeef00017127U, 0x96890000a837U, 0xe0041960fcdc180aU,
  0x101b45bdfe91bb2U, 0x5725eccccedf42caU, 0xb833f9f4eceaf911U, 0x16ce170629ddfd2cU,
  0xc404c40346fff6f2U, 0x1c02c0085109cd30U, 0xf9310d13edfb0af3U, 0x460603fe2ceab019U,
  0xce351e7f14c3c506U, 0x2c10cc391ae8f6fdU, 0x16af7253f7cef27U, 0x23c83ce60edcf00eU,
  0xb221450f0e10807U, 0x18e974fceafab4eeU, 0x2d5e06e651350303U, 0xfaf21dfb2bebfbfaU,
  0xd2fcd41ff73845feU, 0x37a750211a3fd617U, 0x19cc0f3c341cee4dU, 0x47e8d4b8b3e203f5U,
  0x4fe9dc0f123307a7U, 0x2b64d702814cf6baU, 0x42302e334ebc2bcU, 0x46f2f0eae658d1f8U,
  0x2fe1d514e0529df3U, 0x37d5291b3b274c11U, 0x9e4ff0fac9ecccd6U, 0x5f77f21cb09243cU,
  0x14d3da19c701f4caU, 0x1a6a20c8e8424a40U, 0x50ee2b2214f6def7U, 0xafed15e92e1231bfU,
  0x4923ddf769b00e17U, 0x5922ebd846b53e27U, 0xfd0ecdd823233212U, 0x602aec05e0f7d4dcU,
  0xeef9f4d923e10cf7U, 0x71c206dfc6c6eae5U, 0x7fe12ad0152f17bcU, 0x1b3d03da1cc11b0fU,
  0xf822eedcc0cc113eU, 0xf2e6e4e233f402c3U, 0xed5234e24fe7341bU, 0xea0817390c7015feU,
  0x13c043063ceb6ed4U, 0xfe0f55ddf129e7ecU, 0x30200cba17e2d04aU, 0x2cdc122465c616eaU,
  0x9543a65ca3856f0U, 0xcd5cfaea190517e6U, 0xad2271c19f8e7f8U, 0x39aaea89d300e22fU,
  0x4851021ecbf60334U, 0xe4d0c501cca10aa5U, 0x4fbc7aec5b00ecdU, 0xd411f60d0ec714e3U,
  0x2cfd812faf957c8U, 0xf9c33604f076d104U, 0x25108ad7db18140aU, 0x5fe3ec3be148f452U,
  0xfe02f90fb2c0b2U, 0xbd237d60c0a3853U, 0xa711ddd0e24fac12U, 0x1ef65ad510e50a1eU,
  0xdccdbcdf40d7ec2cU, 0xd9040a0da9f3feceU, 0x325600be9d37244U, 0xf0d604323cf447e3U,
  0x6de92bf0f305033bU, 0x2fd68163d11039c3U, 0x1c0603e40e2ae3baU, 0xe8fefdf8f8f6f008U,
  0xb3fbd604fa03c347U, 0x3e115bd6ad240317U, 0xf4b4e481b01311d9U, 0x9c0f293afc1510f7U,
  0xf51fbfd12dddda45U, 0x1237c2e406f2f814U, 0xd20b31e9cb1cee24U, 0xcad605e8b5e6f98dU,
  0xe43ee4ade7078eedU, 0x2b28e4ebf6e9cedaU, 0xfdc7dce030c3ea28U, 0x3d2201d4f4f703b4U,
  0xd29c25f8a712fcaeU, 0x61a4da844a1fe833U, 0xbbb5d0dee22d04deU, 0xe2c73d08d2b41037U,
  0xb7fb4de035be2c11U, 0x17d2dfd2f4913dcaU, 0x3b10f9051052f704U, 0xf3bbc0dae035e223U,
  0x20fa633ff313b333U, 0xc6131c3cdf09e005U, 0xdb38d419f0de08eeU, 0xed4af9a04d0de135U,
  0x2b9503442b3542f7U, 0x2cd6c50612db3115U, 0xd423a8d3e4f7c509U, 0xe35cf1defbc8f507U,
  0xec23ccb30e11b4f0U, 0x33b2fdfc131d18e5U, 0x9fae12119a4eb0aU, 0x152bec0511045eU,
  0xc334e1342d175f54U, 0x1ef4fb0f5cfaff13U, 0xcd19f37f10c90104U, 0x3b0ced25f4f819e5U,
  0x6de6563141463d01U, 0x3efb2e62c91cd4b5U, 0x52605fb1c1d040dU, 0x2efb0a764e16bf30U,
  0xd712d43415c21e14U, 0x1cb72d36494b07acU, 0xdd0f01f7d143ff99U, 0x373df8da27350962U,
  0x17cec45625daefa8U, 0xfc214629e0bd30f6U, 0xcdec351d09134cd0U, 0xb2fbb0fef9b30b12U,
  0xadeafa3b7f41e60bU, 0x63b62e13d08f446U, 0x2ecff62bc1123dafU, 0x9b9e8f638f505e6U,
  0x47cc16b02216053eU, 0xff01dd050605be49U, 0xd7b7df614946213aU, 0x2134dde5b12c18beU,
  0x3ae2072246e5dc1aU, 0x21e1e0dd9212441bU, 0x230afbf8fb000558U, 0x1d2b3cdf1714f64bU,
  0x5e2080b13af2313U, 0xdb0712edf1f7261cU, 0xdf260343ffc73c03U, 0xdc34f800e7e6ef1fU,
  0xeff4f0f1ba3605ffU, 0x340cdae832d1dcf7U, 0x5a42e9bead02c701U, 0x7083f097ff2ca04U,
  0xdac739b0cdde0d14U, 0x1cf74a0dde082254U, 0x2127220628f01918U, 0xfbf32ddc0af35849U,
  0xdf5c1efbeab83bbeU, 0xbb0002f0e901db1bU, 0x32edd91812e41c0eU, 0x53f013481e08e9b3U,
  0xda110066f1bb0212U, 0xe47ffe453da6fc2aU, 0xfff94ffc3304f9cdU, 0x82fffdb241c6bf4U,
  0xa91b14f9eed614fbU, 0x30ddd50861b8cd15U, 0x60274ad0224328fcU, 0xdc14eae32221bdb3U,
  0xdfc8170fdeff6a55U, 0x1faf09283e3b44f3U, 0x9f4d34161ef9188eU, 0x15d2683e471fca12U,
  0xebc1c52c385dd916U, 0xd3b4da222bcd023fU, 0xfea308f5f2a0e3e8U, 0xd10e0dd0d4cad9efU,
  0x831d15ad4d2256cU, 0x25f4c6de15faac09U, 0xb64f203190fc3bccU, 0x71fa6836c7d6a5d9U,
  0xe6f7a9cfc8b1bad5U, 0x5dc1100c707bb06U, 0x37eefd2f4727333aU, 0x35dcf8dde40decf0U,
  0xc7ff5c458447dfb5U, 0xda128b55f3bf61d6U, 0x2ae906b4cf371ae6U, 0xfe2a372136e3ed1eU,
  0x31217fc4ff15e6f0U, 0x58f30dcded04cf0dU, 0x17abff0a681bbf25U, 0x1650bcf8ca1829ffU,
  0xe2b6c122d3c63ac5U, 0xcb58b8dedcec3d3bU, 0x5220df43a241ed8U, 0x130dcfcd20130afeU,
  0xe209ef59d1f65f22U, 0xdee32117c0c241daU, 0x15b3dfddd5b2c00eU, 0x2051110149fffedfU,
  0xf7352fc9e0fd252cU, 0x3b60cce2906ec31U, 0x210ebe1daf24ddd6U, 0x1af729d81930d3caU,
  0x4b26e2d3fcdf0227U, 0xf6f30be5e6ad13f7U, 0xd4ce621577bdf117U, 0x29c8e01bcbf81b81U,
  0xe3010ac0292aef34U, 0x7ff92b31f8d70627U, 0x10320e5ea2fc9ffU, 0x49fb180c2cfec20bU,
  0x4debc1ca2637cf21U, 0xeff1d814fcdd1343U, 0xf9ecb8b3f9fbf409U, 0x32f6e0f909ee2c01U,
  0x327f71e2ada1618U, 0x9d7edd6f71b3902U, 0xe1da1932fe0d4ad5U, 0xfbe256e91a0ab9b9U,
  0xf3f006f4cde5d92fU, 0x3111e0de1fdcf842U, 0xd92df3170fe62b20U, 0x9fde1a2527151b01U,
  0x2ce9ea2ce524c851U, 0xefff9c0e6ebedeaU, 0x4ae3d210e326ce02U, 0x16ccf6d00215b37fU,
  0x222e232df148ccefU, 0xdae4f59de66a08d0U, 0xe85462cf3402e4ddU, 0xff19d6e317212340U,
  0xb3f35d0c03f0ec08U, 0x7f2e0feeaf909f4U, 0x921d33a14134c33U, 0x9addc4da2fece5f3U,
  0xf606eff5f9e9ddU, 0xe7360ffc1bb4c72fU, 0xcd741ca01efd158U, 0xe4171eefe03b1b0cU,
  0xfb33d946d2f10f13U, 0x311ed3dad00c0fecU, 0xe004fa3a40b9fef6U, 0x6e205fc1f551bd7U,
  0x12df134f0fcfc37U, 0xd5e8ea2ff1d12ff4U, 0xbd4b1e0e0bed3b36U, 0xc8d8d32ff2bd1ce8U,
  0xef164df07fccb509U, 0x61dceef40e1bdd1aU, 0xf3d51db62aaae654U, 0x41f2ec391acb2951U,
  0x590119e5190308f4U, 0x11b830323c2d1eccU, 0xa26f5dcf2a1015e5U, 0x42d5151f5c21106bU,
  0xd2d3295f061a4031U, 0x44091b090beef1ddU, 0x423be1fd1410fef0U, 0x29fb0152f621c0fcU,
  0xbbfa209ad6454323U, 0xd225eec5ddeb2410U, 0x30f07503d692919U, 0xc058ba544d3f16f0U,
  0xaaa42824ce6ffac3U, 0x3b20e000330ee2f6U, 0xf11f1cebc32ef0c9U, 0x1fdebcea4e112231U,
  0x4e453928f0032b18U, 0x3f03f437420f0f02U, 0xa78206eed22ad414U, 0xe33815bad1169534U,
  0xf419d12d1fc91823U, 0x1bb726e810f9ebd1U, 0xc42200b5e249c614U, 0x445f9323ac0e4f7U,
  0xcaf842f3d8cc2514U, 0xb32122363ac9d82aU, 0xef2e7f0ff24d2b0cU, 0xeee70d2ba4e2ebf0U,
  0xf1fb33cc14b2d945U, 0xde331324421eee05U, 0x1f0a6225dd070420U, 0xe3d610ee07a8d005U,
  0x29191fdafee30fd2U, 0xca0728c4a6cf2df7U, 0xcbd53d0fefb41db1U, 0x2209080f301e2cb7U,
  0x19fb6a5e0fdbd320U, 0x2d24edcee456fb1dU, 0xd700c8d4eafeeae8U, 0xfb0c00edfef208ebU,
  0x504ae3202104812aU, 0xed2ba22c25d8fbcdU, 0xfc47d4d6062810f8U, 0x12250cca06f73e19U,
  0x92deb221400c508U, 0xfbdc99ea493c0747U, 0xb71f1509ced3c01cU, 0x2212a61411feef21U,
  0x17e3dff628d2d2f8U, 0xe7f0b8e5680b8133U, 0x1ad4062203d8e653U, 0x2d4dc3e92aed015aU,
  0x1e4cfbeccde41300U, 0x52920ea5310e7f9U, 0x20bd186352bc21f9U, 0xfc200eddb102f9edU,
  0x17170453520f1217U, 0xfc3e0ce8f6c110f4U, 0xe17422a9f42707e4U, 0xf6d43a1b56d71e3eU,
  0xd710e9cde19307c7U, 0x12f1182af8d7ca43U, 0xf8cde91fdad82bdfU, 0x19f2eedecf353f02U,
  0x8f715c2d12e5fdaU, 0x11d1170aef523dbdU, 0x25c9c6a0411f25e0U, 0xe916f4253addad20U,
  0x2c306db110b13f8U, 0xdcd64204ba5cb281U, 0x17d80c11ce41be01U, 0xc8b92c0f1bf1c720U,
  0x1e0d6d3415bf4422U, 0x2ed7160d0324c9fdU, 0x102a53f8e112b90dU, 0xfe908b8fdc7623aU,
  0x5cfc123b21c60dd1U, 0x7be01e9d74834a6U, 0x63e6d93619d04763U, 0xcfed6edf50cf960U,
  0x9814be1bb5121ef7U, 0xdce58f43cfa3701U, 0x427225ddf1c3fa4U, 0x9e0c1e3281afcf3fU,
  0xf4080e27e3054a20U, 0xf349c4d6243c072bU, 0xe0e4c9e7f2dbb411U, 0xefcf94034a262d20U,
  0x254bc5eff3a712f2U, 0x750c120d0f2d012U, 0xd53bc51f41f9e6e1U, 0xf8e3f61bf1c7c8c6U,
  0xac27fef81acce7eaU, 0x1b1ef713150e1ed9U, 0xf25ed73fd203e2dcU, 0x1912db47ce0a1b37U,
  0x350dae29cb1f45feU, 0xe4271202461264e4U, 0xec9ce5080edcf707U, 0xf8fde5f92ee5ecf9U,
  0xb9ded614f5f9d4b4U, 0xef21ef50dd725ffU, 0xf40be9100dd5ed2eU, 0xb39243a616f84be4U,
  0x3102feb40294ccdcU, 0x5234111e74d63c02U, 0x2038c84a1ff10107U, 0x4517f7dabe12f9edU,
  0x10bbbaceef48111U, 0xe9f8caf9f3dacf17U, 0x1cdedb30cd04ac36U, 0xdaf70bdf1b1408b9U,
  0xee25faf0ed04faeeU, 0xbe28af176be6433bU, 0xb91f28fbbdf3d2e7U, 0xb1a231703082ce1U,
  0xecf316fff7d9fbd9U, 0x204c0df6fbbfe3aeU, 0xe9e21dfe0ed8303fU, 0xd2f0097ad42ee93aU,
  0x60fda40649bcf5f8U, 0x7f41f9d8d82bfcf9U, 0xb526ffd1be2ad8ceU, 0x2aaeebe1e2442350U,
  0xfbf8e6343cebe440U, 0x6912e631a2f032f9U, 0x26dc10db124b0ee5U, 0x4fd256de8ecdc05U,
  0xc61ff62f07aede3fU, 0xfd3161f636ee13ceU, 0x504505d9d83e1117U, 0x37b8a44cc611e5c4U,
  0xe3c7ef7ee70ddc2dU, 0xd3ce113b324f8f9fU, 0x249e1e114eeccae5U, 0xd6e03625d8090f07U,
  0x97d9b812b71a4fd9U, 0xf1ba06fa2224dc03U, 0x6b7f1c2160db603U, 0xcddf11e1012838e8U,
  0x20e6ea7fa63c0ad9U, 0xef052cccf4ed2eccU, 0x1c3ec4bbdc06c342U, 0xe316d6bdf108ffe2U,
  0x3a314a3c1e26421aU, 0x1948540501fbee10U, 0x365e005bef1340bU, 0x1b06e5c4c74bd0e9U,
  0x321409173312f542U, 0xfce302e31a17f825U, 0xf2d60ad8fffbe30bU, 0x30f2fc0a0ff2ae05U,
  0xf3cfe30117fbf904U, 0x274be7f99d2e0202U, 0xd2ba4391f2da0028U, 0xae43238e31af036U,
  0xdfb9e1c611e735a9U, 0x2bef6d0cabe06c8U, 0x8d498a91520fbf6U, 0x36dd20f0228121adU,
  0x260de392a4d74573U, 0xfc1f2ce24b454737U, 0x94131818fe913415U, 0xf824bc2f9ef362caU,
  0xcf5d023a223c9de9U, 0xd1ec20063115c8dbU, 0x311db311c149f810U, 0xddf45bcedca4c416U,
  0xe7abd41750f20003U, 0xc9ed20e7c0f6f611U, 0x4ccf4421eddd2731U, 0xf4da15b9db229f5fU,
  0x2dc2f6fa3268f705U, 0x9652abcc206bd17U, 0x1b4706fc9b1114bcU, 0xf9033aed1de0dafcU,
  0x27e0c1cd0bb0083aU, 0x160dbbe22a0ee01aU, 0x4bf399d62045dc04U, 0xd217f9c0fad110e2U,
  0x35ef43bb6cd41af2U, 0x1eb93ee820ff1413U, 0x6c4d7d5c30ae6e2U, 0xb5aff3680e5b59d5U,
  0x92f662012c2115ebU, 0x4bfa6bdcfef9a9f8U, 0x4cbcaa26f8ea3657U, 0xc8edcf3cfe34ba16U,
  0x94844363adb2457U, 0xc87c491047dd37bdU, 0xa7fc600f51b2218U, 0xd316f4c33509fb3eU,
  0x2101da0506d6b602U, 0xbfd9fd002bc0142cU, 0xece30cdae8e016c7U, 0xfcf31e1c39210fcbU,
  0xe823e21e103037f4U, 0xeceafdb158993ff3U, 0xdfce81f1612936f7U, 0xc8ededd80e2ece44U,
  0xd52c2d14f54a0433U, 0xaf0718463a161d30U, 0x1f0f0914080bdae6U, 0x28cedde064cf0b2fU,
  0x1bf5e24f34cb1a00U, 0x3b440c47292bd2e8U, 0x2c325dfae2f4021cU, 0xc01c31c1919e003U,
  0x1a0ae30420ecdd2aU, 0xce71edbb628f6e6U, 0x27bc39325ed9fd33U, 0xf2fb121cbd2f544bU,
  0xfd2258c32435f807U, 0xdfedd920d81ea6e2U, 0x1fd64ae8d8cd2137U, 0xe3fb15edc23c03d9U,
  0x5cc18d2c702b27aU, 0xbbdb23fbde2b050bU, 0x38aadfd7583e17d3U, 0xcde8019dcd0a14ccU,
  0xedf026fdae0b0e3cU, 0xcb14e8e9e1a5deb4U, 0xd1c388113f6fc2aU, 0xde5fe0523a2a18caU,
  0xc04a0acbffe7e709U, 0xe418bdf8f810ffd8U, 0xe724a57af3482b37U, 0x282914d6d1c9e41fU,
  0xf7d903e326e20021U, 0xc00a2724b5b4d02eU, 0x7fea2fceee32e3e6U, 0xcc4aacd8f2e3d827U,
  0x6c05ea1face9fdd5U, 0xfef3ff170857cf0aU, 0x17ffdd130ccf1566U, 0x1f3ee0ea22f1e4f1U,
  0x1cbbd0e81532cf47U, 0x10d71007150eba2eU, 0xddbfdc4f7179003U, 0xd812ad661220cad3U,
  0xc61cf93728cfd0f8U, 0xfbcfddc73c2efd46U, 0xb3db07f89c4303f7U, 0x2640caa454b4f814U,
  0xdf11871ee5254b0cU, 0xae00cef147c9e436U, 0x3b4103510c0820c7U, 0xefced70523fe56c6U,
  0xd75308f1004dc414U, 0x1718ebb1e77f40c4U, 0x32501a13ff4b0639U, 0x646e0f2bff22e12U,
  0x15c1e222357cb800U, 0x623244f3bd6f605U, 0x9bc1004d6dc3adcU, 0xc4e5e2c60e2c1bf7U,
  0xd00dff222e2508ecU, 0xc0f2feb0aed8cd0U, 0xc502f0e4da30bdfbU, 0xccf5e7084da6002cU,
  0x34ecc2b6e4d80803U, 0xded740d1bfbf28ddU, 0xeefc2bc0f6e13e33U, 0x1ed34f330abe88beU,
  0x24b1a229300fff11U, 0x2ce190a0deeeeacU, 0xe83251eeeeef1ed5U, 0x50e0516d2f4da1aU,
  0x2aacf63597ad54faU, 0xd6dc770cf2e74ee4U, 0x217f37d3b9f26c03U, 0xf41e2b32e030421eU,
  0x9eda9a09d83f480dU, 0xaaf21734f61e301cU, 0x510fb6d387c13c0U, 0xca0a03c243d9083cU,
  0x1b1b20500a22babeU, 0x6eb1e202a1afafcU, 0x59c03ed01a2101baU, 0x29d6debb15321b17U,
  0xf6dab1df653bfb14U, 0x10ce15b512ea072bU, 0x3b0fc7ee5feb5cffU, 0xe12f11d6220d36d3U,
  0xde35fc3322ced2faU, 0xa3f7130e213b10edU, 0x19da522432f3c769U, 0xb5f4c7e02f210324U,
  0xff29ef95201d32c7U, 0x6ccd1f70ed87fcdU, 0xf2193ec74032d619U, 0xe0f3bdf45a02202cU,
  0x3a150f14c3169ff9U, 0xfabc0cdefed5bae2U, 0xc804cf07562a5d22U, 0x20f5d43932ff4717U,
  0x7299befffde1dfbU, 0xc2131e3a2178510dU, 0x14e1f1608ed3c13U, 0x3ba739d3f12842e4U,
  0x14f211fef3e334cdU, 0xdddd3cfb31feedd0U, 0xf6f6113df8bd250cU, 0x10ecd8fb9ccff306U,
  0x2529e9bc10addb07U, 0x194aeb28fffcc806U, 0xce35c197ba01b4ebU, 0xfdfee15097ff1faU,
  0xc6ba47efd7f1f0d0U, 0xfbc9efdceb092504U, 0x2ae3b7200e241c41U, 0x373dfc13d206d459U,
  0x1e09c80cd109fe14U, 0xeff2ff28d8f404f4U, 0xdb4b32b7d22cea13U, 0xe5f4ccecddc425dbU,
  0xf60beb280517f318U, 0xc323d94fed1145eeU, 0x3bfb3eb8170e2025U, 0x7f0720e8f9f5cfc5U,
  0xe60df22fca1a2cabU, 0x4bd254edc6c8ce2aU, 0xe3d8170edaeaf7cdU, 0x9f82624fad7b121U,
  0xbc05ffdce80935e3U, 0xdecec32d34010b0fU, 0x1424042b3324da1cU, 0x2a0011cbe5bd4804U,
  0x53e240160807dfc9U, 0x71a551bef03dfebU, 0xfbecabcd390bf83eU, 0xb3308a5eff21dd7U,
  0x2f1fdad2fce75601U, 0x1f95eabbb1dcd2efU, 0xfc30ffe542d3b129U, 0xffffea26ffffee06U,
  0x1781ffffe7dcU, 0xffffffcb00003623U, 0xfffff3cdffffdc13U, 0x11b9ffffe1e9U,
  0xfffff77100000d2cU, 0xffffe021fffff89eU, 0xfffff970ffffede2U, 0xfffffe38fffff40bU,
  0xcd40000050fU, 0x1e600000776U, 0xffffee0000000aecU, 0x628fffff474U,
  0xfffff6bc0000069bU, 0xffffd72bffffeecfU, 0x4d700001a3dU, 0x40f2f9c6e746e2d0U,
  0x21af2ed71b7f300bU, 0xbcde23b0220e1d00U, 0x8ce3dfcda13d238U, 0x7ebd4bc25c07781fU,
  0x9ceb7cabcff1277fU, 0x3c401afb91911560U, 0xee095235e2712ccbU, 0x9e67fed59ed0318U,
  0x812101e335735e0U, 0x1c30e61fc53fc129U, 0xecca21adf5d0cb15U, 0x61e9e7c6f5ccdce3U,
  0x947f3eb40d5035cfU, 0xdf116f126ed9152U, 0xd85510c139e8e011U, 0x522ed44bffdf24f7U,
  0x94a657f7d5e6ee0eU, 0x1bfc341913b9693cU, 0xd9eb6aea34816cd4U, 0xbc92c5caec3025ceU,
  0x60b206677f149ed0U, 0xe8cf6030b81063cbU, 0xca1f40b07b87daaaU, 0xcf11f01d1bcfe807U,
  0xc1281ea5f10904e3U, 0xcbe1d781f6053f0aU, 0x1ec6ebcbe547e207U, 0xdacf1e2808e5c2f6U,
  0xfaf08120072d0be6U, 0xc1ddd1ffe142331U, 0xe0e1f2e8e1fad33aU, 0x444fe242e4f81bfeU,
  0xd1250c0239fd4221U, 0x815f0dd96008c1e0U, 0x402066553bc201cU, 0x30e627f905da2f37U,
  0xe52e14ed30e42203U, 0xdd34161e8135c1ecU, 0x251154061ef506e3U, 0x17278e31810bd9faU,
  0xc9c11ac8a804e930U, 0x48e1cd00cb14cf95U, 0xbbed2a2225c3ef67U, 0x2b07caf6d6fe0f0aU,
  0x3e06d17fafdff63bU, 0x11a54fa19d5dd19U, 0x3b22f2ecdd14f2cfU, 0x5281f0ae3f772e2dU,
  0xef83002d459e2abU, 0xbf30f413d9f60e0bU, 0xe0f63e2d112d25feU, 0x7f11b71e0503e7bfU,
  0xf1c73cf1032f46f8U, 0x2f92e9c060eaf7d7U, 0xe306ec2de96de706U, 0xc7e7273108c61bdcU,
  0x18f9d9ecdff50adbU, 0xd2d207397f4dd146U, 0xe1fef6e1e927e00dU, 0xd110621060198bb6U,
  0x172eccc55827330bU, 0xb91ccc81cf0d6213U, 0x90adbee13f3daU, 0xca81ff7f0d08c02bU,
  0x2015ae0a0d156b0bU, 0x18dc234d0a4d1500U, 0xef33feb8f2b029e4U, 0x703b374fe4185ba9U,
  0xf881a3e9efda5901U, 0x993061dd4735e7a2U, 0x4a595565bde7ea9bU, 0xed810f06021b483fU,
  0xe1cb1cffe547c118U, 0x27e7fef8dc0be4ddU, 0x21f635ed19e0f310U, 0x1416dd2826fed416U,
  0x7190afb31127fdfU, 0x37d2ca14242502feU, 0xc94abbeaf923ea47U, 0x7b23bfe5b9fd2f74U,
  0x577f3e3cec45c3ebU, 0xb713f03ef011abfbU, 0x2fb7a6d2c3faf022U, 0x1824ce59c60dbaa6U,
  0xc70601fea3201281U, 0xc8ee5fcdf6eb080aU, 0xd7c40b3b161d25aeU, 0x10e0f4f50500f203U,
  0xe63101a20747ba17U, 0xd970100481ff2e65U, 0xeeee0afbe6d323f0U, 0x36528173922abb1fU,
  0xcd31feb321f15c0cU, 0x1c0803e3e1be1aa3U, 0x6feae83aec0c55d1U, 0xfacdd93345c2c90cU,
  0xb6d4db81e5cef5c9U, 0x211b430d1df04905U, 0xaaf5031a040febe1U, 0x2e1f0e3fe0014fc9U,
  0x859482f8155fc18U, 0xf9d9211415ee85ccU, 0xefd409143410254dU, 0x9dde723adeeedc46U,
  0x1be8cbf2fab8e137U, 0xd02963d063b3312U, 0xea14e6fb81670f3eU, 0xfdc7f1e5e96436d9U,
  0x28d8c2600a23eca4U, 0x6db01f612e0cd45U, 0xc7c01e5b125cf97fU, 0xd614139708df814cU,
  0xc603c495d2cf0ad6U, 0x63611de90cea6b71U, 0x3762c4684002bf5dU, 0x8fed10df3aedf7ffU,
  0x6efd719231201f7U, 0xfd2fd511374f0b19U, 0xfef3f0e8811dc72cU, 0xf71cee09d932ff1dU,
  0x58d015f960a2f111U, 0x9202500280f03e5U, 0x54bff2b9d7f0506U, 0xd13204f8fbe4b72bU,
  0xe7fff9f43caf10d2U, 0x35df09041ffcb72fU, 0xc8020308c77fcef4U, 0xe093b47f49ffcebdU,
  0xee00b5e0d6cf2cd7U, 0xda94e028743cd5ebU, 0xcf5fddcddd21ada6U, 0xe90c9fc13aa556d3U,
  0x202d7fe2db7526f3U, 0xfa6dc8500bce73fU, 0x13f74b23622c3300U, 0x162629fed41d0212U,
  0xc1ccdeed01fe3710U, 0x81dcf9e969bce5efU, 0x3dd4f801bc51d76cU, 0x2f1081c4c33f0910U,
  0x35ee0a2102371516U, 0xedd307320a33fef5U, 0xa7e9af0c1508e000U, 0xa812d93b38e1a954U,
  0x626be3d98ce965b2U, 0x31d4293c07f9d50cU, 0x4100caa98f7fcf33U, 0xe5020fd7c381de4cU,
  0xaff81a8ad3070698U, 0xdc2033e741f084dbU, 0xaeeee9216ec617c3U, 0x1efe81ac2219d60aU,
  0xe5ec1650e43b23bcU, 0xd1e5e73b350dd74fU, 0x2b52fb338ed344e7U, 0xf9a1f40d6bd019a1U,
  0xe61f9610122a06d2U, 0x2d46598206f7093bU, 0x8132e3e7eefcc9d0U, 0x7fb4285dea386670U,
  0xf008153113cf3abfU, 0x92381d0c1f4e0b26U, 0xe39ddf15eb44d423U, 0xc373907f042c0952U,
  0xe6deb1f411d60711U, 0xcb4dd45dbefce1adU, 0x3dd1138c76945f3U, 0xf5fa29b51c15009bU,
  0xab1022cbc26d0457U, 0x48be0ce404ea39f6U, 0x1f282f814f9514f7U, 0xef51cd9e1dc77c8U,
  0x2a062e3cba4013ceU, 0xfe8133cf3807fe05U, 0xb8fbefe1ee47fde5U, 0xac6561dfc0decd7U,
  0x9d0c01cb620eae0U, 0xf7babdbde319fd31U, 0xee273d7f123de1a7U, 0xdc28252cd6395258U,
  0xf3ec7f00edc853dfU, 0x1dccdd41df94ac2U, 0xeb21f5e3f5111bb3U, 0x62d10d22d8fd04ddU,
  0x34b8c416cf05103cU, 0x1e24566c25184e7fU, 0xdba940eb26fbf1eaU, 0xd4094a1d0a36dd39U,
  0xa131de11e1f9f2dU, 0xe25124a7aade2fcfU, 0x28810cac19bfea42U, 0xd30b817de503f40eU,
  0xb7d254c33e98eb9eU, 0xe412081a00af0b0aU, 0xfdf0ed1a9921e0f9U, 0xe9ee2958e5fb1deeU,
  0xdf240ff60927fb03U, 0x92030807da2aefb2U, 0xe81d15f14906e481U, 0xe8d6aa0efbe9d6ebU,
  0xf212f118e92d0fcbU, 0x7de12057f23b3edU, 0xf8d8cbd41d102b6aU, 0xd73fa112dfd5c29aU,
  0xfe0fcacdc4d2e5e5U, 0x2381c4d1fe3e1cebU, 0xc2b375f33fbae60cU, 0xd7faea4ee3d4f2cfU,
  0xd97d12e116dd7f4aU, 0xfba028b20f0c9adeU, 0xe333fdc3270823f0U, 0x3c47c618a1591807U,
  0x1cf722f70a3ccbf6U, 0xea0aa4f618b11c03U, 0xb4202e1dea21e781U, 0xbeb3a156b613443bU,
  0xf5a8010bfcd0e2afU, 0x45c154ad3f3bf81U, 0x7c3e6491ac936eeU, 0x20fd1cdcf7ff0549U,
  0xe1022d88e7f51a91U, 0x54e8d622bb2df081U, 0xd48de712f20d25dbU, 0x462825f4df062229U,
  0xd1d0bedfa391b63U, 0xfc13e931d80e247fU, 0x4109120d30282122U, 0xeb4f2d7f0d391631U,
  0xc601d0e018d50115U, 0xe64f16f0f6f53519U, 0x28d1e8081204f1d0U, 0xd8febb37d3f2847fU,
  0xf5240cdc210219dbU, 0x400c2718b73123d9U, 0xdf06ca4fe2d1c331U, 0xfbfd27f2f1aa1abaU,
  0xd7f21ebfffe02fafU, 0x66e925a03c0681beU, 0xd9eb6bf4000800ffU, 0xe43fd111afebe6c1U,
  0xe21d08f4f6b4d320U, 0x4200e4efe5ceebd7U, 0xe8c8ffc73d810c01U, 0x3e4f419191f31bfU,
  0xb3ba93ee5eb1ff9U, 0x811420bbe91ac530U, 0x1bc918030be9f9e0U, 0x81ec064846f5d7e9U,
  0xc9f7dfe6bae2e311U, 0xfaf110d30902500aU, 0xf2d1fcd7d7c4985dU, 0x33509ab6e6feef03U,
  0x4caa06d1e9141910U, 0x2517fdec07e9fbc4U, 0xe45ae07fc6381623U, 0x5626e62d81ec71adU,
  0x5256bb16d0f7afe3U, 0x41af0076fe6acbdU, 0x4d3c2e5b483243d4U, 0x1c1c0bf61f1c03cfU,
  0x9e0f5bd1a6c0e7dU, 0xdbbcc58acf0b7ff7U, 0xd0272440cd8cc251U, 0x81ee26611a10a2d5U,
  0x1010ceee0e9ca40dU, 0xdae6d2de950ae9edU, 0x6e28b4be16db17c0U, 0x622f9e89d0300e7U,
  0x22d6151bdcdfa12aU, 0x221b7fd8d5d1f5e4U, 0xcdd431fb40bd30ceU, 0x3219bf6207c834c0U,
  0x3408d103c7212edfU, 0x8d2b848692fc6a1U, 0xef108138bf073725U, 0xdad2e57fccf7f52eU,
  0x2fc2f1f19ccd32f5U, 0x5cd3ea2c791b18ecU, 0xc137f9249b1cbc3dU, 0x3bc4e608cedf1823U,
  0xcc25e009be432cd2U, 0x1db00bf6410481d9U, 0x9df5ea47bb321765U, 0xc407ee2238519327U,
  0x130da4d3d8dd9401U, 0x6ae5bec42a816f21U, 0x12bb35f60e16b6f0U, 0xe8a2324fe5c1bf04U,
  0xe6322520184a14fbU, 0xe51df73e2a7f840dU, 0xd41710c210dfe071U, 0x4a278140ef5fd750U,
  0xf1bbf0f54793f366U, 0x39fc4608f4322fb3U, 0xfa1cc7d902f3f009U, 0xf67ffff8f83decf5U,
  0xe030b7cd101ffd39U, 0xd4fdc013ccf03711U, 0x11f92df4a949dcc2U, 0x16caffe1e2d9e6f2U,
  0x172e4fe2232b4d03U, 0xe2ec42b4f0f081fdU, 0xe2162410168c3921U, 0xf528143f05e3fe3dU,
  0x1a0200f8071610d6U, 0x2105c329f517400fU, 0xc91ac303812ab86dU, 0xa3a4f9687a0981e9U,
  0x1da215da2807dfU, 0xf8fffdc4e212dcecU, 0x34457205dca1ccf3U, 0xfc29088120fbfc26U,
  0x29dc3302b8205b09U, 0xe5d3efcf37f4bb13U, 0xe170f5753ceeec03U, 0xdd1d5ff0d7486ce4U,
  0x200a81dc170a1e17U, 0x8d6137d7ec19cb67U, 0x5b0bfa10260d0fbeU, 0xfb4a0429b71b2cf4U,
  0x2620280c3de3c941U, 0x41ed313be03fba0U, 0x70c9eafa1bf51081U, 0x1016df5f297f350bU,
  0xddebab422ee2043eU, 0xeb2dfd42f8d004fcU, 0xf4d22518d5df0ed1U, 0xf12e29dfe65e3121U,
  0xd4a4e4886b04dafbU, 0xce707feac6defe6aU, 0x1b05bb37bdd2b9ecU, 0x482e3f102e1d3d1eU,
  0x3b813e23a011757U, 0x23fafde7b0d202e3U, 0x7f43ff3e0600dee2U, 0x510f1fde13253d6U,
  0xfe0ec7ffab6fd06U, 0x32cb3060f2e8273fU, 0x27c1391aeacf13d2U, 0xbc12ebb60dc1ce33U,
  0xbf364f0c46ea36ddU, 0xd80dd8aa00fe81e9U, 0x5eb593377ba69d7U, 0x172feffdd948f911U,
  0x2cfa2025053d1f0eU, 0xe414e7fbf0f91dffU, 0x7fd31f5ef02806fcU, 0xee0a610fd2ea5728U,
  0x34f9242a4b81ef1bU, 0x931f13e09c20dfe6U, 0x3df34e2eece53de0U, 0xfef0b8acb7f42904U,
  0x1e7feded220ff2c7U, 0xd5d43a2545038b07U, 0x10f809f42e4a1e5eU, 0x81226d511eaf9f7U,
  0xdcd6a29e17fd3ceU, 0x57f0c7bae132b14bU, 0xa30748ecf5eed80cU, 0x61ee9fce9e0f90fU,
  0x195aca374221321aU, 0x812dc937023784dfU, 0xc02202919ed50edU, 0x33ef14bbf6efd334U,
  0xe041c47f44e091aU, 0x7feaba2bf7ee27e5U, 0x1fd4edbfc7130b1aU, 0x7f1f2fd6cee2300eU,
  0xbe919f5f1e80fe8U, 0xfec9e9e153f11621U, 0x232ee3a2f1415efU, 0xe8eaee27ebebdd7fU,
  0xefe916eaf60afd40U, 0xff0e1422222abeb7U, 0xd9fd6450c2f1eff9U, 0xf348c7eff6351ab4U,
  0x190f23c1067f0edaU, 0xd7efde9dc308f063U, 0x2ff1111b2407b2fcU, 0x3f64eff13230e0f6U,
  0x4b6e5e60fc12517U, 0xe3f442e7e52223e9U, 0x24f0ec369e7fc101U, 0x42d3e2f7ec7f23deU,
  0x69d51dfe947bee47U, 0xd8241d4384f2e11eU, 0xe491042d0eba1603U, 0x1a414419fafd81cdU,
  0x3520cbeb23ecf4d4U, 0x42c32be633ae1c1cU, 0xce1ca09131fc43eU, 0xdfe415ecea3f2e03U,
  0x72d7132cc0e43012U, 0x11f82ab6b80f0039U, 0x2ffa1681e60ef6ffU, 0xf5ae30411a1008f0U,
  0xad95ecf807e181efU, 0x233b3398196d03e2U, 0x4df640d460add0dU, 0xec30321ef8183f0bU,
  0xe087f9004f91ddbU, 0xfce1b298efe642daU, 0x16c16222c1a17c4U, 0x8cf3fe20e0e4114bU,
  0x10d72ced39e7ba06U, 0x4191c4bd825f499U, 0x13e0be7fe112e027U, 0x2650ecdffe1fcebU,
  0x1ae42cdb4701f434U, 0xc31dd490c0c90481U, 0xc7c2ca16dde355a0U, 0xcfcace28e107bee0U,
  0x8ea01f65811d91eU, 0x69f6eaf10e1027bcU, 0xaef3e1c2813a06faU, 0xef0da953c6487ff6U,
  0xcd1d3ad78f0226cfU, 0x9bf8d9a22aaf0dd0U, 0xff0f04eecc10a92U, 0xff53ed03b3e6147fU,
  0xef061bbf52c718e3U, 0xf700e84fec1bcf69U, 0x15c7cbc7f3f3c3f0U, 0xe6e34526eeb0020cU,
  0x810606b21207f7c4U, 0xf805e5cab6d1d20eU, 0xe2d702c1b27505ecU, 0xe632edcc02ca3814U,
  0x362a40b4d2193545U, 0x46e794eff22700d9U, 0x437f2517f314180cU, 0x1436f1662c48be66U,
  0x34cf9f0de9f381ddU, 0xf52e56e6ec53fc9cU, 0x5fde381edadff7efU, 0x72fadd61d3fe60e2U,
  0xc91b7f381105fbc0U, 0x93cecd23bfd136c8U, 0x4143132e0ece2c90U, 0x52edf0080bd3c5e2U,
  0x814dd2f3f349e5cbU, 0xc563d2ef81e032bU, 0xcc1032f228dc3010U, 0xccaafa09493981e3U,
  0x5d3500fbe730423fU, 0xff3de395b1ee875U, 0xea160bb3f83c9138U, 0x20f2f0e81de3bb4aU,
  0x2f0ef8e0de2d9efU, 0x54210bd7cc8148e8U, 0xc236f035860f073cU, 0x6c55ebddf31753dfU,
  0xe00e2a1e37fb37c3U, 0xc5361b22dda2f7caU, 0x31d037f1babe209U, 0x7f8c1308c921f436U,
  0xec50eceef516e4ebU, 0x2cf22a5415159ee7U, 0xfc1bd5c22228051bU, 0xd0e5e3cfe8e2cbd1U,
  0x3a9676e5f216d7f4U, 0x72ffcfe0cfd97f12U, 0xb1a311792fc0372U, 0xf4a5cdeaf61f0ea5U,
  0x142c332801690f0eU, 0xdd47083281309c12U, 0x3df3de0d38152914U, 0xd9262d57fb88f6a3U,
  0x35f5be14316d17baU, 0xb25f42ff390e2b45U, 0x2ab1c4940a25810bU, 0xe023501f620c1d18U,
  0xe81bdd51deafdf7U, 0xab2306f705f84103U, 0x22254f17e8dae4deU, 0x1851f663d2cbe78bU,
  0x265f9c1dedd8363dU, 0xe14638e1dfcaf66eU, 0x32a47fdb0b161dc4U, 0xfae75c131f08cd10U,
  0x72ba433350e1f81U, 0xdb9911d02f459311U, 0xf5fbfd2b6817221eU, 0x367fd819d1dd0232U,
  0x12285c8ed8f746d4U, 0x23cfff186ff507c8U, 0x430213c8eaddfcU, 0x99250c3159d5aa01U,
  0xed2505d6f9fe0ef8U, 0x1f2fd1c811057f41U, 0x53e63a1e329da254U, 0x24f0e41b70f4e0d2U,
  0xd5fada03084629e9U, 0xefd3e3007f3fd441U, 0xd60239d2bc2d170dU, 0xf949e0190af95740U,
  0x1a814b85ed1537f7U, 0xfbbf322fed186da1U, 0x15f0af10ef0829c7U, 0xeccde9ef620dd0f9U,
  0xeb1d28df19fe0f0cU, 0x23f881f4f6155609U, 0xfa0901ffb319f1e1U, 0xbfa030f72ffa234cU,
  0xfa231e017fabc58eU, 0xf92e13281840c7c9U, 0xa5e5031f06fbd352U, 0xa9e81cf863c7d1eeU,
  0x97f83b81c1a90fa0U, 0xfcf2ca81c9035000U, 0xc3efe823de14b5f2U, 0xada5e67fc5defe0cU,
  0x6e8df1fa4f23d45U, 0x40d7f9382dba4d36U, 0x39d83ddd02910eeU, 0xf2f0edd20f05b9e3U,
  0xcc300824101ef0c4U, 0x1a9f2bedff212310U, 0x10f2000e7f2c9e4fU, 0xe81ae81ff5e3f415U,
  0xf81e02812ef7001eU, 0x1017eacdccea1de7U, 0xd1de22704ec25bbU, 0x3af7040cee037fe7U,
  0xdae71311122e21c3U, 0xf719fdb6bf3b2adfU, 0xb5ab05d63ab8fe4aU, 0xace918e211190181U,
  0x51f4c217fa0d282bU, 0xcebdc2012ded1322U, 0x153cef15befc0cf9U, 0xa97fdbf4ed04d4e8U,
  0xf6f40a083fc6d2e1U, 0xd146c194e4ab26caU, 0x34fe542fede5decfU, 0x4a2b77fe61b171aU,
  0x4903ae46c80debefU, 0xcc3711392be80723U, 0x101102eff50b0804U, 0xedd3dbcdf7daaae0U,
  0x990856a4810801ddU, 0xfbcdebd80af1ef09U, 0xfe18faff1743e7e3U, 0x2fb7f049e816f0e5U,
  0x331b7f330b06881dU, 0x3723d4f2b19631adU, 0x35dc041f37d81b6dU, 0xdcca050052cfe1beU,
  0xd507b1f92321d60bU, 0x81101dc2d501d2d4U, 0xfef24af22fc1e9ebU, 0xca0bb21ee73ce26eU,
  0x788fd539dcb5d36fU, 0xdf0707f50fd8f9c4U, 0x3a4ceacf816a02c3U, 0x66cbe7f903594532U,
  0x1ee6c7f73b2cd4bdU, 0xe3183b250c148105U, 0xc8b3ac1a13359f27U, 0xcf0b75cc7a2401edU,
  0x1dcb92243bf20afaU, 0x2845f0068f185a4dU, 0x10bddb7f164c321aU, 0x4edfef4ed8112c6U,
  0xec51eae1b73b5ae1U, 0xf9b6df1110c1dbe9U, 0xfd3ce1bcde18f026U, 0x1ba381c1b927e22eU,
  0x24f150c7e22e56f6U, 0xeb04ba11dc5206f9U, 0xd2bd1eb0cdff604U, 0x171aec1828e205cfU,
  0xe4eb267fc9f7a1fbU, 0xe185be161cfc04b6U, 0xdaf11f0e4fa13f0fU, 0x27051aea8137f4d0U,
  0x8d9893232038feaU, 0xb542604c8be6e910U, 0x639f24ee12c63ef0U, 0x81f521bd4ed88526U,
  0xc024beff2ff42fb8U, 0x65b9aa2e0e2c5178U, 0xb8b28395e122b979U, 0xfc292a172a310dcdU,
  0x94e92dc336cb291cU, 0x46a890193c82aeaU, 0x4572193e81362147U, 0xa9fe5df07221b142U,
  0x627ff216febce8d7U, 0x193b0608ce0e346bU, 0x3edf9aec3b1dde21U, 0xfb0326f22303f6f2U,
  0xea2af2e224dddff5U, 0x1a20de81eed716fcU, 0xeb2627f5ef08da1cU, 0xfcae1105cff612f5U,
  0x5847fe5e3352dc0dU, 0x19094a4249ba0b60U, 0xe1d09d8e154dcb7fU, 0x23c20971fb356428U,
  0x2c52e608c3bbaf7fU, 0x1576fcb6ceddc1U, 0xf9eefc920bc103eeU, 0x3bb1eb872cdcb881U,
  0xd6e2c717f9380693U, 0x98610f9bdc3c0117U, 0xad467d91ea4bbe1U, 0x81ed241836fbebb8U,
  0x3af207d6ddf2c8eaU, 0xe50105c09cd95ebfU, 0xfa02041ef5eff3f5U, 0xacf827225a1f8157U,
  0xe543d8f3d6dfffc9U, 0x39282010a4e647c9U, 0xe6aecb0f0d06b402U, 0x736e00deb3b1fa2cU,
  0x3007ce5b58d5f8baU, 0x51ea281ce2ffe9e8U, 0xf2713b4fd17f6c01U, 0xf69eeaf5c7ff7fd0U,
  0x2f445418ee44661eU, 0xfe93fd4f3dd1ada6U, 0xb73390085b1d5be6U, 0x1723e321810739f1U,
  0x18fffb2311e2ede6U, 0x22fff8490907d716U, 0xfbdc27440d4f0e07U, 0x33b080842072ac5U,
  0xf06be081de0c4a9eU, 0xda2048df0d03a1d7U, 0x1248b9fcfbd417e9U, 0x2b4a040ee2c1f204U,
  0xec160ce1d8c2f681U, 0xae06f9e4efec1b21U, 0xf314163f3d2cc40eU, 0xa07f25c553e020ecU,
  0xe5bbfecbf70dd40dU, 0x708b7dd5a1817ecU, 0x221332ff8eb1e15U, 0xd5f7b3230a951c84U,
  0x21e2f1f116214a0fU, 0x8115394c2fd0a22dU, 0xc827dc7c0a0dc4f7U, 0x3dfbedeffa1024b1U,
  0x9724d402d34315cfU, 0x71cc98ea7fbe01e5U, 0xeb64152615db569aU, 0x2a08e007b22cb6eeU,
  0x371efb46e8e18819U, 0x3d018322f60ebbb1U, 0x7fb3543fb4f50ef4U, 0xdbcf1dcc209281ddU,
  0xf4f3c1d51bf041ccU, 0x11cface9e85326e7U, 0xfbebf7edb4350707U, 0x465aeed4d3ac955dU,
  0xbf7d3506926a22a8U, 0x8106e73acc30b4b9U, 0xde0b0fcdf9e5f5feU, 0xe3a12bbd1981d1c1U,
  0xf3280ecb1e203508U, 0xfef232f7ea0ce94bU, 0xc62f4197fdce213eU, 0xade2ef5f2e0c9909U,
  0x33cf17e0bfea9124U, 0x12cad3d034c77fbbU, 0x31312d2db9f3a920U, 0xd32dfaac0d4c1af6U,
  0xc615f0f1632e03ebU, 0x2661e4f9cd4d0f57U, 0xf4813b26ffb3a609U, 0xf5dda5cc05f4c6caU,
  0x7f12c813dbd3faf1U, 0xc1f3df041a10f3dbU, 0x8112d5c35531db3U, 0xcc5beae1ee1dfdf0U,
  0xf1c3f432d122b0abU, 0x14ba81e2ac8de5ceU, 0x9a0d3a03e1831c2U, 0xce32ed0f0c2da015U,
  0xf0f431d838e20912U, 0xda3ff11af03206f2U, 0xfd16dc7feec5f62bU, 0x4433d1de4c09d6e3U,
  0x27fefde7022c7f02U, 0xfbf3e50330f8f4d7U, 0x40fa12ce29df06U, 0x3f3fdd910063506U,
  0x1d20d429074617edU, 0xea8af90a2ad0e01aU, 0x81e4ded32423f4e9U, 0xe57f122c3be9c5ebU,
  0xd70a399955b5bcb3U, 0x33eb09b211dcdfe4U, 0xcc449d3a4a05164fU, 0xe2db3ef3f1e2a952U,
  0x16e5edc3ef91baf9U, 0x12302a25a6fd7f12U, 0xefe4f856d007c3deU, 0xff3fe157b0ffe14eU,
  0x310c50a8cf1729fdU, 0xaf4c62bcb812db5U, 0x443fe7f9e1f515c2U, 0xa1e953cb25b427U,
  0x1dfbe32e17f181b3U, 0x12427627bcf44b49U, 0xfcddc34adef71b60U, 0x16e1d3dea32913b5U,
  0x62eb06def346fcf9U, 0xef4424d6a9812568U, 0xdd0703fcb13117e8U, 0xf80609ea16c7c703U,
  0xd1ff0a81d4d90affU, 0x2bf4d911bce8f1d2U, 0xa3cd8eed80a10f7U, 0xe42a15bfbde3d07fU,
  0x251308c80df3fd22U, 0x558393af71506858U, 0xbcdca670c452b65fU, 0x1acdb2c8591feff9U,
  0x1c08ff07efd211dbU, 0x814fdfcb07fb1a23U, 0x230a0911dfd3f505U, 0x4301eb0e4f29271cU,
  0xced09aa15d2f1548U, 0xaa3cbe5b230981c9U, 0x233f5550b48badf5U, 0x4952099efe7f3dffU,
  0xb35123a173caa9c2U, 0x71f9cdb3c38fcd4fU, 0x2d032e067b09f8a9U, 0xc2e812edefbdfa9aU,
  0x6ff004eddf01627U, 0xcb28a894c4a12a81U, 0x262259f6a6e7f6fbU, 0x211cbef0eb511a92U,
  0xce31ecf054feb68fU, 0xd22148f9dfd2978eU, 0x3608f7f07fe07ee2U, 0xf12606182e50e0faU,
  0x3d0b38ee6c0d49e8U, 0xec40e42645fffb23U, 0x3c7fb969db5cf80eU, 0xf5f4acda03f9c15bU,
  0xc2f70603df207fdaU, 0x1fbe011e71c5e6e7U, 0xb9edb202c7192106U, 0x3f9fd70cd41a60f9U,
  0xef1eb7eaa0220f0bU, 0x13165e2f19e3e804U, 0xea2ae081050011d4U, 0x1be5df125d2612cfU,
  0x6daeed0b7f0add3cU, 0xe501c2f01d1df5d6U, 0x303b1536b7edf816U, 0x7fcfd2dce6e91d23U,
  0x1d527ebd54cf4b7U, 0x2c6f31cf4ef164eU, 0xb509fdf92e11d412U, 0x4258ddd798450df3U,
  0xefb43d299c1df4efU, 0x5aef4924bca204fbU, 0xf0a6cbfa1b81f6e5U, 0xb414ab016cec0435U,
  0xc727428103ec510fU, 0x1eefd231123363c5U, 0x936c3db981ac207U, 0xfffffb63fffffeaeU,
  0xfffffecc000005f9U, 0xfffffbcbfffff71fU, 0xc6000000c1U, 0xfffffa40fffffbafU,
  0x51fffffda4U, 0xfffffd65fffffeb4U, 0x10dfffff73aU, 0xffffe95300000041U,
  0xffffff95ffffff29U, 0x1a300000048U, 0xfffffecefffffd14U, 0xcad00000694U,
  0xfffffc99fffffc0dU, 0xfffffe8700000110U, 0x425fffffe6eU, 0xfffff2b6000004a0U,
  0x6aafffffca9U, 0xffffffbffffff9c1U, 0x62b00000dacU, 0xfffffe1f000000b2U,
  0xfffffde800000571U, 0x64b00000090U, 0xfffffd7ffffffefaU, 0xfffffbf400000138U,
  0xfffff198fffffc8cU, 0xfffff7c2fffffa28U, 0xfffffcb6ffffff86U, 0xfffff657fffffec6U,
  0xb70000073cU, 0xfffffed1fffffde3U, 0xfffff65cffffef18U, 0x242ffffff96U,
  0xfffffe06000005afU, 0xffffe6b0fffff789U, 0xffffff74fffffe28U, 0xfffffcee0000025bU,
  0xb6fffffdf5U, 0x2800000005aU, 0xf6fffffde8U, 0x3d9fffffb15U,
  0xfffff63bffffff10U, 0x17ffffffca8U, 0x598fffffbf3U, 0x567fffffd2dU,
  0xfffffe720000022dU, 0xb1efffff7a1U, 0x24f0000008eU, 0x2a9fffff18bU,
  0xfffff95ffffff779U, 0x2a1fffffddaU, 0x12ffffffff4U, 0x3d0ffffff02U,
  0xfffff6d0fffffe50U, 0xffffff090000046aU, 0xfffffd940000038cU, 0xfffffe90000001ddU,
  0x1eafffffea6U, 0x4c8fffffd1aU, 0xfffff875fffffeafU, 0xfffff374fffff8acU,
  0xfffffea900000238U, 0xfffff55600000137U, 0xffffffb600000ba7U, 0xfffffeb400000155U,
  0xfffffc4dfffffffaU, 0xda00000fd3U, 0xffffff1800000010U, 0xfffffbebffffffe8U,
  0x2efffff6dbU, 0xfffff499fffff87dU, 0xb1ffffedeeU, 0xfffff884fffff60eU,
  0xfffff9f9000001f8U, 0x35fffffda6U, 0xfffffe79000000c7U, 0x28efffff70aU,
  0x20e000001acU, 0xfffffcbffffffb08U, 0x2d200000009U, 0xffffff64fffffe58U,
  0x352fffffc7dU, 0xfffffec8fffffd3aU, 0xfffff6320000033fU, 0xfffffedfffffff35U,
  0xffffff3afffffe15U, 0x79ffffecb8U, 0xfffff675ffffef21U, 0x16000001d6U,
  0x5efffff5feU, 0x544000000a1U, 0xfffffeaeffffec06U, 0xfffffb9900000ecbU,
  0xfffffde70000000eU, 0x326fffffff1U, 0xfffffc0700000110U, 0xae23394a59ce81a6U,
  0xdcca7a7f17773824U, 0x4eb7f817f1b333dU, 0xb9ad36b17f661daaU, 0x943b2d32e0acf0cfU,
  0xbb2f91f78129e119U, 0x148cfbd07f0c781cU, 0x8878541ac7c7f67bU, 0xf8f54d4ff804c381U,
  0x81a29daf0fcf86a6U, 0x3da769385b1ee10cU, 0xe9ca9c49118e2ff2U, 0x670e81ab7f45f77fU,
  0xa5ba1df77f53817eU, 0x1b81df7fe2a22838U, 0x733826074121169dU, 0x394993cbdf4cf49aU,
  0x7f81ee703e1bfb45U, 0xb8a1ceccf904117fU, 0x7f88590bf4818111U, 0x673d6f51486d0181U,
  0x37f5e823fc16bfefU, 0x332f83d9dffae9baU, 0xd5363365f4e7e5f9U, 0xb6e8c338277fc8cbU,
  0x87ff151612c3b47U, 0x162889a6077f7fd3U, 0xd55df8383d10aac1U, 0xab60db54a497d2c3U,
  0x953c81dc119c327fU, 0x7fb1c0e948f9033dU, 0xf472814f7ff02cc6U, 0x81327822812bd84cU,
  0xe2814318631481b2U, 0x41b2ff4d345bc007U, 0x81b6af6df6e40605U, 0x1e84bbe564c1a6aU,
  0xe0af7fa32e02b822U, 0x7f04ba60d38118feU, 0x3c070e4d2a187f09U, 0x16c4f3fc7f7fc396U,
  0x7cf63845e744337fU, 0xe3a5fce02bec073cU, 0xe6bcfa4481f216fdU, 0xd07fd67f09f63b31U,
  0x2950387f31b21e7fU, 0x7fe5cb4a85f15781U, 0x4fbf7dfea98181a0U, 0xc6d534e67f14fd23U,
  0xd329984222661f46U, 0xf8181eb628345c0aU, 0x427ec1ecd1bf4e81U, 0xf77f7f211604fe38U,
  0x81e759beb46fb5edU, 0x3ab320173f794140U, 0x3c3e9c11abc401c9U, 0xd3e07fe8ce81e30eU,
  0xcbe619b13de7bb81U, 0x31acdf7f792781bcU, 0xe3728e7012bf9ccaU, 0x2c810cd95135206dU,
  0x34c25b812d5fdd5eU, 0x34dcf916fdc61577U, 0x4af877812ed830deU, 0xcace1c45e6f71491U,
  0x29500d7f817fbd13U, 0x31242235fff11fe9U, 0x3333381cfb72cf6U, 0xca621a302f7ff920U,
  0xaa2edb524110e7eeU, 0x757f8167cf304482U, 0xe7b805670ed02a20U, 0xda6936210d1c0e02U,
  0x24503235e2f9437fU, 0x3bde35d86b6e5492U, 0xe57fc581602f20faU, 0x81be3848814f593cU,
  0x7fbe86cf7bcca04fU, 0x85fedb226bd47fc6U, 0x6040f601eed47f7fU, 0xd4bf3751d6bc81a3U,
  0xc8c6fa7faaba2caeU, 0x2bbae4f52f77ad7fU, 0xcb1cd87f95815e0fU, 0x6457b8dc4d28fa58U,
  0xee3bfe7018d2a1daU, 0xe10d0842cdc41c7fU, 0x453f5048f4382ef4U, 0xfca4daf3c325f8efU,
  0x20223117bdf0ec0cU, 0xb40bcfa1def519d7U, 0x200851f4c3f9dc06U, 0x50214247a9cbf4b4U,
  0x372a0531591d2febU, 0x605033e2c4812107U, 0x4cb1bf2bbc1f15c2U, 0x26beb87f0ad91921U,
  0x81e37f2eb16de954U, 0xe56a05f6ae531107U, 0xb714d20a3e815745U, 0x5d0c2117fe7f267fU,
  0xe781127f4a819d20U, 0xbb61b383ceb39bcU, 0x7f3c45154581f8f7U, 0xed7fd87f002e89e6U,
  0x138850486e61d340U, 0xef0796e00ce613e4U, 0x437f81f0eec663ecU, 0xf3e512ac254d8fd9U,
  0x1f4eb9b936b1d443U, 0x49cf5818d853e93cU, 0x2408511a8135f619U, 0x7fd4b8ebd1fa3d86U,
  0x1d4b7f2b95d3814aU, 0x1a25ab0721121d36U, 0x1f2355a168ba67fU, 0x8144b516eb3cc032U,
  0x7fecfa42b5eb46f7U, 0x3121ec8481224f7aU, 0x5a223970a628f620U, 0xe1baab507b0eca7fU,
  0x9d3ef95804d9cf3bU, 0x7f7fe7e88dd4ff34U, 0xa5b6a0a05e46df02U, 0x91ad957f376af197U,
  0xbaca02ca42024b38U, 0x87f29d95acc4669U, 0xd84cca7f191acaf8U, 0x25ab0f3cfd8bab87U,
  0xf798e1ae7ffaaeddU, 0x7fb17f2d8113a3d2U, 0xb93f4e622b491efU, 0x2f813e30672812bU,
  0xb97f21233506bce4U, 0xd6ad7f520ccd2379U, 0x7f7f50db9f81fb45U, 0x32c5891c9f707f81U,
  0x2a241851ed061012U, 0xeba8e35a39b4f450U, 0x26985b44ebe36e18U, 0x28d0812f3059f6cbU,
  0x251381577f1f81adU, 0x1fc26b3a41550c26U, 0x7f52043c9f2cfe4bU, 0xf7d52aeb10d6eb26U,
  0xbc21a32c970781f3U, 0x64fdbc99e1933e9U, 0x7fb2c6acfb8281ceU, 0xbfc283265431fe77U,
  0x3ba32b166d037f21U, 0x84d5188e1bdaa5d2U, 0x161ee934dde6123aU, 0xc712f702e94aea71U,
  0xe8c07fce22e676c5U, 0x7781952ac1aeb0b7U, 0x2b9f990f9b22d27fU, 0xddeee681fd53f7c5U,
  0x7f6dff1c70880083U, 0xcae7f00c88a17f60U, 0x76440117d34df262U, 0x537f7f8140e26231U,
  0xe5d2f1eadd624b8fU, 0x8181da814c812fc3U, 0x40c17f6f1b04ba3fU, 0xfad7abe772c58165U,
  0xec7ff55ea27f15eeU, 0x253b70d032182025U, 0x3481de1f40e42e81U, 0x8181dd5c6ab31dd4U,
  0xd4bb024c817f4c7dU, 0x2c15e5f0234fea81U, 0x433981b6f3618198U, 0x2d01c33222f7fadU,
  0x6ada3b1576b6bebfU, 0xfb747fae577fd381U, 0xca7fc026e1c70718U, 0x1473d35ffd6d917U,
  0xf885fdca07ca2bc7U, 0xd4f83affc2bee04bU, 0x105ac7d5c7090a05U, 0xf3a228c01c137a3cU,
  0xe50087234e81ba81U, 0xeaed22b2f2e04107U, 0x29db7faa4abbcbd5U, 0x685e5adcd203634aU,
  0x2f7c20d2c690263fU, 0x69d5812d7fa07f8cU, 0x1dd3e1c4fada4d4bU, 0x4d0072487f3afed8U,
  0x292f321d990b5926U, 0xa50d6dbc0f27f3dU, 0x2f84817f81327912U, 0xc9cf813107e7fb8fU,
  0xdce6a129c54ea22fU, 0x2d1186c5e1da6633U, 0x1fa489bd2d01cfabU, 0x8fe5d9b607aa2a8eU,
  0x775035b902ba2cbdU, 0xf86312814eb7d6beU, 0xf0f7671b97e20549U, 0x43cc423eb7c48e0eU,
  0xbaaf5356ec7f4fc3U, 0xfda1df3b0481cbefU, 0x1b9a946d7fca81a6U, 0x7fd22fc32d814100U,
  0x843f91ee8b7efe7U, 0xb6d3f60581ba343aU, 0xad5fbdb42debd17fU, 0x1497269975ffccd5U,
  0xf33408f0b9d40d3aU, 0x75a2bf4f1d9ee0c2U, 0x1881fe564e3823ebU, 0x9827134d417bf2e8U,
  0x37f1b064b05568feU, 0x642c32812eed3830U, 0x27ce8b44c6352a39U, 0x8a8fffffc3dU,
  0xffffd028ffffffb3U, 0x4ccfffff32bU, 0x245f000015fcU, 0xfffffdc8ffffda9bU,
  0x19dfffffe2c6U, 0xfffffe4dffffe2a7U, 0x23b1fffffbacU, 0xfffff97000000a0fU,
  0xffffff37ffffe169U, 0x4cc00002560U, 0xfffff176ffffeea5U, 0xc0700001dfeU,
  0xffffe8ebffffff20U, 0x28f400002462U, 0xffffff9afffffb68U, 0xfffff958ffffff81U,
  0xfffffdfafffff2ecU, 0x37ffffef33U, 0x2be5ffffff0aU, 0xffffffc2ffffeeb5U,
  0xffffedf300001829U, 0x505000005a9U, 0xfffffa96000012a9U, 0xfffff69e00000a58U,
  0xfffff24cffffff25U, 0xfffff993000008eeU, 0xfffffc3bfffffecdU, 0xfffffba6fffff0eeU,
  0x5ba00002063U, 0x4bdffffe0deU, 0xfffffbdbfffffa14U, 0x375700000819U,
  0x14cf000010e4U, 0xfffffe69fffff207U, 0xd1bfffffb65U, 0x7eb0000271dU,
  0xffffe5f6fffff8caU, 0xffffef79ffffff59U, 0x1dbe000032f4U, 0x2285fffffc0bU,
  0xffffff96fffffe68U, 0xfffffed7ffffe9ebU, 0xffffe9ac000019c9U, 0x65afffffe2bU,
  0x39000001d8bU, 0x2aa5fffff50dU, 0x4b600000199U, 0xffffff0bfffff552U,
  0xffffef30fffff6b3U, 0xffffff5100001e6aU, 0xffffe74000000f3eU, 0x268efffffe33U,
  0xffffef6c00000cabU, 0xfffff9710000012eU, 0x5dfffff276U, 0xffffe72effffd61cU,
  0x1ba600001f63U, 0xfffff487ffffeac6U, 0xfffffa96000012baU, 0xfffffcbffffffab2U,
  0xffffffc5fffffd6fU, 0xfffff68300000292U, 0xffffc17cffffec6fU, 0xffffeec7000024d0U,
  0x310ffffe328U, 0x2d800001608U, 0xffffe2340000093eU, 0x1b9ffffe503U,
  0x1e88fffffa83U, 0xfffff96afffff1d8U, 0xffffe33ffffffe09U, 0xfffff61afffffd5eU,
  0xffffef860000209bU, 0x1ff1fffffae8U, 0xfffffe4000001c57U, 0x154fffff664U,
  0x8460000188fU, 0xffffe09afffff641U, 0xffffe65000001f01U, 0xe360000017cU,
  0xffffe63fffffe65dU, 0xfffffe55ffffddfdU, 0xfffffedcffffe7e8U, 0xfffff346fffffdc5U,
  0xfffffd9efffff417U, 0x10a5fffffccfU, 0xfffff60cfffffa30U, 0xffffca95fffffcc0U,
  0x1ab1fffffe37U, 0xfffffd2800000cadU, 0xffffd33cfffff7f0U, 0xfffffaa10000025dU,
  0x1715fffffc09U, 0x13cffffd924U, 0xffffe203000019dbU, 0x7c03036df24a6f1U,
  0xe5dbccdc24dd0bc4U, 0xdafbfd0d1cfdd324U, 0x26ef5b1e94e1646U, 0xc1290ab762192bcdU,
  0x8d28e8304d546efeU, 0x2b0a963ef4c417f1U, 0x280337a70b71b901U, 0xc4ff127508c634d7U,
  0x2034a877e424f410U, 0x6f17182dc84f0fd0U, 0x1320f4a82dcd70c1U, 0xe0a90b26363525a9U,
  0xd0b918dd30bdcfeeU, 0x2a5bfd16f414be4dU, 0x20e0d7f4dea940c2U, 0xfd363b474451dde6U,
  0x1901dee51e4c1f15U, 0x71f7070e0be409f8U, 0x782baa29d837aebbU, 0xefcc02adb0ec36e9U,
  0x6d58ce15c87f4744U, 0x3c2d16ab14b4c5beU, 0x2c4aface446d09b4U, 0xf10555e21909234aU,
  0xad4cbae7f911ffd8U, 0x484debf2fbdb373bU, 0x4078b4c430f321c5U, 0xe539f736ba20e4e7U,
  0x47f0c3dde61dae06U, 0xbcbdfebcbb18f2b9U, 0xd5feed8feb5458eU, 0x1daf3fc7e31aeaf1U,
  0x420d114e972027edU, 0x26bfcbb50dcef9e0U, 0x3714e0d02abafe0fU, 0xe3151b341ed118b9U,
  0xe6cb9ec2b5feebe8U, 0x602743340e514128U, 0xf3b939ec1af5f08dU, 0x1e2406b1cad1b309U,
  0x97cad6f7cbd801ddU, 0xea4840e2d4ca1366U, 0xe515e810280bfd49U, 0xce4b26c9e3027f38U,
  0xd8344aceb2ea28dcU, 0x34ea475cc10bb4bbU, 0xf16f515d14a1702U, 0x4122e13c0b116709U,
  0x5cb5ffe8bcfef623U, 0x240cd1e6d95308aaU, 0x40c0f31201dd810U, 0xfac4fb434e143671U,
  0xf4ad634b76521f7bU, 0x2bb7812f8ccecf6dU, 0x8bd31e19e9142151U, 0x181a9c2f8a920fc4U,
  0xd652be303934099dU, 0x4d454d6501e65230U, 0xfc24fd5832fcf09bU, 0xc000811462c4e5edU,
  0xd8e5f7f22d432e76U, 0x3ce457d0fa37eac8U, 0x2cf5b531a4c66eafU, 0xeeffdf48c7e90b9eU,
  0x61374d16eb87e6acU, 0xffd2e2f24b3e9ac3U, 0x431834cbd910f51bU, 0xcb35cfe1bcd913adU,
  0xe5d693ce9c24db6U, 0x34adcac82d101095U, 0xba0401b8be25c5f0U, 0x1918efd3c82a03b4U,
  0xdb290cf2283ea52dU, 0xf5f83f38c1243443U, 0xdbf856052b05030dU, 0x3cb7231e0135580cU,
  0x8c4942e3d2fb141dU, 0xf30efd0c0ed04b17U, 0xeaf7f2c7125c121cU, 0x2a4e262d120006c2U,
  0x9f097be041e5bdd6U, 0xf306010317c61bfaU, 0x39b62b0b38ab3e06U, 0x38b3c716ed40fed8U,
  0xe82056db17a17f2eU, 0x13d7de3c1f3cdb11U, 0x13cb09bdc9022f00U, 0x408f909380ee7fbU,
  0x19d508da9d2230fcU, 0xdac44d18153ca4d7U, 0xd0eea5b74bfcc35dU, 0xc904f6f9b2f1e09fU,
  0xfeebd7eff69a5636U, 0x9f3ea0a12e03ae9U, 0xcc01ace600d4d212U, 0xb4cc3f26abf945c2U,
  0x320149a5533daa05U, 0x3e261ea71e19ac9U, 0x3798b81053fafd2bU, 0x16c3e1f9231ed8cdU,
  0xacdc415f06a332c1U, 0x37963ccd4b230a0cU, 0xdb121e4fc7cdacd5U, 0xde3e0d0d39f1b12aU,
  0xf6344c59e8681eb8U, 0xb0cdce35e9ba09b0U, 0x424cd0186f1251acU, 0xe628d2e0d443c318U,
  0xd9cf81eb27e3cde7U, 0xbafe1de5faf90c32U, 0x7c27c543e70fd4f8U, 0x232ed1cafe27c4bdU,
  0x295a5ef7380803cfU, 0xfa2a29a8a548fcf0U, 0x25e3df1b06504ab1U, 0xa3f1d523f208b0b7U,
  0x3017fdefcdfdf104U, 0xb506d80dc4f552c8U, 0xe620acf3dd0a3028U, 0x7a3bf4ebf22e68bbU,
  0x1b8eba5e35c7eda5U, 0x4d00202b42da0ffeU, 0xab981328dcae34e3U, 0x5edf07dd18c99a1cU,
  0x988afc114eefbU, 0x55a2de6a30ddd2f9U, 0xe3d9df1d0dffec18U, 0x5ab5d4b9eb095314U,
  0x32c95cfc99e82ae2U, 0x2d1ce90d8f31edc2U, 0xf91cf18ef36cd0bbU, 0x53f3104bfeec03eaU,
  0xf010b91e1c309bfU, 0x66e6073a3e4d3f43U, 0xe03fc60ec122e1ffU, 0x20518160511ce21aU,
  0x236cf6e317450d3dU, 0x1a0f36211aafbfe1U, 0x8b28b6e29f41179fU, 0x182d6b20a0fd4bdbU,
  0x199548b51d124706U, 0x4ea4db2b120319e1U, 0x1e16ef160dd4c20dU, 0xd1e161cb4108eb10U,
  0xa2485bfcff122813U, 0x91e03ca926fdfa36U, 0x4330200626d3dd37U, 0x3da146c251be473U,
  0xed3edaf81177dcbaU, 0x2105d6c9d032adcbU, 0x34bc056a0eeafb74U, 0x3712535f3814fd2aU,
  0x1000bf3e9c306ecU, 0x15534abef4d4e0c3U, 0x4f22d8c1b0aa3ce2U, 0xaccc1d6cd10ea02U,
  0x790afbfad71d40c7U, 0xff7f1e1e32f2609eU, 0xef33dadae22a19e9U, 0xc011ae0a70c513deU,
  0x11c549c2c6d6fcc9U, 0xf0eab2c8401dd3fdU, 0xd83ccc1ee0ed0de1U, 0x271503ee21221433U,
  0xe9f923af01eea7cbU, 0xaddbea232cd53accU, 0xecf5150506f32b3dU, 0x2fc2b8eacd82cf52U,
  0x34465ac99d12eaefU, 0x7791cc1ed7d74ebcU, 0x21e8ec2217f51bfdU, 0x21fdd1f379c4f825U,
  0xee935c721f5610eU, 0x7361ea80bfa5257U, 0xebfaaf3edd0c244cU, 0x29f9e9fe4e2341b8U,
  0xc7e2f8fb9c19fff0U, 0x3fb0af15fa2bb819U, 0x617fbacd8d03cf0fU, 0x1b4709fff1e92f34U,
  0x8d7230bf038022bU, 0x2e59260712aafdd6U, 0x70e10f681033e04cU, 0xcad77b191c07e22eU,
  0x3115f0a2d7f33d40U, 0xe413f7d24f5396e0U, 0x30dfa25373756dcU, 0xeb64ea8830eadfcfU,
  0x11c32efee4011542U, 0x6b808d906f8f9eaU, 0xf243304a2efb70f2U, 0x17100000053U,
  0xeb00000042U, 0x4600000113U, 0xe600000102U, 0xb01e0b2a39167fb5U,
  0x1ff4dc0a7f4ee0d5U, 0x2125f39bf87f4b52U, 0x812161da2ce31c9dU, 0x89dd392d1ed97f29U,
  0x6281d5eede2cd86fU, 0x7ee0a771d811523U, 0xd026b781282e3925U, 0xdd7f3207cb1d3476U,
  0xb4e85bd0d0007fdaU, 0x18cfe395d6813747U, 0x74df7f3c0076ad99U, 0xe0f7f381c40ab621U,
  0x8116f595c4bbeb4aU, 0xf8f57fd5a7bf0ef9U, 0xcc6ae642a0d57481U, 0x13c2df37fb30812aU,
  0xac2d51e581ce48e2U, 0x381104fd219d91bU, 0xffdb7fd652f60808U, 0x7f6e14ffbd5286c9U,
  0xf4c33ceec57f6ee2U, 0xd5dce80832001681U, 0x1374d14446d2d981U, 0x260d050281b60af1U,
  0xf15a1bfc7f0fb0e3U, 0x81bb180b344ed1f4U, 0x9dc17f53d65568bcU, 0x81f53dd014adff3cU,
  0xdbed289b81eec825U, 0x8da9816181d3cba9U, 0xc4a17ff94e1301d1U, 0xe4c4afd581ede8e0U,
  0x815461690ef16adbU, 0x81e5eb2ada06e5aeU, 0x41e3d0eec3067f44U, 0xbdfa7fccdf2b8ae7U,
  0x81f503f41ac860faU, 0xa4a5691901277f05U, 0x81f4c606bc63b9e9U, 0xaa018d0f7fdd5cf3U,
  0x51ea507f5649d632U, 0x9d8118fd57689a9dU, 0x83da7fb5178100b2U, 0x8d87fa447a64527U,
  0xaf0b07f427cd7f63U, 0x81c942e2ebd5e5b3U, 0xaf8da477ff30e43U, 0x91ee2b3d81e73a33U,
  0xe3e11afcf804e581U, 0x81bc64ea042e7f06U, 0x559fcbb81e4bbffU, 0xdc151181f0548e52U,
  0xdee5a95b442b7fdbU, 0x81240576c255e3b5U, 0xd3c7c08d7f23eab0U, 0xa7a8447f399b3ce8U,
  0xecbc7f370c95e307U, 0x8102ddcef829f1bcU, 0x81d3a45dbb0530ebU, 0x8baee27f5d59959dU,
  0xbb7fb15a4865489aU, 0x19151b2219fb81deU, 0xd381ef01071338efU, 0x2d3001fc7f4826b4U,
  0x14f78136fefff8e2U, 0xf84035b35d81579bU, 0x33c608b35664810eU, 0xbaf67d17e1c00a81U,
  0xf3d01b494ff581d4U, 0x1cba13354ca58145U, 0xc6a547361df37fe0U, 0xedba1cd5d9cb1a7fU,
  0xe8bf44d62d7f0702U, 0xe71a7f22e7ededb7U, 0x26d01c0bf0aa81e8U, 0xe1f612d4472481c9U,
  0x12d2a3ccd7e4fa7fU, 0xd0f59f297f520e1dU, 0x6f72d08f181da3dU, 0x81b46a0e0e61cc11U,
  0x1d992fee27db0f7fU, 0xa424237f5d25a7ceU, 0x13024160514f0381U, 0xd71e40d181de2bceU,
  0x17ab10f304077ff3U, 0x813b0bb7f0260cb7U, 0xda18b5daeb0081cfU, 0x7f8f1900451ce990U,
  0xdfa233d32a7f15bdU, 0x1281dcf71de8ff2bU, 0x332361128e4f7fc0U, 0x1815b5c2de277f21U,
  0x46e7fd187f0c1f3aU, 0x81663cf84ef77ee5U, 0xf51f7f6b41cbf66aU, 0x53230b8d087fc301U,
  0x2bf2f81f8da69e1U, 0x2a813f14acf853e7U, 0x237fe50a73c68e49U, 0x6bda0aecae811546U,
  0x93fb554125f22581U, 0xe5e4cc46ecf6d881U, 0x18a87ffec3e1ace1U, 0xad2a7f20b915f0feU,
  0x3881e66edbb1032fU, 0xf913c6302402ab7fU, 0x117f7547cffed8fcU, 0x2b2f557f25824428U,
  0xcffdbaa2047f4116U, 0xec38f3ecefd27f5bU, 0xcaeb64ce2e7ffe93U, 0x8169e60bc0031ebaU,
  0xab8d2401fed7811fU, 0x17227f0dfaea2a46U, 0xc0650a8160a2dc1eU, 0xe21981fdc53f53e3U,
  0xd104d081fc341701U, 0x8c53fe17f6dbf50U, 0xb350d87f13d65af1U, 0xdd1081e6f300adfcU,
  0x142a7ff3d5eeabe1U, 0x7f67da30504723a8U, 0xda674fdafb1081dfU, 0xe028f0307fe7f9adU,
  0xb97ae7b68193b6a9U, 0x2200817827f70476U, 0xf3edfa0d8fdc7fefU, 0x68e9e5810f41e3f0U,
  0x2a8108dfd6cb24f0U, 0x689414eaa72881c6U, 0xff456df781fcf1bcU, 0xc454ca8bc8454981U,
  0xe4bade094f7f6fecU, 0xfee3812308133263U, 0x78fa56eb7f0ca3ddU, 0x6837087f409f551fU,
  0x8542e9353451e781U, 0xce1a7f03e816f7feU, 0xb35a12cf2e0d81efU, 0x4d3f0f531812113U,
  0xd2258fdfe0d07f3aU, 0x2a0df716bdb27ff7U, 0xe9ec81e238df12acU, 0x7e150d24214f27fU,
  0x116288812235b981U, 0xf9e454815d254a59U, 0x10e3087fe5a7cad0U, 0x307f1c36254ce7a1U,
  0xa6d8e01f9b8146d3U, 0xf21c27e0257ff626U, 0xd17f4a54def9a20aU, 0xfb051626d5814263U,
  0xef2c272f7f3518c5U, 0xe781cd2d8af3563dU, 0x7f72d807b471ff41U, 0x851c374c93477fc2U,
  0xd07f692dcec867b4U, 0xb5f27bf88281017cU, 0xf7f944c781e2dff3U, 0x23f47f2610c02daaU,
  0xca6e6edd727f07fU, 0xe0189b7f0721c0eaU, 0xe5a3000edf5681cdU, 0xedd3d23bd4148124U,
  0x7ff00ce94ded2169U, 0xc1e71aa481178631U, 0xd601f67f1df6e720U, 0xe5107f2de24137a0U,
  0xc881b30b1deb79dcU, 0xcc09c3f981dff524U, 0xd0007f3141cbcf1fU, 0x85816f27c5c966d8U,
  0xebfffd3792819bb6U, 0x2b00d7ce81bc16d5U, 0xdb250e29c07f0ab8U, 0xe56afe2f3f813ca7U,
  0x7fb0d5dc54292264U, 0x827f2622f3ffa6a1U, 0xb350db10d6ec7fd7U, 0x67f7aa31bed630bU,
  0xf7f227872bc24b1U, 0xf1c32bea2aff81d1U, 0xa67f26e89d932d2eU, 0x2e2363eaf6e9327fU,
  0xba813edf33d0b7f8U, 0xe4d27f3375df2c41U, 0xb1f52d0adf813237U, 0x987fa2fb8b408ebfU,
  0x30727f373a1010d6U, 0xe1ceeb5bf2dffd7fU, 0x7f50bd120033ba1aU, 0x702f0000600dU,
  0x961100008a38U, 0x106e400009644U, 0xa5b600007542U, 0x61b000007f6dU,
  0xe96b0000a417U, 0xa7fe00008115U, 0xa275000094cbU, 0xf01500007c20U,
  0x76eb000088d6U, 0x10d17000099a3U, 0x8f390000690eU, 0x803e0000880aU,
  0xb48800007693U, 0x757c000084fcU, 0x9fd60000edadU, 0x8baf0000ad0dU,
  0xb36f00008f60U, 0x6b750000787eU, 0x7020000099bfU, 0xce270000a01fU,
  0xe26200007748U, 0x95950000c6acU, 0x95b200006ed9U, 0x65a10000d4a9U,
  0xf13000009eeeU, 0xa8300000a567U, 0x91e20000c232U, 0x88230000df7eU,
  0x907700007033U, 0x1e52200009922U, 0x6a13000075d2U, 0x745500008dc5U,
  0xa81b0000e3afU, 0xae92000087b0U, 0x7a4a0000880fU, 0x909600008fabU,
  0x5ab700006ebfU, 0x9c74000055b0U, 0x7bc100007056U, 0x729f00008453U,
  0xa5150000869aU, 0x620b00009c1cU, 0x518700006443U, 0xb4e00000bdf5U,
  0xbb550000456fU, 0xa0ac00005b68U, 0xd96c0000e348U, 0xe02d00009ebeU,
  0x116520000a4f2U, 0x614b0000a5ffU, 0xc4780000a99cU, 0x82e8000093c0U,
  0xae4c0000ac1eU, 0xd0920000be45U, 0xa89000006a00U, 0x93c00000b498U,
  0xc15f000096b1U, 0xa43a0000baa9U, 0x833a00007b67U, 0x8d620000782cU,
  0x89ab00008f32U, 0x92630000c05eU, 0xbc050000785dU, 0xa02e00006aa7U,
  0x77bd0000abc3U, 0xa53500006af7U, 0xc8e200008d47U, 0x8d500000b3c6U,
  0x736e00007b66U, 0xa7c500005216U, 0x8fe4000073f6U, 0x837500007f6cU,
  0x57fe0000d78bU, 0xfbe500007207U, 0xae950000baf9U, 0xaca00000bf07U,
  0xa7fd0000b2aaU, 0x776a00009300U, 0xae290000957aU, 0x62d2000092eeU,
  0x6c9800009674U, 0x77d00000570eU, 0x54400000a8d0U, 0x9f0c00007904U,
  0x703e00008984U, 0xb5950000755fU, 0x9249000080e3U, 0x91a200007eceU,
  0x666800007f97U, 0xc42f00009e7aU, 0xd73c000066f0U, 0x77c80000f8a3U,
  0x93e70000857cU, 0xa0290000bf0bU, 0x7e64000094ccU, 0xeeef15d9e0f536U,
  0x581f18ddb6ca02caU, 0xb90ee1b8b153490cU, 0xe13a28e3fa450c1bU, 0x7f3629f6310b88d4U,
  0x7fffc08112d1306U, 0xbf23402495e9f0f1U, 0xecf112000fd82b5dU, 0x1b240bc84b434632U,
  0x202cfe28391631eaU, 0xffec0e106561f4f7U, 0x4520a9db13151900U, 0xf71f6be8a7475d24U,
  0xf4daf833cb38aeabU, 0xe23dfa06c8a8071bU, 0x329cd202f0e318fdU, 0x56dadb5c02ead43cU,
  0x2618ebad151fe91aU, 0xbdeccecc04fbe6efU, 0xfded0243f34731edU, 0xdb1c3721baeeda54U,
  0xa5de910f982a1dc8U, 0xd8f2f8e7d4370ff3U, 0xc5e53cf9e5a414f5U, 0x5252e10b1ccdfd14U,
  0xf3b53affcc1f54c3U, 0xedafe6e211be1622U, 0xe17e3d5a82e4d24fU, 0xd105c5c9295214e3U,
  0xeb5401e0edd126caU, 0xc05c312cb301342U, 0xfefde9cb2ef84004U, 0x2900ece730f2068fU,
  0x1c380aa9d82069e0U, 0xd9f8cde424f1fb29U, 0x60161cfebaf93000U, 0x20e50c6d0dbc51eU,
  0xa532a3bd32acd36U, 0xfe393922fe12223eU, 0x1be0242254e007ffU, 0xef001530d8ed2defU,
  0x2018dfb6ed38f80aU, 0xdebdfecc303f40fbU, 0xa351ee9f0fcee36U, 0xee06230cb8a6c5efU,
  0x17fb1e8121e5bae8U, 0xb545bb012dc8cc28U, 0xe3b12575a1d13e7U, 0x2fac04b5644fff0dU,
  0xfd150e16fdf99edcU, 0xb3320217f4ce4210U, 0x101f4a1ce50e52e1U, 0x8b180adc31ff15d9U,
  0x77f0cffe1fdf000cU, 0xb332e03cd41bc907U, 0x3ce3fdc64ef1550aU, 0xbc0d3d22c31bc81dU,
  0xdf0805392d70c822U, 0xfc4812fbd043c6dbU, 0x3f4049e3290e1ed8U, 0xe3e57f3e0ee32df1U,
  0xc839d8fdd5b03737U, 0xc5edde9d04e252e9U, 0xcd1346f6fde14adcU, 0xccfce138f4a722e2U,
  0xc7a35652ea325bf3U, 0x78b70fdfec4f272aU, 0xf2ea262bec1558b7U, 0x63ced1dc9a08c627U,
  0xbad710264ce1b420U, 0x3e3c304360bc32d0U, 0xc7e6eaf6ecfc790bU, 0xbaa11ace11b4107U,
  0xa438391207efb8daU, 0xa1032b3c3605fb76U, 0x434c609afbf97aeaU, 0x8101e015f9413d1aU,
  0x57fbfa40143ce8d6U, 0xc5e30944d12cdc31U, 0x27abd105b0f12d09U, 0xbf316ea31d5f2fcU,
  0xed0bd9ee0030d8c1U, 0x1128f3c8a1292bfcU, 0x4b0df1c7262230d9U, 0xf5bbf3a9ff0b32dfU,
  0xedf6cfbbf0b5d7d7U, 0xe9425101f4d8d603U, 0xf2ee4ad0b200e9f3U, 0xc1f5f0c5eefad51bU,
  0x4731ebe411c640ffU, 0xa00ff17183da41aU, 0xade7c4db31c0d7a9U, 0xecab19cd18a83013U,
  0xe6fa0416e8cc130bU, 0xb9e0eb1f880e1dd2U, 0x43fb40fbd713c8d2U, 0xedf7daecf8e7c3deU,
  0x6581407bf0e1f20U, 0xbbd8140cebc70c09U, 0xfd30fe15461c0d26U, 0x3ebcd0e7240cabd2U,
  0xccc14ce1423f823U, 0xe63adefe26f304e6U, 0x20f0e8221edc42e7U, 0xe5b9030722e17081U,
  0xee53ccf3dd241b04U, 0xc231c6d9f1022035U, 0x17216baf151716fbU, 0x1531f6182600f4deU,
  0x5080bf0fce92408U, 0xd70ef83233f40d35U, 0xe61848d308efcae3U, 0x193ae30ed5e9cce6U,
  0x182d412203da3ad3U, 0xdfe9ea0de0e4df2cU, 0xdbbc1619eb0bfe0dU, 0x4274724f311b2ceU,
  0x31e81dfdb61f1ed7U, 0xd3269ae2d62dc7f6U, 0xfce4c5051dc20009U, 0xf31305e907ee4df4U,
  0x37e92ec7f53420e4U, 0xe97ff3b600f012d8U, 0x4321e2d8e731cf3eU, 0x2cc0c03db531922U,
  0x52d0e2c728f3e50fU, 0xdeb8f9e50ae124bbU, 0xd4e31703fb3c050dU, 0xd0ee02013af82debU,
  0x4e0dccd52449e9bdU, 0xf7f634030be4ceefU, 0x380ce616eebeb70fU, 0x1e0bc402b94202e8U,
  0xe5fec31a0a175422U, 0xf15eab4ae0ad0c9U, 0x494158fd070dbf27U, 0xdac0db310f0d1aU,
  0xfa1613be3b02e4f7U, 0xe217aafa49e152e6U, 0xda00d6c5032652ebU, 0x1ecbb1bd8b73252U,
  0x97d6fb1bf4b1bf21U, 0x57f6339e0be2da38U, 0x20eb08e603d9bb1cU, 0xec30c4e9020019baU,
  0xb5b99bf8dceb3ed7U, 0xefb2db02f5efc019U, 0x18e4d2270dd5db45U, 0xf4dc01d7caf41df1U,
  0xe630ac5ad9015addU, 0xf1dbd4061450b909U, 0x9ee8eb19d6ff65bbU, 0xe9d2c1a9f7a4cc4eU,
  0x9ecdd8c2f7099018U, 0xc6d9259dd7dac3f1U, 0x6faaf02efe3f953U, 0xe83628b4e41edbb6U,
  0x2b27f2fc35e9d9e7U, 0x98f0d4ba3e1fba44U, 0x29e4f8e12e81f3c8U, 0x38a8ffce062de7f6U,
  0x3e0da9feff01cb10U, 0xd71367ce24162427U, 0xce7e020f623e316U, 0xc8d809364bebcb40U,
  0x9f0e39c2d4d63457U, 0xc12807dbb8f713e1U, 0x42fb07b859cec122U, 0xce00dac1fe08a00eU,
  0x17aaf6da9c09dbd0U, 0x1104ce0642dbf81cU, 0x27ff0cec0b318114U, 0x1d4cc6144e00110aU,
  0x2f08bd63fcb8d307U, 0xdef8d0bc4ffe3b5bU, 0xcbe997fe5a350bfbU, 0x3df03c24f726fcc6U,
  0xe58ff612d9efbcb6U, 0xe7a0081d1cde6258U, 0xeade32cbfe1eff23U, 0x4b43110c15c81e2fU,
  0xe1e5f716e7f3edb8U, 0xf9b71c1cc8e42ea8U, 0xf21ea0f1c6cea5d1U, 0x5cf9e6b01ff70688U,
  0xf9524e0de301bdbfU, 0x22ca644017ccbe56U, 0x1fff3d14197720fdU, 0x5d2bd51841022830U,
  0xe4de4de923c23a25U, 0xc087cde903cc2baeU, 0x62130d297165681eU, 0x4309e8a7173c1affU,
  0x1200bebafe017e54U, 0x2922adbdd60006d5U, 0xe194ff2cdef3412dU, 0xe7b70b39c6bacdbbU,
  0xaae77fdbf2e259d5U, 0xae02eac014db1bdaU, 0xf4f71ae72a271976U, 0x18ce280e4ceb6309U,
  0x15373c3df2415c0dU, 0xd2c10de8289637eeU, 0x1f5a0beec531f1c3U, 0xfdeb45151d02180aU,
  0xc4cf85ef60a3811U, 0x832162c1c0adaf9U, 0xf5eb1628e706cae7U, 0xe8f22320e9c91805U,
  0x29cef7012ae419caU, 0x2c37f2d2e1f0fc9dU, 0xfce249279107280aU, 0xff145273f1a0236U,
  0x17dd4717f8dcfb9bU, 0xfebf01cb280ce2e2U, 0x3c0a070e20d9befaU, 0xe746e2f602d9d0e7U,
  0x293c8dc23f0afd07U, 0xf0190bcb13d21fb3U, 0x2dd8251c26f8d845U, 0x2f05e8facd0be4ecU,
  0xda213634ea3d1c00U, 0x46e817ecf942c73aU, 0x19c6faeddad53217U, 0x3ec212344f55c000U,
  0x1f01c4e2021f3d06U, 0xfd3315d8e1ec4315U, 0xd160bc214153ad8U, 0xcb27ee29023409faU,
  0x548d9db1c0cfbd5U, 0x361a48f52de514e1U, 0xe2127006e702fde5U, 0x8dae81e19e7e44fU,
  0xe0dbd4e39ed3d801U, 0xd27febcac864fc36U, 0xf32620fbe3f9a4d0U, 0x1d4db9983ee0e9c3U,
  0x2cc5383ee23bdc16U, 0xe0440e25c40f0ba5U, 0xf2f0c1c3d5c60006U, 0x50fbe4011cd1c446U,
  0x4fc6af3f0c435872U, 0xc1f53f2790f3e80bU, 0xadb4add815fdd43bU, 0x70e8bfc3c4c20dffU,
  0xf7e01325e5c321e0U, 0xe601d45c200606cdU, 0x14eff4ab3044d5ebU, 0xb8d29db40b25ffe0U,
  0x21ee04e42f339620U, 0x7dd1de3949ecd7e9U, 0x100239fcc445c8bdU, 0x4e22c85102129decU,
  0xdfb9c6f50f54540dU, 0xff02beda035d57e9U, 0xc64249a0ebab2c4U, 0x173fdcd97f6a09deU,
  0x1d093f2c9fc6aefdU, 0xeeb31f03e9e236e9U, 0xbb4cacf6ef19a7fdU, 0x5ef0f05de020be0U,
  0xd10126e7cbfdb534U, 0xfd37060928e6c393U, 0x4e49fab03cb4ab10U, 0x4df6c8c50e2e0c21U,
  0xf503fb0bd10f9b01U, 0xf749fb4d54c1e73bU, 0x6b64e5a7180710dfU, 0xb95594b60f10e5eaU,
  0x710902e53c0151dfU, 0xb615e9cd11ffca0eU, 0x6b17f4119a000ddaU, 0xb3421b033f182fc6U,
  0x968184e37ee3edfU, 0xcf5bc64f0d2e042aU, 0xd8e6fcb6fef01548U, 0x120ec034b85d2217U,
  0xf2f7b951f0e4e041U, 0x223b00e0f8da3714U, 0xdf2858380dea16deU, 0x28c8c481cb4228bdU,
  0x3d6116d6132741bdU, 0xff2eca39d1d4ed44U, 0x952b20eacdd9f43cU, 0x3fb8610a21fad425U,
  0x642ed296a326a11U, 0x485402e4f236c5fbU, 0x10d5d5d53d123dabU, 0x8320d64371ec916U,
  0xedf3bcba6223a35U, 0xd0b9b80c1759fe4bU, 0x18ba4007660cb243U, 0x330c73fb2a5ff107U,
  0x3f0df6bbbf00e42dU, 0xb0bbbaadf84f2ce9U, 0xdbd7ef2832270544U, 0x69fe0a7fc9aaf03aU,
  0xd3d13fb754c7164cU, 0xfffd54184e014abdU, 0x1ef6e84a8c25a909U, 0xcc16f9350c731faaU,
  0xb29b7c638e12ddeU, 0x9c082813150c1805U, 0xed1e42b4e2fad526U, 0x2ad9f63204e841ffU,
  0xff4a3a22f476d797U, 0xcea215e92a00b953U, 0xbf8f612d97f2712U, 0x25e4e6ff1a330ff4U,
  0x31f820041f293efbU, 0xfe2694d7c81e1dfaU, 0xcdcef61d4424057aU, 0xe017fae2d0ce2c13U,
  0x5ec1d2f281fa3dcdU, 0xf2ae6d6ceb7821dU, 0xee1007daf85045deU, 0xa321afd1d73735U,
  0xc6ebed3bc2e15859U, 0x680cea46f3cf171fU, 0xbe52339cf30136bU, 0xda0ce5d40e4245aaU,
  0x3ef9fc2c7d50e512U, 0x130d4b291d9b2e16U, 0x5b681c41e8f4d0a5U, 0xd9e2edb417b6f2c0U,
  0x1142603efb22d4d7U, 0xf36c612e6da11c5U, 0x3337c828efa9c739U, 0x9307c30ee91ed3fdU,
  0x122c0f3216dbd6f2U, 0x573a0415d4244ad5U, 0x1df886a59cbff964U, 0xe0be9ef0d15d129U,
  0x1430f9c4f12433e6U, 0x2e1cb92f38f818b3U, 0xc7f823fe44b6585bU, 0x37981cc0b2f3ea27U,
  0xde073b130ae64111U, 0x24cdea11123fdf4U, 0xf32530c709b4c90eU, 0xf23726143124f42cU,
  0x540b0d250bfc26d9U, 0xb1ec1ee0566badfU, 0x1bd516dc302a032fU, 0xd816a41e1603de2fU,
  0xcc12e5eebdd0f11eU, 0x4043d8f506723bf1U, 0xd7b8ddf4fe10d33bU, 0xa81dd409b3432c4fU,
  0xec7e1190abdf2f7U, 0xd0baf833d6b42bd8U, 0xcd9bad2ec4dd6fcU, 0xef0251b0a7060931U,
  0xf2d73dfdb7c2f4bbU, 0x29035907d2f9e104U, 0xd6e80e010b75111dU, 0x179510421e1303b4U,
  0xd281ec3deb1ee60aU, 0xbb11e3d6fc1b33c5U, 0xddd4fc271c0dad3bU, 0xfc15e6b9aeae2d00U,
  0xfa0403d2043baaf6U, 0xe0d118e40adb35f8U, 0xfcf734e311f0d139U, 0xe2d20ce873fc2251U,
  0xd455cabe8120cca2U, 0xb8151f03eaf43315U, 0xc157ecb9762de5aaU, 0xcdf90d221dceff09U,
  0xf950242819fef842U, 0xe1f227dde5e0cd3eU, 0xf7c33abef5e6e00cU, 0x2853fa6a320e193cU,
  0x19d23009ecf4f3f7U, 0xed32ef41eacc171cU, 0x22ae710c70909efU, 0x17d3ebf31df5d6bfU,
  0x6f1d6df18dbfd40U, 0xf8b0c336de52b66U, 0xea27c2b51a010209U, 0xfd1ad4ddf6fad30bU,
  0x32302ccb1df30810U, 0x400a20eade0e3dfbU, 0xeaebc9f72b29e718U, 0x2218edbc1c221b01U,
  0x122ffe1140de16ddU, 0x4050ef4b042e13feU, 0xffabddf126bbde14U, 0xc33cd9d8f723b728U,
  0x1b301407039df1e1U, 0xd3811ef3f4da0b12U, 0x40e8e55fe7eeeb3dU, 0xf9edd501c5af36d7U,
  0x1906fdc305e9a330U, 0xfbaeec4b08e7e7d5U, 0xeeff66e5e043c93fU, 0x19c1d12ae6d932ceU,
  0xd92feccdf1c30eb2U, 0x29df1638fad83439U, 0x3bf0ccd0d904ff4eU, 0xdb27f411e4fb0903U,
  0xe846d43fd7e39e1aU, 0xeff2f9182cfae310U, 0x103de4fb0229c01bU, 0xe714f12036f418dbU,
  0xb03f5192aea32f8U, 0xeb2004eaf3eee8cfU, 0xddfba72815f9e0d1U, 0xd7f80920c8ff1445U,
  0xfb9cb266d1ebb0deU, 0x7dcdfe2fdf521fcU, 0xf5ff76b857fcf3cfU, 0x30fd6f324161416U,
  0x1a38d3265f242807U, 0x23f8dbdde8df0628U, 0x15cf43e9f4ce4d5bU, 0x9f78d21fbd2ef826U,
  0x2cf8e7537f49db21U, 0x8d3eedf9430f0386U, 0x5b1945e4f5454742U, 0x982f15fe0c0d4d2bU,
  0xf10de32729dbd9ddU, 0x40f101f00930a1b0U, 0xc2f30246ac564028U, 0x4e0bcb2944e52effU,
  0x45492443eff00057U, 0xf1deeae717c222cfU, 0x92edb490bfc0728U, 0xfcacf2f0e4cfb04fU,
  0xf0d4191730e439ffU, 0xf8f9dd1c154222daU, 0x17eb6385e0d4dc1aU, 0xb0e30826d31c2919U,
  0xd314bd1f0c00c9fdU, 0x4b2ff363b30c239U, 0x64f649d15719ba05U, 0xe62881e3f2c5891cU,
  0x1fd5d3f6dd0144e2U, 0xff313bf83ced2af9U, 0xfadb2cf225c803fbU, 0xa2bdb132dabf82dU,
  0xb12e5a002620ebbbU, 0x38d553c96d079f46U, 0xf90b01b00f481ff8U, 0xcd2c4dc3c822e60fU,
  0x5fe966430814462aU, 0xacddff35cd3c13c6U, 0xfd1bb383eb922b3U, 0xfcdd65bde21f1215U,
  0x40f4b9b4eb383220U, 0xfee8d839f0e9f434U, 0x3bbe4ff615220519U, 0xe3215020bf431925U,
  0x20d4f100e1f924faU, 0x90342b7f8981b24U, 0xd9dce3012011344cU, 0x3013f397fdd2e0a9U,
  0xc7e3282ab66900e3U, 0xb42548012d2fa03dU, 0x595a08c02c1d1214U, 0x65bcd0c43e10609U,
  0x737f07bdddb7f8ceU, 0x95b44be1c346c7d7U, 0x1cf9ed09e404b8e6U, 0xf622f84ce9d0ef0bU,
  0x17d134fc76012371U, 0x19f810fa0bfc5bb0U, 0xf92132f003022d3dU, 0x1546bc49cee53b22U,
  0x4210e1ca52051b01U, 0xf71a306a1abec911U, 0x44b306fcc61349b9U, 0x3e0a18d7e2f84417U,
  0xa09c73e20fddde1U, 0xf20cdf04fc0db69dU, 0x29eadedfe3ee09edU, 0xfe0ae806ff504c30U,
  0xd1190c7cf91647f9U, 0x30e0acd6f8f01b08U, 0xb8ddb6c6e1072ff4U, 0xb842fc0eb4aa46dfU,
