/**
  ******************************************************************************
  * @file    network_data_params.c
  * @author  AST Embedded Analytics Research Platform
  * @date    Sun Jan  5 18:36:02 2025
  * @brief   AI Tool Automatic Code Generator for Embedded NN computing
  ******************************************************************************
  * Copyright (c) 2025 STMicroelectronics.
  * All rights reserved.
  *
  * This software is licensed under terms that can be found in the LICENSE file
  * in the root directory of this software component.
  * If no LICENSE file comes with this software, it is provided AS-IS.
  ******************************************************************************
  */

#include "network_data_params.h"


/**  Activations Section  ****************************************************/
ai_handle g_network_activations_table[1 + 2] = {
  AI_HANDLE_PTR(AI_MAGIC_MARKER),
  AI_HANDLE_PTR(NULL),
  AI_HANDLE_PTR(AI_MAGIC_MARKER),
};




/**  Weights Section  ********************************************************/
AI_ALIGNED(32)
const ai_u64 s_network_weights_array_u64[61423] = {
  0xae3e5413812cea94U, 0x1d6ab1d40dd40b2bU, 0xf4502615fae16ceaU, 0x31fdb314015301cU,
  0x3720232a0418cc31U, 0x220d7fe1baed13f0U, 0xfcc426d4259ec632U, 0xbedc5a0f99f1bf07U,
  0x930bda433240e74dU, 0x6af0eb2f3cc53b61U, 0xc4051aa015f4f681U, 0x3433eee9fbf11baaU,
  0xd21d485b7f4629f7U, 0x3139753ce20fc8d6U, 0xda2cb7ca5bef237fU, 0xdc17043803401ed0U,
  0x5fc93ed5dbd1cdb5U, 0x91e043240d03e75fU, 0x92bee2ba81492777U, 0x9a9b9cfe15152910U,
  0x1f3b29dfed7ab35U, 0x37c8811bcbc5be2eU, 0xdee3c9232ce33e98U, 0xec030efb18360ae4U,
  0x5e5ddd58560d0a21U, 0xbe6420efac5aa0U, 0x7ef7681bad99300U, 0xa7fc1ca8e2a4ce00U,
  0xc6313f082f98fba8U, 0x7fcb40dafac83df4U, 0xa645072ddf166522U, 0x451806348fbc31b0U,
  0x81eed543e7ea0746U, 0x5ef2a33a228dc854U, 0xfab1f2ad34e502adU, 0x3a6b0cdd3cd616baU,
  0xf84cb547f891f981U, 0x812202bb360ab46cU, 0xe009030a0e1ef717U, 0xea1e31765f5d45a9U,
  0x5113d0dc32fcdbc5U, 0x4c8af212284db0baU, 0x814910934b063663U, 0x3a34d7ced7ed41bbU,
  0x100afce206dea85fU, 0xd95f15d3e0fa7a79U, 0xff2dca05b57f6c09U, 0x443e4116dc60f6c6U,
  0xfa13ab9b3ed8cfd4U, 0x638123e3e23b09e1U, 0x3e5eb4dcd422a510U, 0x2796f2e20cd94911U,
  0xe846f7defc0b8d0aU, 0xd57f13a260e0aec6U, 0xffffc3f8ffffe734U, 0xfffff84f00000f92U,
  0x3346ffffd4dcU, 0xfffff32c00006071U, 0x275100002a72U, 0xffffe7ae000017c8U,
  0xffffb7ea000012f6U, 0x163b00000dc9U, 0x264d814542489b71U, 0xd6444b5fde3b1f88U,
  0xff3117f6b61e3d7U, 0xe79c2ec6bf7f7f3dU, 0xa7721942d4a5737fU, 0x9c8167d86237ba93U,
  0x7f7abebd81bfd1eeU, 0x258b007f7fe32d66U, 0x70ba41c1373bf2a7U, 0xa2117f39ede7a27fU,
  0xa81691549c9ee45U, 0xbd43ef65ca1f7115U, 0x2562e36d9d7fa12aU, 0x81dbb64b674a20daU,
  0xee3ca7a9a314dd20U, 0xafef98375bfcedb8U, 0x394a2beb5ba47f65U, 0x1ffc75d68e97065dU,
  0xfffffe88ffffff2aU, 0x810000002cU, 0xffffffd20000014bU, 0x9cffffffedU,
  0xfffffe9900000118U, 0x21a00000091U, 0x6affffffb9U, 0xd100000093U,
  0xf73fe27faa1acaeaU, 0x2d4db0dd6ac4af31U, 0x8186e541e587a30eU, 0xd1385f2f212dab7bU,
  0x2b8d3949f73381dbU, 0x18b22d74990ecabaU, 0x11181437ebe63e8U, 0x3c56ded0ebfbfe27U,
  0xe522811335d03450U, 0xe1dd3529e64b4b3bU, 0xea964efc5ad0e8e6U, 0xe38102efe4fa1e78U,
  0xe0641081392feb4aU, 0x56910d6b0957bb31U, 0xff5618ca197f20d5U, 0x9bac4d7c3372c39U,
  0x57945dab061fab0aU, 0x7fea2c3369f28d2cU, 0x79814e5b9276461bU, 0xdd98ad03e8bb8b98U,
  0x10090440d935d71cU, 0x9b0fc281d744e30cU, 0xa7fc202488093e1aU, 0xeb893727fc11ebaU,
  0xfd1a22a9fbc6357bU, 0xc4d2c76b7fa70814U, 0x7e57fe4d2cf30dcU, 0xed9dd44a171bc0c4U,
  0x4bea308132380eeaU, 0x66232420dff73fb2U, 0xb9c842b5f181fc03U, 0x8f3eef326c3e4f2U,
  0x3971f4cabbc3181bU, 0x4d48114c0166644U, 0x8a1dde547f028dc4U, 0xcaac91eaf744cf71U,
  0xa552cf7cdab69281U, 0xc15143fd4e16503eU, 0xf470c9be5a3352U, 0x6c81ba37d009130dU,
  0x17cb2dbd40cfa77eU, 0x64058154bfccdc39U, 0xede11bc37f3f4ef1U, 0x1c4c3ad3cd0817c5U,
  0xc213d2eda7e4f6c7U, 0x7fdc1c4753dbc749U, 0x47f6cf03f4d4ff7fU, 0x58c9b33d0ff94555U,
  0x35537f251636d5cfU, 0x5fb1a83b598fc426U, 0xc821f9befaef3d29U, 0xa5f382b1a0681b7U,
  0x6f2e1a1d81bdb68dU, 0x5dd1742f4cd665a9U, 0x677fd89da200a60dU, 0x6ccf9aed543d70b6U,
  0x7f28b92bc51dfe06U, 0xfda17dc505f775cdU, 0xea3cc4ef7fbeebf0U, 0x3225f61bbb003214U,
  0x7fa4c0350131f1bcU, 0xda03c534e00130e2U, 0x3d3f3f1eea7fc3c3U, 0x1ff051c29b94755eU,
  0xce00000103U, 0x291ffffff18U, 0xfffffff9fffffb4bU, 0xffffff34fffffc43U,
  0x122ffffffb8U, 0x1fffffff4aU, 0x69fffffc7bU, 0x3f80000018fU,
  0xfffffffbfffffe26U, 0x13fffffdd1U, 0x356000001e7U, 0xfffffd3d0000011cU,
  0x13effffff0eU, 0xfffffda6fffffe65U, 0xb8fffffbedU, 0xffffffd8fffffed0U,
  0x81813bf80db108c2U, 0x571a813d2531fd86U, 0x81e534b5dd24c81aU, 0xe41d1571bdaf8240U,
  0x2a6d369481234a44U, 0xbe74613f653ae03aU, 0xc431d281ddf539daU, 0x5b3d2cd0cfba810aU,
  0x14032d8f122d0ad1U, 0xa635be0e37cbc2a7U, 0xf17ff6b9e9811481U, 0x8101062981eb6e0aU,
  0x20517f3d5a7fd067U, 0x99dc774eb8127e71U, 0x21ffad150f65978eU, 0x77f9b9e37058c81U,
  0xd8310b8109a37faeU, 0x8153c6887f9691b9U, 0x4da925ab00ef4e52U, 0x9b003a8164042ceeU,
  0x8975dd67a41b5d01U, 0xcd7f26814ecb1c81U, 0xe11ac7d83f0578a1U, 0x4fba9e05825ea20fU,
  0x53daf53a4326b37fU, 0xe0c04fb44f0acdbfU, 0x621d810322513fe6U, 0x5f1881c4a47f9db1U,
  0x9b7e29d8a6613fb0U, 0xac2c26898a8174dbU, 0x3fc72e039a50a988U, 0x1b49a6a235e54779U,
  0xf7cc56533b5d9cU, 0xfad7c65368ad819dU, 0x28586e1e7f158112U, 0x28e0b68540b645cdU,
  0xfffffe8700000002U, 0xffffffbbffffffc8U, 0x4700000016U, 0xffffffcfffffff22U,
  0xffffff84000000faU, 0x11fffffffe9U, 0x11600000041U, 0xffffff73ffffffa7U,
  0x50000003cU, 0xffffffb0000000c9U, 0xffffffd300000033U, 0xffffffdfffffff13U,
  0xd4ffffff88U, 0x81ffffffa1U, 0xffffff7300000020U, 0x7f00000040U,
  0xf34357d514d67fU, 0x24d686fb3ff401e3U, 0x235e175005052566U, 0xa82ed5d33ae7bc6eU,
  0xe8aa4831c0543d46U, 0xdc25ded33332ee2dU, 0xd2c21de1d50af258U, 0xada57f08b2ebda47U,
  0xe8d7d70f8132fac9U, 0xed105962c2e8cd59U, 0xebf11cf15e3f26c8U, 0xf2cd1b402a35fa85U,
  0xc113ec15a612c181U, 0xd83c03a1fd3bb8d0U, 0x6412d524d03391f7U, 0x9ef4c67857cb261aU,
  0xe91ab60b7faa3fa4U, 0x39ad1415f71c3bdfU, 0xce3ac523161d3604U, 0xde11d41bd2303117U,
  0x2681a86103fa03e0U, 0x3534a062ab7ddfc6U, 0xc9180c0ef3e6c74bU, 0xd81222ea6833061fU,
  0x199fd12000efdf1cU, 0x23e8e237e108c7d3U, 0xc1d36d3ece51a79U, 0xd1812331ecdb0223U,
  0x8b20904027bf960cU, 0xf2ea1c27a8fb0ed7U, 0x1e3d521ef202daf7U, 0x267f3b8a7420f8e0U,
  0x7f48a71aec69d00cU, 0xc075e5e2ba269dd4U, 0x2ae3f597bdccc0f1U, 0x40fc65fb2e099e59U,
  0x54dade171902e1U, 0x46cd34c8e35000e5U, 0xf002127f1dcbefb8U, 0xfdb408ceff0609d7U,
  0x46810851ec420609U, 0x3d49ba480638df33U, 0xb126dffb073e167aU, 0xc1a1ec382f2ecc1fU,
  0x3cd08e4ac68129e6U, 0xc039ffaa4a58ad2aU, 0xc5bd3e3131b50e1dU, 0xbdf5ac481dc61545U,
  0xcfb730cb3db399e0U, 0xc61010dcb457d04eU, 0x62d62f0581223732U, 0x3ce584ba564ce369U,
  0x10c928f22f82102eU, 0x364f83458161ccdeU, 0x77a365d5d3c2f29eU, 0x40570aebcef16669U,
  0xb2054417122f2ffdU, 0x18e0ec27d44a8c36U, 0xb6da081f4cc718bcU, 0x1edb2622b9440781U,
  0xbfec2915eeed49e2U, 0x81dff22845f21a4eU, 0xc6b517e7cac02937U, 0xfbe07fdff3396ceU,
  0x5488fae9ece6b8f5U, 0xbdf181b60857b511U, 0xe357c816de9e14deU, 0xd226483cf5dba118U,
  0x5f18d72dfe3cf213U, 0x2fc926dc21050a26U, 0x29f9e7042933e014U, 0xd9bfe96e7f1d0b25U,
  0x2b262ee5880e1a81U, 0x36fd322647f41c33U, 0xf4d8b5075b1bb925U, 0x5fff1845050809f4U,
  0xae14ed431c611b1bU, 0x4f37fc0f567d6d6bU, 0x8191d0729726ea90U, 0x3993dbe13b0ccfeeU,
  0x59e347de25c21a81U, 0x17ea3e31d0ea13a8U, 0xc72226491333c161U, 0xd7e07fb7d8deaf33U,
  0xc6e84e373cec81d2U, 0xbe47dee823a60509U, 0xba17df161822fc0fU, 0x28ac51a7dbce3cf0U,
  0x5081e4a5ce31aff5U, 0xb5a9ee49fb183340U, 0x9cb00e4ac8e7bc3bU, 0xd0acddf52e2216cdU,
  0xf3243ef81116f37fU, 0xd21adc0601160b08U, 0xdf125d0fd7ed3a3fU, 0x13c436ea2c2902ceU,
  0x92ed4ad3c93cfcU, 0xf215de0a81f192ebU, 0xeddad6d0f662a9f3U, 0xb9c135a536fdf5bbU,
  0x2df40d133f24ed7fU, 0x49bc17ba16ffeb1cU, 0x83c713c193a075dU, 0xccf6b15150cf24afU,
  0x1a2fdf17e2ba1dcbU, 0xb2651062f079814fU, 0x3e3e71ffd25a867U, 0x73023973d3bc2906U,
  0xc7684553f66a5eebU, 0x8cadb6c15391574dU, 0x1b5fa98d35cdf53U, 0xddc357fb891edd81U,
  0x81e4e0a5ad2fc8b2U, 0xaef916ea4fd23457U, 0x3728450a536cf220U, 0x2135be8d19e2d4f3U,
  0x12e9c710ff648d7fU, 0x1df13116f521f81bU, 0x3ffb3c161593cf32U, 0x530e10ed2f2c26cbU,
  0x26daf1c198330981U, 0x3a96517836befbd2U, 0x42dc82355b1b6211U, 0xbe7320420e19e8b3U,
  0xcc536390811ffa9eU, 0x16e6e5530cefe9dfU, 0x1f2abb04fb5a3f2eU, 0xd0b8d84d020c47e4U,
  0x9389ecc5317fae1U, 0xee356bf182255c03U, 0x724b7f7dffc51d9U, 0xaa507f1a0cc9dea5U,
  0x1bf97f9425efb120U, 0xce13bf9bb952e4dU, 0x9e3be72128c7ecb1U, 0xc8cac6df2da6064aU,
  0xd232ee0a04167f3fU, 0xce41e51236d6f845U, 0x1d094aacda4cc4deU, 0xf1d04157ce0d1fefU,
  0x3d0210f225333781U, 0x102a02f60bdd0ec8U, 0xe2f6a1e9f711e51fU, 0x5fddad22620ce03U,
  0xcb09264e29302eb7U, 0xad34cc07fa7f0355U, 0xc3f3163ffbf53743U, 0x1771309b43a1e1fU,
  0xe9240c211b1306feU, 0xf7f0f8f6e22fd127U, 0xbe2edcec512122cU, 0xfef210f1df011b7fU,
  0xc228919d660db8daU, 0x7f01dd0c1e5bfa61U, 0xf1fe67702be291cU, 0xf434fe7a4e313f4eU,
  0xefa10d4fcaf615fU, 0x54d46998b2819349U, 0xddedffba2a29ec2cU, 0x450c84de9c3efd4U,
  0x4afe2ac815fdbeeeU, 0xf58e731b4bee3caU, 0xcbb3c84623187fcfU, 0xe2c4277367362416U,
  0x144433ae3d024f6U, 0x4a515c1b00e81edaU, 0xcae53aee3c357f4fU, 0xe30fe215f7dbb7deU,
  0x34b0945150813f70U, 0x15962e1899b05237U, 0x2f0950fa0869d6e1U, 0xc3c01c232b38e32aU,
  0xf8eae7db4be9a638U, 0x37fbdc2ce520ff09U, 0x83af201c3cb1df35U, 0x9981ded4efa9be15U,
  0xdf1ccca830f143bfU, 0xcfb7e12fb6209dbdU, 0xe4e749d9dfcae1f2U, 0xcaa2e770812ebcc2U,
  0xb151ddc12fcc4dbU, 0xcf034102cf204322U, 0xed24e1f2c5fc81f8U, 0xb6f233e4167429feU,
  0x7f9b123604e85b95U, 0x3643a9270be9f3d1U, 0xd350ab1acef0482bU, 0xe7b344cd03ede907U,
  0x39e609c8faa94c40U, 0x4598696a60d89176U, 0xbb8172e2d69befcfU, 0x59bb842de5251b04U,
  0x600ad73c68ccbe7bU, 0xe3631e81beb37baaU, 0x361253f2c8c99909U, 0xd9df861c1fcebae7U,
  0xf6ce0b3625d80ee3U, 0x2ff18117371ac023U, 0x4bbffd23e333f0efU, 0x56e1e7ee201ffc45U,
  0x4c3ff856f9d5037fU, 0x260a18f722f8f107U, 0x362a24e050e2083eU, 0x12deea2844f31a1fU,
  0x92d7c4920c3c3298U, 0xdb403134e5d4d0b8U, 0xee8238916ade097U, 0x607f539f3c364e19U,
  0x940aedf08e5dd0bU, 0xef1d34f47f240641U, 0x30e73bbb2e35d8e9U, 0xf0562261a34650dcU,
  0xfeff5d27113b08afU, 0x810edfdf5ad21ae2U, 0xb9bda6c805812929U, 0x40eff7dfd3354922U,
  0x214d52a12cbc813bU, 0xb97607a9d6309a6cU, 0xbf46743606db0f27U, 0x3b482f5347e7e2b3U,
  0xbedefdd51ed132d1U, 0x2b36d0d84867a0fdU, 0x77c44dc87fc60111U, 0xd9d3c2b729fcbb35U,
  0xb90434e5025c26fbU, 0xffea5bd1bd184c2cU, 0x7f16fc391e063349U, 0xc43538f237742c88U,
  0x4741a4fd9d24937fU, 0xda021b56fc39e5d0U, 0x28dc1ee310eff310U, 0xf4029f71ed475f02U,
  0x7fc2b913d7d241bcU, 0x3077199b5aba5b0fU, 0xf3e0d799319364d2U, 0x54063254e4220efcU,
  0x28d220f8290827daU, 0x98f7d2e1408113c9U, 0xf232f427afc4b7ffU, 0x145a2d822af51af3U,
  0x294ac3e1ec2c385eU, 0x33b32756cdea0d40U, 0xca1e7f1aeb0ebc97U, 0x290143c5cc41e0d5U,
  0x45ddf8bd21c8222dU, 0xb9273ab64c29fc58U, 0x492ef0c04fd52770U, 0xaef4e3447fbe48d6U,
  0xd0377c57e8819896U, 0xc6e9c7d14be7ea6dU, 0x23dd22c33a3dabb6U, 0x134ab3f2471b171cU,
  0x47fd7d201e1dc0bU, 0xd7c143bf30391b44U, 0x32b043062ac0e6a9U, 0xb00b150a9524cbb7U,
  0x1c7000002d8U, 0xfffffebd0000007bU, 0x6e9000001e9U, 0x14f0000086cU,
  0x2ddfffffe28U, 0x313000006eeU, 0x25d000001ccU, 0xfffffdab000000efU,
  0x4e000000292U, 0x19affffff24U, 0xfffffd8e000001b4U, 0x1a900000608U,
  0x569ffffff9aU, 0xfffff95900000224U, 0x4f3fffff983U, 0xffffff2afffffe8aU,
  0xcbfffffeecU, 0xfffffbc3fffffd73U, 0xc50000006aU, 0xffffff9b000008a2U,
  0xffffff2e00000350U, 0x6ad00000732U, 0x1350000011bU, 0x32a0000001dU,
  0x10f00000056U, 0xfffff8180000030fU, 0xfffffac0ffffff02U, 0xfffffeda0000029fU,
  0x3c1ffffff61U, 0xfffffaaafffffed4U, 0x1f4000000ecU, 0xfffffec7fffffc49U,
  0xae7f810d13a340e6U, 0x9af014c20e981ccbU, 0x7f11ac0c622a2eb7U, 0xb7a8c2b9c401b5aeU,
  0xe15011a874bbe257U, 0xa3237f2508d4f9dcU, 0xc2ebef72afb3791cU, 0xf82db3d37c8b82d4U,
  0x4008087decf6438fU, 0xc4e6fa78ba81ccb9U, 0x5c0014a508dc7f2aU, 0x350361ec71c9e281U,
  0x42e981a97d92d49cU, 0xe4a1287f4f81c69fU, 0x4fa9f37fe25964e0U, 0xafc2818153f0f5c0U,
  0x7fb8ee7f7f5181c8U, 0xb1ec81543586e581U, 0x136ba1ccdc4e61c1U, 0xf7bb367f8cc40e2fU,
  0x31e6ee4d7146cd81U, 0x2d454e5340025486U, 0xe7ae291fcc7ffec6U, 0x55bb108b16cf0019U,
  0xa45baf110256d986U, 0xaef4947feec9513fU, 0x4a811def7f95cf2cU, 0xbc1856947e340b02U,
  0xad8d9fac4a2b2b99U, 0x817f405eb78e65dcU, 0x11d2c35f81f855faU, 0xda33c5e808eb17abU,
  0x5a39cecf067f97e6U, 0x819d9e2a38027dc4U, 0x2f9581fe67ad0895U, 0x88a7f36bf8181ccU,
  0x7f818ec14231c19eU, 0xc7a04a11b5a4e7cbU, 0x78331888f39d7f4eU, 0x27a8a61433220682U,
  0x7495d8321bdad2f3U, 0xb8188c0008458c8U, 0x7abbea93d5a347d1U, 0x5f812e291aac92daU,
  0x5ba29e2a7bfe880aU, 0x2c6f21414e1859a3U, 0x7f2e1417211ca82fU, 0x7f8c34f7c01c49dfU,
  0xd8689178ec2f5157U, 0x97a7feeb49074b6cU, 0x4acb9c25d6b2ebc3U, 0x4ce854b57faf164eU,
  0xabde8357317f7f39U, 0xeb462907812a7f22U, 0x577fa0b23996fb50U, 0x2d7cbc310f7f2cddU,
  0xbd5e9971df594281U, 0xf5b1cd0c7fac7fb2U, 0x6e86d1814681a881U, 0x7f321df4779cfab0U,
  0x902e07f7f1d67e8U, 0xb850532596c03e81U, 0x7b5381e1031d157fU, 0x818d2f2b0477f81U,
  0x932f99b857151cb0U, 0xabda123c01282086U, 0x57faa0ac12e2c3bdU, 0x55c83de78c22fd14U,
  0x30b3136564fbe228U, 0xc1bc6cfadb309eecU, 0xef7b20d4f7e57227U, 0x3c81cb3d813d418eU,
  0xffffffee000000a0U, 0xfffffef1ffffffeeU, 0xffffff96ffffffe4U, 0x4300000097U,
  0x4d0000004eU, 0xffffffebffffffb5U, 0x5affffffb0U, 0x3400000000U,
  0xffffff8affffffe2U, 0xffffffb1ffffffdcU, 0x7300000075U, 0x39ffffffa7U,
  0x2d0000002aU, 0xfffffff6ffffff76U, 0xffffffe300000044U, 0x3d00000083U,
  0x1000000058U, 0x61ffffffe3U, 0xffffffe000000047U, 0x1fffffff84U,
  0xffffffcffffffff1U, 0xffffff4cffffffbaU, 0xffffffe00000002cU, 0x5a0000002eU,
  0xffffff5900000004U, 0xffffffc6ffffffd7U, 0x4ffffffd3U, 0xb0000009cU,
  0xffffffd8fffffff8U, 0x500000003dU, 0x7400000010U, 0xffffffceffffff57U,
  0xedc84ce790cd0465U, 0xc209bd4e59241561U, 0x63bb72b4094d1050U, 0xcc0f3032d070cd91U,
  0x3fa8ffd8e87fdcd7U, 0xdc1ac7af5784182bU, 0x5d4453d70a83ee7bU, 0xac54c51e6fd1578aU,
  0x3a34f4531ef4f551U, 0xef2a074bf054c938U, 0x41dd1e142fc5f3faU, 0xebd5b649310f8ec3U,
  0xf7e5103021e4e9eaU, 0xc140ddbfd60c05aeU, 0xc852f6bd4881cf44U, 0xdc3f1441f85cd9b8U,
  0xfbac0ff0247363c7U, 0xceb1152ef7acf251U, 0x53f5b6026a1590fU, 0x3a0a3b6b38b7a87aU,
  0xc3980ae3c71904a2U, 0xef1b59ab21f1ef3aU, 0x197cbbff735c2be6U, 0xd00dc37ffa2c5851U,
  0x46f1e67f27142d11U, 0xb7d0d2fb1b2fe246U, 0xf01f1c24df0f171dU, 0x6c00d6d7283918a1U,
  0x59ea44504de9cff4U, 0xa0252a27ccc2e4ebU, 0xb137f618f619e014U, 0xdff676115b011945U,
  0x3f23c131cc58d8a0U, 0x915e3d24febf28f7U, 0x7fdd5e2b2a9748ccU, 0x15dd8be800d63018U,
  0x9e26d9ae4109c94cU, 0xe0af02e618d69b8U, 0xbea8e2fb647c08bfU, 0xe062dfbcd6bdaf13U,
  0x101228b602a2f2dbU, 0x5d8debefc013420aU, 0xb87f3aff3b1bf740U, 0xb0afc42ab65c2e3U,
  0xff64e4e0b6495eb8U, 0x17cefd001e290666U, 0x74eb006ab704df20U, 0xfbb5ade03e1cf333U,
  0x7fe73cef310eec19U, 0xb7d9cff44932fffaU, 0xfdfada07e3ebc807U, 0x1dfcc8281c283803U,
  0xe5da35fe25db1cedU, 0x109f80209d1354bU, 0xff0ec7cf3ec704daU, 0x2b07ebfc37fd3f40U,
  0x66a15113a708090fU, 0x1d6f97aba513efecU, 0xba561d2c35e67ec5U, 0xeb3f8c79a9a0dc50U,
  0x5493f927c00c5b94U, 0xd7f8306673553d7fU, 0x9686c9d804bbee61U, 0xd2ea2208e0bde330U,
  0x374b5b0d0bf2172dU, 0xfab5a531c8423535U, 0x161cc9558121e1baU, 0x40d41a3926df141cU,
  0xbc4abe2297c9bddeU, 0x43f424f1d12943e3U, 0xe901f1cf2e1e1834U, 0x20a9cbbffdb9c300U,
  0x263fce6f223b2f4eU, 0xe1d1dd2c3a090ea0U, 0x281d1ca6bcb99dedU, 0xd9d5f2234c2eb824U,
  0xb49faf5efffc7f08U, 0x253c2d3e00e72b23U, 0x1a0bc46feaf71ac9U, 0x1a3a507d109910faU,
  0x6c3e913db81cdefU, 0x2b18db0e9839f952U, 0xcd3e45ce0e1cf90dU, 0x9f34c2ce9c57debU,
  0xaec2e5e5ffc4ddb6U, 0xffe933018437e844U, 0xb4af7ac3e6efd4dbU, 0x33c556e1fc2be32cU,
  0x702c2f091226237fU, 0xcd3f1cfebde019daU, 0xdda74752066e0b99U, 0x4a32c1e3b0a254e3U,
  0x314a2d189601c2bbU, 0xe547f43be73849c3U, 0x436733dd55c270dU, 0x18d522e1c497e7f8U,
  0x45c9c8cf140106d0U, 0xae4cd925e31dcc1fU, 0xff1e0eeef82a6ea7U, 0xab3363e05a8b1c0U,
  0xaed7e62c3ef903bfU, 0xe6f0ef23c9ae3b09U, 0x141ed40820812b3bU, 0xc61bca1c53ee1c29U,
  0xf0bd2946c4e92089U, 0x2bdc2206dd33fcc1U, 0xb3ca8c0b9be021fU, 0xe5c655e02339a87fU,
  0x664315343cd5fb13U, 0xc1ec203ddb836e9U, 0x3dbfb073099ce3ffU, 0xb548d6c4203135ebU,
  0xf2283f00c5b7106fU, 0x1e03a51d05171114U, 0xdae11ae53d1d0261U, 0x9e2c2214c25d3a33U,
  0xa68b1ece39e8f3cbU, 0x5dd42d15166be518U, 0x94430ce23f41f3e7U, 0xc47f59feffbf0dd5U,
  0xcc16f4e2e48a2ac7U, 0xf63edea0b04159abU, 0xe54a56b0dc4def46U, 0xc8c03a50de4ff31bU,
  0x27d0d3fb172da929U, 0xe66dada327761a41U, 0xea399f8affe6abbU, 0xf3057ff255bbb0d9U,
  0xfd56b8d83520a8bfU, 0x6477702bc68af511U, 0x2acb8e302b45de31U, 0x1efd2cdc65ec1fbaU,
  0x45ef6d52636ee118U, 0xb9a3f2d93d1da629U, 0x1ef4e052e7aed34aU, 0xad6dadd181d4f1e4U,
  0x6526e136c4aa45a7U, 0x202b3442322281e5U, 0x9e40201e1a62acc1U, 0xf4b446e8f7c3b5edU,
  0xca9ad122d207e823U, 0xc3e522c0afa30e1cU, 0x292717a5b3ca0bb2U, 0xa32831cc00eaf2e1U,
  0x1509d0ea5b36fe00U, 0x51c0c831fa2ef72dU, 0x162640f7259ca225U, 0xe82cb44d11213fd7U,
  0x2eebb83cd0ca2366U, 0x451244047fa2713fU, 0x19f2336642e010f1U, 0xde2bac15d826e8c7U,
  0x1f49b6f1ee1fb3e5U, 0x49feed4751e1b5caU, 0x60ad7f03b5da6f1eU, 0x18a24d74a1adc807U,
  0x2b1315594fcc3a2eU, 0xf5cabc0df0f33b19U, 0xf712fc33d4cd2346U, 0x8a6da56c67e94965U,
  0xef7f28afce0e0e19U, 0x5199efe5db92af17U, 0x682b6ab752189c24U, 0xedb2f2ddbc25a5e4U,
  0xe90db4441c3bfbU, 0x230da1e2102af29eU, 0xb5c3121a50b540ebU, 0xba1dd63052a811e2U,
  0x152152ede0fa4f98U, 0xcefed508c77d8fe1U, 0x181fd3e4fed89e0cU, 0xfb2500efe324e2feU,
  0x24d219fde2def972U, 0x1f1853272fc53319U, 0xf830eacecaf0e73aU, 0x811f4d1447df00e6U,
  0x4b312c02335cddaU, 0xf1e6fb4c2d4ca215U, 0xb312c0395c2cfa3aU, 0x2905ba06c8cc32e2U,
  0xc7d9c0bd81220103U, 0xb9ae41f44044f5faU, 0xf6cbbcdcc0ce390aU, 0x1e372f39e2d808e1U,
  0xb5994bd9387faa95U, 0xe9f9e42614dbcaeeU, 0x6a2ae59b23c67256U, 0x44a91e4615a00f13U,
  0x1295f15026fe3244U, 0xae51761a14d3db03U, 0xee4a0dc537c90dfaU, 0xfd472d52da1c6addU,
  0x271943444406be46U, 0x5fb648b5ebba02bbU, 0x2aeaf7183981fbc1U, 0x4db2d2d1f9d204deU,
  0x12bbce4d22c71c02U, 0xf12cd80af31b59dfU, 0x3b81833f3b33bU, 0x3939364dd5f50fa6U,
  0xdca6dbb1c0ffa461U, 0x15c929ce08fbcaf7U, 0xf5fa1cae4122a7bfU, 0x8acfbb0707bf7f31U,
  0x19cdb2e8a9acaee1U, 0xf916550818db22c5U, 0x3bcd6f1dadb74dc8U, 0x24790acef84a1aafU,
  0x70e97ec41be0aa8U, 0x3922222e04be4601U, 0xac3dd99f46d6b940U, 0xf6f730c13618c9f2U,
  0x28abe5e595e5021fU, 0xce2b0d81f0f44fbaU, 0x34291717d3da1d0eU, 0xed5435104e9df10U,
  0xf93ac911a41b0c47U, 0x18f0f95141c3992aU, 0xdf81be59dd2299a2U, 0x46fd350ca6acf5e7U,
  0xea38c1de8bde0d9eU, 0xdbe15438c570b3d5U, 0xa32428c2df01fe5bU, 0xacead09ef8e5440eU,
  0x8101bcf5d6c0b434U, 0xeb614edd2db7131dU, 0x8f354210f62850f2U, 0xc45c229144bde629U,
  0xc7c842dfb8f02527U, 0xd719a6414814dd3aU, 0xf050e2e182a28a7U, 0xc5572b4d0c440606U,
  0x59e3e40d1e63d303U, 0x3b3f3044123f8c19U, 0x32b6c6bed06293cdU, 0x2cfe56ef3b64f81U,
  0xe5245c50e613d00fU, 0x1410481be5ee5897U, 0x8db53519752e05e3U, 0xf3a41ad0b1e7d334U,
  0x3c0dc03f7105c934U, 0x2e17eb36fcc5f020U, 0xb3f9f65231ef3c32U, 0x60b42fcf0794cdfcU,
  0x4f81f162ca28e91eU, 0x29b930c14323d8c6U, 0xd0e9bb2769ef5a1eU, 0x3ce913121d25e6ddU,
  0x4d502bb160c35af6U, 0x5297bf2949524b22U, 0x111f933b4d05743U, 0xf446cc0524beeddbU,
  0x58c7ad2400178130U, 0x46f05db5eadb02faU, 0xbfcf8db26d5fc23U, 0x16d1ca25fef93cf9U,
  0x68257f9de2aa3913U, 0xdddfd8fa691fe6efU, 0xac16b8d58bc21899U, 0x233d6190524335eU,
  0x44260f28f846e5c4U, 0xd4d2e35b161617f4U, 0x2425bf23fa28fa1bU, 0xe8c49e8e41fcf7f9U,
  0x8113e2c4f631153bU, 0x13467d292fdb9a14U, 0xd41bc20c2fe21bdU, 0xee23e5ef03d04ee2U,
  0x1118e3fa0bd2e803U, 0xfee80fe22e07eb41U, 0xe1e0a6e917e51514U, 0x1f08d1edd2111efeU,
  0xbeb40a6b9415152U, 0x2a18a4ca052d1495U, 0x2077f0334cf1ca39U, 0x82d34b57d33ebc29U,
  0x81ff2e40372569ddU, 0x1dbacf5418052ee2U, 0x560af65338185cd7U, 0xe6672b38dc2d23f5U,
  0xb20b33824530f1deU, 0xafa5e46beeaaeceU, 0xc53ea5bada40610aU, 0x8824b535c91ffbbaU,
  0x81d4b6973def6115U, 0xfd1a9ef4f4041eebU, 0xddeee7b245d4d630U, 0x54ab9fe031cfa25U,
  0xc534da3003a9da9eU, 0xc37545dee28899e9U, 0xf85b2f4898adccf4U, 0xc9d32107a4c081e3U,
  0x3c0a03de3729e91eU, 0xe6283bf83e9ae2d3U, 0xa2c411c72f5a262bU, 0xf153eec6c1e2e05dU,
  0xfe3f0b09633eeaddU, 0xea8825aac475d93eU, 0x7113d4efe225a01cU, 0x5c9dff3f8125b2ddU,
  0xfb8592e602c59528U, 0x2ad1ea4bebfdd50fU, 0xf377a96c6c3df1e5U, 0xd584a9b4c20d621eU,
  0x7ae350e312fe0100U, 0x30bad43a30df0e3aU, 0x28f923dbfbfe9a52U, 0xd5cf485b19e841cdU,
  0xea07065c27074d27U, 0xc432b84543e81214U, 0x1c55fb940c81c248U, 0x4023c03ce62d2b32U,
  0xe8e7c118fbb52346U, 0x2ce852263b9b5433U, 0x46f03d414c4d6b2eU, 0x9a4c0321f4f030e4U,
  0xff3516b1dbf6edf9U, 0x2a2eefbfe3719c4cU, 0xd3b2f348f3ffc114U, 0x1aa8a912b237117fU,
  0x5759150e46e9d49dU, 0xbb2913a2d2124b1eU, 0x38c5621a1eabb5ebU, 0x644fe4bb39fefae0U,
  0x3081347c29bc223eU, 0x64462bc21d6a9033U, 0xcfd3a6083e0a1746U, 0xfe1cfc59551ff9a9U,
  0x479658fe1b579e3fU, 0xe921e407d73759b3U, 0xbad96fee4cf23d26U, 0xbb26cbfa2b3445afU,
  0x371bfbc4d6250a07U, 0xc6d01e27183d1629U, 0x2136cdae3d03c87fU, 0xe9f8d4e4466d4533U,
  0xff812efafcf62f0bU, 0x17b109421d273148U, 0xc65621e213caf941U, 0xc3cef3fdd1154809U,
  0x2440dee9afd3eb12U, 0xa6bf561ddce3391dU, 0xe74624e23fe615f5U, 0x30bc10d921eee4e8U,
  0x4914cd29a1ef1c06U, 0xe6e0ced00af2145dU, 0xe9bd1412f945db07U, 0xd425de43ba472324U,
  0x1dbb4d2218b9cc2cU, 0x2cccdbaccce02fU, 0xa83efff1fafdc281U, 0xd3ee4ee31cbffb4dU,
  0xffc814d7e7cefda2U, 0x21c1743e82281f8U, 0x3c9d9705b1d91d08U, 0xe3e3e69c9610d3d5U,
  0x2eeae042215056c9U, 0x282d0934d427b7a9U, 0x2013bece4d2c1e5fU, 0xc3c3a2130471ddbfU,
  0xed8e326131c6bdc8U, 0x4116f9c43c18c2baU, 0xfd2eda32a036e223U, 0x81b5094ec0f1312dU,
  0xe0113cd50ba4370fU, 0xcd14fad0afef4849U, 0x5907b6b0a973dcd6U, 0xebec22d367fc22c6U,
  0xfd1e311a19b8582fU, 0x181df81085027fc5U, 0x32df46543a15eb6eU, 0xf8c907ff31bcd636U,
  0x2be561004a19dddU, 0x3317e69f4073a2e2U, 0xed15ffcc493a02c0U, 0x26460ce30befd137U,
  0xace152c35dd3e0fU, 0x2305dccc8c17f3a5U, 0xd0fef778db37f2ecU, 0xdb267f35a0451f38U,
  0xbf763caa64ce7e7U, 0x1ec7aaeb45d5fda0U, 0xee1db0c0eacaa16cU, 0x28e2a44fb05558c5U,
  0x1952c68ac1501aa0U, 0x5baf814d2d4c190fU, 0xfb2cb11ff4e5c7c8U, 0xf9c74ee8f7da62e2U,
  0xcd4bc053c107eaa3U, 0x753157dfcf58f32cU, 0x2338ca9a36301acfU, 0xb5c94c11ce03958fU,
  0xcd9348c29fa24d8U, 0x53babe60e4d62828U, 0x3bc1785111fa49abU, 0x1b2ac331b5e41451U,
  0x311c81c626e572f9U, 0x1d448b71632e826U, 0xac150e3143702e58U, 0x10f1e12fc53d16e8U,
  0x43b5baf306d21ce3U, 0xdd0b2f0a1d013cd1U, 0x3cf313cb44313535U, 0xa0bb51f208c15216U,
  0x43ecebe6c7b616efU, 0x5ef1e9a99734d13eU, 0xbdfd0400aeba022dU, 0x94f726effd0cc381U,
  0x8189e508d0060b2aU, 0xebf5bdd8fee4e659U, 0x290a0dcbee24d917U, 0xd5deca91e7d1c4f6U,
  0xc60bff34300d54baU, 0xfe73d3d2bf0bf27U, 0xc4e2de19d20c051dU, 0xd12ec1142af440e6U,
  0x7f4a34c3c0bfbe16U, 0x9bc1b18fc5eaeecU, 0x211a62c3a75ed931U, 0x28d1e5ef0d3aec95U,
  0x35cdc44ea122506aU, 0x4435ce4837033c08U, 0xc95ee0332a4d1e4eU, 0xc9dc45c05722b918U,
  0x17b7dae509081a11U, 0xe535fc2c2e0ca97fU, 0x9b350fc2c6f905ffU, 0xe219d0e64532be03U,
  0x14bee2dd8bb2e00aU, 0xefe509defec41326U, 0xcbfd1b51e504fff8U, 0x9b4d27ddd515f521U,
  0xbfc60c3d2647fe05U, 0xf512cf6314d0d30U, 0xad4c3ef5ea145772U, 0x1badcdfa3733365fU,
  0x7f4ee3e9d534e6ddU, 0xbbc09ed9c71353cfU, 0xdae1366b4c6456bfU, 0x69b24cbc4e39aa3U,
  0xcd65e1f80e4be2f5U, 0xea4b7fc504181124U, 0x7b3cc2decc55e9e2U, 0x69eac10436b0f849U,
  0x735265e21069ac46U, 0x1cfc982e12afb1cfU, 0x5c4bcfecd8111e72U, 0x55210353e8a9b227U,
  0xe6b06e01f6d0bf23U, 0x30503e551661b1fU, 0xc23cd34cc17152fU, 0x4209a2d438131ddeU,
  0xa6a4fd2c3b176ecbU, 0xde0f3d4c08bc14e4U, 0xe10cfacfd31eb9b7U, 0x47edb3bc7fd95ff9U,
  0x8ffbde0dd3242c09U, 0x71646da8b2934903U, 0xe0caadd245afc7cdU, 0x621cdfd40fc8d569U,
  0xc014c60d2b223a06U, 0x3f27ac2fd64cbebbU, 0x9dfd0b4542f4b010U, 0xd8b908639ae3b97fU,
  0x2bc7e943e114c4d7U, 0xddb2262cdff97125U, 0x10305be781d2e893U, 0x9a41a51e51cba27U,
  0x827f5d704d93427U, 0x372a5541379b32eaU, 0xfc0c01e1b19d39bU, 0x904fd72b6c51093bU,
  0x40ffbb1dddd5f9f4U, 0xb2b135edcf2c3fb8U, 0xf11fdef6810696c4U, 0x2215f03303d9f7e7U,
  0xf144d7109ea6ec34U, 0xff99f66d089eee43U, 0x4417563657ecc6dbU, 0xe80ecb2de0d11600U,
  0xdd81b6d0fa57a6b5U, 0x57d7f7bf1535da40U, 0xf02551ca5d83e020U, 0x14fd1605eae7e8f2U,
  0x41da24c8fc402752U, 0x250c36d972686128U, 0x3d2f10e44429342eU, 0xbbbdeab41218f10cU,
  0x68bfc5a25045f9deU, 0xefdaea8e35638108U, 0x8fd4942cc13e9ccU, 0x550a8262a093946U,
  0x95a7b4a1eeb805f8U, 0xf4d53d3df05ec51dU, 0x37e518d3e8ade2e9U, 0xfa4ffa7f3ae4ab6U,
  0x1ee5d2b5e20122c7U, 0x43d0c818fb3dd4f9U, 0xe1e2012c3ef6c1faU, 0x10338fe24e6e83fU,
  0x26f7bffd082a24c8U, 0x63f13e80d7fcd21U, 0x122df02c03f134e1U, 0xbf16e310fae2fc32U,
  0xb40ac6fc46c4d449U, 0x71deded5c8eaf1c1U, 0x54283b2a0737b5cbU, 0xe2d515e8f4d20700U,
  0x9bb135f8e14b2dffU, 0x53ebdcdaeb38f990U, 0xa5e473aebadf81cbU, 0x2edf48ba6821464bU,
  0x8000000a4U, 0xfffffe18fffffe58U, 0x505fffffa2cU, 0x587000000d1U,
  0xfffffab7ffffff80U, 0x1db000004ceU, 0xfffffd76fffffa47U, 0x63300000645U,
  0xffffffc5fffffbe1U, 0xfffffcd600000082U, 0x1b5000000d0U, 0xfffff95200000505U,
  0x20fffffa10U, 0xfffffc18fffffc5fU, 0x33700000669U, 0xfffffd9cfffffbf0U,
  0x158fffffeefU, 0x3f0000003e2U, 0xfffffc50fffffdd6U, 0x34affffff51U,
  0x2bafffffdb2U, 0x41e0000032dU, 0x4f5fffffc4bU, 0x34a0000049dU,
  0xffffff3bfffffe35U, 0xffffff7bffffff5cU, 0x6d6000005a1U, 0xfffffe3e000006edU,
  0xffffff8affffffcfU, 0xffffff85fffffc7bU, 0x22b00000106U, 0x2d00000012fU,
  0x1198e2af9324a61eU, 0x817f1709dfd1163bU, 0xf97d9a0d0f0fe814U, 0xe1eef65353b40a05U,
  0x2c2eb7b9857a6542U, 0xfb71692d038a462bU, 0x81f472bb44445339U, 0xed4268fd817f1b97U,
  0x4599c739ba7fac7fU, 0xccff550493d57f00U, 0x270aa18e7f7f4166U, 0x19193e227f818ef3U,
  0x7ff9eb561dfbcd1bU, 0x24342ba64ea17c56U, 0xdf9c7fcddbff4351U, 0xae3676b5a1077548U,
  0xedf507174258ac4cU, 0x4010dce104b51378U, 0x84086fd441de04f4U, 0x8ce5472ef5cea71dU,
  0x72839442d1f890e1U, 0xfec018cb53b67fc5U, 0xa5c44d81a103b442U, 0xbf7f7ffcf42bf12cU,
  0x5a39503810f81f0U, 0x9c4ced4d81893c08U, 0x4c57811c082e3859U, 0xc4004c7f4e0feca1U,
  0x3b329b6f810f5f7fU, 0xb90c7f221bdef3f7U, 0xd2926fcd31347f75U, 0x81a7db81be0d6028U,
  0xf38b185abd28ce60U, 0xb2e235818981d0ecU, 0xc630e295413cd66U, 0xa9be7f7430a39761U,
  0x2c46817986fb7f65U, 0xc77f74407f8d2946U, 0xee84fbb0ea27677fU, 0xb3fb0cc7995c6f7fU,
  0x16814a72d05b0ffdU, 0xfac3dcc10ebd3071U, 0x427f8c3f22087f97U, 0xfc0c5b4a5e9ed7f6U,
  0x44fba77faa81bc00U, 0xc7eb70fd67812454U, 0x2b81f8b89bbacc43U, 0x1029ee9fee7545e0U,
  0xa22a817f8c60fab1U, 0x247730011b593d7fU, 0x7f58c9212dd53c81U, 0x7f68263b2ac58981U,
  0x3c7f4829552d7272U, 0x9dd52aa84b1e8781U, 0x4ccf488d357f7b35U, 0xe2c61debabac7fecU,
  0x8134b004d664d32aU, 0x45c27fa7b5341e5eU, 0x65eeaa7f15fd7788U, 0x4d7f221729eb816eU,
  0x346e9662f2857d4dU, 0x84d0d47f5abe0783U, 0x7ebedf429567124U, 0xb7d99addacfdef3fU,
  0xdcc1bf686b02bdd0U, 0x2c14f53551d31a36U, 0x82cc3cefce94321U, 0xe95a210d31853d22U,
  0xd82adf2c669d2e2dU, 0x81067c44f6e2c65aU, 0x7d86a9ed81a9dc24U, 0xc5b9a2b4c958e863U,
  0xffffffe2fffffffbU, 0xfffffff000000017U, 0x2cfffffff2U, 0x7fffffffeU,
  0x1000000004U, 0x1c0000000eU, 0xffffffad0000000dU, 0xffffffebU,
  0xffffffb5ffffffd3U, 0x38fffffff0U, 0x4e00000030U, 0xfffffffb0000002eU,
  0xffffffed0000001cU, 0x1cffffff90U, 0x5fffffff7U, 0xfffffff9ffffffeaU,
  0xffffffd8ffffffedU, 0x1c00000014U, 0x2900000013U, 0xd00000028U,
  0x1600000044U, 0xffffffe700000018U, 0xffffffc50000001cU, 0x1c00000011U,
  0x700000016U, 0xffffffff0000000aU, 0x11fffffff5U, 0xfffffff400000014U,
  0xeffffffe6U, 0x50000001aU, 0xfffffff9ffffffddU, 0x7ffffffe8U,
  0x5b6c94eb214b633U, 0x3efdda31c557699cU, 0x753e99c4fffaab3cU, 0x669d1770ec4a98b0U,
  0xe32df40f149de7a7U, 0x1a30bb140a45d9c0U, 0xb3c777c442427f4aU, 0xe0ca350a8be436abU,
  0xa123002fbbd42e1aU, 0x3df6fe33bff6fc11U, 0x5a250abfb21ebcefU, 0x1b47d63fc876d238U,
  0x9f3d35d8efc9e401U, 0xffe2f11db930fdadU, 0x243218c8b6f8aae2U, 0x3bdf52dc8106c405U,
  0x3c3f4af15c0fc5d2U, 0x4d9d9b9e533e6ddU, 0x350798a4e2df3c81U, 0x3e0c39b2f7e754c3U,
  0xdce8b73db6cc29f9U, 0xfcf76f60f2323269U, 0xa2ee0ef3a42ee60fU, 0xf93e05b3d4e42ae6U,
  0xc71daddec530dc48U, 0xd6e640c513d0bdf1U, 0xc667bdaa371c54cdU, 0xb87f15de6be9c7ecU,
  0xf7d3b723131b1f30U, 0xa6b631fc4f45ab19U, 0xc31b2c0ede57f616U, 0x18333d150ba1d531U,
  0x1114161015dbebe0U, 0x161cd5c33822f2b8U, 0xcc0fc6aed102fcf2U, 0x17cfd2ea8119fa2dU,
  0xa915c5ebed1dee03U, 0x490039c52830c4ddU, 0xfc2bfad3fed901edU, 0xed0fe529d124d6f2U,
  0xbb59bc5ab8f84108U, 0x3245b11a6aef3ec7U, 0x15812e1307cdcebeU, 0xf422b20515605817U,
  0x195b3a072241c2e9U, 0x41b5d3e13fc6939cU, 0x4a3abe4928b30b93U, 0x732ecbb5e42df2dfU,
  0xd6d4450cec384423U, 0x2d2ec323370ffbe3U, 0xf13527c7e6dcb0c3U, 0xc6e981cd1fe7a0ebU,
  0x8c9c537e9171832U, 0x2e4ec009c5b1404dU, 0xc3f52efcf2afdb3dU, 0x392d5efb2fa8fe0U,
  0x3136c5f1d2814e14U, 0x14131f0ab3061f57U, 0x8131dea0dc34342U, 0xf7bb26e51607e80aU,
  0xc1e00f4fd29b542bU, 0xa92329cfdf32eef0U, 0x365112e2c6a5a312U, 0xac1dce38c812d3ccU,
  0xed2f0e9841e635fdU, 0x382fb0c7da22a6fcU, 0xbb27fb60bef34837U, 0xe905dc3e233bce1eU,
  0xd8250ec5d0d4271aU, 0x13013594c5357fccU, 0xfffef73020322016U, 0xc73e564eb8d608c4U,
  0x94daf025f21905ffU, 0x39f7f2de57f01322U, 0xbb4ec9fbac4225e3U, 0xadf6fb9e4858a01aU,
  0xce0613f60c2ca7c1U, 0x59e9a7a3d2ca25eaU, 0x39002781b7e6516cU, 0x29fc21b2e6d0211dU,
  0xc4e6c60f19b2ae64U, 0x93f1d4c21f491ec2U, 0xc9faef543ec826daU, 0xbffcf43dbad51b1eU,
  0xc62d30fcc7da3f00U, 0xa427c1f5bcb77f0dU, 0xfabedc3a15e937d7U, 0xd2da5334e2e2a2fbU,
  0x57fb6b43a02653dU, 0xe8aec8aa8afc4c3bU, 0x36246010013b1deaU, 0x1a611958ee2f4302U,
  0x500f2cc4ac4f1990U, 0x261f37e7fde958bbU, 0x459f0ad21fb04564U, 0x62a6f694bd2c21b9U,
  0x4854b5a113441fe1U, 0x25d3572964102407U, 0x26f917f519f62ac8U, 0x2acfd9ecfc2331f9U,
  0x151d33f83565ad47U, 0xe74bfb18c029b6faU, 0x2f440f32e06e280bU, 0xd12b34eb7fc30ff9U,
  0xd256f66c20be9452U, 0xbc3f6a1633e5fa06U, 0xef37cde563dc2751U, 0x60c5c19e0f48dbbeU,
  0xbe26ce1cf7fca9ffU, 0x89c1a225f8672f4eU, 0xe11632c3c89e311eU, 0xe202554f29bcf081U,
  0x212cb0e2eb786919U, 0x19fcf902cfb52036U, 0xaba5e09a1fc961dU, 0xa745d2851bf5b162U,
  0x9d41a2b812baf40fU, 0xc5dfe1f5f7ebb1d6U, 0x22e2a51a581f7d1U, 0x4eb24df60307ecf5U,
  0x2c232d2203309c13U, 0x13f4c6bc120f2b0bU, 0xd50b34c908d9f103U, 0x1df8353013d04b28U,
  0xcb153bce487fd7c6U, 0x46e5e5e81b02041cU, 0xcdcd2c4e0b25dca6U, 0x5b07acf71bd64ae9U,
  0xa1b1d41c5b11f3f1U, 0x54d0f04b3d25efe5U, 0x417642fe2055e981U, 0xf61c28edceedb1acU,
  0xedc6f3b6d820f225U, 0x2ab5b6e1acb7cdf3U, 0xa3739bb02406641U, 0x2e0940b7affa94c1U,
  0xb3c22467ce3eb718U, 0xe42912ec03c52bafU, 0xffea11dcdffdf9f8U, 0x1f1e02251d1311e1U,
  0xe3a26375c730ed05U, 0x68b3fd48ef7a5afcU, 0xefb510f218db2b81U, 0x5b0aebda30413d2aU,
  0xd06a3c0ed653f7efU, 0x28c3fce6be0c5c81U, 0x27d5bc4ce1c13c45U, 0x3978ffcc4faecaccU,
  0xa01842ea26c5a624U, 0xc6b000020d57f62aU, 0xf524faec9a10cbf4U, 0xc11e1934c4fd2aadU,
  0x224f10102a4100e5U, 0xcf3bcb5125211126U, 0xb249c1dce40ff5bdU, 0xfd5b9ce8f7ca33ceU,
  0x81da0eeb43f390ddU, 0x21cfcfe6bbcb34abU, 0x22e0ee2014ed0655U, 0x63d3ccdbf0a0c812U,
  0xffc110622643a50U, 0x1c9c324bf8e1197fU, 0x1acf45e2f02611adU, 0xe8e9fec4afc95d4cU,
  0x243dad8efac33c6U, 0x436dd1d09307e23fU, 0xcd5e1e59e8efda57U, 0x49fcfa9ab302ab4eU,
  0xba13cbcceaca1757U, 0x44abfefdd508b5f7U, 0xf6d511c515c823dcU, 0x23f9eff324fa33f3U,
  0x364a031df9b209f7U, 0xbf0e193b2218c40eU, 0x7feb0c4a51fb2df8U, 0x4b34cfe2cb37339fU,
  0xb9be5226ef2b18e8U, 0xb61a24b41e75fa21U, 0x1a1300e9e2e8c09bU, 0xfe0db5c4e7b23630U,
  0x2bebbe7bdbc4d6U, 0x25f3efb5d9dcdf31U, 0x5af508b0e7272b4aU, 0x46dc3eb5201181cbU,
  0xdfd47f3a8c03fad4U, 0xdaea72c22f4641e4U, 0x400a9bccf0ec581fU, 0xe0c45aea50afef3U,
  0xd8fce5f4e75125e7U, 0x13b161040f5418aaU, 0xc96bfc9918d39b03U, 0xac6ebd51f2c3a2eU,
  0x4dd4d6e3dde3b21cU, 0xac11044b4a2d25f2U, 0x3fe8bc65e71af5aaU, 0x34dfffa9be1cc919U,
  0x8e08bbef3f0728a0U, 0xd918ed56961791b8U, 0x7f6ac2c46cbf5afdU, 0x1e612cb23dc023c2U,
  0x37e64718423c10f7U, 0xfe0002eaeff1dad8U, 0x833f7c74219bff2U, 0x32d3d32b1acd26dfU,
  0xf6ac5a3a2a243004U, 0xff2f00e40923feb6U, 0x42f1ea7f0907d809U, 0x260ade2f1ae0e3e4U,
  0xc100b22f316e921U, 0x421abee022d4cb1eU, 0x2b0b31c4b9f38802U, 0x893df491e59bdb3U,
  0x25e54f5e4efbe17U, 0xdd9dbcef4b3f2345U, 0x4b1c49101d173403U, 0x7f15f846f1fcd91dU,
  0x36d70907e4d914eaU, 0xfbed01bc02222e4cU, 0xb52b4aea2fd6f72aU, 0xdecdc817fb6d3cd7U,
  0x471a5d07cbe22b20U, 0xffc5bf8116cc7eaaU, 0x392f579aee9862fcU, 0xb110253cc9bc52c2U,
  0xefc638e104c4e3efU, 0x70beff3cbdc7062fU, 0x1c3fe929b81340b0U, 0xc1f44135fec5beb4U,
  0x1c11071bbb687f13U, 0xcfaa2ad8481c93c3U, 0x92e2d1008d2cfebU, 0x55adf632b431d02U,
  0xca58b728e8cd2fffU, 0xb2f12a11eb26b93cU, 0x2b23062834f0b1e3U, 0x302d5bf358dfefeaU,
  0x7926c1e7b3315303U, 0xd213b2234ce806ebU, 0x143cb71cbf681811U, 0x1715213db91f7f52U,
  0xbb3239e7473fe584U, 0xa609d863048103d4U, 0x4e0c343aa869d7dbU, 0xce43d3db1331f3fU,
  0xf6fdc2c54fee108eU, 0x85cb1c366824b58U, 0x2756a22570e71400U, 0x970a1ca8461e7701U,
  0x430ddd381ff1b87fU, 0x2ca71ceccb1e69cfU, 0xb9bb88afbd1cec9U, 0x11ce39fcfad130c2U,
  0xb06758cbafaeb9edU, 0x1104e7e21242bfe0U, 0x2d48b5ff29244e1aU, 0xf801d7f9a760043dU,
  0x65f84c5ac93a34e6U, 0x404b56c00bf3cddaU, 0xe3d139363ab1f914U, 0x38fa6dd8fdc929cfU,
  0xfd39270ffc810da0U, 0x9ce0f0b39bd9bbf5U, 0xdab15414dda31b0bU, 0x4f5ee01712bc1bccU,
  0xd727e9c95b53fa6cU, 0x53208110d3390824U, 0x7c212eedb91c9b6U, 0xf73c543d4ec8e607U,
  0x54d2df2796d2d608U, 0x85d2b3b22fc3edf8U, 0xf1fabfd2e0cef705U, 0x21c0203312f5d8beU,
  0x28100fce4838c916U, 0xb54adadb5affe39fU, 0x2e32ef0f0fbc9b24U, 0xf5bca9ce2d031d31U,
  0xf9661e81b23dadeaU, 0xd528e016515d1c2eU, 0x4b38c3040ed60dc2U, 0x5b2a00d42535f0f7U,
  0xa42f0b4fdc71dae6U, 0x15fc10ef34be10U, 0xbc7fe1a045f1e63cU, 0x8f6d11b54b24111U,
  0x56cf4e812a1ed9eeU, 0x62fcdfb81b34c45U, 0x915dd24c1cf293dU, 0xf01d38f2b82344efU,
  0x2ed508233b3e5645U, 0xaf40032b3ca02425U, 0xd1aa077f26cb0dd3U, 0xc74de1e7ed3119c2U,
  0xf72978a25475db46U, 0x3d84db25250d112U, 0x4b6316e1b046b530U, 0x9383cadceac31213U,
  0x4e42da16e7fb36d8U, 0xe4de2e073ee5de03U, 0x1b66b7f010e83a0bU, 0x1cfd1dcb1a00ff07U,
  0xd6dc0c0f0eec2303U, 0xfce13e2d01c5ef0aU, 0xf6cc7ff24b1a061bU, 0x3bfb02ed02d48ee6U,
  0xf64de2d064430cdU, 0x88f508082db90e1cU, 0x333e2c7f1b2ccd32U, 0xc93de6ebffe62cbeU,
  0xb8352d97d0c58898U, 0x3a2ad8cc26e34a07U, 0xf5d8a6f664484cc0U, 0x2c02e4c3412f10b9U,
  0xf439bafd6a59ec45U, 0x18f7df1bcc31f5c7U, 0xc24be7c311fd1dd1U, 0xe3c00feec8cce20dU,
  0xfa3fa2a837fe3a0cU, 0xf233e5120f951d38U, 0x1fe1304341010914U, 0x2fc33fa260c81f9U,
  0xcce13190910a6fdU, 0xd17c393e2bc0a16U, 0xd5cb1de0f6c6a5c0U, 0x28a7af6f29ef2d20U,
  0xda58e7f3c9ea433dU, 0xa95b33f48108d232U, 0x3000822e803e914U, 0x24f15620b8e586b6U,
  0x36106ebcb8aa24ebU, 0xd82fac080ec5f61dU, 0x27b2f7d6eae01df0U, 0x24cf61dabedb5fcdU,
  0xf78b4d14feb64d14U, 0x317f1a57bd096afaU, 0xad913f61496c5U, 0xae1d1657d0b73707U,
  0xaf365b3cdde40333U, 0x45f748aa211c2323U, 0x6406dbcc22a343efU, 0xcfc02d32db21efbdU,
  0xd432b20505af3949U, 0x2dd5574b8108112dU, 0x51091ecc9c592dc0U, 0xdbfc1ff0e5123827U,
  0xf232e94ea57f8fdeU, 0x27f6c74fcae4aef4U, 0x334635056037cf28U, 0x1956c5203396e72cU,
  0x8f02c553483debaaU, 0xfe13e30d0afa252aU, 0xdea2e4ce27123090U, 0xba3a1b8d521416d2U,
  0xe0140813f549f331U, 0xdf06ddca111216ceU, 0xc922351207cefdecU, 0xeff7b31ee1dc7f17U,
  0xe0e03fe44fd16e0U, 0x27f007d7eb0642c6U, 0xcdd1dc1938f5fb02U, 0xe08e2f211d1ede3U,
  0xfd38002d63920100U, 0x811b3616fc0befe6U, 0xf2fc76fbed469799U, 0xfaf99ac2c753163eU,
  0x17adfd3a5016c3e2U, 0xed5eb626e1d4c3e8U, 0xd61dd3e1bad94666U, 0xccb9b80c16cef9dcU,
  0xe2e5e3400e3507ccU, 0xf9d3f500bf1be3d6U, 0x710aff3d16612a24U, 0x130a0d7febe930cbU,
  0x33581cb3d4d79510U, 0x68f0da1924599a90U, 0x7b7e936193e6f2dU, 0xec340d45cf2cfb10U,
  0x3ce5133fe10262bdU, 0xfdb139e0f4caf050U, 0x15f2ea3723a7c6dbU, 0xd2c281a749d1dbeaU,
  0x91fb3cf248a1de76U, 0x2636de1743e1294eU, 0x430b4551f5d924ebU, 0xd0ecff5c009aec6dU,
  0x1646f4cc75c5b142U, 0xcaeed53f2caf3c08U, 0x24bde7134b080e04U, 0x34810995105bfe3aU,
  0xf8f7d255d9022d21U, 0xc9c1e839dd354811U, 0x54d3f84f082bebf4U, 0x60d40a034ccb31c9U,
  0xfab5792524311023U, 0x1de4ea0c04cf2fbdU, 0x189b04447f3a24adU, 0xe2ea18d6f72b024fU,
  0xf328e563d7e4cc37U, 0x2d0836e0adf4bd2aU, 0x3919bbd20e1bcddeU, 0xcfe23a18ff46ebb4U,
  0x3abe3ecf0b51a9e7U, 0xebc609e97f2ff1c7U, 0xeaedc31d140636dfU, 0xe00df068d6d1d6f2U,
  0x1539ffdf2beabf4dU, 0xf84c25192c410c26U, 0x20c05d1223d792f7U, 0xec2cfb1435dcf332U,
  0x5ddb380218e20f51U, 0xbcc5c4bc3feb26ceU, 0xba0ddfd4bc0037cbU, 0x1114b8acc54ee627U,
  0x4e18b0d3eaad32e8U, 0xaa303b15e0cfd5eeU, 0x8fbd65eded42ad9U, 0x3e7f491ed1c794e8U,
  0x433ae81a03d7cb1bU, 0x1cba41e834b82537U, 0x6eae9f3994516c4U, 0x47f5172381063f11U,
  0x13fb1235f3f205ddU, 0xf4f2f90432ff1810U, 0x33d916c93c381b1bU, 0x3105b154ef38cddeU,
  0xeff6d8aec41aee08U, 0xedfdc2e43ee12f01U, 0x1afc0a551033c80cU, 0x1506d9c8aa18090eU,
  0x49f7dfe8c4becdeeU, 0x242fdd22d5d2693bU, 0x164d81d119ef3ad0U, 0xe6ac03f5fdedc61cU,
  0xece1c9d44b5ab939U, 0xc661c0dcd15371e4U, 0x532edfc6dfdf27adU, 0x93b90607b9cad7f3U,
  0xcf2bf1c931d2edc9U, 0xc3c700c1b5ce16cdU, 0xca24f5fabb494e23U, 0x5681191132d5b3f9U,
  0xe0daea120c62ad4eU, 0xd8acadb82b298942U, 0x8457fdbeabb2962U, 0x3af19400304dd7beU,
  0x2ddc06dcff262f45U, 0xd31b9920ee321fc9U, 0x4aee51f7d91961a1U, 0x3f69fd4867e7b5d4U,
  0x8a2e06cfb99899ddU, 0x2ebd8b4ef9922756U, 0xce90345ef2c6232U, 0xb72bd2f16ff6a34cU,
  0x81be95faf26ac612U, 0x37afda6a6682c104U, 0xe912eff6cbaee1f0U, 0x13a486f6aabd4454U,
  0xf1f2eee7493dece6U, 0x251020fe65ba23f9U, 0x23dfd45b202325f3U, 0xf2c50f8102172d0bU,
  0x1332f31c2204c2e5U, 0xb30e2b1e33d024U, 0xe824fec9bdca4a39U, 0xf6f5e5b83d162db1U,
  0xe037d8414dfdd94dU, 0x2ec4c5f0c22512c0U, 0x199f460451c70f45U, 0x55dee89bddc4f203U,
  0xbf4e524b35e214abU, 0x50d32beaab480f2eU, 0xccfb04e681131e26U, 0x3f020ef9c440dcafU,
  0xb7e8acdd3ddcf40bU, 0x1c5711533bc8f4ffU, 0xf1e95e3a0823e83bU, 0x53301d18d5f5f431U,
  0xa616021c2d7f97e7U, 0x2e52ed3451923ebU, 0xbfc501f5057211f9U, 0x5ea40b29591e8d1aU,
  0x24dec6986dbab939U, 0x7ea91a53344c052aU, 0xb407284066e4dae8U, 0xc246d398294ffa13U,
  0x43c12f1cfc7213dU, 0xeec64be7281f4a17U, 0xdde69b237fb5eaccU, 0x451eddc74bc11fa4U,
  0xe13be1f0051acb54U, 0xdfb5d4b818d11919U, 0xbc9e0b307ccfd82dU, 0x74bcbaede84d403bU,
  0x1de201ce5a41e25U, 0x3716e9caa97fc3e7U, 0xe22eda4722d8f0afU, 0x1b7e151eb6dccd8U,
  0x3606c51055da4b0dU, 0xbc37bc24f68cef19U, 0x3e24cfce3c735ebU, 0x1a03d756f0d9f4e9U,
  0x105bf0a6fedffbe4U, 0xf3672ba87fb505ddU, 0x1fc00610fafbd3ffU, 0xf2f2fe291dc4b713U,
  0xfec459c13e0406f5U, 0xc9380ecb2fb3432dU, 0xdad433297117cc2fU, 0x28c21cf63f1d47e4U,
  0xc2992cbd19ea0506U, 0x54e4af31db14cddfU, 0xb07fe9191b05cbfaU, 0xcb4a060590a1ece8U,
  0xef02bf12fe7feef2U, 0x1119ffec0136f9bcU, 0xd2cfe230f00b15d9U, 0x73302083d032fe2U,
  0x321816c0fb0738bcU, 0xf69b6bf0bfef015U, 0x18431f211acc36f5U, 0x302ac5e4662afe33U,
  0x9cc023e3c00bbcf3U, 0x4e02179fe8251bdaU, 0x3c4be54bef337f19U, 0x1afb5225f2cdc02cU,
  0xc81fceeebfdd523cU, 0x4da3c9ef061db0cbU, 0x94d162d5eef6cda9U, 0x691a12b20f34f51cU,
  0x371b28bb6ce8b857U, 0x98f3c7d04dcbe7deU, 0xe30d1adb7f49f499U, 0xdbbcd2b0c22dd922U,
  0xdc04391e106ad2bbU, 0xaea4938e7d5f300U, 0x22e9d2f53c12f346U, 0xc920b4e216f0e3a8U,
  0x2557b60c1ae3e75cU, 0xfd3203d3fdc9cad9U, 0xde24ec02fce69e1eU, 0xfed04bfe03274a3dU,
  0xccdcf436acd927e4U, 0xf30529bf5d560f48U, 0xd1269edf27d4c7b5U, 0x7fe4151f26cc14e6U,
  0xb7e623bd500c0037U, 0x1db7f81df4ab15dcU, 0x9342fe2b54622f2U, 0xdc06e0bbcacf21e3U,
  0xabed07d32847e00aU, 0x2b20e6c9b92b0c17U, 0x373b2badeebc4b24U, 0xe7223117813bb810U,
  0x7f8f0c2ee82341dU, 0x813ecf3d0bb3b50cU, 0x9b84cd0ccddb292dU, 0xe7a89cc0f62936f5U,
  0xc3cecf030b212d1U, 0x53b4afa465af10cU, 0xf254e90fc619db5bU, 0xee34b36f48ca46beU,
  0xbf3dd837b618bec5U, 0x10db47c977346a00U, 0x2f49006217242604U, 0xe9e9d7060e38087fU,
  0xb4e8fecdd51bf3cbU, 0xee3ea4fdccc60910U, 0xfe22bdce4aec090cU, 0x42a927872d50f714U,
  0x25452aee0a11fa3bU, 0xf4db23f51129bc23U, 0xde037d171a52f7d9U, 0xc11018bdba13a945U,
  0xa81406ea1e7fe4f2U, 0xe4fddd47eade5560U, 0xe53cf9d8b37347e9U, 0xcceb90ccf30527eaU,
  0x273f34d926d24e29U, 0x9cfaf12caf381ae8U, 0xaab404e53adde4c7U, 0xc03a7f55e5f82b64U,
  0x42b5f81e55dfbb48U, 0xeb5fc4bf2708cab4U, 0xdc86f0ffdd2ce5ffU, 0x516dda2923392a37U,
  0xa0c2ce282b6b8131U, 0x2b3be0f141ed7123U, 0xe05209c918d73c18U, 0xe4cadb47d1d574c2U,
  0x8d1a144036aeb2bcU, 0x9c3cdc04e92bf52eU, 0xd3bd51dcb9ebe6ceU, 0xe7d35030280dc9cfU,
  0xf03e0ad8ef0defd5U, 0xd2d1fb0c7fb0a99fU, 0xb436443959c5b50bU, 0xd0bae5a8fe05ee0cU,
  0x31d3451408b2d11cU, 0x1117fedb1b5ff1b5U, 0xf54532051a45e3acU, 0x9fef07fd19045fc9U,
  0xe4becad9ec0a15b6U, 0x573abe42b7bea161U, 0x13294316f9b2dbc9U, 0xd32bb3e52a3a20cU,
  0x18c8f2c2d378b518U, 0xf6a9f40acacd1e13U, 0x34f715bb37123d7fU, 0xc328119a2dd31b0bU,
  0xf8def8d9dd6840edU, 0x75250fe8da33f934U, 0xfcc1710b6d504b46U, 0xf80cd0e611381045U,
  0xbef63efead1da0a0U, 0xa80a35a5d00d38dbU, 0x408a23f493bf5d6U, 0xc71c81ab59e7ef10U,
  0x5d8263043c2e437U, 0xcfda432d073dc50aU, 0x182ed8d60da7bfefU, 0x50a3f9ff23f747c5U,
  0x474510073c206a16U, 0xd8d854f3d5e481c4U, 0x66f1dd2e2e093bcfU, 0x2e3c4f470c4912f5U,
  0x423c48be3f400314U, 0x2c078500acd2e056U, 0xf75e4f09fefe01adU, 0xc5df702a781d81f1U,
  0xb410d228082d1f06U, 0x14270e2309ed3b38U, 0x47210520150c46deU, 0xdf3b4906cff9e190U,
  0xeed5300545d83617U, 0xcecb53c0e15a12cfU, 0xd245d4020d00c03U, 0xc437f52ed984d7c8U,
  0x965b09e94c1da5d4U, 0xd337cc51c0a4d81bU, 0xa2db101acb7f0447U, 0xefc3d514dcdc83efU,
  0xfbe056e2320420b2U, 0x3af1ec7f5d747ffU, 0xc1b8cf1a102beee9U, 0xe6cac00abe1304e2U,
  0x3c502939baecbbadU, 0x7fd4f505d4e025d9U, 0x173fa9f4000f28a9U, 0x352eff504cee28f1U,
  0xfb1a21e1e9f776f6U, 0xff420f50d0d7a4ccU, 0xb9dcf34e0509d1cfU, 0x7f8410efad70030U,
  0x31e3c2e6ce28cbf5U, 0x26fca8caedfc7fd5U, 0xdecf220dd33c30c7U, 0xe3be3b45d5e6f72aU,
  0x21f9e1f6dcdb05ccU, 0x9f9df04ebaadcf3U, 0xdd1ac625c6099497U, 0xbce6cfef210811e6U,
  0xf346d69b4d4e23b6U, 0xb32a15e2602081dfU, 0xfff312cb5afb3df7U, 0x1a5b32ffe72b36ffU,
  0xea252143d4b6ac43U, 0xcddae10e37212fefU, 0xec07192a143af8dbU, 0x1623d1c7811432d7U,
  0x14e715f5090c3709U, 0x26151a39006d02deU, 0x3ad7f233fbee33c1U, 0xe51220f722fd38a2U,
  0x40f3ad5b1618fb3eU, 0x511338900b668f8U, 0xd2a13b5a63571cb6U, 0xb011f2b047f4f37U,
  0xb2495d3c6cc6e425U, 0x174c4a19ef76f233U, 0xd903d0ea12f5324aU, 0xab67ea4fb86e4e08U,
  0xcd68dd10aa98bdecU, 0xaadcc820d11ea4a8U, 0xf127b51304901c0cU, 0xe6a02f262920b6d9U,
  0x1a775a2ccb37bb46U, 0x891256100c6cf7fbU, 0x3c7f000a8c6fa928U, 0xdf9f7334e4f56b31U,
  0xebc4f1a238b1d8f6U, 0x492e19eff5da49e8U, 0x55e4d44054b37fd4U, 0xe0c81ad8952a09bfU,
  0x197bf0abfdb11cedU, 0xb937ef2743c500b5U, 0x224a30c2251a1f03U, 0xef08253fc79deeeeU,
  0x728f2ec1bf1f500U, 0xc72dfe273edfe237U, 0xdbf4f635f4ebf4e3U, 0x2bf8bbe61f0af129U,
  0xfb120d273b44d1ebU, 0x11ff1de8ea24e112U, 0xee404c3e330044bU, 0x4081c2dec600ba0bU,
  0xe4661ffa1e094619U, 0x3fca5d0dfb1229c7U, 0xbb22d4474c192abeU, 0x54f6bd57c8d2b5b5U,
  0x209bfde00dc07fbcU, 0x4a36244832c718c1U, 0x2c4f141605d325eaU, 0xdef3044735e14ef0U,
  0xdcc94e1fb1bee1aU, 0xae5def070ca1301eU, 0xe53f1befa90a4be5U, 0x17b41034edf6f313U,
  0x81451bcff9e52144U, 0xdbb86f2b040bd4f1U, 0x93eb407e117b012U, 0xb3c3e05ae035935bU,
  0xb15fff62038f93eU, 0x7a764a958cb5d0fU, 0x58d0ef7ff43f2728U, 0x180623a2d5a42560U,
  0x8e1bdc1de4edc2bbU, 0x2be151fe4ff31d4U, 0x1504e0204c5ce926U, 0x4e25f2bd4802e207U,
  0xee0f99221d92dd0U, 0x13d040c9cae9bbe6U, 0xcff3b2c73ed3b7b5U, 0x3f44d22e054a2900U,
  0x28ad18bf0cc27f00U, 0x3a080f1ccf50bacbU, 0x712b42092ad225a2U, 0x54cbf8f5f0b8033bU,
  0xe3dd3525abd19ecaU, 0x28be77cbfa58561cU, 0x7ffbe4c81623cd49U, 0x39031e12c203dbd1U,
  0xe755d2381fd31defU, 0xf5e5401234629f0eU, 0x154045e1832455f0U, 0x41bb38f43ad7402bU,
  0x205419330b0621c0U, 0xe47175b394eb206U, 0xbdb0ad0d3fed2c07U, 0x21f0dfe9dd5c1effU,
  0xc1f909333710d9cbU, 0xc210dfbaee7fcac2U, 0xd020ca0f0a03fbafU, 0x492cfff8274df32dU,
  0xfb3b054d20d3f2ebU, 0x59b1f520f35607d8U, 0x2bfd0b71547f04ceU, 0xcc52e1942938e323U,
  0xd7bcb76cc8d2bdcbU, 0xed18d2c5f42e4d38U, 0x29cde0f327f44282U, 0x221f52d729e81328U,
  0xeb2f3e692f53d91fU, 0xc910e490d51ef5a3U, 0xd0a5fe3e7fcb18d2U, 0xd024890b34112a19U,
  0xf2fc6e78bf03263fU, 0xfbdd04b5ed44b004U, 0xb7d72dfab6dcc200U, 0x2eb437fe17cd04d2U,
  0x55e230faddf7ddc9U, 0x5033303afcdb3e2cU, 0xf4c61b01e5dd6751U, 0x20c22504f1d31afaU,
  0xbff13ab40eaf81a7U, 0xe0d7b49fe319259cU, 0x96e2d5c864e9be08U, 0x27ae0cf8d7ce21c7U,
  0xdf57d1cd3af5dfedU, 0xcf0a3e5addf319ffU, 0xd2e4393cb0f939c1U, 0xe7f9efaa1123fbf8U,
  0x12110f9c5375121bU, 0xde4c7152626c3deU, 0xe4ce8d30257f1609U, 0x4ccb29ea05a7ea1fU,
  0x4150d145b3ab229U, 0xa46d02a3ce60b16U, 0x42163d6e0c02c3f9U, 0xfab084d90aea4928U,
  0xcd6eb1246e6faa7U, 0x7901dd3725043701U, 0x10f28123dcdd62f6U, 0xfbe014b6174c2213U,
  0xcee04b041065ded6U, 0x7ffb13ff25e0e727U, 0x26180ceb0dec0928U, 0xd22008de201fe004U,
  0xf74821d90ddd20daU, 0x19b60fd31e0eef14U, 0xbe4828e940c617d7U, 0x1b0f33bfcc0737f4U,
  0x186caeeca941131aU, 0x2dee0b81426e6d8U, 0x72bdbf4e07f621c3U, 0x1628cb4d51fa31e3U,
  0x1e56b4dd7fdeaed5U, 0x2ed0f9f1fc5efb14U, 0xc3e2545423bcd522U, 0x5e070fb3e16220f9U,
  0x1629bc1bec34dd40U, 0xfb352cd1ddca31d1U, 0xfbdb05d9df1b10d6U, 0xfef9f881c1112100U,
  0xc7e5d20121beefd4U, 0xd21f0cdae3c969d6U, 0x5d0e90718c72ee2U, 0x18f906c943dd17c2U,
  0x5c2e25e7f71eb63fU, 0xcb251fbfcccea934U, 0x671720c1f3c7dc2dU, 0x8e297fae2698f919U,
  0xfb220d1a07bb18c2U, 0x8652993f4ce1e2f0U, 0x39cc27d818fe0f0eU, 0x27e65148f1b3443cU,
  0xaf13412666f4e5e7U, 0x4538a9da43585f87U, 0xa465c0122d62d48cU, 0x3c81ebe8c044baa3U,
  0xc04557fede1496c0U, 0x14fd56a95df0c248U, 0x1905cdbabb0def03U, 0x32db4fe2f652f7deU,
  0xf3b2e5d833bf21dcU, 0xf7cf072137280ed0U, 0xcf0f04f1333913fdU, 0x2cb4f7e11b6135deU,
  0x15c9623f223073fbU, 0x1bebd4cb81221207U, 0x3a160e1602d9f0c0U, 0xe8445c413bccc3e9U,
  0x496120d5421056b2U, 0x34f32cf002f22526U, 0xfb0fbb41a71cdc20U, 0xfdd14e0dbb44d7c6U,
  0x43131c56b07f09b6U, 0xbdf1e365618a2d4U, 0xf9c914a542a002ffU, 0x6029c2143ed3a6efU,
  0xf624dac73034f423U, 0xc8e1362873d940f3U, 0xe61122f6f805f0e5U, 0xba17c232bfe0e905U,
  0xe734e2f412f08107U, 0x74f9c357c2f51850U, 0x113b1e04ffd56b14U, 0x319927a64eebfbbfU,
  0x51bf3c032dc7f62U, 0xc915e0fc76b1151dU, 0xe6b115c120c05843U, 0x4f22b8a1b31934d8U,
  0xc3423edbdb05b108U, 0x9a0ad6c69853fec0U, 0x8bd316380ca61f42U, 0xff82043831d3a715U,
  0x26e8bf13e82f0c20U, 0x14a0c5592174f7f1U, 0x2b0e1e16360fc2baU, 0x459ba51b08c2c4a6U,
  0xfc47f2203f2e24feU, 0xa924dd21a4c0de89U, 0x112eadf3774e1b23U, 0xeab124f27f034559U,
  0xed7f3f46d12f2c3dU, 0xf831dc2aea152dacU, 0xf303ff1a51e8efeeU, 0xea2cd9f1d10249e7U,
  0x15ef2e6923cff5e4U, 0xb931e322da3d9cb5U, 0x52c7312a1a2ac425U, 0x321cd807f8ea47bbU,
  0xf71dad0e5ce8087fU, 0xbb56e93d1fbe850fU, 0xdca3b62df5cd0fd6U, 0xa01ab1b82f9190bU,
  0x297562e0c15c4053U, 0xefd00d80c741253U, 0xc9cf1c99d856c5deU, 0xaec4dfad09a73ab7U,
  0xeb070da433602210U, 0xb1d524b45fc42819U, 0xe13030da6fc4f728U, 0x110bf8e722ee5fd2U,
  0xc8c522b73b0e4fadU, 0xfa0e05dd81eae64aU, 0x10de1b9ec270d25U, 0xa7e84e2f2905bfd4U,
  0x1f5dfd3edfc7fc6U, 0xedccd52fadf52ff6U, 0xce0153c4b1d42dd7U, 0xe914480b0201f318U,
  0x39e2d9e3f3483cb1U, 0x2f1c8d0739ff29daU, 0xdab106faed11f3faU, 0xf5fbde13f12835d7U,
  0xbf3bcea979f9271dU, 0x259701fbebf8e029U, 0x21d806201d142e17U, 0x5458ff5f419fa0bU,
  0x813926b7f04ae1e8U, 0x3de225e9a6d5e6f7U, 0xae3190df70f2356U, 0x7e9eb039ecba990eU,
  0x3bb9e0dcc437b5f0U, 0xa108ba19f900281cU, 0xd2a52434f6e7f83bU, 0xa236f78100e7d90aU,
  0x349eb01ddffea3aU, 0x1ff07f05ad00ddeU, 0x9fc8c820ffbbdbedU, 0xcc14c649ed13dbf8U,
  0xcf192b0fafbfb039U, 0x225feb17f32b070cU, 0xd6a72fdeb52acb98U, 0xffba247ffdfae6d8U,
  0xaee54d03ed4cb21bU, 0x4fd7e12c49ff68dfU, 0x120c42bcfc49be54U, 0x9f0ae2483ea53a0aU,
  0xd4a50e0a9414ea4cU, 0x3815cc05bdabfdcdU, 0x331ac519a0d93e30U, 0x210f20b6f36412f4U,
  0xdd3111dbd7daf002U, 0xd3c7f9f261ce20f2U, 0x9053d6818d14e8d5U, 0xaffd3b0dcba01e0dU,
  0x45ea303e607f2e28U, 0xd2c243b7080d3601U, 0x4909c2e6172b23e6U, 0x8eb6f5c615f62964U,
  0xbc3b06fe19cdbff3U, 0x69ee38dda2a0f53eU, 0x74ecfba112dff42cU, 0xe9ad541edae3d1bbU,
  0xed1d02ca7b362042U, 0xf615ce35f9fd0d4dU, 0x707dbec381cb5bbU, 0x22bc8124f3feb03dU,
  0xa8073cff69dc2747U, 0x2a9ee2dd0bb5d4d3U, 0xd3edb8316932594dU, 0xffb53906eebbc9ebU,
  0xe134b2cc62332c14U, 0x253da01710d6fe39U, 0x8b1d1b2824daddd6U, 0xd265bdd0d42afaefU,
  0x40c1f0081606b9dfU, 0x44508122ea243ddcU, 0x243219d0ce24b9c2U, 0x21e1f32ad4def1d1U,
  0x8615aed1b1550a26U, 0x2a181cbfbd2306b2U, 0x44135a0c19f81de5U, 0xffe4474cbfcde30dU,
  0x3bc4ffaf6d1fba8U, 0x3e0681efd4dff612U, 0xbb32d8c21bbcb8caU, 0xc5bff448090eefe3U,
  0xf5f7cb31db0359d6U, 0x54cbcb3b1307fd5aU, 0x3fdac442e8e7fe2fU, 0xeaa8f915e838b9f6U,
  0x2dde1ef5543e1fbfU, 0x899997eba981aa41U, 0x152d8cd472752c7U, 0x3fc6305d2453c487U,
  0xfb578161d4af5fbcU, 0x60d411d692312294U, 0x62c1fdf0e34b1af4U, 0x1355b62ebf6814dU,
  0xb1bae74a9018f30eU, 0xcdd8c994445ec19cU, 0x1af156082d11dfbeU, 0xd4db5dc3eec2ac21U,
  0x51a97c34abb425b5U, 0x560f1b19fadf3e3bU, 0xf2876de7fa44abfbU, 0xf204085d1bf5bee3U,
  0x5530c7f14eeb4687U, 0x35eee2c619d59b0bU, 0xf3e4c816d7a6812fU, 0x3c72ffe7b5dfcf24U,
  0x50b6d3cc2f803e5U, 0xf1051aefefce7e82U, 0xf23ab8f01f60eee3U, 0xe5cc6f20383b291dU,
  0xec43d8cacf58545aU, 0xacbb0cb80969e035U, 0x8de7e6da90af7ff7U, 0x580019dcf256c004U,
  0xd3f87051e302be1aU, 0x41cc1d2d08cc19adU, 0x3f3133e6b5ce271aU, 0xefbe3039093ebc3aU,
  0x95b7f920b73427a2U, 0xe7cf07ee55d8acd3U, 0xdcb1efe6248119baU, 0x211b2cbf096061feU,
  0x1a1b0809fd01f1eeU, 0x271830efe00d0028U, 0x81e32c11f81a19ecU, 0xfcc8c5ff291a2f0cU,
  0x38121c50040f5118U, 0x3dcd03d3e8cb0a23U, 0xecfe937e6e524c8U, 0x81eeb46d133e027U,
  0x4b62203e3215105eU, 0xa944c53332e238e5U, 0xc50a7ff8e0c516a3U, 0xa2271ad697b91d0bU,
  0xfac41dff3b1792afU, 0xe50ce7fc27c22714U, 0x807dee12a1eeedbU, 0x18b2da26efb8feb7U,
  0x484fffff5b9U, 0xfffff831fffffe68U, 0x96000000842U, 0x154ffffff45U,
  0xfffffea50000016fU, 0xfffffa39fffffd90U, 0x1160000056bU, 0x35800000667U,
  0x7efffffec4U, 0x6900000003fU, 0xffffff70000003ffU, 0x24b0000035dU,
  0x1e200000777U, 0xfffffc3e000001beU, 0xfffff745fffffbfbU, 0xcffffffdebU,
  0xfffffa34fffffef6U, 0xfffffa9f00000684U, 0xfffffe650000011fU, 0xfffffd5e000002ddU,
  0x691fffffee3U, 0xfffff8c7fffffb3eU, 0x7380000024eU, 0x183fffffaebU,
  0xc90000041dU, 0x516fffffc2bU, 0x33200000150U, 0x19bffffffa6U,
  0x1cefffffd02U, 0x44c0000065eU, 0x8d900000544U, 0x389fffffd55U,
  0xfffffbe900000008U, 0x49200000399U, 0x87a000004efU, 0x23600000095U,
  0xfffffd85fffffcd8U, 0xfffff7bf000003afU, 0x5800000466U, 0x38fffff9f3U,
  0x9700000856U, 0x672ffffffabU, 0xfffffc49fffffcc6U, 0x226fffffdaaU,
  0xfffffe9dfffffe9cU, 0x54f00000452U, 0xa14fffffcd9U, 0xffffff1400000354U,
  0x7a800000427U, 0xfffffed2000003a5U, 0x3c0fffffe2dU, 0x2dbfffff8a7U,
  0x3360000080eU, 0xc8f0000039fU, 0x20bfffffeecU, 0x2320000017dU,
  0x8ceffffff39U, 0xfffffd95fffffe4cU, 0xfffffe04fffffc48U, 0x6e50000007fU,
  0x33e0000002cU, 0xfffffeb3fffffe4cU, 0xfffffd4afffffb1eU, 0x5d900000079U,
  0xfc81c7fe3a2e4465U, 0x6f7feb1d12b3571dU, 0x3ec71cbac76a5758U, 0xc0257f2caf34eb81U,
  0xd6939709b87fad7fU, 0x1f0d430c6feb1ecfU, 0xbce9cd817f1e29caU, 0xfecf310f0236d55U,
  0x1617004f17f3afaU, 0xd4eab781655952abU, 0x43e3eb1a7fc881caU, 0x46f245708b7f6a2bU,
  0x7f81e9faa6418199U, 0x5d3a408d20571b6bU, 0xec6030817f432d71U, 0x7f1e81647f3ebb81U,
  0xdbcd49c6812aaeU, 0x7f62dc4918c17fdbU, 0x57f009a816b0027U, 0x1c7fcafd5938fb9dU,
  0x8df58141867cfe2fU, 0x56e97f7f7f3b4d9cU, 0xff0bcac2d8fae5f5U, 0xde5418e9341f7f28U,
  0x28cc7cbf304beba5U, 0x7fe3f2c558b27f2dU, 0x8345de2b348fd3ffU, 0x1c25ff830be8fbc3U,
  0xe6eec6accaa73026U, 0x6c7ff00f6db7f158U, 0xf318b7b751057f1bU, 0xa57cb8eefdcff1eeU,
  0x79bab15925b5fd87U, 0x394f73fee4393681U, 0x395f140489f44571U, 0x7f4ecc1de18148c0U,
  0x810fd540f361ec2cU, 0xbaaa37f46315814U, 0x6b81a3ae46e8f92aU, 0xd9f4ce1081411f5aU,
  0x10228c4632de28cU, 0x68d5a3937ffd5481U, 0x8141c74225ff41d4U, 0xdcde04c67fc5eac3U,
  0xcc8c0695fe0bfd67U, 0x5a2d685750ca0c7fU, 0x7f0381f64236672bU, 0x273ca2eb04bbfa19U,
  0xbd4c291136bb691cU, 0x3bd88651c1d23e2aU, 0x20d12f29e63d7fe2U, 0xbac177818149c9dfU,
  0x7136a7e1c729a518U, 0x703b3eb46eae95feU, 0x815e8be648ed1204U, 0x3a4d071bc85b1f47U,
  0x6f7f5a25f233ff1eU, 0xa4a115434098564eU, 0x5aba7f5ed07f9b21U, 0xf060180ade39587fU,
  0xa3ff8fcee626a840U, 0xb34e1cf817f4936U, 0x997fcefa413e0f46U, 0x525041fcce43addfU,
  0x2e4628a68b3d784eU, 0x3dc8d002312a3820U, 0x7fb5fed5b4483ef0U, 0x1c7f1d1842681d8U,
  0x1f5da9f4813a812bU, 0xeb7568961b31b696U, 0xc14e97f20281f281U, 0x757fe21b327ffc5bU,
  0x819f347fcfffb243U, 0x68c5a5a05a33844U, 0x43751e2f9d34f1fcU, 0x7f7f8106db9edef7U,
  0xf93e8122fd81247fU, 0xc3683636d3cd917dU, 0xc7c465d5e0455e7fU, 0x327f4984670cb207U,
  0x7f66b8ea952b2881U, 0x41c101ff4a8126d7U, 0x31b0fc15d07f2ebbU, 0xdd248d3f00ccefc2U,
  0xcb7fc675fed0c3dbU, 0x8181d81f26355600U, 0x8f57812e07beb1cfU, 0x2a6ff481f84b3613U,
  0xd0c0f4352fb5eafaU, 0xf3e2132e068afa11U, 0xdd08e6d82a29cdd8U, 0x547548da57cc81d8U,
  0x6ced90237f8c5717U, 0xeb4612304c90fa3eU, 0x2ab662f5296c6a44U, 0xece29c1b733d81a0U,
  0xa3ba84817fc94064U, 0xd7f2815d81f822d9U, 0x381a2a7f1b29772fU, 0x2a09c983e175cd1fU,
  0x4ddd0281626d25c9U, 0x53c3c0cd19448181U, 0xca65e8f58b05bb8cU, 0x81cd81206f24b57fU,
  0x23430a1eb5567f7fU, 0x99816b57539ba6cfU, 0x4d81f2af9cd52a7dU, 0x1811c27fcc1c6e7dU,
  0xd4e6aa6d2b5bb5c9U, 0x81cdea90db6f991cU, 0x1a7125bb3581c10cU, 0x73a34c1a287fc616U,
  0xb4f2819b0c0b7f12U, 0xe4a0557fb0f7c601U, 0x3e089d482c356081U, 0xe6e8e58dde7ae937U,
  0x2970cd11f813fbffU, 0xa05f8dd63625a091U, 0x823da54ad0b2a8a4U, 0xec4cf603472caae1U,
  0xc014d87881bfe726U, 0x94cb7f6d4c818e67U, 0x754725c8d705167fU, 0x72fe847ddb6e524U,
  0x2bef9970154e288fU, 0xd7307f8109ed81f4U, 0x48152cdd6dc20bdeU, 0x39d8447f04674e72U,
  0x12c9c4a2e7aa6419U, 0x1e0b5bd191e015beU, 0x7fb8817f6b574ea3U, 0xa3c5d92d4410033fU,
  0xae2b0d49292f6304U, 0x9f208514cc7f3129U, 0x710f541dfe81f1U, 0x444ac5a8d2551bcdU,
  0xfdb78135aca1f207U, 0xbeab51583b388108U, 0x26dbb681dcf8065aU, 0x55ff0d486f12e655U,
  0x3a14b77f5ff7502fU, 0xd7ef3bb2f1c501e4U, 0x32cf5bd7855abcc2U, 0x14519f170d6071U,
  0xffffffe2ffffff67U, 0x2d00000014U, 0xffffffd200000024U, 0xffffffff00000033U,
  0x15ffffffdeU, 0xffffffd7ffffffe1U, 0xffffffebffffff7eU, 0xc9ffffffb8U,
  0xffffffb100000030U, 0xfffffffe0000003dU, 0x170000000eU, 0xffffffe3ffffffe4U,
  0x600000035U, 0x8ffffff9bU, 0x43U, 0xffffffddffffffcdU,
  0xffffffc3fffffffdU, 0x370000001aU, 0xfffffff8ffffffc0U, 0x8ffffffddU,
  0xfffffffa00000044U, 0xffffffdaffffffb1U, 0xffffffd4fffffff1U, 0x700000000U,
  0x16ffffffe3U, 0xffffffbbfffffff8U, 0xffffffdeffffffebU, 0xffffffe200000089U,
  0xffffffeaffffffd3U, 0x330000004aU, 0x14U, 0x17ffffffc0U,
  0xfffffff700000010U, 0x5a00000010U, 0x4300000012U, 0xffffffcffffffff7U,
  0x2300000029U, 0x60000006aU, 0x10000000bU, 0xffffffe3ffffffd1U,
  0xffffffdeffffffe4U, 0x2ffffffeaU, 0xffffffe10000001dU, 0xffffffe4ffffffc3U,
  0x3ffffffd7U, 0x1dfffffffaU, 0xffffffe2fffffffcU, 0x7600000006U,
  0xffffffde0000007eU, 0xffffffd0fffffff3U, 0xfffffff700000038U, 0x8600000046U,
  0x6dfffffff9U, 0xfffffff9U, 0x4effffffd8U, 0xffffffef00000012U,
  0xffffffd00000001fU, 0xbffffffb7U, 0xfffffff9ffffffe8U, 0x18ffffffe6U,
  0xffffffed0000002aU, 0x2900000023U, 0xfffffff200000005U, 0x30ffffffa3U,
  0xd60af7060dea0dfeU, 0xf5ce0217e1171516U, 0xf30eff18f2e0410dU, 0x1eff073417ee9ad8U,
  0x3209d6ddcedd2411U, 0xff5d6f51205eed2U, 0x22092b111427e9e2U, 0x12fcc2f510e1f6efU,
  0xeef7c0df2ce00aefU, 0xede13e16cdd92bc3U, 0xd6e4f213e402203dU, 0x3f3b1f071629fb3bU,
  0xce373aec1af7dc09U, 0x2cece10d1acd4b7fU, 0xdf25e22cd2100ac4U, 0xb922e500de140bddU,
  0xbd9b3537243afa39U, 0xb608211fc3ae0dc0U, 0xfce2fc8aa106037fU, 0xd3f8dbfb5a12c7c9U,
  0xfd10d585b9efbd07U, 0x31696ffc21c95ef3U, 0xba1d190ee3544005U, 0x372c4b4001cb0c6bU,
  0xf14a5ddc67480440U, 0x12cd2efe55dbbf15U, 0xc9d7093243f45a01U, 0xd1dc01ab78535444U,
  0xc7bb47374f62a64bU, 0xaa3f48dcdb23d084U, 0xf6f44a2b093ea769U, 0x123a27083c92281cU,
  0xc5e71b051fd296f1U, 0xd812fa40f4bda647U, 0xab21b518bfd9052cU, 0x3221203af3cde6b4U,
  0xf3074d505132e912U, 0xcd7d1ec31e0c969U, 0x8ec1718f21ea5d0U, 0xffc7f1062c4365b6U,
  0xd4eb33ce363ee0U, 0xdb45f7e60f811f2aU, 0x15011fe017c2f06cU, 0xca49601f98c8c50eU,
  0xb5fac13608d8ebf5U, 0x1f3d0fbcd8eb3640U, 0x39bd323b2336a33dU, 0x2bf01613baf90318U,
  0x2d1910f13cfa49ebU, 0x2d572bc507b3c3d4U, 0x8d727ca40f0382fU, 0x301ed5f9e95d0a35U,
  0xfee14332412600deU, 0x12271f0fd2d710fcU, 0x175c0155e01d7f0eU, 0xef3cf8e1ca0508f2U,
  0xfd4ad7fbf80e4bfeU, 0xec031cf3c771da02U, 0xf2f4b6fdaac6f2f8U, 0xae14fa5817ed2aeaU,
  0x4e06dae7953e47f8U, 0x35c71ae403000cf5U, 0x1e1ca1c3d7d11023U, 0x5f1f412f4b05afabU,
  0x29f9e225e653c181U, 0x4d542502f8df60daU, 0x490ee0cbd4c735f7U, 0x3db10e3be0f2ebaU,
  0xaab4261313cec930U, 0x30ad79e0f73233daU, 0xa1b90df8ec124c25U, 0xe8f1c5e8e6dbee54U,
  0xcf1b87d82a2725eeU, 0x2fa745c14803b229U, 0x9da312c0d619d71aU, 0x47e5ddf40c15ffedU,
  0xa31d0ee00cab30e3U, 0xdb8c1710d106c828U, 0x1de6f38fd8ef47dbU, 0xb9c0d03003b1424eU,
  0x8fcdaab3ccdfd11U, 0x93601a306b8d926U, 0x361528c062deee24U, 0x3ba837b1e90219b7U,
  0x16094bcb030fd1b8U, 0x3dc5d3b7ccbb55c3U, 0xdac9c003b7af3226U, 0xb326ebc5ecd2b5efU,
  0xe7f6dbe615e358f6U, 0x511060c781730931U, 0x1417e33721ee1e90U, 0xd6ece6db2940d1e8U,
  0xef29cbcb00e6e468U, 0x233901fdefb4191bU, 0xce0028d9b539dae3U, 0x17f9013a34322603U,
  0x9e1185ee913b22fU, 0x19f5bb4aec03f3f2U, 0xa936f41c0a4924c7U, 0x480fbe3506b988f0U,
  0xcaa62a33aeabbf48U, 0xaa1ef01033af26b8U, 0xe9017fdaa5bbd92aU, 0x3012e54704a3bf85U,
  0x12e142eb0d2509e6U, 0xf6b1103c13e11440U, 0x3a482a43131b0da2U, 0x350322dfbe3f00d0U,
  0xe20144eeefc165dcU, 0x2f194fb40d2ecc1cU, 0xa91bd12245d43307U, 0xa261af3b2f2d6a8U,
  0x28300c47c01e35e5U, 0xede9f7de34625b33U, 0x832e1a09b1c317f9U, 0xfbfc842ff103f2f3U,
  0xa749ea2394ded201U, 0x5d4fddcf2c3ede8U, 0xe2011464ef757402U, 0xf95debeed2e7e72fU,
  0xd01ee1a537b5dcf5U, 0x1adbffd1547fbdceU, 0xdb25400d2125ce13U, 0x431cce1ce7bd04f6U,
  0xe8dddf56ee1e45d0U, 0xb9d90db706b40829U, 0xc08c1182342061aU, 0x46d18e92557064dU,
  0xcd7e41ac6a8d311U, 0xbe64cdf1d05c5c8U, 0x3fada1109511504U, 0x1e20008d4463efdU,
  0x9f1f85203c1dd3eU, 0xbc519c98230f10ddU, 0xc7d130e9f959fcf1U, 0x11492cd5402019f6U,
  0x1f122d33e69d4d4cU, 0x6e0a021cc1f1300fU, 0xab4ad4d1e23f502aU, 0x495d10fbc00091e3U,
  0xfbe53d23d124fd3fU, 0xb4b923e46538b651U, 0x81ff31dce70542d7U, 0x17fd972be5c8f6f9U,
  0xfd2a0f5607ffee15U, 0xdcd22405000d08e7U, 0xbe0a23f7fb202408U, 0x5bad00c282f3e0aU,
  0x2a0ce3e0211aed09U, 0xfbed2ed213cd322cU, 0xd3ea092e073b4003U, 0xf503d6eade17cd07U,
  0x3f30e04c412ff6feU, 0xbfdd010b0b4bfed2U, 0xe41dc2c6fc10f00aU, 0x702d4dc3f0cd5d9U,
  0xdbd0c7d22652d9cfU, 0x120fe0042b7fd311U, 0x232c19eaeee9c6e7U, 0x23240fe2c5d6ec18U,
  0xed0740f320eedc5eU, 0xc007ce3dc96170ceU, 0xdf05cfebf2cbd9f4U, 0x33ea0b18af12fa28U,
  0xcdeefb2bfef14239U, 0x34373d1de8af271aU, 0xd3f7cfecc61f003bU, 0xd05e1727e3d4bf07U,
  0x38c8494800f63430U, 0xafed11485fcb0441U, 0xc516f65b41e1f321U, 0xc0b33d1ef9f5312eU,
  0xea647a09e30d22c4U, 0xd042b7c3eadd7f34U, 0x1d6cf00917f20ab8U, 0x54c5e623f725c7b5U,
  0x15146727fdfa2ac2U, 0xc610e6ffcd40f7b4U, 0x3b4614b5e8f01937U, 0x29d3b4deed22efbeU,
  0x7fc03b290131f445U, 0x4a080ce7e52519cbU, 0xb4ab6e21cb3105b0U, 0xe1dca11c319876fcU,
  0xd3cd46f811adec61U, 0x2206b74a25f43c27U, 0x34031a4bc1fbf1f3U, 0x3f63b9cfe809c436U,
  0xcc1f5f55ed280bc9U, 0xe43e5ff3fedfa5eU, 0x1ad608b6effb1b0cU, 0x9be6e41ceaf61278U,
  0xf9c4ee3119dad2d1U, 0x2ef0af2b52001414U, 0x9f2bbaf00529d543U, 0x423071ff6d6bf3eU,
  0xef6d63b234f4aceU, 0xbe1ac0353cd66817U, 0xfc1ec23804b63418U, 0x505fa1717343bb4U,
  0x4a170ad908d3cb27U, 0xfe3914bee4ce7fbdU, 0xd2220a1defcb45efU, 0x4ca03433120c5bdU,
  0x181a29bbccce191dU, 0x68fc101107fad004U, 0xf33a2a2cd709bca0U, 0xc729e1f59ab1101fU,
  0xd010fbe2ef4216fdU, 0x2e47c525231032b1U, 0xbd1c40e3322712f0U, 0xf4f7c4e207fa1702U,
  0x2acf0881f7235affU, 0xe50b4ed3d4ebddf8U, 0xfc05dcf60d2016f5U, 0xfb06232def1feb13U,
  0xf9101109f958e7dcU, 0x911edcad0de0507U, 0x2825ad25daa819d4U, 0xf6d5e8f43c7d2ce5U,
  0xcac3fe03e20826b8U, 0xd4149bd9a41e28e4U, 0xd44d2125c7f50cd1U, 0x2ae4db2cc20b481cU,
  0xd1d6e18114a887c7U, 0x6254c0d92cc6eba8U, 0x43aae212c82c0dddU, 0x601611a4069ee547U,
  0xe94fabc1ae34464aU, 0x42a93bff7cf8fa54U, 0x182b34eff7f1d937U, 0xb54361e7392402c8U,
  0xd7023decf2ea3ac9U, 0x5b611fbf2305d6d9U, 0xfd0b0254d0e221f3U, 0xb444e526f53ee0b6U,
  0xebc7ca08e3c6f0ddU, 0xf548f3d9c635cef8U, 0xa54cd5eda023bdaU, 0x35bfa2b5eae771bcU,
  0xee25f52a1e1b093eU, 0xbdef2af1f7fbbfU, 0x2620dbee083c3a1bU, 0xe2eb2b15f845273aU,
  0x133e4274109d30aU, 0xce1704d0e106e505U, 0xf3ae3151706d8d6U, 0xe920ff30f5d5b90eU,
  0x2f1c9200895ed43U, 0xbfeee350a40e81ecU, 0x2f1ee7b30ce2bae4U, 0x2346291ee5fff9f4U,
  0xed0abce560ca2533U, 0xc3d545e4a312f4edU, 0x38c31feeedd0b259U, 0xdee7ebdff25409f7U,
  0x50fe20f08992914U, 0x1814f82124523010U, 0x19ee311a0a9710ffU, 0x6200c1ad9f41fcaU,
  0x261fd65e37fd65ebU, 0x3c2038dd90dce3e5U, 0x21b383a22e92d37U, 0x1d102fbe363a8eafU,
  0xdac76636109ff7f2U, 0xfb692f0cb1eac84eU, 0x1bf1ba83b5c39f22U, 0xfebd16e735d5c7f6U,
  0xf9dde5214a5f4a6cU, 0xf82b5de420292e03U, 0x108114e4c7ee0e4cU, 0xe93f42103b922a0U,
  0xd334bf1ffff42d2cU, 0xd535b6afe9409de2U, 0xacddd9e93215dac6U, 0x19031effff9bbebdU,
  0xe4556fb259be7ff1U, 0x506273058417ed4bU, 0x11cb48ba003b5b3eU, 0x10be30c666c499a1U,
  0x43d44f475427be1dU, 0xe475d556f2103950U, 0xcca8ac19f21bbd62U, 0x31d0b5c945d2b3c8U,
  0x971a573840352c50U, 0xd334320dcef51e07U, 0x3502017ee88cd6ccU, 0x6c84f6395a67ea53U,
  0xb00d12404d6f8f7U, 0x35ed1508b51c0ff9U, 0xb607e3012528f7c3U, 0x1cf5ddd9f6cdffddU,
  0xfb4b070e1c1645cdU, 0xe327baeb0ed7dbeaU, 0x6302def0f00452dU, 0xc0cff10f634e3faU,
  0xeb18262008ede241U, 0xc83d34f41d2d262eU, 0x2912c426f1f0cc19U, 0xf0bdd3c105c0fd3dU,
  0x3dd3be72f9f87feaU, 0xcd25dff222e032caU, 0x8cee82ee41fc4efU, 0x3415b701ebc4252dU,
  0x3c3b29c007f41cc8U, 0x36520f19da3ee5d0U, 0xdc245021fdfa0c03U, 0x3d521204b8c5a8b9U,
  0xc51102130931271dU, 0x1ce00fef7fcbd332U, 0xeedd0dd2fe24c2ddU, 0x48c02b2c0b2d003bU,
  0x1e4c2dd717d3dbf4U, 0x2fc8b5adf7da6ab6U, 0x5131de3a36a2d507U, 0x2d39221bea3aece8U,
  0x34eecf9ea7fb0145U, 0x27dd26eedb233203U, 0x1ae2043ec3d4f0e1U, 0x1204f1dbdcd50fd6U,
  0xfbfceefe3c1a08d0U, 0xcb2adc0cd5cdd5c9U, 0x2dc02f43c1208ddU, 0x8d8a53a9f360e5fU,
  0xe5d756d902141810U, 0x53030cc03f0cec2bU, 0xeecc6d25d50c301fU, 0x1b09bde3f3b7fafbU,
  0x1eff33d31bcc3f00U, 0x2604164b2fefdcdfU, 0x1710cf20f9d5f60bU, 0x1403d2e92e0304f1U,
  0xf8f87f2fffe61ec3U, 0xbd121f3f1b305550U, 0x1247dcd0eb07f1c1U, 0x344ba2d3fae50606U,
  0xcf36e40a3552c826U, 0xf8ec35c61439f7c3U, 0x2208f7b327fa28e9U, 0x4486632b20344bbU,
  0xc9fcfdd8c6f6d56fU, 0x56c7eefe37bbf121U, 0xb8f5fa1910504fdfU, 0xce200f4981fde02aU,
  0xf54d2535d024d4e5U, 0x7bf702e2c33afed7U, 0xca134614c1011749U, 0x20bbe3b7c14a12daU,
  0x28eacf11b3aec219U, 0x13f43223e7bedb9eU, 0x1600c6beebcd4e02U, 0xc3ff1a02eeec022aU,
  0x45021313ac4a49acU, 0xf04df3857163f56U, 0xbc1df4f354f12cb7U, 0x17b7a316c7a97fbeU,
  0x39f929245f314ec2U, 0x9f3b1aeae4f4322cU, 0x42a6703918e3b506U, 0x3aa5cfce5385bbc9U,
  0xdfe5df0ec333cac7U, 0xe70bed9fb9fe232cU, 0x61e6bc5613265a20U, 0xc60e5013c2a4eb04U,
  0xdf5bf92da45d350dU, 0xe9d846334ef33a3eU, 0xdee20f4d5aed4adU, 0xcc2b29f312b3c9d4U,
  0xf6d90c22272cf60cU, 0xc6edccbc02f9b503U, 0xead0e3381be8f3f1U, 0xf831e2f62e402d7fU,
  0xb1dfc3c720d7fdb1U, 0xddf3fde9fef727f8U, 0xc401d43a35bc5e44U, 0xc41b58fac606ca0eU,
  0xdfdb06ea619ede2dU, 0x24f92defccec0b02U, 0x3d301f8ebf22314U, 0x20b8e73619480eb6U,
  0x1924220833d926cfU, 0xd437f91404caf4feU, 0x9c982815201dabe8U, 0x2d04ecd7f6e10c18U,
  0x1028af0afd4eff18U, 0x33a1caf839010fedU, 0x94ff65f05ad42b59U, 0x28f57e18ec4c1ff9U,
  0x47091681c4100801U, 0xd8add348c6e710bfU, 0xdf906feb35564caU, 0xa41b9e204f49db24U,
  0x1fc8a6c8b2eed2c2U, 0xb035a3c2b348ddcaU, 0x33aae61010e0fb41U, 0x3423fa9be7421fe6U,
  0x1317f9fccd0808f3U, 0x19d34a0dd7dcb63fU, 0xdde0e039f0f2da1aU, 0x111fbd2526efe6f3U,
  0xe5189341e8f9264aU, 0x11ddffd90815e6e4U, 0x2dcffab5e3594418U, 0x3b95a0cea632a2aeU,
  0xff58ef57b01ce852U, 0x3ac6d7f7f5105b41U, 0xd42631883874c4d4U, 0xefd890723806d9dbU,
  0x15c567d75e2e076fU, 0xc5e16bffe94d4315U, 0xceb52f21c685d3d4U, 0x6ed366046b0b30e6U,
  0xb064fb4c09bb493eU, 0x8108b008de2bc6f0U, 0xc3ae37680fcde13cU, 0xd3254cfcf1f6b530U,
  0x6e86ec901b6a3315U, 0x69bd5081f40e38e9U, 0xb8efde18de1450d8U, 0x2b01580be7bd1523U,
  0xfe0d34e9ecca55f1U, 0xe4f4825d62c900f2U, 0x1813eaafeff84827U, 0x618301e0439fafdU,
  0x11f02eedde1634faU, 0x3e67e217b6330626U, 0xca28ae2b10caeaecU, 0x1bff22d4eebeabc9U,
  0x341c73ab9ea032eU, 0x4000233c322134eeU, 0xbb12f20730f69e28U, 0x10f511165d35eb32U,
  0xb5d526ac490cdeefU, 0xedd9d0c1edd7b075U, 0x350885c90ad701cfU, 0x1d51ed16d61fd340U,
  0xbe71f5c5d0aaf6c9U, 0xd2cb965aa5bc46ffU, 0xcfabcdd6360d197bU, 0x33c51cb0d0fdbdb9U,
  0x10b5830920b0df81U, 0x2ccad73eef6293a6U, 0x28eba00f2d4d0ecaU, 0x5fbee7cddca14befU,
  0x393e252a21a50945U, 0xf418e9e2f0892fc2U, 0xe936d7440dac40bdU, 0xcf113cf13d2b26e6U,
  0xb9130617f905d64cU, 0x410d3ced2a3eda26U, 0x34f0d7fad8dd212fU, 0xf22212ec0a5c204eU,
  0xea13e1075feb01d2U, 0x1c42fae4e2301b0dU, 0xe2f72b81bde8e102U, 0x31b7da5bdd2f1ec0U,
  0xd1d24b1500ec414fU, 0xe6d7042bc03e40d6U, 0xef1d14c927c3c6aeU, 0x9e5f4353dd9daedU,
  0x2ef44bee77482f32U, 0x8e4d05e025ede8bcU, 0xdabcecf517da4440U, 0xb6e22c0b004a2fbdU,
  0x412bd605c0bfd9e5U, 0xf7510ea6000b2af2U, 0xe54e200403b4da0eU, 0xf403b0ca513ff5c5U,
  0xc3c4c6fd2fed2f3aU, 0x78ae27ca5dd1c4c2U, 0xffce43f7dcafff04U, 0x12cf28dab6d29a43U,
  0x1f113290c1d20978U, 0xf29a9bcc3f1ef4ccU, 0x81c9dcd2eac30479U, 0xfcf8fb1dc3221c6eU,
  0x19b5f5927dbb029U, 0xd1e8dde4d1d7ecb2U, 0x3916cd0433f7125bU, 0x58120c1c11ca391dU,
  0xec4dd01d1b1a3300U, 0x26f938093c25e7ddU, 0x10d1d848fd2e0eecU, 0xfcdcf5c9e2392428U,
  0x3222c30ce4ee60edU, 0xccd1e3227f523d8U, 0x61f23f7d3295dfeU, 0xd72f0a2ab3edc928U,
  0x9b923c503a259b7U, 0xde9f1d8b83114b1U, 0x83e44eb7f41e6caU, 0xe905de21e2eadbcfU,
  0x26cc23252202befaU, 0xe43dd03511e8b42eU, 0x4f4edd608e3e929U, 0xd22291480e24d7feU,
  0xfb1eb5b8b7425de3U, 0xb3d03f7d5a5b140U, 0x304130ce1f22574eU, 0xb7cf6743e23b68ceU,
  0xf8cb194e32a27d2cU, 0xb18e2e3c311f7a6U, 0x4af2d3b42a44bbe9U, 0x40b8adda08520fe7U,
  0xec2178039909f60eU, 0x326fda03c73b2fe7U, 0xe44eee40a5d32756U, 0x3b5b0f09f911b4d6U,
  0xdf6cde4c8381912U, 0xeb4d200923d5f4deU, 0xb2c121ae1752e781U, 0xdedac8e4d92614f1U,
  0x2b0433ffd2ed361fU, 0xcc2df9fa9d3e073eU, 0xebf4e7694b30da0aU, 0xdf190ee63c353601U,
  0xc462238a80f01U, 0xaf6eba8efdba952U, 0x3232ee02046125e8U, 0x149459f9eac79c16U,
  0x1724c2f8bb28daf5U, 0xf90c0fd60c1e010bU, 0x3a1222e800da0e11U, 0xdfd9e14012d2fa1dU,
  0xf6fa0841f174e312U, 0xf38100f6b84bcb1eU, 0xe0f7e401dd15a3e5U, 0xeebde0233429d5cdU,
  0xd1e84f4ae8510c0eU, 0x4c71137296b460cU, 0x24d534fba806d0d0U, 0x6f91d99e0423ec4U,
  0x43f4b01dbf1c224aU, 0x26c324d2cd230f42U, 0x2ca355c21301f22dU, 0x3f19fd4a00e1617dU,
  0x269b8b341beb56deU, 0x5894e0def3010d05U, 0xe44eb8f02a377f0aU, 0x1107cc08183111e7U,
  0xb1d83414758be834U, 0xf4e72b2539041196U, 0x1f3627d4c629b0c0U, 0x82af17fcf2150c07U,
  0xcb683651fa283ff4U, 0xee4df833de0dfcdfU, 0xc308dfd3efcd16feU, 0xecea1109bce0b5e2U,
  0xc52a531613f1e60cU, 0xb4df1618d11a81bbU, 0xc350120317374edaU, 0x1b10fba8c60119dcU,
  0xb8096639f8b3fc2fU, 0x3929df19f0350ad3U, 0xef254f31b800b4c8U, 0xccf7c142fe2cd013U,
  0xe7db161a1cfe4f11U, 0x192fc00c3d03dfe3U, 0x32a5f52edc244738U, 0xfde1e4482cf532f4U,
  0x27f4143be112a8dbU, 0x18270ce9fdefd858U, 0x62310e616def62dU, 0xfcb82e31e7fabe15U,
  0xb70ddafd1220ba34U, 0xc635e081221b2004U, 0xcdda1b440824e7d3U, 0x133af5d0d9153208U,
  0xd20d2f5f8fee13fU, 0x4ee23b000121ecdeU, 0x126c6f50cdcc700U, 0x1e20def013da01f5U,
  0x1f9b4421c0fe2822U, 0x111007f8dc38e81aU, 0xcda624e7d03402e5U, 0xe3f4edeef5bbe8f9U,
  0xdde72f26fec8c83aU, 0x11cf3cde300aaeaU, 0x20e2aee23e1ed00U, 0xf56a09dff4d33b81U,
  0xb452c9c116f942d7U, 0x8cf1614a5000a0cU, 0x1c0fc6d3c4d242c8U, 0xaa664bdb28111fe0U,
  0x49dce3ebe817fc2cU, 0x4113fff19ea9237U, 0x1fdcc4fd21ddccd6U, 0x3c2eab961edf4f2U,
  0xb3a9033e17a10813U, 0xe73bb901e0cedcc6U, 0x2deff7edf2f3c918U, 0xb91612ebf7403349U,
  0x2aebfd0b1402ccf4U, 0x10d73632f2f702ddU, 0x85e4f8eef5c3423eU, 0xfbf030e7cf2cc620U,
  0x32cc1fe31dd7c0eaU, 0x330dcab5f6c2d420U, 0xb7cc62eaecf30d06U, 0xf2300dfbf6c1e21bU,
  0xf2e10defe401faa8U, 0x38ed18250c24fb06U, 0x21010be6dd0bebffU, 0x1ee0cec33046e325U,
  0xfb207fe51be4e8fcU, 0xeb01231410e62f0dU, 0x30300edffef73514U, 0xd9ebd9e4d6bbd829U,
  0xbad21ef6fdfd1aeaU, 0xdba7cdd51afbd809U, 0xc2b5e5efd1dec0e7U, 0x32f03c2403b90adfU,
  0xcbcd02f419e3e335U, 0xf63f2d0e1cd45df5U, 0xff5d1f0f1f0b5daU, 0xd017de3e0efdb10bU,
  0xbd05174007a92016U, 0x16b911d21ce5d121U, 0x56ce05d05ce727e9U, 0xbcb0e70125b73dd2U,
  0xb27f48bff6aa4ef0U, 0x9d44901ad6f9e0f4U, 0x191f5e55cc2407a2U, 0xc4e9d832bfe4bcfdU,
  0xc822f7c6eec329d5U, 0x632e83c4edad612U, 0x6fe729ae223605f8U, 0x1dcfe832cd57b1d5U,
  0x4ce815dcf8251727U, 0xff0ecbd04b0f37f3U, 0xc513282fd9cce528U, 0x2b719d7120853a8U,
  0x33e63f022204b6eeU, 0x2111a3651f3ea9c3U, 0x5121e5d70c81d2c3U, 0x3244c1130ec418e0U,
  0xfcf7fa21fff626edU, 0x11c8182a402e3224U, 0xda39d5c2fa235a97U, 0xe3ea433bfb231a27U,
  0x7ac15ebaef331229U, 0x423b41f1da0839ccU, 0xa9ffd648aace69ddU, 0xa1062315cd3a127fU,
  0xc815e2111fd7f511U, 0x191488fb6b0bd6ccU, 0xcdf21622e40c235eU, 0x38f0d945d83f4ec5U,
  0xdb3f655817b254f2U, 0xf502199411356eedU, 0x66b10b5e52281c08U, 0x17a80b8a19b1fa1fU,
  0xc91002c14c77c440U, 0x4e65a0b65f174cf8U, 0x71113038a20c1b48U, 0x27c9ed41b7aef2e0U,
  0x24191af5321833e9U, 0xcd49ebfd06def80aU, 0xc3f81402b614ce64U, 0x46d928e20a2af018U,
  0xcaed31b7e717bed4U, 0xb6da5f37e2f9fee4U, 0xe32cf631e35aefb2U, 0x981fa52f73dfd93U,
  0x45bdddc9132a1eb4U, 0x33afcbbec436d834U, 0x1d201744d824093bU, 0x20faf2f45ac415f7U,
  0x1855d81daa880d99U, 0x1bffe62dd4c2e533U, 0xdadb9c491bca16b3U, 0xd7e91923ba3c27cbU,
  0x11fc350a29c8c5abU, 0x62f1fcc006dff605U, 0x2332213bfa5b1cacU, 0x21fd87c87bf4a950U,
  0x1725efb886f3df2bU, 0x1e49cf436011dae7U, 0xac758feefd831f9U, 0xd2d8c51aa6991fd8U,
  0x330ccf030ca13dfU, 0x3fc5db88f6d57fd8U, 0x5dfb122c0f26220fU, 0x22823bc08403894U,
  0xce13f8a0ddee19dfU, 0x40b2c916f310e819U, 0xc7d728e89321b043U, 0x1e70d0d1fe15d1e3U,
  0xf122e4bdba13f6d8U, 0x2426c4d51252c425U, 0x18df1fe0f3f66301U, 0x52f4121f72f30aaeU,
  0x37242dd013dee3d9U, 0x41f61cfc6325bb23U, 0x343907f8d61ddeabU, 0xf7ae4dc655c2c243U,
  0xef3b09e400101ea3U, 0x45c550f5ba12f828U, 0xe8d04635fbc22cd8U, 0x105e3a0014f51909U,
  0xac1cbb423f6defbU, 0xf90522e6c3d402dfU, 0xfabbdbadb9fe81aeU, 0xdabf3dcdbadb3403U,
  0xc867e21afa171c0bU, 0x9ea6421bb10ca1aU, 0x21f9bd40321bbab7U, 0xf9d315fbf2e41108U,
  0x3645b7b3c05832a1U, 0x38399dfbd3c231eaU, 0xf911e15d2ef96e45U, 0xd50445d42d00e30fU,
  0xd639ca53c1e5cffeU, 0xeddb05332ae5acd6U, 0x9d71e0c1e9551ddU, 0x41dc167f53d7eb39U,
  0xbc0b124f511937c5U, 0x1b90a5901e66d2d3U, 0xc538e78826693edbU, 0x56f260a395d1e2cdU,
  0xb853e2b679134fe5U, 0xf95d9dbaabdd21ccU, 0xb7638119eead38f2U, 0xf110f6c21545e614U,
  0xda9a2a06daa64a92U, 0xf3f7f4a26a843ac1U, 0x8fc269164c36197aU, 0xcbc037f5c823a60cU,
  0xe71025f4b7c0c159U, 0x24c3e920ddd3eddfU, 0x2f6156def750b0a1U, 0x2ae4e0d0e424b125U,
  0x1f1f4305bb26c71cU, 0xd7761e40a3fb3c4aU, 0xca8ab149da359933U, 0xb82c3ff723292355U,
  0x90f1f20dc2c1642U, 0xbe33b8152bcd4312U, 0xeb222be6a795fd4cU, 0x3a57094307d45045U,
  0x41e1431dffd7b3fdU, 0xaa51feb7028161efU, 0xc4edea29ff3c5a0eU, 0xec20481c2b319b35U,
  0xc7f6c7edde99062eU, 0x41c3c5f7e6e65dfdU, 0x100710e31b5051c0U, 0x960cc8aa32180930U,
  0x39e544f7306c4cffU, 0xd556dadb08d7b005U, 0x94e60befede4f51cU, 0xe3b9a231539b18f4U,
  0x10d328b2f71b1bdfU, 0xf4e90c1f30020dc7U, 0xe6ff25dc2ca82b07U, 0xf110d2afe3fe2100U,
  0xdfea1a19f90b12f6U, 0x4aa66a272cf7e202U, 0xd5f145890813fcfcU, 0x340c470414f8ffe6U,
  0xefa541c1466f5ffU, 0x69f1e2c2c2d6c6d2U, 0xf4dbba4234ec65e1U, 0xc8c9f414fb2f44e8U,
  0xdc5a16f2602081b6U, 0xe34ea13536bd139eU, 0xeb53fc39fad407c5U, 0x10f01ce1ea1f3e62U,
  0x9da7ce5731d4e839U, 0x502457c4cbcdbd41U, 0xfd30fc412f02f90bU, 0x32df22eaf1fe3a13U,
  0x3e2f66a9b1bf5809U, 0x331b00fbd684ef12U, 0xd0b15bae3fe0ebe9U, 0xb71d18e902cadb41U,
  0xb450cadceeeeef8U, 0x1de4edd929254b34U, 0x52fc14f3cddddcf5U, 0x5fdec29d5767f28U,
  0xbdee532930d9bd09U, 0x151a3df111086a2fU, 0x52ab8ea2f9f0bd6U, 0xee48144932bdf4faU,
  0xe5f753e6120e183aU, 0xb63aebf5d146e946U, 0xe1390288cbfbce36U, 0xea610616f9025028U,
  0xa5d912e2ccc81a20U, 0xbd74dfa45d0ff23U, 0x19eadbee05e50ac9U, 0xe00d3bf0f605fe2dU,
  0xeec4391aef1e50fbU, 0x7f021cdff53af4cfU, 0x9da41ed380be6bfU, 0x340b1f45b5f23516U,
  0x3cc0eda9209ddc3U, 0xeeb2d5e624a806d2U, 0x8f7e909f9a20f16U, 0xbdcde206cb490baeU,
  0xb3d5cf9d3ddb0227U, 0xfc2f2eeacd41c319U, 0xfa39c524320637e3U, 0x315dccdf0600c1bbU,
  0x4a504320202657e2U, 0xbc0af8d9bf10ff27U, 0x7ff60490fa347ee2U, 0x31544610de0843fcU,
  0x12f85714b93f42dfU, 0x243ddcf19a1186ceU, 0xa6fafd673cfb0702U, 0xc7f8ed08c821cbddU,
  0x120bff10ef195d37U, 0x180a3b3f3525b6c4U, 0x1bf61fd071403241U, 0xdad1e5520d49b82fU,
  0x32cb380afae8abd8U, 0x1eedfdf109372600U, 0xc1351eca97b3e14aU, 0xe8622b003eaffa00U,
  0x1b30c148f0f226d7U, 0x884b8dff51cc4031U, 0x2f1c7e6223f60e7U, 0xdfeee8d2e02adb2dU,
  0xc5dc0d0894f1e3e5U, 0xcc1fd83841e255f4U, 0x1012c6cae8d23159U, 0x2a4e0b98ceeee827U,
  0xed29ef0281d8465dU, 0xbbdc2810ee1852e4U, 0x3963378feaf221bU, 0x62db18edccea1fb3U,
  0x1245170ad005f88dU, 0x98300536e4ff0ea1U, 0xeb50ffd204dfcdc5U, 0xb820b1be0c5cecbU,
  0xe2d30c0800c2f01bU, 0x251efbe10628f1cbU, 0xc1c53144210dee07U, 0x47c6d1fcfdcb44dcU,
  0x1dd53f68c8e42866U, 0x59e5462cbee93319U, 0xe1eae0d2a33bf37fU, 0x34edc31d1b17b81bU,
  0x6e332131fae9ee15U, 0x32ded6130a0001f4U, 0x3a06c8d81fbc4c01U, 0xcf10f9ee4647f160U,
  0xa447f1ed2107eec0U, 0xc9b1250de31fe8e6U, 0x211de66f5d14f6d2U, 0x11431fd60be14a3aU,
  0x5bc4c71e40fece3aU, 0x5f210d2debfdf3efU, 0x24072d470d6119ffU, 0x25190125133e81e9U,
  0xfdf7b2eafdee2df7U, 0xb8d2e2e62edab2e2U, 0xffd9e687c73ed02eU, 0xa72e0bc90617dfe1U,
  0x1ce10a1f52f34024U, 0x12dc19ebd8f2df09U, 0xba3213cb16e6b92eU, 0xafc2f9e44bfeceeeU,
  0xcd3fb384d4625e5U, 0xdc44c93710f9c8edU, 0xc6519e26cfeac1fU, 0x22fd08f5f127f702U,
  0xe4d3a17282afe07U, 0x10e311c7e595fb28U, 0xd32aab36d145673dU, 0x1709faebf3db17ffU,
  0x1e11f1f306e709d9U, 0x45ffae39d235e881U, 0x3a2923e11dc72b26U, 0xc00df66a310659d2U,
  0xc518d3f123b922f6U, 0x94fbafd92aca10d5U, 0x2919c88b0f25a3a2U, 0x141be948ee0fe339U,
  0xb6331b583208d9adU, 0xc2ae2fbe5356d338U, 0xebe579ef571593a6U, 0x2ecd42ee14174623U,
  0x164127cb41ebf0d1U, 0xf5d403d9bb288c16U, 0x4925d4ed9236d934U, 0xedb85fe7fa0805f8U,
  0xb38c164b4fad7f25U, 0x30d1dcf8f202d6c3U, 0xaad8e20a3519b1e1U, 0xe2beef9594c70d1fU,
  0x5a18f8ace7c62706U, 0xaef8cf1df58b2cfdU, 0xa783291662d34919U, 0xecbff2c4241005e6U,
  0xdc47db19b4f5ab02U, 0x3534b4290a29b72fU, 0x4c43c7effbc7f5f6U, 0xbdef39abb223e6a3U,
  0x7eacbb02e23ca18U, 0x9706eadc3612f40fU, 0xd7e3dbee17c4131cU, 0xeb1ee039513d11dbU,
  0xeb01f30efbd0e707U, 0x31eba0d7e3ee47f8U, 0x2e56df03c8d91f1cU, 0xddf53acc04d9bf06U,
  0xba1e57bd9f012beaU, 0xcae4f14b7f40dc20U, 0xddd72ef0fc2023e6U, 0xa022f11d018cf46U,
  0xe7e7dfde482e12f5U, 0x45f5f7fb1c3bc510U, 0x891ed4c9003d2907U, 0xc8252af50828e634U,
  0x6525f432cb24f836U, 0x7f00cf5ce48a1404U, 0x23f455330a3010efU, 0x1354ecf833f0bd60U,
  0xd9eb45ee06eef2adU, 0x1eb2a2db2d04cb12U, 0x34eb2907584c291cU, 0x252b2a9c08393b0dU,
  0x27d967211a00da36U, 0xf847f4402cf915ddU, 0x39fb06f81ba9ee38U, 0xc410fbfa0e0ec60cU,
  0xf934f83b2d0302ddU, 0xf9fcd8081305ddcaU, 0xffdcf42fe3169bc5U, 0x24f2e5e0fdee16d7U,
  0x18f0fa2c1db8e719U, 0x4706e70efff7070bU, 0xc92f1526184915ecU, 0xe330e7d90bb1d818U,
  0xf232b0cee1e0f08U, 0x3cdf67fdeefe7e4U, 0xbc13c824170ce7a3U, 0x31000c20201a24bfU,
  0x1ff415fe0437031bU, 0xebe81b0ce00d04deU, 0xfb270deeff292f04U, 0xec2c11dddae53558U,
  0x233bd407dc13f1f7U, 0xea1c45057713b6eaU, 0xe2082601efb80d43U, 0xf1f7bca2e95396bdU,
  0xcd2cfb034b20c908U, 0x2de2d0b5f2cfb79bU, 0x3bb6d810e0c64235U, 0xb07f1c07e71ccbdfU,
  0x140b45d2bb0fdddU, 0x7d011a2628fe62e8U, 0xbf3a090323a011dfU, 0x61d22dc4082125bfU,
  0xd5e60be59bfb2f31U, 0x8bd9564323bff79dU, 0xed233e261a3919a0U, 0x17f1da67caee2dcbU,
  0x751525e62d12f52bU, 0xdf24dae5cff3e6ddU, 0x3520e61a33f2c9cbU, 0x4bf8b0f44bf413f0U,
  0x63041211ebf6ec74U, 0x1a42d5d4e50d501eU, 0x11b232cfa132e17U, 0xdff9eb05e12cd311U,
  0x5b4fd93b3514e0fbU, 0xf5e9f91bd9cddb27U, 0x1a3781ef1796e707U, 0xdae9132631081e1bU,
  0xff3acd18db3ab82eU, 0xe4b8fce501740fe1U, 0x1a35d9f5f50d1f15U, 0x42ebeb4642221c3eU,
  0x433ef236f00ac7d6U, 0xdda815be1d5189f1U, 0xf7286a25f05a4017U, 0xc60531d106b35035U,
  0x3269520501e0ebf1U, 0x3b205f5faabba24U, 0x11dbd1c75b1ee637U, 0x3a9a8f55753f8b6U,
  0xfe0cfd3bbb1ac801U, 0x4ccb815fcef99d23U, 0xa0ef625c330a3c1U, 0x2102c28bd9d9ae61U,
  0x1343a4102e2bb011U, 0x1be41b5315d92fdcU, 0xdbb2d35b359ff217U, 0xa22613ff089760U,
  0x26f4e5ff0efc9da8U, 0xa4be192ac5fe173fU, 0x6c01f6471219feb5U, 0xd04af13c6cead3e5U,
  0xfaddd210ce3efb20U, 0xddadeb813f151db3U, 0xe227ec260de44e0cU, 0xe81de53cd55d205dU,
  0x195b14f3e94e2d4aU, 0xd32da94ffc225df9U, 0x57f5e33bd6c1ef3eU, 0x424b0560ab8e36e9U,
  0x1facec3dfe3b1cc0U, 0xe930e1d038f4a29aU, 0xa21d4bc4f714fdf6U, 0xccf4cd06dde846f8U,
  0xfd3ef509f72bc8cdU, 0xbf73a6bd1eda39caU, 0xc619042347e7c3f9U, 0xd222fb490a29def6U,
  0x35d9000305e1d0dcU, 0xdee5c1f4eae8cbfeU, 0xe3b8bd252a2f2ffcU, 0x54ab9dcc06aa2440U,
  0xf0d60a23d424ee16U, 0x513cf33ad412f7c5U, 0xc2ef95ead10cda7aU, 0x38e32722525981edU,
  0xdefb67cd02f60ffbU, 0xde48f425d3f75fe4U, 0x15baa0c6ee20d0d5U, 0x4a15d83611b6da57U,
  0xfb08b200691afd3eU, 0x1e62b0be8a30a43U, 0x8b2dd72e26f130ecU, 0x16247fba115ad904U,
  0x251f0ddf00badac6U, 0x5454c33107de52c8U, 0xf0e42a1110fa1116U, 0x383eeecf010782d5U,
  0x1d462acb35490918U, 0xa2e9f0920d2264f4U, 0xf0054804feddbdb8U, 0x20ca74303fd12e45U,
  0xdc472348197110d2U, 0x5de8e916fb53f5f1U, 0x61c8c664d8eb9d39U, 0x40ebede5e73ef1b9U,
  0xaf8ca023bc7d7e5U, 0xddbc5fffe418f323U, 0x32d5fd4de90a31d8U, 0x13f4fe1fb34eabU,
  0x1ac923de4862a8U, 0x19120db04b0d0427U, 0x1b22c827ebdc11bcU, 0x13defbbef5f702c7U,
  0xfb4d4d1abdfffce6U, 0xe947dd411ee7e3d7U, 0xcbf42ff408f6000aU, 0xef410132e1df42f9U,
  0xf9dcbce3013219dbU, 0x81d9d806630731f9U, 0xc9dd1839dc0d24c9U, 0x2ad81115dd2132e7U,
  0x3cedebbbe9cc12b7U, 0x2947d30c2c590085U, 0xd7b2cdc4b44cca00U, 0xac40095859d41939U,
  0xcd4efbd2d039f5c6U, 0x39025af535ca1f55U, 0xcc5abc37aa3d5baaU, 0x13d0b63706053d1aU,
  0xfcbcdb3e2b71c562U, 0x1ec119154c0ff7a9U, 0x58d3e71dc72ef348U, 0xdad13acf7f232ac4U,
  0x4d2fbcc4e21d572aU, 0xf41d354ad33f1f8U, 0x12f048721c853cdaU, 0x47b9d818ca0af02dU,
  0x103af403eed022caU, 0x70c09c4d919d209U, 0xe33081b7ff32c3cU, 0x38fbb0ce33ce1b42U,
  0x2936f63c2e07ccf9U, 0xb5ebc9eddf090c19U, 0x31b5d53d020664efU, 0xc363c460e9f9e07U,
  0x53b608b3df9709e0U, 0x2cf1fdb59bfac15aU, 0xddfc321e2a36b3e6U, 0xadd617f51af1fe0eU,
  0xed0d4dec9d11edfU, 0xc2511752fe0cfcc8U, 0xb99020c923d5e631U, 0xd3b60cc5141706b2U,
  0xe413fc3ef3f71de8U, 0xdeddc2d43146bf01U, 0xc8da1231b9c42d22U, 0x42de044e2f0e3919U,
  0xd1ca15b41bdd09f6U, 0xe217efe6cd01534aU, 0x49b4263d3e06d7feU, 0x27115d2f0b28d110U,
  0xe9dd48bd3f341044U, 0xaa64e617ec3e9527U, 0x650debd9fddb0eb7U, 0x19bd0fe44881061fU,
  0x32e2d6efed0de20dU, 0x95c9ffb09dd5efe5U, 0xa116ef07b54027e4U, 0xc614bddae0c04d14U,
  0xe1dae2b3bff2dad7U, 0xe643ece92645ab3cU, 0x2b43f31a06102ce2U, 0xa756fbf80c482facU,
  0xade3ef224ac1452fU, 0x2fc89fd2d7cff30fU, 0x5bcfe15bd232bfd6U, 0x36c2ae2b32d0350eU,
  0xc6181aa7dae4180eU, 0xd956098888afe3f9U, 0xb4b9f9a8cc02eb48U, 0xacdb0232f9eb4b30U,
  0x36c40c7f3902eb79U, 0xf833451d10eca3f3U, 0x23ee0b21e9eec536U, 0x42e63f10ed533edfU,
  0xadcc0629080ae042U, 0xf3fbf95af107ea7fU, 0xe81bbcd9ba1d3934U, 0x1018dfbfdfeecec0U,
  0xfda23b1a1d1dfaffU, 0x11fb46f3460b2b33U, 0x4d033b08d02d50adU, 0xe7c30421100021f9U,
  0xb2dd42def5292adcU, 0xe93960de090f100aU, 0xe74d1919d6beed9aU, 0x194e0129d721fbe2U,
  0xe402e1ddaf141c16U, 0x55f914aeeb19ba25U, 0xf1dbbc4202c20b43U, 0xb808e8eb11ed2ef7U,
  0x6623eeb8d5e8e21bU, 0x4bfd361909242a58U, 0x2c3198e9391842f4U, 0xbba0be9edd6ce01U,
  0x3641291d1e1e5fa4U, 0xc9f322eafece2016U, 0x1dcf253d104eea03U, 0x17b4111f0ed305c2U,
  0x15d82b0bf73e1becU, 0x5714e439f710cce6U, 0x1020fcf405b6ffe9U, 0x1947ed23cfbee50bU,
  0x1d2035dbdff542e9U, 0x36a23f1b771220e2U, 0x991dc7abf63baf81U, 0x35df4ea122f1e211U,
  0xab0ade23e8c83f5fU, 0xf24a121bbee307d2U, 0xcbdff016f7a03b1eU, 0x12dc1d11b00e3ca7U,
  0xef09f40ee240eea4U, 0x1f643c05f500d92dU, 0x3e54a4fa02d57f1cU, 0xbca242ec4ee5c8f8U,
  0xcf6ff4bbc3607f8U, 0x34b7e6e23861c512U, 0xa2deae0d4e3f1c1U, 0xff0f02d36540edaU,
  0x1ed89ed4f7e050edU, 0xd5eed3e4c06228ffU, 0x4c0ff359d8e61734U, 0x1a0aee09315902ebU,
  0xe2fa384a27ebffd4U, 0x1ac228eccef6daf1U, 0xc3b92b5b54a9e192U, 0x1524c12fe6113e2cU,
  0x44273609ecce0ee3U, 0x2fec06a1d4ff38caU, 0x9430ffc424db5fa9U, 0x5d2d81b0903addeU,
  0xb5f80e6461bc1e24U, 0xff0dea45eaf0378aU, 0x6cecef342df5bebcU, 0x2105fce8f5f9cda5U,
  0xfc2c19e804372f2eU, 0xb3dfe9dd81f5120dU, 0xc71c36eb090c13bfU, 0xd01aa331c5a033fcU,
  0xdf1d04d3ea0c1daaU, 0xbd5808d34dbf0783U, 0xec0a3986c347cdf2U, 0x61df37d5fdb94df6U,
  0x17f53b6fbffb105dU, 0x79e5dcbb0e004558U, 0xcb171c06d22657ffU, 0x209960f0bf3f2fa0U,
  0x775c0f75ce8f051U, 0x3d85064baabc0714U, 0x95ff21c6601038edU, 0x3031601ed54d8196U,
  0x447cad2de3dd60eU, 0xb787a0305100f9e3U, 0xf9b0c273e19f2f1aU, 0x23a5f7eab0fa0b22U,
  0xc5d7656243035044U, 0xa22fd00ec03afe9cU, 0x1e3d24a8d36ae071U, 0xf84a93f40b4002c6U,
  0x26e13aa921dfee29U, 0xd78151c2fe2ecfaU, 0xcce0c2192b6a0c25U, 0x10ab6101451042eaU,
  0xe25ea1e6070f25f7U, 0x208927efd37626eaU, 0xa19c22806d2c481U, 0xa41ab8e81b01b3f3U,
  0xc2ce1a33492912fbU, 0xfe818bc1b56abdd9U, 0xc05ddfe89621e048U, 0xf7f9fd23425a1942U,
  0x23da4607f86b36e1U, 0x19be112f12281914U, 0x2ab6bbfae03865f3U, 0x3ac0e85427f0a42cU,
  0xd5ab3ee5bebbd30fU, 0x73c48061bbdd99dU, 0xd8df3e050828af65U, 0xf88829e7160991c4U,
  0x173cc01815bd1c08U, 0x4d2a0d1668bc2603U, 0x6d234fd738781ea3U, 0x1ce8d0a6e0691fe9U,
  0x2be049cd311a18d0U, 0xc6c8ace9ab5e767fU, 0xa7ac0ecfa8d0de95U, 0xf731eec83627b936U,
  0x100ef2321bfab526U, 0xdf239709fbd8f010U, 0x4cdf1e21501be204U, 0xe30146d1afe39e7U,
  0x47a59dda0eef11e6U, 0x32b32124cd5c1ff4U, 0xde2ef1242de4170eU, 0xb0351a46490a5412U,
  0x25bc412f267f1705U, 0xfa21e1b5fc3ebf1cU, 0x442830f010ca3529U, 0x2e005e056031da2U,
  0x5ac21ae511e5aca6U, 0x2c06d8a9d7fd12f8U, 0x22f2cf4b4304aa9bU, 0xbdd8e1b5efebc9bfU,
  0xc6d3544ce95815f0U, 0xcf0ee5e82f191b10U, 0xe315ed9bad0dcffdU, 0xe6f31129e8da23edU,
  0x420afbf500a42b07U, 0xef118d429122915U, 0xecf42cfb10384101U, 0xdd1e1215e422ed35U,
  0xf8352022f42c3839U, 0x471c10f73828af14U, 0x1e151b4f2b2f11c8U, 0xcbdb05e0fdd62e43U,
  0x1c024314e7d7f820U, 0xef0929492ee5fdd9U, 0xd16402f229087fcfU, 0xfbf20706c2290237U,
  0x513b01c61701ef32U, 0x6c639ecbfc7e21dU, 0x251ceff6d8b5c63aU, 0x47e9e02e34159215U,
  0x4174eef7d9e70eecU, 0x26ed1ed811fa2125U, 0xba1a2c2f0b0358f7U, 0x94d5d51db3b3c544U,
  0x401d01c2f52a141fU, 0x4ff240eab505ac3dU, 0xedb5c9ebf5bab60eU, 0xe6ccd101024cfd72U,
  0xebdce8084eb5fbd7U, 0x222805f5eb220fc8U, 0xd3c69ebd0b00bbf9U, 0xe402c8f781bf1cU,
  0x3feb3815267d7b0U, 0xeacec9a2fe141210U, 0x22b6a91fda8f6b0U, 0x2ee40ea9d0210f5fU,
  0x44561f1817be3ecbU, 0xef9be29852c41553U, 0x10a11ab5f7d04d33U, 0xe0b33f0cc326e93dU,
  0x3716db000c870fe2U, 0xd19f70fe00063c4U, 0xc8ffbefccb2d2837U, 0x24f5a5b1ade2dbd6U,
  0x570ce0d0bbca2ab6U, 0xfa4d08151eddc1f1U, 0xf491cf2d08ef2de5U, 0xec25de29ef500c20U,
  0x331c27dfe0d624f2U, 0x26cee51f4cf3daddU, 0xc105161eebd5301aU, 0xf10b360f2bf50121U,
  0x1081e0461710f3fcU, 0xf0ec06dacc090728U, 0x24cb1a1af421e849U, 0xfd17cbf0fa0dca13U,
  0x4d1e20ec4d8e7b4U, 0xf80b2b37e425d012U, 0x35ce03e90ac90bcaU, 0x50aefc1ff1dc9d5U,
  0xeffc6fa3ee2d19e3U, 0xbdec02fe46220a28U, 0xebbc1e3ff9f736eeU, 0x921426ece9d80bdfU,
  0x9aeedf48222cc21bU, 0x823233500cdd3ffU, 0x900110c2ae0e31cU, 0xf501ca14ccf8e3bbU,
  0xdb0d31ed31123a0aU, 0x42f6cff60302811cU, 0x36d0bc44224117c9U, 0x64bd8bea9ed37e2U,
  0xab18180b18d74ebeU, 0x2d551d0cf7bbcffaU, 0xb42989cda93aee1bU, 0xb416d1db0825df46U,
  0x75ab2aef5eb64d1U, 0xa5070fc5d40608beU, 0xee38dfddc64cc81cU, 0xfa1d10fa27e31ff3U,
  0x7f22551ed420c35fU, 0x2a220044270b160aU, 0x14d7d6e2f72803e1U, 0x40e9330bc2a52a02U,
  0x3a152a2d2ef6fd55U, 0xc9fa11cb5abefc59U, 0xe1510d9aa09ed1fU, 0xecdc2cd620de1630U,
  0x14afec445bf070bU, 0xcb9ee1246b9d62bU, 0x97e9a705bd1ce60bU, 0x2410917fefb0247U,
  0xbdb33ed627541e5dU, 0xf6bfd0cf652b4338U, 0xfedac1f60b2d614bU, 0xc2bfd60119ee0d1fU,
  0xdb040efc3d491ed1U, 0x31be3bda1b42f805U, 0xae1c07a70aeadb5cU, 0x1d8144216b4f4919U,
  0x150f34de23e504c8U, 0xd82bfe13be0ca919U, 0xffd6bd3e0e0af1d0U, 0xd518f7f70f1df2d1U,
  0xe8069d00c610b2ddU, 0x43511203e408a250U, 0xebc431bcfc612737U, 0xe6d5fe08fe09ff1eU,
  0x2603e7ebdacce8e8U, 0x26bddaed0b2e43a8U, 0xcdf3da04e924fc11U, 0x2707fecdeccccf26U,
  0xd8d2dd043411bab4U, 0x1444e1311ef00514U, 0xe4e5621cdb3a1e3eU, 0x272bfde6f0d021c4U,
  0x7de0c20c3c24714U, 0xfccfebb44227f6dcU, 0x3719f8d548c2e137U, 0xedd6133e143726faU,
  0x1c152b3934ff21deU, 0xd9f635062b23ffebU, 0x10f804b9c3a9d4cfU, 0x25f72d18e23114b0U,
  0x1aebb38124d0f302U, 0xfc2f3a46fd06afe0U, 0xa806ce64e4023cb4U, 0xe7d648d53641f908U,
  0x2a3f1bf20a1a13bfU, 0x8ac4e52012342606U, 0xb3025cf2eb18e1ecU, 0xf000cdf909e63316U,
  0x52c0592328da0f06U, 0xada70de5eaf4cbceU, 0x4fc320d200fa042eU, 0x380e0df0f40238f5U,
  0xf3dc2a3be6fc3107U, 0xe0de3353be2e000U, 0xcbe0ed542f011c10U, 0x18eab3b22f04a00dU,
  0xec207feef71fdaf5U, 0xfd1c010225f3430eU, 0xeaf22f1be710fcb3U, 0xd0d41bea001e070fU,
  0xe1212fbe29061fd7U, 0xedeebad41455e5c6U, 0x2dff49f7c4e6b2bfU, 0x43e8fc0512e63930U,
  0x10c5bd1642956504U, 0xf0dc24e0cae5ce16U, 0x45c56018e126e2f9U, 0xe9ff04d9e62daa24U,
  0xd8073b20f248e6f1U, 0x15d01d0c8e04fb01U, 0x200f1f0efb154e2fU, 0xd5dcfec3fcd813c3U,
  0x3d7f55d1f808ffbfU, 0xe008a947ec08ce2dU, 0xe8ce1701e3f20dc1U, 0xf8c8e4f0d7ce17f2U,
  0x48e7446adef6db17U, 0x45cc01e6d802d203U, 0xd206b2b81c571baeU, 0xf5a9ee44b0d1acU,
  0x24d39662639db03U, 0xc9a9033550092b1fU, 0xedeff9ef312340f8U, 0xdf4938bfd0312cb8U,
  0x14fbfcb0f28c72cU, 0x3e3214f8ed09fa0eU, 0x635b110d1cb3bdeU, 0xd616ecdce6fbed3dU,
  0xb7b403facbee51cbU, 0x3beb172a7f3dd1fcU, 0x4fece3accd1ccb4U, 0xdd334ec8ceb30bb3U,
  0xd840a4c60822dac2U, 0x3a4105e9572fe910U, 0x271bcbaacccef936U, 0x10fecce0d03fa17U,
  0xba1b19bdb328d927U, 0xf6e51e4ba601efe3U, 0xfe4121511330ee9U, 0x169c2909f82d2accU,
  0xd7cd1ff0b3c015beU, 0x7f2154f2ec450d1bU, 0x9fcffb0e031f3f3cU, 0xefcc04fc0def02dcU,
  0x5ed12cbbac400d0U, 0x2da817460999f0dbU, 0xeac0d426fd231cceU, 0xd3919f91cd2d8e6U,
  0xa12b93f0b0b91edU, 0xf257dcd5cfb712f9U, 0x16ef96ef3aee4dc6U, 0x995244cce81d3dedU,
  0xf64ad136e0cbe6b3U, 0x4ce5cdd6f0a7bc6bU, 0x411fd5f53fdb64cdU, 0xf7befb55192c15b5U,
  0xf70bfeb7032a35f1U, 0x597f2628b5a50950U, 0xc0c3c19afdfee4e2U, 0xf2c7e9f6a325034bU,
  0x58aefbbd2c5bffU, 0x5c5bd53a1c1e3944U, 0x38edc12437ab36ddU, 0xddba421fb1bf45f4U,
  0x81eb3642684d41ebU, 0x6911e62e0b1f8afeU, 0xd4384efb49567505U, 0xe6f32859db0fad32U,
  0x503ccdab5f18cf26U, 0x4d137cf5312d0cdU, 0x78b7a489cc1df27U, 0xbec29d67112f410cU,
  0xe41314dd1719c1abU, 0xa5fdb2f494f3782eU, 0x2c19dbd3fc5206e3U, 0x3de52fa2beb72f0aU,
  0xb900d72502fb3610U, 0xffe8e90ceee5dc04U, 0xd9d1be40f8d2cbfbU, 0x1a27e6cc301df30eU,
  0x7be267c1db2f3930U, 0x18bcda76c838c4faU, 0x2a16ffc9222fe8f2U, 0xfd05b031453c46daU,
  0x33d0e7f67fae5007U, 0xd60319c3bcd400f4U, 0x3e0a36f6a0a7fb9dU, 0xfd3ef03433ab8c07U,
  0x4ec246f3cb6c889eU, 0xe418d1b1de25374dU, 0x33a5be50cd14cb28U, 0xd60c9a8c0a3dc537U,
  0x28fd3e215d3ae433U, 0x8218c199f1df741U, 0xb39f7bf1fc8c004U, 0xe24db306c1371eceU,
  0xfbbac605ec19dcf0U, 0xecd49a36cb3627U, 0x235ebf2d8e13550U, 0xc1e20e2320a81c10U,
  0x63e08c418e3fce2U, 0x16100d34e0f9f70bU, 0xd0040626ea2a120eU, 0x1a8afff90943e12eU,
  0x1a25d400eee8f6b6U, 0x4ad731a9e63a08ffU, 0x86ffe312decf3404U, 0xf243be131b15e891U,
  0x13f02f222517e404U, 0x3b8119f9c8d2f5d9U, 0x3ad79fd3c64b05bfU, 0xef2af6f5d8cbcb49U,
  0xd0145fc5ddb7c6d2U, 0x39b72fd340edee05U, 0x4fe330ec24f2fb07U, 0x171ad6cf18e529daU,
  0x1e0deb26fc026926U, 0x2bf01f9911eecd49U, 0x4ff3fa37f9d50cbaU, 0xebfd0ef71506341dU,
  0x12140f690e9e10cU, 0x1a3902d41cfcc7fcU, 0x4d1e0d3bb7f42501U, 0xc547d6cfb7a91eccU,
  0x1ae5f78124061fefU, 0xdcc00fed1f64b524U, 0xa32732e817eb0beeU, 0xc9e80320e11feebbU,
  0x9d2fef81b10f9f1U, 0x111915300a3115e9U, 0xf047ecc8cedcf61bU, 0xed00fe91f05fe25U,
  0xd2d01f5f0e9370dU, 0xd9edf8e7f7151918U, 0xbca201af1da29e9U, 0xdee3f2e42914a7d8U,
  0xe5ebedf6d7f81a3aU, 0x7ffb0810e2bf0b0eU, 0xd402021a0235d6ccU, 0x9f0190d1310f806U,
  0x9f8e7e7e8e5340bU, 0x5e20f2ae226cf0aU, 0xd903bbd5e6cb1ed7U, 0x35e3d707fed43fc8U,
  0xf91722393b4ab1f9U, 0xd9200311f5f0c6fcU, 0xbadb4629cf4e312aU, 0xf67f020108bf0d1fU,
  0x2b165422d63b0802U, 0xf025133d29bf063cU, 0xd0f1affcdb4eb06U, 0xc310cb3cec33e2cdU,
  0xf4bafad036e1fbe9U, 0xa026962ce2081aefU, 0x1a05e1f520ed12c8U, 0x2bc6e3e7d21cd4ceU,
  0x18013c1a17c1a736U, 0xb24f4fc4db14fbbfU, 0xf2eadd6b1ce2e9f2U, 0x3ddfeb4ae44b3f13U,
  0x3d2414e7ebe5e5efU, 0xeb21c9f501d4d807U, 0x5ff25c9e53bb8ecU, 0x19f7441dcbd55494U,
  0x30a71cb0f63f2531U, 0x27f71bbaa50ce0ecU, 0x100bf9f328b1cddaU, 0xb61229d920ca47b3U,
  0xfff7e21d39ff1c8cU, 0xe5f4ebcc93030027U, 0xdbcc2fc7fe365b2eU, 0x1df3eb7f4ef11420U,
  0x1ae5fa072ff1b2e4U, 0x30119e11e621b6fdU, 0x26e412ce392198f4U, 0x1cc7c51496ddd122U,
  0xd90d09faebfd15ffU, 0xd7f416e5d420c1d4U, 0x1ef605cd7ff6be10U, 0xdf32fb22d9fcf012U,
  0xfde66a230adbbb0dU, 0xa3fa3115c73f3b0aU, 0x26b8cbba1aec1be5U, 0xaea3e112e8ec702U,
  0xdd0db24fa3ae1d3U, 0x370d1c232121b42bU, 0x1ce40e140c11100cU, 0xdff7ed2af8041812U,
  0x20ff3215e72627f7U, 0xce93bec0e34f8eeU, 0xa9d0b1f21acb21U, 0x2b0deed12526e3f0U,
  0x52acb922330bb5a3U, 0x1f3c179fcb645d5aU, 0xd758e7befcd7be0bU, 0x25819c71176ed398U,
  0xd6c191e8bbddc39eU, 0xf02a1adb972f389fU, 0xfa4fc34354050441U, 0xbe4940eb50034fd0U,
  0xf13520de4703afd1U, 0xdfadcd611ca33df5U, 0xa61cc2d6258efd2fU, 0xf8bbe4c8081adaa7U,
  0x1cc8e89d4a967f11U, 0xe7c0d50ad92e23ffU, 0x2c27f551b3a6d334U, 0xda4251bf04c4109bU,
  0xf7fecc09390c1112U, 0x19513b1ed8e7fe42U, 0xccfa0d00f420cee7U, 0x2f1d1e0a14d3bae0U,
  0xb55423dcb233133U, 0xffc3aea512cab2acU, 0x5637cb2cf8e4f1e6U, 0xeeecfdd5f5eacbc8U,
  0x36e9ed25710de1ecU, 0xd5169a6735fbf905U, 0xd757f1d0f9e603c6U, 0x3cc0c421281f32cU,
  0xbba3de14ecde1dU, 0xb74c1ce727a02996U, 0xd61ff10223ff4a17U, 0x2e2b041326cb14d1U,
  0x1ff0d4e00a070d1bU, 0xf935f927fa0de311U, 0xf11807cebbd7ee2bU, 0x1f0215e8f011e311U,
  0xc0c0cda190c0033U, 0xf8e2e0d8181dc009U, 0x9bff20e23e61ce6U, 0x19d125f72205e00cU,
  0x23819b5db08f953U, 0x7f051e0eff2d1f04U, 0xbae2031ff206f313U, 0xf7fdeb26e4131138U,
  0x1ee213d5e5dd250fU, 0x8d4ec203101f704U, 0xc9f8dee5ebe3140fU, 0x1437281913240fd3U,
  0xe4d0f2db06fb0f00U, 0xcb01f6d2e9f4ec1dU, 0x3922e5df09ff1800U, 0x21de1ee931ec013bU,
  0xedfeef01f11d19e0U, 0xe50d0cd50602f117U, 0x5081510180402ffU, 0x17ee21eb26cfc50cU,
  0xeefcff25dffd223bU, 0x7f1af8e2fcfce525U, 0xfdd7faf4cc1e2b2fU, 0x11f6df1d0afeeef8U,
  0xf4141005180a291dU, 0x2af7e81204dcf502U, 0x505f82cd0f82b02U, 0x22ee11ebf416d90bU,
  0x18ef2ea720143903U, 0x2de01a0011394922U, 0xd84f01c28234ec47U, 0xd924de14364432e1U,
  0xdbefd0d0cff2ffd1U, 0xcb0cecf115f0c026U, 0x3cf51feedd0e1517U, 0xed07fe3dfc6d6efU,
  0xc433eed9db2ed709U, 0x18ff02b8070218ecU, 0x5161ab9eee61dc0U, 0xabecbbc1a7e2dc01U,
  0xdc24bec0d4305301U, 0x2bb5ee260d05e7ceU, 0xc60caaecefca3f25U, 0xdf00ee30291dc2b3U,
  0x1d10e023f9e0dea7U, 0x11ddcf1dd922b324U, 0xd8077f3a1b053e94U, 0x3216df03e31303bfU,
  0xd05668d140e1133aU, 0x31185dcd04f1be26U, 0xd7cd1eb11ae7e21dU, 0x46150725f0f569daU,
  0x496382e2a3f250eU, 0x2725bef3edd80bf0U, 0x2a5eb0fbc164c34U, 0x10ea002a3ff46dc6U,
  0xd31a02abf30ccfecU, 0x326c64d4bdfdfd5U, 0xd63fede9d4b5ccaeU, 0xfbbb2001d3094140U,
  0x2dfd4330e0ec8d3bU, 0xe6e038c8d5f7f4d7U, 0x280a2b3bac40dc17U, 0x3b4303f513ea1b12U,
  0xa5e8d9241a2dbe09U, 0xd4ff03c147f17755U, 0x1ed71ff4ddc43d3cU, 0x529fe17180c4618U,
  0x3ea71c0503d0ca7eU, 0xe4e0e94b153cfca5U, 0xf00b30dd37ce1ed0U, 0x48ffecdce981481bU,
  0x1ab2d052e1ec2165U, 0x3d5171761df16ebU, 0xb1d243cddf5fde4U, 0x14bc3547d33fdb02U,
  0xa2d031051225b3c0U, 0x37e82138fbd106ddU, 0x92d4140749ecdd17U, 0x1156c455ff092636U,
  0x2253000b251077edU, 0xb7cb183f201a7fd6U, 0x66f4bd583c2afd4dU, 0x213d42ff7ad069b8U,
  0xe4f147cdfa62b7e7U, 0xa43f29e5f9eed654U, 0x10181ac45c36c70cU, 0xf8023e2faadbdbafU,
  0x3a48d7c0d809efc4U, 0x50e75fd83304e319U, 0x3ae1178f3c71147U, 0x1539b53910fd014cU,
  0xa0ce5b0026ff2708U, 0xbe02000647fc2516U, 0x1c2bf2eb65e9d518U, 0x2c39f2cf18b800ddU,
  0xf5f666e40aaadfc8U, 0x15f22f09e62de905U, 0x4995c314eff7daeeU, 0xdcc91d1de2812006U,
  0x10f83ccd2a3f42b9U, 0x1600d632fc24dbbdU, 0xdd1719c9ffba15cdU, 0xdfed25e0bdcb21e8U,
  0x22d959a0edfb3f26U, 0x11082fe8f1c409f0U, 0xc5f0edf10cfb92a9U, 0xdf010e26c80ae4daU,
  0xa245ce873c33cc8aU, 0xe5c05d08ed1ebe0dU, 0xf34b1793e4dbe087U, 0x132dfb16f2062b81U,
  0x754deb6bdd52648U, 0x1ad92094ed107c53U, 0x244eb4d6eae0b33fU, 0x990ffefe1f4e5e12U,
  0x2f9632d90ad1d1d8U, 0x342d01023029e541U, 0x4f37fd1f0eded7b4U, 0xd117c89ed4f2e0deU,
  0xec75ddf43fb5163dU, 0xd60be259bdda2606U, 0xf2a30750e09c598cU, 0x5107fc0fe8dbd50eU,
  0xc96ff92c1cc4ff22U, 0xb0d32112354d0644U, 0xe8ae20c1e42ac6c8U, 0x1dda2d01cadcce3fU,
  0x51d84127c50700ecU, 0x11e5173ea8088118U, 0x222f2c0bc15100f4U, 0x429f023dc73b3ef9U,
  0x1de7ee34b5ac101fU, 0x2ce605f3a8b00cdfU, 0xff333008bcf005f6U, 0xf2d2d626dbb6024eU,
  0x4a32e0f226f8230cU, 0x11bae32f66d71e1eU, 0x239955fbd81d23c2U, 0x2b2f1ac1edefe9edU,
  0x40aed843d8140718U, 0xb106324cf40329fbU, 0xa9a8ed42f6df2adfU, 0x7f8cafd5ef7f0e9U,
  0xf8a74d1acae8c52eU, 0xd9342db1fa2024d3U, 0xa26329aedfee2836U, 0xf6f2f42498f0e8f6U,
  0x4b7f22f7d9be9853U, 0x1abdad0911550cf2U, 0x535d07f5fbf722f0U, 0x2e0b5fd1552921eU,
  0xf306bac80702062cU, 0x807c20ff075c3cfU, 0xd2e7fa4ea9f61ef6U, 0x49f62e11049bcf67U,
  0x36d825143417134dU, 0x3fd4e530db3ec457U, 0xd1cebcd0c925c834U, 0xd308d620db350639U,
  0xca206b5fae135908U, 0xca47f5f05634df2eU, 0x49f2f323d0e027d5U, 0x2d4bcf287f663dc8U,
  0xdafeee061c1a45f9U, 0x370db503cf7151dU, 0xd8b6c7bc4c97a544U, 0x1454fcf92fae201eU,
  0xfcd0ce35ea4e1e0dU, 0x1f1562ea13d635e0U, 0xc4b8073cf82c2efeU, 0xc306e51bc10e3e11U,
  0xc4b0f1827f019edU, 0x1d06ef200910e317U, 0xf7e8f8e4090bf915U, 0xed2feed406ea4bd7U,
  0x29a924f24a0a2512U, 0xc4cff8fdeef716fcU, 0xf1f7feab061d40f3U, 0xdb37613a08dee7fcU,
  0xe4fae23d48f6e80cU, 0xc5e70720e729f8c2U, 0x20ed19e65eb7ec9dU, 0xc6fc0ccdf42125ceU,
  0x2ee23e09f0f4e009U, 0xce36b00581d10e11U, 0xe927fcdb12fe412bU, 0xae2bf5f436f604dcU,
  0x913a17e84d32f52aU, 0xe013c9f21e53d61cU, 0xdf2be0e11de21a0eU, 0x11eb720f16f04a05U,
  0xd17708aede165c2eU, 0x5fdd31f930e4312cU, 0xd0c9d946e957e904U, 0x1c06f9b2dde70022U,
  0xe2a049b2ac20eee3U, 0xc20ffb000fd3fccdU, 0x38c66150d904dcd8U, 0x2b49cf11b6f15deaU,
  0xd2cbddcb2e81f301U, 0x30bfd57abb704deU, 0x718d9fe1708ae48U, 0x2c052847e224fb1cU,
  0x2e1d29c90d10d0b1U, 0xf1ca47fc06487f08U, 0x8dfdf3f9a10208c8U, 0x3c0825ca0a24054eU,
  0x8ad173a2f262b3cU, 0xe935488641e5deefU, 0xee2272420510c41cU, 0x2aeee41fedd9e137U,
  0xb820255703e2e97eU, 0xd23d3db25bb7e314U, 0xd4db320fcb132807U, 0x6141ecbbfcbe90fU,
  0xee1942fc0a2f1103U, 0x253bc3f4d0c20ec4U, 0xe10af5bbfa436600U, 0xe39f075b03e32b35U,
  0xdaefe991e034e1ebU, 0x1ffbdded1c1a4e11U, 0x55cdbe23a6eaf4daU, 0x6fe3fcfe84b0402U,
  0xe30502f734371ca5U, 0xdc7e4019bf30c202U, 0xa30305381127abfaU, 0x44beadd64d2bf4fbU,
  0xfef8e366ebfd3d59U, 0xe6f13fbd212fa63cU, 0xc547f5d6db4063f1U, 0x55f0131d130d3e3cU,
  0xdcbc3d741e5304U, 0x28a701eec719a726U, 0x401529df2df14581U, 0x30d6e1d1bc1d1cc6U,
  0xadca3d91f57143fU, 0xfe2cb59c443021f2U, 0x23ea6efdff1c4f7U, 0xb9cf29e2df5c311eU,
  0xfaa736bcc60e2817U, 0xe9e1461705c261d6U, 0x2127c832f2feecfdU, 0x3fbefaf4db013c2cU,
  0xcce2c30025f60934U, 0xe9cbdeb40e5d0dc1U, 0xe5ed362733d4d8f5U, 0x25faf9351df0b98aU,
  0xed2b1a22fa14c956U, 0x605f7fd181cd905U, 0xc082de5f500f65dU, 0x1af161f47f48e454U,
  0x251dcb0ce640e05aU, 0x263bf63af9f1db0eU, 0xf8e33f0d4ae8fbdeU, 0xd54ebb3fc21ebed7U,
  0x6cfc4108db49190aU, 0x200fc9ed410f3e09U, 0xdb66dfc6ebda2e13U, 0xad4af7e91d5fecadU,
  0xbb1cf2dff60bc903U, 0x363324fa48597ffdU, 0xd636f7fe43d7fc0eU, 0x2112f40fbe204ad2U,
  0xccf7e142e6d6a2dbU, 0x1a2826013c3de0dfU, 0xfbefd523d1af4920U, 0x19d6cb0817944716U,
  0xf1e3f600c90a3ef8U, 0x1411ba5ff9d95dd1U, 0x37eb3a3ecee053deU, 0x2ec01ff8d63edb24U,
  0xf2cc3db52d9ee8d3U, 0xfc0103f4f7cfef92U, 0xce1176c809f71b0cU, 0x121922fc16012caeU,
  0xcced523c7f28f6f0U, 0xa5ef224beef5102eU, 0x7f244bf673a65a8U, 0x3f2002165c11feb5U,
  0xc0072df37bfb454aU, 0xde52f102eddf3dcfU, 0xfb1054a253d64f1bU, 0xeab26c7fab9f3d9U,
  0xfc2747df4afd3ffaU, 0x4401bbf2900f7faU, 0x2a232eeb213ac565U, 0x56cc41b40dbe2403U,
  0xf646393bc22df573U, 0x590e4d041f15de29U, 0xbb14daee420af0f4U, 0xbf33bb22d8dbda09U,
  0xf8f8e40d0c08d0ecU, 0x7ff81ad0a70e61dfU, 0xdc2506c6f4b6f4b6U, 0x2ddd4d32f583ce9U,
  0xfbc9152cf725af35U, 0xfc0a1b2e2e1bb3d1U, 0x3ddce8b452b62207U, 0xdd1f2a01b8c72013U,
  0x13d222d51a321ffcU, 0xbe4607f0de06f30fU, 0xd67f1bfecaedbd03U, 0x39e339cbcff71ef4U,
  0x332cf5b5ebbacad2U, 0xcb132bfc19080abcU, 0xd6952be50ed7240fU, 0x23b1fe1d12deef10U,
  0xf81cf3f2cff4e228U, 0x49bff71522410c2eU, 0xde1e00e1180812a7U, 0xa9f3dc230815c1b7U,
  0x51df6bf09281ddcU, 0x1217a413fd00fb19U, 0xebf6b0230bc8f54aU, 0xbe1460eb519df39U,
  0x6f27d0e0b93d06c1U, 0xdb103018e515e3e3U, 0xfc01f4e55dda05edU, 0xdf01ea011ae435ffU,
  0x65c3e3ea70736e7U, 0xd443581e006035dcU, 0xeadc0df01ed73909U, 0xba0e430e4a23833U,
  0xc8b72bf1b4ace510U, 0x43d6bead17f3d2f7U, 0x411d06f1e87fb3ffU, 0xd6d619d6f5aba1fcU,
  0xedf3eb215664fe00U, 0x3c27f43ccac30315U, 0x280112ef47bde50cU, 0x4bc305edc8ae35f5U,
  0x3023c5871a28f7f9U, 0x2e282c5cd0e0a87fU, 0x4a54c92d51d332b1U, 0xdff0ec2effea34e0U,
  0x99d6b74d1629104fU, 0xe91c09ef24d947d5U, 0x9df7c7dd66c6b31eU, 0x140d5cc7be3257acU,
  0x15e5293e09046844U, 0x4971ad2a3baf3ad7U, 0xcd0e5516acdfefc6U, 0x39cb13f8bea303c4U,
  0x2daccfeedb28452dU, 0x3bdd3920e52223b7U, 0xc523fbcc3b2147f4U, 0x24ba3c69edfc7eb9U,
  0x41462beffce8810bU, 0xad4ebfbfb23ea56U, 0xc42ef11be6d014b7U, 0x10169b1f610fc935U,
  0xf4483b3e0fe74309U, 0xf1254de960cd1216U, 0xd9210c36a8f30ff3U, 0xe15839cefd23202bU,
  0x52be69d0d11cf0fU, 0xeada319bfc966e25U, 0xc5090c38152f5808U, 0x3b2b1add16f0c33eU,
  0xc80f42330bdb23f3U, 0x2b281a0c2839f1f5U, 0xded34a49e4efa4c9U, 0xe6ca43d906ae5b00U,
  0xf8d1446331dce5c8U, 0x983bdf15e4c83ccbU, 0x6dbd9c8dd4db0fdU, 0x4faadef4decd069fU,
  0xd655bdde90310102U, 0x21461fdad5660cf4U, 0xe25aaca7a015e2f7U, 0xfebad3bd1e0a19afU,
  0x606355da77fd3e3U, 0x5ec4a6c3fdf3bdf6U, 0x17c415beb137fa95U, 0xe2d13b904edc3e5U,
  0x3ad393f41c1d4dbcU, 0x5486c4105d34c5d6U, 0xe75004ea830e3de0U, 0x63c23a33e3a91ab1U,
  0x474d500f2400fd49U, 0x8b2ff07d54ad5e0U, 0xcffed6f3273b3b3bU, 0x9029508c94d5eb3U,
  0xc6ac513ee408262aU, 0x33dbb6ed433805d3U, 0x3294930c1326b36U, 0xd1df4ed0afa12c1U,
  0x42df061ddd72dc5U, 0x12361fb03200050fU, 0x14d1d344e2030ff2U, 0xc84406de42371ae4U,
  0xe711ce2f9d4cfa4cU, 0x270bb9ed7f27221aU, 0x4552e4e725d5e01dU, 0x2620dcdb0b22e327U,
  0xeed6f234d2bdaa16U, 0x14f4000f255a811bU, 0xf6220c774d25d6e8U, 0xcbbf2661e5ac451dU,
  0x53a1e5012f880740U, 0x27d00217a509f6e1U, 0x4a105fc5d359d24bU, 0xd7d2262e43c9d61fU,
  0xdd3b091047c60ed2U, 0xc325d7e9b2235fa8U, 0x4ebe4bf1b916d1b3U, 0xc72bb7c330dbe12aU,
  0xdc1031ea0c57ecbcU, 0x16d818eadb27ea2bU, 0xd5b0d52ce1dbe7edU, 0x2cf84042f7330fc6U,
  0x2f31ecffb2604315U, 0x23cb011f39560ec5U, 0x9d94c5d1b157fd1U, 0xd410f7b6023cb8c7U,
  0xbf64c3b10e795e6U, 0xcac2bff91642ebf8U, 0xf7c22e5b34fd63f4U, 0xf0f8e93024d6cfbeU,
  0x29b842f3eb71fbcdU, 0x3ae1b5012bb0cfcdU, 0x4fc458d9dc37336dU, 0x5cd0c7dac507e026U,
  0x4ad3cdd1ac17312bU, 0x34c425162877dee4U, 0x5bc4cf362b2e3af1U, 0x40f916291d5381eeU,
  0xfffffee7ffffffc3U, 0xffffff01fffffe3eU, 0x408ffffff4bU, 0xfffffb01000003a9U,
