/**
  ******************************************************************************
  * @file    network_data_params.c
  * @author  AST Embedded Analytics Research Platform
  * @date    Mon Jan  6 14:34:30 2025
  * @brief   AI Tool Automatic Code Generator for Embedded NN computing
  ******************************************************************************
  * Copyright (c) 2025 STMicroelectronics.
  * All rights reserved.
  *
  * This software is licensed under terms that can be found in the LICENSE file
  * in the root directory of this software component.
  * If no LICENSE file comes with this software, it is provided AS-IS.
  ******************************************************************************
  */

#include "network_data_params.h"


/**  Activations Section  ****************************************************/
ai_handle g_network_activations_table[1 + 2] = {
  AI_HANDLE_PTR(AI_MAGIC_MARKER),
  AI_HANDLE_PTR(NULL),
  AI_HANDLE_PTR(AI_MAGIC_MARKER),
};




/**  Weights Section  ********************************************************/
AI_ALIGNED(32)
const ai_u64 s_network_weights_array_u64[92126] = {
  0x3254e6d20ef0e8eaU, 0x1ff9fedad858e47U, 0xf399e9bd383ae77fU, 0xd6d5380ed40e7620U,
  0xa52bfa9b754b1e4eU, 0x4c20d057dfa40cd8U, 0x5ea5821a254c181U, 0x2043473002334209U,
  0xb081bbb790a72b05U, 0xc2093550670312e4U, 0xf8195c10d77f38e5U, 0xd5605dd6066f85cU,
  0x1c410c3205ad7f42U, 0xfa0d022098fc3bc8U, 0x7fc9d144d40de31dU, 0xdbbfea1e0efdd866U,
  0xb59e2d1cd0d1c6eU, 0xd2dd30b9f91b225U, 0x2c4c03109cd860d9U, 0xdde02fb6ec49ef54U,
  0x16e2f4fda80f777fU, 0xaea258114d54509U, 0x3ae69a0cf55ef118U, 0xd114a9dc4cf2073eU,
  0x2a841f5359a47f05U, 0xd0997a35180990a0U, 0x975eeb051ea6db37U, 0x81cd24daf007adeaU,
  0xb674bdcc6593a25fU, 0x48c2d1fabae54093U, 0xa343b6af2c5c85ceU, 0x2405aa2a438113baU,
  0xe4a81b1f9d04bfdcU, 0x3ae0558450eec720U, 0xb0c05de4be78c3d8U, 0xe156c0af7fc30745U,
  0x5aadf867a30a34b3U, 0x94aec06b0add6feU, 0x41e2379ad5e37f1cU, 0xd2dcf8c8d2760a07U,
  0x4afaaa1b52eae2feU, 0xf9810d01e4fbdac3U, 0x8615dd0bede7ec6dU, 0x1406dff0ffd641dfU,
  0xc981f2eccccb6f45U, 0xb73e0406f4276a28U, 0x42ece3d7296bb6d8U, 0x89239cb8622bc988U,
  0x3897bf7f3e0bcbb0U, 0xd21246523265cfd8U, 0x2e03d7c2b9e2fcU, 0x422432222db98183U,
  0x5321e704de9b8610U, 0x1ad1e1c5250a0c08U, 0xf8292c180617f3f8U, 0x2605fb2832eff00cU,
  0xf9b6053ae408f3d7U, 0xe08c041397cf8103U, 0xa14dcb98efed9a3cU, 0x6ea9815ea8133ddU,
  0xe6b00dd59419fd95U, 0xdca3f9e3d0ddbaaeU, 0xadd9b8be27bec1f2U, 0x8e981fbe59104b9U,
  0xfd7022074e08f4aeU, 0x3187954bcf8c4f19U, 0xf5f87facdd1497c4U, 0x479e007136c8197eU,
  0xd0b83ae1185eb7f0U, 0x204481bb54f3d86aU, 0x24fe0643ce4948e8U, 0x2ff00a5f0ce57f17U,
  0xccd855c71769e2c1U, 0xeb58dae02ecbf549U, 0xd76f4ee27f3a2d15U, 0x623e082a061a3c20U,
  0xdcf374532961492aU, 0x492cf80742f7e266U, 0x281767e7b608ca81U, 0x1975e8a33ec49921U,
  0x261daaf103b9232aU, 0x5e6955556c3e461cU, 0xd86c712d116c372bU, 0x7f6052df57341eecU,
  0x6d69350221476679U, 0xb6d204bf5f36457fU, 0xbc11d50ce2ecc405U, 0x1fd1b6c1c2f710b1U,
  0xba291c812a23c221U, 0x43f5934a3f9d024aU, 0x6b71837dd2016beU, 0x147c400a6b160a0bU,
  0x3545347ff0f66452U, 0x324545f24068e9ecU, 0xdbf4caa947c5ef24U, 0x1ae1d105e4ab29f9U,
  0x2b9151da823e3c0U, 0x5b233890f2f58127U, 0xdac922142122510cU, 0x964723a42a25a910U,
  0x391b89061c81b9daU, 0x492d07326500f9a7U, 0xd89e092e9d2a48e6U, 0x95e0e1b9e6d3c7efU,
  0xd3ea3b321b814106U, 0x2d5329d92b103724U, 0xecd2a799010e0112U, 0xef81004ff1fc0231U,
  0xdc74eb7fefff3dbU, 0xbd21a41f5298a93aU, 0x7f08aa5413c458afU, 0x7fe7df2ac91706bdU,
  0xe6c67610c92b04b4U, 0xbf76cbf31c02be55U, 0x1d4cf239e9d549beU, 0x4e9d04be3b557f3eU,
  0x7e45112ed6a2beeU, 0xaf4919e470cdc00eU, 0xb1dcf9e4efcde5b4U, 0x48ecc553b8e2fd01U,
  0xd6fe7f01e619f7cdU, 0x4031f9305421056cU, 0x80ff9dcffeb0327U, 0xdaf83bfc3e331e09U,
  0x1cefd90efb81c4efU, 0x2ca8d20dd10c731bU, 0x52f47f52fafcf1b0U, 0x5aebadfb9c1216bU,
  0xd46aaef245caccc8U, 0x6ba8d261c1c970cfU, 0xbdf048cbbb7eb9ccU, 0x4710b0e771c6c37fU,
  0x2693ff09dcfd00d2U, 0xd900e5a67f5eb6e2U, 0x69f6f923fab13913U, 0xff90fce4caf3099cU,
  0x850c15be36ff9820U, 0x2dc98b37da8124d4U, 0x43dce56bbe46e596U, 0xecd55dc8e247e0ceU,
  0xda7fa0f01df3a467U, 0xd681d15adeb476dfU, 0xa8060e2ae9edb1c4U, 0x1b342fe0faad0208U,
  0x57491a150a0801e5U, 0xd8042ea4f8e6f158U, 0x37d681533898f707U, 0x1bda5a74d04013c2U,
  0xb0420092deee623U, 0x51252406e81e4820U, 0x42b5011427f2307U, 0x3e250147e1f74eU,
  0xf81317e8f91c1710U, 0xf9fce081ed16f317U, 0x380f9eea1a141627U, 0x1807b8e0e8a30d18U,
  0x22d5e812992a48d2U, 0xbaf22f81111dc30aU, 0xf7297f075dce1e09U, 0x4361d2a49f0e142eU,
  0x4ee793d0ad023d4fU, 0xc5968e50eed9314cU, 0xb6e2b29854e18a1dU, 0x5ceaa424dc812f03U,
  0xabad3ba88c69c0cfU, 0x99b91e2a29b6e82dU, 0x2ebdfad7fb1c0981U, 0x1d1cea08e3e42a42U,
  0x71e72ef50c14f632U, 0x100ec89c0941e1d7U, 0x28c29ae54d9ffa68U, 0xc781f34300052739U,
  0x6dd9813005a5eb16U, 0xf39e0e41054e18deU, 0xec63550e240d98f5U, 0x3a38452af29e18eaU,
  0x34de81f5d8d96719U, 0xa0b6f1d0b572a7dfU, 0xd57abad25603f93eU, 0xf5028cb60281f9f9U,
  0x138ae9cc8d253fe7U, 0x1f420e1b613d3fb8U, 0xfb873c3811f1b1cU, 0xcc19ceb8620ae502U,
  0x4de9e57539df1714U, 0xb115ad14c345d4a6U, 0x1c81b315f4aa11d4U, 0xcbf53ccce100b1bfU,
  0x131ae4c6eee4f658U, 0xfea25a4edf0de1b2U, 0xb0684c040403adecU, 0x4865fe120a8122f6U,
  0xd0ce39c817ed01c8U, 0xff7ff9fec3ffffc7U, 0x68061917f7e63203U, 0xe523f7d22227d2efU,
  0x2702060fefae180aU, 0xad906028111f6d1U, 0xf310fbae38f8e702U, 0x81f11f9b29078f08U,
  0x7f6820a36d6d745U, 0x37833b38912a3181U, 0x27a2848e929c341U, 0x7fee4523dce303a4U,
  0x7e640d80262efe5U, 0x8bf3d915d4d6e5cfU, 0xe608061b1b0001ddU, 0x38d41a44d21205bcU,
  0xe3124e0ef6038117U, 0x250acefa86d21a12U, 0xa4e770be8327abe8U, 0xc07ef78126a79e43U,
  0x1cadbe4492be75a3U, 0xe392f01ac0f8f2cbU, 0x941545c3265bb805U, 0x1d7f923124cc21f6U,
  0xfbc00000e4fU, 0xffff91d6ffffee68U, 0xffff9d65ffff69d6U, 0x1b7cffffe1caU,
  0xffffe44effff8127U, 0x186bffffefaaU, 0xffffe786fffff184U, 0xffffcf77ffffbb0aU,
  0xffffe9f50000074aU, 0x6470000031aU, 0xffffd1cbffffaef1U, 0x24ceffffa59dU,
  0xffffd351ffffa0efU, 0xffffc06c00001f40U, 0xffffecdbffffbc86U, 0xffffd90000004310U,
  0xffffecf0ffff9393U, 0xfffff051ffffbafcU, 0xffffe986ffffefa6U, 0xffffac44fffffbc3U,
  0xfffff12b00000118U, 0xffffd355ffffe69dU, 0xfffffcc3ffffd30dU, 0xffffbe6f00001ad2U,
  0xffffebb8ffffd7d0U, 0xbc7ffffe05aU, 0x235ffff9678U, 0x73e0000245cU,
  0x6dfffffcd37U, 0x1ce8fffff850U, 0xffffcc7300001a25U, 0xffffe2d8ffff7e6fU,
  0x1bed12ced628f742U, 0xd334f09d1bfefd8eU, 0xc50ed8b7e9e9c5bdU, 0xd3d1f49619d42916U,
  0xde59e5d3dfc620eeU, 0xb03c821afe581bc3U, 0x64ce2ed7871133a4U, 0x25812bd109aaecf5U,
  0xf2db1c07ee45c9e6U, 0x3a46edb6182cfb35U, 0x39f2e43fb438f6cbU, 0xf654c945fe1368fdU,
  0xf392c34df32fcc2U, 0x2a4425183350fce2U, 0x9943404bf394416U, 0x1daef5371e810638U,
  0xf47eb09c4cd4d29U, 0x1fd1cf90a2803dbU, 0x7fd411b736df57faU, 0xf52f06001a3ac6d5U,
  0xdfcec1021270c2fU, 0xee341e1a2cfedb52U, 0x1fe6fdca0c2cc7e0U, 0x401a24202d050b52U,
  0xb7b801fddcb526a7U, 0x2e9c9c7ff28b804U, 0x150f14d91dc9b01bU, 0x2f8ba9f2a1fbf24U,
  0x1329f1f732dfeffaU, 0xdaffe42813c3fbbfU, 0x81bad6ecd900fdc9U, 0xdec2f61010a6030dU,
  0xe65d30fadc103b1bU, 0xff39e175da27364eU, 0xd531ef0617f604bbU, 0x2da92ad6cbe14034U,
  0xede8e9031ae3340dU, 0x23b141030533fee7U, 0x33f013bdfc2c0d65U, 0x1f7f26bab46ac041U,
  0xc8f34013ee3d08c6U, 0xd01fc12b9b1f97fU, 0x2e2d39df2516501cU, 0xe016094b28e7192fU,
  0x2fe1f0ee1e19e1d0U, 0x6d90b1a1a82c310U, 0xc73cd93b1ce603f6U, 0x2d4806ecfe10142bU,
  0x3138d8f5445ca225U, 0x6e25512bfb07d710U, 0xa62ab6e781fd8f29U, 0x7a1d2820fbff9ddU,
  0xc650fe1ab4164710U, 0xea75b39faea4c96U, 0xeec9abcef42a411eU, 0x12162720aeecfccdU,
  0xfdfc02103dd6f4f4U, 0xc8e710f1e339e8f9U, 0xdc432bf919ed90efU, 0xefa4049412dae910U,
  0xcb3722131e1b211aU, 0xe216acf9a2fa3a81U, 0xf49721ddd8edd811U, 0xd1fb0ff9deee09e0U,
  0xdce3ed2040d809c4U, 0xe8080e082dd4f302U, 0xdb2bd23ef6cbc1d4U, 0x30fba3b9170b1944U,
  0x398ef01e7140e26U, 0x29e00f35e22ccd81U, 0xc421f1fbbf10101aU, 0xb938fdecbddce50cU,
  0xe01131f412f932e9U, 0xfdbbc1f51636e535U, 0xde16053c22ad01f5U, 0xf824231c2c323af7U,
  0x32041dc61ff0d805U, 0x163e05de37160635U, 0xd407fd1d2939fcb9U, 0x275f30df0ed7eb7fU,
  0xf71418edf61b070bU, 0x7edfdfbf417dfdaU, 0x811dcf1aefb8010dU, 0x1aaa09d0fcdddffbU,
  0x71bcb08dc0afbd3U, 0xbc737e8d7e413e7U, 0xc922a4fb25fa1ffdU, 0xbc1b07d9f32be3bcU,
  0x2d01ff036a32dc08U, 0xf8d72fc8bebff181U, 0xe959c957ed2f1c13U, 0x57050709e823e904U,
  0xc02e7e2c73a22cfU, 0x22f0e2a8eec8f92fU, 0x3dff6fad30ff212U, 0xaefcae15c8ff3eU,
  0x1f09321e15e8c52aU, 0x5050c02cc5013c5U, 0xdbd8ee24ecd6060dU, 0xdc23f3ed941eb3afU,
  0xe941eae796a856bfU, 0xd123309703c32df6U, 0xfdf5d7ebe715c5fcU, 0x30e70d81122cdff8U,
  0xd2060026067d282eU, 0x1006360e38922468U, 0x16be032b54d5ef6bU, 0x421e7f0cf80318e8U,
  0x42bd295108f2020cU, 0x16e57513de2eb2d9U, 0xcc43ee1330de5e18U, 0xe15f20608683bf2U,
  0x7ed18f8d2f0ae32U, 0x1dc1f54720971738U, 0xd728ff31b7000010U, 0xc2baf21838c6f006U,
  0xf58101daf81fc4ecU, 0xd3ec261a1f150140U, 0x103dd2033ce6dd24U, 0x3419f723c9fcf4b1U,
  0xccd4ffe820b32aeaU, 0x722eb10da63d323U, 0x302ccb46b8990efeU, 0x4c33452eb2122ae4U,
  0x1f55eceb1011f6d8U, 0x4b460aedf44d3739U, 0xde125e25135ccacbU, 0x26412c754200b7fU,
  0xfffffa63fffffd6fU, 0xfffffc0b00000497U, 0xfffff03afffff687U, 0xfffff6aefffff701U,
  0xfffff26efffff8a2U, 0xfffffaf200000115U, 0xab00000987U, 0xfffff561fffffc09U,
  0xbfd24cb2400f4edU, 0x5fdd805d4e4190cU, 0x1008e0bd0c152719U, 0xaccc2f2f5a63300U,
  0xf0e40ede070ef508U, 0x50bf8f5d8cb3516U, 0xa0006d5f717f719U, 0xf4d4a904f5811d1dU,
  0xc09d6c5df1a2016U, 0x228ac71cf0a223fbU, 0x1d06f8d81209f613U, 0xaeeba00d9d51c0cU,
  0xe6e6ecb5ea1f1bf4U, 0x1ee3b902f5e62f09U, 0xfdecddc5cb110f05U, 0x19a49bfef1f733faU,
  0xe0fcf1bbe816ede6U, 0xf2e90c041e2618U, 0xef16a916cc01f701U, 0x9a235f2b5b6ffebU,
  0x11b7c4eff000caefU, 0xc49bc0810737e83bU, 0x27acd3dce0cb9c05U, 0xdf97f1dda3dbd00dU,
  0x9cd2f8fe38da2cddU, 0xe7a81eaee4e4f106U, 0xd4b61da7d7c2a0fcU, 0xed94c1ad9fb611f4U,
  0xe812ccddf1bc9239U, 0xc0b7d388b5e721d4U, 0xbba8beee0cef06d6U, 0xc6ced5b3c8ffb119U,
  0xddaf07eed2e2e3f4U, 0xc3abaf0da3fae50cU, 0xb38ebbe0e5beb716U, 0xebdade3d5e51ddbU,
  0xb15321d21f229d4U, 0xa8e9f81c159ee406U, 0xf405061ddbf90efcU, 0xac0ce912cdbe02f4U,
  0x9f3f0fbe0f31a17U, 0x9113c4dfbfe3c005U, 0x607ee14d3c9e9dfU, 0xb7ed080c06b006d3U,
  0xf3ffdb15dedaf4f3U, 0x9d0b02f3c1cb14faU, 0xff1f50dddfe0922U, 0xa616cbe0c3f8b307U,
  0xea1eda2cf8b2e2f7U, 0x81fb1e23f4c6e4dcU, 0xf8f2ed0d03d9f80bU, 0xa1f90717e1c7eeebU,
  0x14fbf71715f10719U, 0x9710f9e6d7e8d10dU, 0x172a1a15cde40122U, 0xdf12b3c5c1d0fb02U,
  0x130afb0ca8c9d1beU, 0xbc2802bebe04fa14U, 0xe2e90c038ee5ed0eU, 0xf919f7dfdc141ee7U,
  0xfa01011181f4ec1dU, 0x1ee8affcdddeeeU, 0xe9d62b0986dce11eU, 0xdc0ef8c1f2dccaf7U,
  0xf9d33efac10e2633U, 0x161af3f617040dd1U, 0xc1d7111addf04511U, 0x47f2f0ff2ab9cafdU,
  0xf3e4ee011d0f4a31U, 0x4ee1e5f934eccefaU, 0xf2f10c132025172bU, 0x4105f41b15fb1bdaU,
  0xd8ea9921bce50107U, 0x7d41b1ae458e0a8U, 0xe116930e97de201fU, 0x2d10e9f8ea3af8e2U,
  0x20d9ff5c2e91c16U, 0xfb1edfbfc53d9dcU, 0xbf6811399b7eb1eU, 0x489d0f3ea19c8b1U,
  0x24028e169898ec26U, 0x1eaeccf7f712d506U, 0x1a12f903e1bf17faU, 0x79cd404f816daeeU,
  0x170fbe18a2e11402U, 0x2082dafbf333e9dfU, 0x1d13cd0cecd01f2eU, 0x23a0cd0bdd07cefaU,
  0x241fe2e10ed10c3fU, 0x2797afff0220e9f9U, 0x1a04198102fbf938U, 0xfef62700cddffaf1U,
  0xfe00f09f110df718U, 0xcfa1605a8e8e7a9U, 0x2eabbbbea0efd25U, 0x12e81efbc6fcf793U,
  0xeae2e48be712ff0bU, 0xfd272118bcdad7bfU, 0xd8ddcfb0f100f011U, 0xdc280701cbe3dfb0U,
  0x10cbcd990319e80dU, 0xf1fd0e0301edd5ceU, 0xf0d1d9aade03f526U, 0xcf2fd18e8b3deabU,
  0xd4acbf850bfe110eU, 0x215f907f2abe1c1U, 0x3dfd998ff20fd13U, 0xde7151909cecfaeU,
  0xf2b030d1cdbee09eU, 0x20109b9c2a0906c7U, 0xc3d4d299f5d7fae8U, 0xa105d8e1f1e23cccU,
  0xf7ec1e0ad7c2cc00U, 0xb0b2b312230ac5a3U, 0xf628ef2b3618b1ccU, 0x2a0ac022091cc623U,
  0xb00cd1d7f4bfb21eU, 0xb2a21ac20809a8abU, 0xd81b0aa400fc31dfU, 0x271ed2e085b4bcc1U,
  0xac2c8bb0ed0802dbU, 0xa49c1faddd040211U, 0xcd110901d5efaf1aU, 0xb4ffb10ab386e422U,
  0xfacdc39bd00bcd07U, 0x81fc1eb629eefb2fU, 0xf4f1e3e0fbe7e1f7U, 0xd713deb3c0061e08U,
  0x814eeeedcfa132dU, 0x22f3b79bc2c5ffebU, 0xf738effbb2f10c0bU, 0x21cceee2e7d4dfdbU,
  0xe6d8ffd8f9d4bae6U, 0x8113dfa1e925f80aU, 0x340703ba00d1ce0eU, 0x8f3d09dc2f7f215U,
  0x142df4efd6040c21U, 0x1dd08051aeeff08U, 0xee0c09c406e1c1c0U, 0xb0fc21c8cd21fb08U,
  0x111ceddb08f0e92dU, 0x517ecb6d104e4fbU, 0xd43fbdfd8fb1c1cU, 0x6b5f8202a0e00f1U,
  0x4c25b799deea1269U, 0x56e2dfcd060c518fU, 0x2df6c0abcaf7fd4fU, 0x54eff6f4f8fa48e0U,
  0x4c36cad7e7e80e53U, 0x3be20815de4e16a4U, 0x1dff2ad758e2f80eU, 0x13c6bce21132f1f3U,
  0xfe19e1233ee0d204U, 0x3f0ded0f050fe00U, 0xfa10f5000e14c1b0U, 0xf6e0fbc1fe7f1102U,
  0xb2edf2cb17ef078fU, 0xd6b808a80cee35d3U, 0xe1f8dbd029fd23b7U, 0xacabd7d32ae632c7U,
  0xdbdaff0b0a01fe95U, 0xd4e60090ed2f22e6U, 0xef48eadfa0a2d302U, 0xb70af6b2f230d1eaU,
  0xd239f90e8195eedeU, 0xe4d50eb72037f0cbU, 0xf82cf9f5a2eff1e8U, 0xdcfde0f11216dffbU,
  0xed3312ddf2e6f109U, 0xd3c2e8e0d8ef09edU, 0xb1ecffef93bef4bdU, 0xdfd7fed4f11c14e9U,
  0xf81afa15c7e6f114U, 0x705dfe6f7100dd4U, 0x112119c30bf223faU, 0xeaebdd0d01d4d9f2U,
  0xfaf7f2c204f41bU, 0x16f01fdde50a2b1bU, 0xe207fcfde5f7df32U, 0x81225e2c6d421f6U,
  0x22e4b2b0feaf9bf0U, 0x9df9cddce4592107U, 0xb8ccd9cde1e1afffU, 0xe6078e13333c02afU,
  0x51ffd1cdec3b9ccU, 0xd1ebefe73315039cU, 0xffe3a2d7c2b7adceU, 0x4eecfefbbd13a203U,
  0xd2b3e3aa08c7dfccU, 0xe4b681cb4c43b7aaU, 0xab12aadc36fdd295U, 0xdab3d3acc1e126a0U,
  0xb50692cbaee7db65U, 0x4a96eace12c6dfffU, 0xa7b2a51cfa0eb6b0U, 0xe2d5eadc21e01bb1U,
  0xe80708d944f3fdd0U, 0xb5b9bca7bfe9f92dU, 0xd3d8fd0e33070df5U, 0xeae22a93c2ed1205U,
  0xefcffcfcf6fb1418U, 0xdaed38aca6cc06d5U, 0xf5cce8fff8e20f07U, 0xc10a2489d7f0eacfU,
  0xbfafbf104ff10ceU, 0xe5e93ba70d14ee05U, 0xeefc0ae2ec0df8dbU, 0xd4f01ebb1cdaeb08U,
  0xe9f7d30bdae60ee2U, 0xd616269312eee0e1U, 0xeaece6fa0fe2c2c7U, 0xa10118a20812a506U,
  0xd3e0eae905def200U, 0x810117ca16e0bc0aU, 0xdfeff700dacbe5dbU, 0x9f0324affde8c006U,
  0xe6d0cd8ca5e7fd56U, 0xc7c9dce5db35eeU, 0xe98ee89ea0f70d26U, 0x1c9df5f6f3f54ce0U,
  0xc98118c4a21afb07U, 0x11a501c6e82c26bfU, 0xebf1ecc9ef8f412U, 0xf8c210d9ed2422feU,
  0x1a9726f7c31711f4U, 0xfdd11f25df251f00U, 0xe7a62f0ec615fdfdU, 0xf4c713b3a83bf8eaU,
  0xfcab02f5ed0c05e5U, 0xe2d609c1ae2b3f02U, 0x1ec4000f919efd9U, 0xf6e405eeab033814U,
  0xebbc3b04e7fbf0b0U, 0xe2100ab7bd2209f6U, 0xad99f1fedfebe650U, 0x9230d88ab0ed80aU,
  0xb894f002f1ddde1fU, 0xf02d1aa19f25b21aU, 0xb7aa02f9de160ef2U, 0xe14258faa1881e7U,
  0xc191fafdde0fbc44U, 0xac1f1c9ee93aba13U, 0xeda214fc00e6cefeU, 0xd00b04a6fc46ca27U,
  0xcbc208f8ef0b01f0U, 0xed1803aeef23a2fcU, 0xc78a01eee8e7960dU, 0x8e2912a8d06e9709U,
  0xd2920303e70cebe9U, 0xf913f2c4e75ca505U, 0xa4b8f600d226feddU, 0xf5fb0baabe3ea902U,
  0xe11bd433dcf419c9U, 0x30f10cdd7f116e5U, 0xbc25f450d7c7f3d2U, 0xd6ff09db92e901d7U,
  0xbf2fe21d1bdeeb11U, 0xc509ecefa5ecf5ddU, 0x533fdecccedf5f5U, 0x1fdc01cd15040909U,
  0xf00fcef4ddd6ed01U, 0x5e81d81ee16f3faU, 0xce26fae00cd7ed40U, 0xf023fad1eb16e920U,
  0x22626dfb1f8f19cU, 0x13cb0fb3f4021feeU, 0xf3fcd0d3811f04b5U, 0xf4c11d8a0708f6fcU,
  0xcf0c0ed2c1f5f7fdU, 0xdc070fc6e8132534U, 0xdefd0621f0b1ce1dU, 0x212bd0b0a588e6cbU,
  0xedf002fae90ae81eU, 0xd6f9b6a8dbf301e8U, 0xcc0c09d6eac2bee0U, 0xecdafd81d7e105f7U,
  0xfd091027d8bcf113U, 0x2911bae8a0a3dd10U, 0xe4cfd5d6cdcdcd2aU, 0xfc18e7c4f80f05faU,
  0xfffdefd307b9e3bfU, 0xd4ebe6b6ecfdfbe3U, 0xede8e53210cad542U, 0x33e3d2fb8db2f1e1U,
  0xf9ece901ebebdad3U, 0xd5eccdb3c7e7fa0bU, 0xf12e3e8ffc0e8ccU, 0xf6fbd6aaf60f1e0eU,
  0xcfd91227db06bf08U, 0xe7fffce5de9bb2e8U, 0xf7cf1009efeebe1aU, 0x101b30ca19dd6eaU,
  0x10a20f23ebe3cc8dU, 0xd70816badcfff5ddU, 0x43c5031be80701fcU, 0xd809b4ff0bb1c7e9U,
  0xba4ee09ceebec18U, 0xf3e7850013aed5b7U, 0xe1a20005e1e9d8b8U, 0x22af9d8f7ffdcddU,
  0x7d7010c101b22e8U, 0xa02b52722bdb30dU, 0xf8baf4e0131003b7U, 0xf60781fd2b0acfdfU,
  0xcab01fd01fbba90U, 0xeb25e7e72628dafaU, 0x7d4dbabe224241cU, 0x230ddfc0ddefd206U,
  0x210ef5d2f2f50d31U, 0x102cdf8defdc2f0U, 0xe1be2d19eb1d2bffU, 0x35e737e3fdefeca9U,
  0xe1fae2c8ce0af6f7U, 0xeb00169af60ccfeaU, 0x803bec9d793c50cU, 0xa92123a1ed2bd5eaU,
  0xffdf09f8b2022512U, 0x6fc28e5fe15f0d0U, 0xe21ac7deaceafe2aU, 0xe7f1e20123f6e7daU,
  0x1722b0cae581a419U, 0xc6e4aa2d2d2fdaf7U, 0x3b2310e6abbcfb09U, 0x1fcaf51b361d05e8U,
  0xcfc7def30ca89805U, 0xf511f996d1120ef0U, 0x1527c2cbbffdeff2U, 0xb5deddaee6e7d9c7U,
  0x10d4fc09cff4d918U, 0xf5dcc60cf54bf2ecU, 0x1205f09617adb8f7U, 0x1b6c7b92a2ae70bU,
  0xf12d0ce4f4c8d328U, 0x2f0912222f2dedc0U, 0xd5cd00d7c009f5d9U, 0xc7eacdba2929e1f8U,
  0xfabdda9be4c5dfa6U, 0xdfe0819eba08e0dbU, 0xceca0102f4e2c4c5U, 0x17d5d3af13e3fc19U,
  0xc7eb0f0edfabe7f1U, 0xf3f837a70d21ebf5U, 0xf91b321ef8fde3e8U, 0xdc109081e1a64ffcU,
  0xe8151323d4ebe192U, 0xeb04d5860ec12b02U, 0xb6d64506a90e12b6U, 0x14f8c29c01fe3ab5U,
  0xc9123532d20de7ebU, 0xe01bca9d19b91d25U, 0xc0be3623aafde4e1U, 0x1410feaf1facfbb9U,
  0xb1a03e0cd011ebdfU, 0x1e1edaaad2cb37e4U, 0xd6cd271de8f90cceU, 0x15e4d6e53196f8bbU,
  0xbe82fa19ee2422edU, 0x16e3ef20f0c4e7c2U, 0xa59c061dee021407U, 0xfef0f1f290d021d1U,
  0xd3b60e23ff9d9cdeU, 0x13241615a6e00ca6U, 0xc8a9120fc99081c0U, 0xdf14fa0bc307e992U,
  0xc390260fdeef8eabU, 0xe3130ef5c00bc587U, 0x4c60e0af3a38310U, 0x9190505e5f1e5d7U,
  0xf0dc0bfef5819bfcU, 0x21130501f90e02e6U, 0xd4952306d9f0b8daU, 0x3200f1fee20dfdbaU,
  0xfab302d22afb3d5U, 0x70711f2df16e9d6U, 0xfea05611c1bafcd7U, 0x221d0307110909dbU,
  0xd88c431ab8efedb5U, 0x2e1c0be7dff816b3U, 0xfade0af6e70de0d9U, 0x13f70b03f51b20f5U,
  0xd80200fbdaf2d1b6U, 0xda1b26ebdb1c0ad9U, 0xd7f4020bff04bf81U, 0xec0c49f4eb3725d8U,
  0x2df003c5080edefdU, 0xfde3c0fa101010faU, 0xff06e8e1ecffcdceU, 0x13e9cdf810200fd2U,
  0x2f7f1f4f40ddccfU, 0x1ff1e041222edd3U, 0x210304f1ece8c611U, 0xc3bc020b2c2bf3U,
  0xfaf7f7e0e4f5eb0dU, 0x5ddf715fe1203d4U, 0xf4120207db06f400U, 0xb0623142e0801d7U,
  0xdad1c626c199f4faU, 0xe9883b60e76d121U, 0x190cf5de8bfae006U, 0xa3818e85e729caf3U,
  0xe786a7c7b0d1d28fU, 0xe7e4be9bf9e7acbaU, 0x2231dedbc500c310U, 0x6addfe9d143afb2U,
  0x1ef4d8fdedcfad36U, 0x59992d390158e17U, 0x9dd2e8a2c1bd8fd1U, 0xa8bda4b3bfa7bfb2U,
  0xfbcfdfe2a2bcf10bU, 0x2bd598fcc6ffa8f3U, 0x19e3eefdafd7bb32U, 0xe9a8d315bf05f3d3U,
  0xa0b5ccbe09de8df1U, 0xccaacaeffc97a3e5U, 0x8ff08e21ded0d05U, 0xf4eddddeaca21b0bU,
  0x160bf3ec11011716U, 0xdf6cb97b9a519f7U, 0xee0bf9f0fcec17f4U, 0xfcebdcf901cb0007U,
  0xeae1f1da00eb0f15U, 0xfdfacfd8bfab0a05U, 0x301e8d1e2e00b05U, 0x14d4f287e1c518e8U,
  0xfd1bf9faddf31ce6U, 0xfff4fee414e80008U, 0xfafff3fb05f91cf8U, 0x7f7d1c2079012f6U,
  0x61debe6def42e04U, 0xdf1dc81248b1de0U, 0xec10e709ddee22f1U, 0xf9f4fee436c515e7U,
  0xdaffeaedf3e4e607U, 0x1b01e90beaf9fd1aU, 0x3201edc00cc70826U, 0x1b84c50416d7dfeeU,
  0x9dffcbfdf6d4f1b5U, 0xf9d0d8eafaf5b99fU, 0x280706bbf4fa0d11U, 0x1c17bf37f9f82a17U,
  0x5521f49bf7c6ed5fU, 0x21b181311cdaeef9U, 0xf02bbe3e2f2ffebU, 0xe7dca31408e4d6f4U,
  0xe81327e506e7fef0U, 0xa0ab62024e90014U, 0x41dfad80bf2fbcfU, 0xc970508dbd8f9U,
  0xae0bf41d22e9de9cU, 0xeb1ad31f1d0acfffU, 0xf04dcc2ea081604U, 0xdbfdad7ff02ebf0U,
  0x160cddc3d2eb2231U, 0x10a4c3fbe7f2e800U, 0x7fbda8bd1021100U, 0x3adc8f1ffd4e0ebU,
  0xfbfbf18ad500ff14U, 0xf9e6eef2efcadae7U, 0xb1ee1a6a105fffeU, 0xf2bfdf02e8e0e2cbU,
  0xe50ceb9dc50412e1U, 0x9d3fedb1ccdda02U, 0xe3e21181e3190012U, 0x9b3f60603abddd7U,
  0x7fafab0bd12101bU, 0x7afed0a019fe0d9U, 0x15fbf9b4a7091503U, 0xeef07eb1fe9d5e8U,
  0xe3b4b6da240111cfU, 0xcd735d6f6c9131dU, 0x1cbccbdd250d1bfaU, 0xfdd22aece28fbfedU,
  0xefcdc1feecf00feaU, 0x1eee50b7c58ccbceU, 0x30aac0dff5131234U, 0x2b0522e82308f703U,
  0xfdfdd5fff808e44dU, 0xd072e0c221db818U, 0xc7b0bef5ef0ffb18U, 0x2f1d3f961cc7f6bbU,
  0xf1cebb16f705c1f9U, 0xf3120d08f540ea0bU, 0xedc4cc2ce5cbb2dcU, 0xd8172b0213fec2f5U,
  0xd881d113afdaa0eaU, 0xf3fa43eaeecdd0d0U, 0x10320c2ed1e1b7d0U, 0x46ed25051422d6d6U,
  0xfb1929f383a2e8U, 0xe9070e88b33acd18U, 0x25df18d3ed99dfccU, 0x91aded1b411df1eU,
  0xe91b03e3f697dceaU, 0x1804c4c013e0c105U, 0xd050035dcc3b9ebU, 0xaff5a7f7b447a905U,
  0xfad51fe7edd8d4ebU, 0xf505f0aecfeced10U, 0xe7f40de8ea81e318U, 0x5edcdd0c8e70c19U,
  0xafc1ffd02a0be10U, 0xcb1a079c8452d4f2U, 0x16eaf304e8cdec17U, 0x1c0efa869f201d0aU,
  0x70bd2e1ead7f71cU, 0xf503f01905f8c5e6U, 0xfa02f1f5a7f2f817U, 0xee080413ff06d2eaU,
  0xf30cdaf5b1edfd21U, 0xf6e7f92c0deac8d2U, 0xe1daeef705f608feU, 0xf7060a11faf6d2fdU,
  0xbfdde7fbc703fef1U, 0x1d1801cefdb2d0U, 0xe0e5e3050c0f01f2U, 0xd141d24d1e5b8ceU,
  0xfbee03f2f30bf828U, 0xf911f105ead0d6e4U, 0xeadefaff81ff0414U, 0xfe210a07cefdcad5U,
  0xdd03f900f1ff0b03U, 0x11ee011edcc8cdd0U, 0xc3ccfd9bff17f530U, 0xfae4ab02257ddce4U,
  0xb1dc0395bf251d25U, 0x13fd191f0a32d5f2U, 0x8b9d22a4f11ff91dU, 0x14fae40ffb78da0aU,
  0xdfcee1d1d4e5e221U, 0xebe4dd11eb33c712U, 0xbbd20ce68127f1f2U, 0xb10d5d6ec22acd4U,
  0x9695deb9b52b15ecU, 0x2bf4ebf8fe2afef0U, 0xe2b3c09c07e00f0fU, 0x3ceefd4e3fad7f9U,
  0xd48509a8e31b210fU, 0x27d6f0ba1dccd1fdU, 0xe8b90298ba190e0aU, 0x26ced2f31825f0fcU,
  0xcbd6a6e6eec7db0dU, 0xb19419b2f7108bf3U, 0x1df68f8dfeaa01b9U, 0xdba632c8d23e04abU,
  0x98f5d81d44f2e2f2U, 0xbea9bdc508ab143bU, 0xc28f0797f006bbefU, 0x911321e223ca0ddfU,
  0xfb05cc07f81af01fU, 0xbcce880caad2b4e6U, 0x9525a1fc1eef93e7U, 0xb894d90d24faadafU,
  0xe134f32c04f5daebU, 0x9cd3a4d8d9ebb3d0U, 0xbcaba134e127fd40U, 0x9ea9d4f11046b7dfU,
  0xddac0c810085e999U, 0x22f0b0cba93b09b5U, 0x1af2fe8e2be3b4e7U, 0xe3d5cea93e385a31U,
  0x1ff0c8522f9a7c5U, 0xe2cac9d92c44fd3aU, 0xe50a0da40ecbb4b2U, 0xb5cbd6ad5753085cU,
  0xaf0800f7dc1129eeU, 0x2eb324c40d285bddU, 0xd1210c1181f620b0U, 0xfae14cac482e2f02U,
  0xed22200ddf0b22b6U, 0x1ef3008523571ef2U, 0xd4bbdce9dd1608d5U, 0x19dd0cf4e62817e1U,
  0xbce6b510922e02d7U, 0x3c1720ec144448f2U, 0xddfacf1bb50811ccU, 0x3c0b10f6044b37f2U,
  0xf1ce27ecd1f30bddU, 0xf5973bc8c5e32cf8U, 0xc9d223e5c3d507e8U, 0xf6bc2cedccf917fbU,
  0xc2bcc8f1f0e9abcbU, 0xcbd4ece9ef280faaU, 0xf3f20fdb8e1cfdeeU, 0x1cbfddb6bef60202U,
  0xf2ee2bd1b00802e6U, 0x58e07deb0f60de7U, 0xe5afede3dcfcc6caU, 0xbe97d1ced20419cbU,
  0x1bc71281eee1d5e9U, 0x9e2f1ccd4070e02U, 0xd2c5f2a1d3ebfae4U, 0xf4d4daabe3d51cfdU,
  0xb6c2ef98f506b9b9U, 0xec988c8fac05f5faU, 0x2cd7be141015fa44U, 0x2fce20f61313eebeU,
  0x4c1ba411e229251fU, 0x5ac218081cd5eec6U, 0x370bbe2581180f32U, 0x58dc1cf210f81199U,
  0xf619cf030e0d0dfdU, 0x900f3f30d3205feU, 0xea18e62a0e1af5e8U, 0x3ed50ff9eb25d11dU,
  0x920cb18e30fecddU, 0x28c139eee5f600dbU, 0xdac6c11803f0e1dbU, 0xd132e587fa2206feU,
  0xa8f1e827fb05f2b3U, 0xecd8e6cdfcd70ad7U, 0xa0ceca31b5ff15afU, 0xdeeae6bdecd8e0dfU,
  0xe0de412ede92a23U, 0xbee2d0280ae3d6f4U, 0x61116ebe907fad0U, 0x91d4f405da09c8ecU,
  0x13131515fc03ec01U, 0x81e7d7d1c7e2cc19U, 0xf330bb2fc1b1cd08U, 0xcfd7fb310ee1c4c3U,
  0xf7f1edfc0bfafbe2U, 0xc1031a07bb9fbdf7U, 0xf41eca33e1d60626U, 0xa926cbb8b8c2c2f9U,
  0xdf1dc533bdbdfa19U, 0xf9fc0b04fad7efa4U, 0xe4e8f40d050e05fcU, 0xcdf20401d4b802ceU,
  0xe2fcda2ee4cffd2cU, 0x99ff09a0879e04ebU, 0x89adac8196edead0U, 0xdca4dfd1a4e80cb2U,
  0xb7e0d8a68af0d5f2U, 0x2c500dddadefac6U, 0xc6f6efe59903d524U, 0xeb0de6fc0c0bfb29U,
  0xb3ceeebdaa11f605U, 0xeee7fcc1e3012fd9U, 0xdaf80c17fcfb0247U, 0xf3ff13ee0218250dU,
  0x1241616d90ce01dU, 0x82a12f62e451341U, 0xe6e8e6dcddfceae2U, 0x1cf1bd4d71627dbU,
  0xe5191f17bafef40dU, 0xf8fa0600011d38f5U, 0x14340b20e7edd10dU, 0x1121ff0a17270d27U,
  0xd018cd07f9ea07d0U, 0xcc83ba342b0900f1U, 0xd6def80ffdd7ffcdU, 0xa102ff28e917c6d9U,
  0xd705ff18ef22e4d4U, 0xd61cf8f7ed30db0aU, 0xe2f1e01c03ec16a7U, 0xbba4ad27feeee181U,
  0xcbe1b80bd4d0f2caU, 0xd227e4c0c9339511U, 0xff723e0161edb26U, 0xda16e3dfd0f1fa27U,
  0xf4009918a0b2f1d0U, 0xcb09bacd0436e1f3U, 0xe3dad8f8ae09a825U, 0xdb0006eee318e529U,
  0x4b2227c62b00cb2bU, 0xd5f5a3fedadc1428U, 0x835c116ded41f2cU, 0xfbc0bdf9f7e31ddaU,
  0xe615f311ebe1f0c2U, 0xa6f7c18ce0c31a05U, 0xe6161613c5e7ccceU, 0xbddc15930800fecbU,
  0xbf2e9e5c9dc1923U, 0xef06d2d2d9de270bU, 0x10f0d9f7bfe71533U, 0xfa0cf681b5eb25f6U,
  0xccfafdcefee607e9U, 0xf2e70ea5f5210ce0U, 0xc9e8f200c3fefb2dU, 0x2416fd21db32fcd5U,
  0xc902f9a90b06ee1eU, 0x9e01a05b519fff7U, 0x1f200c9c7eff830U, 0x201dfb03be1c03ebU,
  0x16dec2ad0be3be03U, 0xa735fabce3b3c994U, 0xa392d801b9928ab0U, 0xd5f4a8cbadcafeb2U,
  0xe2bff0aed5f09dbaU, 0xd1d589a8efe423e5U, 0xaeec6f0080ccaf4U, 0xce7852503b4dd1aU,
  0xeae5c1231e2cfee9U, 0x8ddf8053319c70cU, 0xe03a0351a3a7d902U, 0xe697ab25eff8e62fU,
  0xa7eb0ee346dc16d3U, 0xebb6cc0af4dadc48U, 0x819ec8effa1bb6d3U, 0xcd1cf9dc15d0d7e9U,
  0xcf07f736050ae416U, 0xdcfea034d4eda583U, 0xc3a1a5bdd09ad022U, 0xd8e000ccb60400c4U,
  0xeba8f90af9d3d5dbU, 0x9af5f7febb4300e8U, 0xcbc6900b1cddeadbU, 0xcdcfa303d646dca8U,
  0xde8d970e08c3d401U, 0xbef4b9c90020df95U, 0xc4dfa821e8870a8dU, 0x8b3808d2ea4aa1a1U,
  0xcef0e0b881bad8a7U, 0xcfb2f6ba1132c9bbU, 0xa2a7d0cdf2c1a9fcU, 0xcf411ba6a33b12efU,
  0xff90d5c1eeff20eeU, 0x420ebcc1e60745d0U, 0xc0cbeee5b603f2f9U, 0xe4a2d0d7a6ea5411U,
  0xe3e8cf02f2ea0b14U, 0x18a90803e5310bfbU, 0x26e0dce61d08101aU, 0xb9cebf6f5f50c06U,
  0xece9030dfbe603f6U, 0x22e8efe2df0f220cU, 0xb0ecef4dbebfb08U, 0x1793d106f90818e5U,
  0x52fcbaf81cef0a20U, 0xfe81bb1bead816ebU, 0x2714e7080ed2f905U, 0x2fbdadeebf81608U,
  0x1f1f30ded1514baU, 0xfdb403e30b19131bU, 0xf6fac0011ff201d5U, 0xf5a3d9f9facb21f8U,
  0x1edce90f0001fbbdU, 0xf20107c9dbde380aU, 0xeedef5a00d1f160dU, 0x88db6d58cbb00deU,
  0xd2d5dea0b718042eU, 0xfe8aef13b9b818cfU, 0xd0a9db9dc4f2cef3U, 0xdfe5e4a2ede1fbU,
  0xd4e9a68cf103e9caU, 0xc790e9dcbd0207d3U, 0xe1b9acc2a820f2e0U, 0xf3c1f7f2d3caf1c9U,
  0x887a6a1e80603f0U, 0xfbc90ae2a5ccd5f0U, 0xc5e2b8c9a70edaa2U, 0xdb90eed79d0dd59bU,
  0xe3dac7b2b10baccdU, 0xc9a5dce4c7e7dfcbU, 0xf4e0c9ace402e9cbU, 0xe7cef0ce81f40cfcU,
  0xff050724bae9fa10U, 0xb5d897ffd6b0fedbU, 0xe3eef1d2d62b14d9U, 0xe9cda20b19cb01ccU,
  0xba22fdfbf80507bfU, 0x2bfea9f34da110c8U, 0xd1c404d4cfcacdf3U, 0xda16caa99805f9f0U,
  0xeb08f4f2f9ebdaebU, 0xcbf0d7b8a1b6e915U, 0xece6ead9acf71beeU, 0xff07b299d0c0d0f2U,
  0xf2f2250613c9eb19U, 0x9efdf1d59cf5ed15U, 0xfffedaaa00c6b8edU, 0x81f1c5dbe4d30af2U,
  0x19dd08caf7a7bbb0U, 0xcb26c9e5c4c4f50dU, 0x15eb31be00fcf890U, 0x7110b81050a412dU,
  0xde836e9180813b8U, 0xf7130293fb163737U, 0x201110ce35e9eda5U, 0x32ecba200422d52U,
  0xcdce169fe60e1f9eU, 0x1bf020a7bdfa38f9U, 0xdbeffbceda0812d0U, 0x9f91bcfc50524d6U,
  0xfede00c70bf00ecaU, 0xf217f2c8b011082aU, 0xc2a6ebc0cb08ffb6U, 0x3def8be9fe32de6U,
  0x8ea9e2b0c1fbeccdU, 0xdc6fdb896fc15dcU, 0xcbc7d5b4def7eda6U, 0x17fbe4ddacfa0c03U,
  0x15b0ecfb819f0c02U, 0xfa1e99919c51ae1U, 0xe6aef3d2e9190ae2U, 0xb4d90bbc3018b0daU,
  0x16b9e907c7eb9de5U, 0xe119d4b8e026a9a6U, 0xf391e2b996e9d3cfU, 0xdef8dfe3d1d2fbc2U,
  0xf6e3f3ff03daece9U, 0xbac110a8e1132ec2U, 0xc6d2fdf6adedf5c6U, 0xe1b2ebdee7d59eb7U,
  0xbad4a1e4ddee06dcU, 0xaecacaebb8dcc8c3U, 0x259cf301a0001414U, 0xf6e3f1d2cb2500cfU,
  0xe3d3d4f4fb17d318U, 0x8c08ef990be5bf0aU, 0xf5f1e61b08052238U, 0xf8dae5c8e5e4f2eeU,
  0xfb0bcbfbe5022f43U, 0x1bfbe7e007dd0906U, 0xf709fdd7dbf02124U, 0xf61310e80cf21c07U,
  0xeee6fd0a19fa1729U, 0xfdf2dcafe8f20a09U, 0xfffed6d4fd0a0e31U, 0x2c11fdd203081612U,
  0xfe0efbf6f6fdf1faU, 0xf612f7e1110906fbU, 0xd5f0f8fff7f3e5f0U, 0xf6fefb9a0221f6e8U,
  0xf1f2efe3f404fdf0U, 0xf0f5f681fe0c13fbU, 0xdce90300efe6e0cfU, 0xd32504b4fc1d0f06U,
  0xc22f7dce533de23U, 0xd1f4abef5340defaU, 0xfd11f5edfbfbdcc2U, 0xfb02fef41942e102U,
  0xee200c0ac9106407U, 0x31e5daee4212f50aU, 0x1ed05dfd6fac115U, 0xb0feec0f13f5d0ffU,
  0xe2dc0d15ef05818cU, 0x972607f7ea1ce820U, 0xd8fe13f1c3f900e0U, 0xdefe052a2c1f151dU,
  0xc2a0a14f4d5cd3cU, 0x1de5040a0d0fc413U, 0x205fa07d4b0aa0cU, 0xc721fc02ed27c524U,
  0xde3d1923bea2ec03U, 0xf013fc2a082bac23U, 0x20f9eef301a6bf14U, 0xe30dfb081909f6f8U,
  0x140af5f91681bffcU, 0x3f8f806fd0de8f7U, 0xfc1be60e03a3d20cU, 0xfa080305f906f9e7U,
  0xe203f304e4b0bbdaU, 0xf007f81101070be4U, 0xcef80bffefc1a9abU, 0xd80804ece7faf6cdU,
  0xdf04f900fef3b8c7U, 0xd8160604f20701e4U, 0xecf6f807f8f70421U, 0x3206071b07f5e7e8U,
  0xcf0cdb18edeffefbU, 0x22031300fcffeccfU, 0xf00be90ce7f3dfedU, 0x2e0f0f07e909f4d6U,
  0xcbe9de96c9aa9de9U, 0x91e5cbddb33518d2U, 0xcbb8f30fc142ffb5U, 0x39f1dbbbe11351a2U,
  0xaff3302dad063daeU, 0xaeef586dc1147faU, 0xb4d9eeea0fd1ecd8U, 0xa90ca48f0ce50205U,
  0xb9bcdde4bc0f230cU, 0xe3aecc00e84e25f3U, 0xd9bbe9c8dbdb1201U, 0xc1000de31af317e7U,
  0xdccdc1a9d5a5a403U, 0xbcf7adaf9afadddfU, 0x14f30b0627d3c5beU, 0xe4aa03dbcc051ae7U,
  0xeec6d8ff0cf9d99cU, 0xb8de3081a012d4f3U, 0xd1b91d14f1ea8121U, 0xf02f09c99f0becf7U,
  0xd6a912fdfaaf95a9U, 0xe9080ff2aa2ee6d0U, 0xd5943413c1c59ca9U, 0xe12419ca962dc1cfU,
  0xd9abfa25fac4940eU, 0x222ebd9ac0cded5U, 0xc3980815fcdca3bbU, 0x12fdf2e6ee32dde0U,
  0xccb11610a9daf6c6U, 0x27f916dbf732dfbbU, 0xf58521ecf8e4a32dU, 0x903e6d7c03ae8ebU,
  0xe7b121f3ebe5b9eeU, 0xf825fac2f130fe02U, 0xdaa63dffc308f7d1U, 0x21f805ddd938fbc4U,
  0xcd06e7270bed0918U, 0xabf008a5c0dbf3faU, 0xf2f1f3ffea09fc05U, 0xa4e1e197a2ccf9ffU,
  0xd1e006c8f8e5c3c7U, 0x1ae0eed194b20dd2U, 0xe703fc110bf11a1dU, 0xc305eda4c2fde8e0U,
  0xfbd308cd1405d2e4U, 0xadd7c0cfd9051901U, 0xe21308d207e2eacdU, 0x3d008e3d4ef1301U,
  0xd5f8fe1fea002913U, 0xdcda1081ed1c0fdfU, 0xf2eb08cde413f7dbU, 0xb2f8fe2cebf821ebU,
  0xee0303e502df0ee7U, 0x3d615e3c0f90ad1U, 0x20131160c1120d1U, 0x26beeaf4f621f0eeU,
  0x608d40cf10906e0U, 0x1b8fed150f48dcc6U, 0xebf7e40df219eecfU, 0xe8a7dc19120ef8f6U,
  0x33150bedeaf20c05U, 0x1281d317f306ea05U, 0x2914d42027e70a0fU, 0xe692fa0ff929c5eaU,
  0xed14e71e0af9d6c2U, 0xbd99d70ae806e6e3U, 0x1d192de3f8f3fef3U, 0xed8dcd0aed15d325U,
  0x1313e70feef4fcc9U, 0xff94f50febede9dbU, 0xeef010271804f2d1U, 0xe6abdcfbec07fdfeU,
  0x2839bf25d3c0d7e3U, 0xc40b95813f1b0904U, 0x3e2f11914eeedc6U, 0xd2fae1ff080c180fU,
  0x19e2f1de04fd0ad5U, 0x7dfeb00d4fd33d4U, 0x221ac21bb3afb80aU, 0xcadfeab81a2ff613U,
  0x7dcfc25e9241ce5U, 0x1fc91df1191c15f1U, 0x24ba0ff3dc0e2a0eU, 0x2dec2823fcb5438aU,
  0x2d15c919d0c9c216U, 0xd1daecd4cb3006e0U, 0xfaf1f021cd22f4eeU, 0x60bea220a191a00U,
  0xfad2f8d6f2320916U, 0x20f6fcf6d0c13bd1U, 0x3d130cb6aac9bcU, 0xe02105f01111da22U,
  0xc80cf5d58d0d1ce3U, 0xfdd4f8d51027fbd7U, 0x110ede8a2e7d4f5U, 0xb7efdef0f82206cbU,
  0xf43e1ff3c2dcf4d7U, 0xf434f01811de2a22U, 0xdb252be3a6090bd6U, 0x216c7e8f0280aU,
  0x130d02d18111e104U, 0xc7e5ebd8c72207deU, 0xfd0726fc0d040201U, 0x183cf2f912e10a36U,
  0xdffd33e8f5f7320eU, 0x3be9040509e62000U, 0xd3ebfed1be171b1aU, 0x6ee03e1c9f21ed9U,
  0xecdcc81fe404dcb1U, 0x81e18f13c1b1f5e5U, 0xf7f6eff3f1fbeee8U, 0xa6efaa09e1bfdff3U,
  0xe906ef0ee3fe2624U, 0xa519c8d6e2a7ff02U, 0xc01ef1cfb0ce5a7U, 0xa3f3e003c8a10a04U,
  0xf80be3270c161000U, 0xa3f0e40ecac9efd2U, 0xe50ede12d3011419U, 0xd31ccbebdddad50dU,
  0xf90402260103f8ccU, 0x8bf3ce05be9801e7U, 0xe207ef07f5fb0d12U, 0xafe3e209c8a1e4c9U,
  0xf814e81ee40a2e1bU, 0xbafcd8cde1b9f5feU, 0xfe0ded2ce3fd151aU, 0xd0161781d0ae0103U,
  0xf222d825d5da0f1cU, 0x2cf4038bdaf203fcU, 0xf41adb0bd61e5b2fU, 0x59f61bf020e81800U,
  0xc08fe0809f5f30cU, 0x85f81193afcdf31aU, 0x12150b05fbd4f9d3U, 0xfffc03aebff40d0eU,
  0xeb1e1bf1f8e9371eU, 0x331009dddb2cede0U, 0xfd051e17ece7153bU, 0xf60f00cacdf30305U,
  0x1614f0e80cc4f335U, 0x2cfbe5d6dc24f71bU, 0xf42801d7e1b5164eU, 0x51ca1abeda3de5faU,
  0xdb9cfae4f0c9a002U, 0xf281c2e1e0ed170bU, 0xfb6c5f3f19bbde6U, 0xb5d7cafe1b1ce8dcU,
  0x2b9a153fe32fec22U, 0x88d34ab0afc1901U, 0xa1a99f098aad97c0U, 0xd39ae8eaa1e5c5c6U,
  0xd2b30f92dee0b5dbU, 0xc3c2d7eec9e929d9U, 0xedadbd98b4c101c5U, 0x6ba9da7e73c08d9U,
  0xc8cdd306d2f9d598U, 0xa6aad3ced0ebecb3U, 0x9e9786f1c0f0b793U, 0xd6f0e8fcd841c7eaU,
  0xf3b88bb7d3c8e4b8U, 0x91cdedbfa121d48fU, 0xdfcb200f1c11dfd2U, 0x192939f3fd0addccU,
  0x81e2fc100bfbdec6U, 0xef1520050c21f3f3U, 0xdceace0b07f60606U, 0xfbf11c12231e01d4U,
  0xe3fc1bf5f909f403U, 0xf1ed0bfaf0f1d8d0U, 0xc4f7001012dcdec4U, 0xe7ffff1cf011ced2U,
  0x16eef5efeef3fd13U, 0xecc7f821061ef4ccU, 0x30004f6f3f51ee5U, 0x1add0ee4f41ee5ddU,
  0xdefae7fc00040fbfU, 0x8e3031701f9f7f1U, 0x22ffecddfeec09faU, 0x15c9ef0dfe0902d5U,
  0xb14e90cec0aeffbU, 0x7de1303c834a9ffU, 0x1d1aa0f681d5e912U, 0x1bccce21ca34b2bbU,
  0xf32c09e4e3e7e1fbU, 0xecca0e2a1049a4cfU, 0x3807ebdb0ee8f81bU, 0x8bed907f0fd9e26U,
  0x331e98c406dcf730U, 0x27cbb208e918bec8U, 0xef1916de2fe2fcfeU, 0xfdcd252bfb45b1dbU,
  0x1210efd00ad91713U, 0xec5b302ec03de1eU, 0x1b1c81e5d2c1f70dU, 0x1cc7b312e102dac8U,
  0xe309edfa02c3dcf2U, 0xaf4f70bfe18addeU, 0x2902bd062681ccfeU, 0xf9e4ecf11430f9ffU,
  0x1c0dc30c0c81c405U, 0xfc01e7022df3fcU, 0xf06ba1ce8c5eefbU, 0x2ce200050e2420f4U,
  0xff01ab1dd6aac0e4U, 0x2ee0303f81ee5e8U, 0xfef7bc08b3d1c1fcU, 0xef09fee2fd15fed5U,
  0xfafa8b15debfb8dcU, 0x7070901fc2200d8U, 0x10fea411f6dfe623U, 0x20000f180205f3b6U,
  0xa891ab9c9c912U, 0x170a040af316e7bdU, 0xc15811be4d6e00aU, 0x22f61c09ff09fccbU,
  0xb5cedbc2f5d8da16U, 0xe0d4bfe8ffc6eed1U, 0xcb08dadbf7ebc1f8U, 0xfdfbd81d1514d2b7U,
  0xe42ed00cdc012606U, 0x19e73c4ec8fda7U, 0xdcf0e9aef5cece09U, 0xdcf494e0f2b4eaecU,
  0x9a9d8fc2b1cac0ccU, 0xb801ca08eafbd0b2U, 0x8daac0e2c717fddeU, 0x250ce71123091681U,
  0x57ef10d34ac5d435U, 0x5d29dc42ebdb452U, 0xff0c2bdfe1e8bdf9U, 0xfae8b70df5102624U,
  0xfbc8f1b8231bd0f3U, 0x1413c2fbfe05e224U, 0x2d0bbdf5a1b9041bU, 0x28d8f9051d1724baU,
  0x112eb02c0bbf606U, 0x2f1310afe2a07d1U, 0x2b21def6b4d1fb10U, 0x1bf114211a1011d9U,
  0xf101c6f1cbdfd0d2U, 0xefed15fbee150b9aU, 0x9edbd51adb1cd981U, 0xae1222f9d3060c99U,
  0xe4ffd111d9efc9afU, 0xca0a0a17e41213a5U, 0x12fddbfcdefdeb3eU, 0x2dea000ef4072f9eU,
  0xf4ede103c224f806U, 0x23170a21c41b2c97U, 0x1b0eb00ccc21eb2aU, 0x34f30927dc0d3191U,
  0xedd8e22bffe31409U, 0xa2f0bf8e9b09e0ffU, 0x15fae6e6e9d1e4ebU, 0xce0d97dacac10300U,
  0x3dad2fecedce0cfU, 0xceffa4b2e1a4fb05U, 0x3e6ea0ff6f1d9f8U, 0xca1ebc9fc1f5e416U,
  0xffe319901ec4c5f9U, 0xd40dceb1fac6f20eU, 0xe1e1ede90bbeddbdU, 0xb7f0d2af19e9e6f5U,
  0xeaf5e7320202edfbU, 0x91f3ef9ae91ff6edU, 0x16e411ce01ba0ec9U, 0xd0dbcc2722e7dff3U,
  0xd413ee0b0dee1881U, 0xb20da9db3defd5f5U, 0xc9f6f00cee2908a4U, 0xed5a2fe283935e7U,
  0xabf30403ff1123b2U, 0x1a9fe5f910f334e5U, 0xf2e3280fe7150dc1U, 0x1c29f1eded2c6720U,
  0xe709ec0abffe15d7U, 0x26decc0734d14cd8U, 0xe4eaebfbfd1d0c11U, 0x21adfd121f815c92U,
  0xaf81c15d50c1c15U, 0x10d5e7e60db524f7U, 0xc4f90319b908fabdU, 0x170ce406eff46bf0U,
  0xbfda0002d22b04e4U, 0x10c2fd13221950bdU, 0xc5e3011bcf0dfff5U, 0x290402020a22342aU,
  0xfffffb63fffffde9U, 0xfffff946ffffff8bU, 0x268fffffcd2U, 0xfffffea6fffffa5cU,
  0xfffffc46fffffb08U, 0x3b7fffffdc5U, 0x84fffffbf6U, 0xfffffb2effffff77U,
  0x6effffff87U, 0xfffff972fffffbdaU, 0x1afffffbf9U, 0xfffffee0fffffbabU,
  0x115000001d3U, 0xfffffbce00000072U, 0x2f2000000a6U, 0xfffffebcfffff958U,
  0xfffffd3efffffa2dU, 0xfffffda1fffffddcU, 0xfffffcddfffffdecU, 0xfffffa62fffffc79U,
  0x20cfffffdebU, 0xfffffd17fffffc62U, 0xffffff74fffffdc8U, 0xffffff5dfffffe4eU,
  0xfffffbe7fffffbe3U, 0xfffffd4bfffffc39U, 0xffffff10fffffe6fU, 0xfffffcb4fffffba6U,
  0xfffffed1fffffbfeU, 0xffffff4900000146U, 0xfffffee0fffffe96U, 0xfffffd19fffffda6U,
  0x20b0c0d339390a0eU, 0x1c04813f25f618f5U, 0xf3031050b0ff81cbU, 0xe20ef829bb2e1728U,
  0x813109e2b57859c9U, 0x37f83bc36a27eb4dU, 0x7fdc0db30ef7e61bU, 0xcbd7efe3cfce163dU,
  0xd84b3c29de12f743U, 0x225d881e4f024c7U, 0xb50a121b97d3b881U, 0xbdfc43aa0cffd265U,
  0xd67f59435fd14940U, 0xe5a5c656d6014821U, 0x87c40d292bc05281U, 0x51af5af701005803U,
  0xf7271c20ddb947eeU, 0x81b2de0df41e01bbU, 0xe281eedd8f443406U, 0x20ec24b4eaae0d29U,
  0x4e7760b2b2e5338U, 0xe97f161de2cdb846U, 0x8169c1d9cdbce8d5U, 0x9827d238c06cb235U,
  0xf861d2094188a258U, 0x654881592a60aad2U, 0x814362c7fa9dcaa4U, 0x36bbbec30e3419bbU,
  0x314d1ddbf9815ce4U, 0x5dfc680ed7df2465U, 0xa929cd0b81d6bba3U, 0xc72f5fcab746a901U,
  0xc802223636fbf2f4U, 0x7fa151c5ad025b1cU, 0xd0d21c450650d681U, 0xc7065cc010350af5U,
  0x35fde1e7181bc805U, 0x2c0cae4ab9c8e381U, 0x8175184cb5a73f21U, 0x4ba85ed453d34c33U,
  0x38f6c6f9fbd0127fU, 0x5e353340173f4dedU, 0x39002581c3c057f1U, 0xea9f413e22e6e83eU,
  0x23f033b138107f3U, 0xdd13bfeb2ef0f820U, 0xc847037feca69a17U, 0xb402612ecb26435eU,
  0xa10eaaff2c21d2a5U, 0x8116e2f5f6f61c17U, 0x6e2bb7f3ecdd025cU, 0xfd81ba0b5a93a9cbU,
  0x84ffcb92181bd97U, 0xc6dac730221a004dU, 0xaedf2c8d7289d117U, 0x83c381879402dd90U,
  0xada6f5811b050726U, 0x1ad029362ed04712U, 0x4628a23538b8bdf3U, 0x2481c914185dc1bcU,
  0xfa3001f1a43912d7U, 0xff5b8ee27f246c3eU, 0xf38d2b07111c14e3U, 0xcc3ae1e281e337a8U,
  0x108141842416e1c8U, 0x24ce35fea0bf25f8U, 0xe21dfdf0fb0b09ecU, 0xc81f3ed1a4823cdU,
  0xfd079be51527fdbeU, 0x7f39e9cd12f13f20U, 0x6a5734082eb17273U, 0x728c4f0408155d3U,
  0xdf25031afa811448U, 0x21ce06a3e00a0303U, 0xaf041a25e32018cfU, 0xd7375c81b5e423e1U,
  0x7f09b38a01245e1bU, 0x13cc816d3b8876e8U, 0xedeba8d9ef2d2935U, 0xeeaa8133d4bf24dbU,
  0x1d972db7262d0108U, 0xf9d626fb81cc1adaU, 0xf2cfebcc6d27a728U, 0xe72457fcf481182eU,
  0xe5d406da4239afddU, 0x81f7f10f8ecf26eeU, 0xf88163feb8e7af3eU, 0xbcfec2122b8726b6U,
  0xa0b7190c04d2e8e2U, 0xc013b9177fb19db6U, 0x81a3413fc766fc23U, 0x28fcbb0f5425f387U,
  0x5315fd66411a2d32U, 0xf08f98109dc0439U, 0xc5272207a312d794U, 0xca291e0d813639bbU,
  0xfb3ae3f773ead29U, 0xcfdad981264a1f17U, 0xe781b68386f117b0U, 0xa615e0bf2483e2f2U,
  0xd421323781fdf8c3U, 0xf015e13bd72ed7bfU, 0xfec3b1db1136fa15U, 0xd1eae6f34b81ceafU,
  0x44b1f1f21229fb96U, 0x2c29f0feed7f2d2eU, 0x3e46bd2c002e5921U, 0xd30dee4411471881U,
  0x141e28eccee2c7efU, 0x812437c1c73ef1c4U, 0x2bd21122259bd90eU, 0xdf370a1f8107d20bU,
  0x2eb437be317f48e0U, 0x1cbde1582bb9394fU, 0x21031c81e707eb28U, 0x22d5173a0ff8133cU,
  0x636047424804a2e3U, 0x45db77f0f210c6eU, 0x6cc85e2469ecc1a4U, 0x8f3f10d50181e555U,
  0x55ce6663ea2e01dU, 0xcd9881744751a1bbU, 0x32f5bf34f18119ecU, 0x6ded8121035c007U,
  0xceeca4483981cdccU, 0x12c71a4431f4c8adU, 0xe614ad29327f14ccU, 0x5e05508fdbd959cfU,
  0xc5000002e6U, 0xfffffa9dffffff1dU, 0x2c2fffffec4U, 0xfffffb18fffffbb9U,
  0xfffffe47ffffff27U, 0x771fffffa26U, 0xfffffddf000005fbU, 0x2d7fffffa28U,
  0x54bfffffa2eU, 0xfffffda80000012eU, 0xfffffe72fffffb81U, 0xfffffb6ffffffdd6U,
  0xffffff1dfffffeeeU, 0xfffffeb1fffffb88U, 0xffffffd7fffffe3fU, 0xfffffa13fffffb36U,
  0xfffffc340000008bU, 0xfffffaa8fffff925U, 0xfffffee70000019fU, 0x9efffffe6fU,
  0xffffffeffffffc69U, 0xfffffad7fffffe80U, 0xfffff7f0fffffd2eU, 0x55fffffc52U,
  0xfffffa28fffffbecU, 0x34100000103U, 0xfffffe49fffffabeU, 0xfffffcde0000020eU,
  0xfffffb2ffffffce2U, 0xfffffaeffffffd9dU, 0xfffffeda00000316U, 0xfffffdc3fffffec1U,
  0xd40c8edfddf2e73cU, 0x81fee009e109edf1U, 0xc2c4122b0a10c801U, 0x6fb10f9072c04fdU,
  0x532ca5e9fbdf0bc2U, 0xe0b91cecdcf6ebbcU, 0xdb59fbe2dcfcdcc4U, 0xe3e4e818fe233300U,
  0xd40611f5f705d02bU, 0xd4070a10edfce50cU, 0x22e8d80cf818f231U, 0xe8f00209f91f1f10U,
  0xf3e9e7e5d9ff021fU, 0x1d1523179509f809U, 0xb426fccbff0302eeU, 0xdd8b8cee01dfc27U,
  0x7d61d21dd280512U, 0x470f3181c6123a64U, 0x2329d3132ad62239U, 0x828dbebe1e8e7c4U,
  0xfe1222171a371ae8U, 0x150931351a8bf400U, 0xd428091109c301caU, 0x39b51bb4d9c1fe0cU,
  0xdafff3c1e0bf0f25U, 0xf7163e1837e605e9U, 0xd6fc05381d0314fbU, 0x3be008eaf21d0de5U,
  0x24f8eb034714123eU, 0x80f4dc7560119f9U, 0x8fbf745f8f423f0U, 0x27d6effcd6c0f6e0U,
  0x234aefea3d3adde1U, 0xfd0ee3abb0420902U, 0x2efa22f84a00e238U, 0x5bf007f6394eb1f7U,
  0xe7ed47ef20361912U, 0x12484cb9f4fef2e4U, 0x27e74d3cf0521c49U, 0x1bf2fedc133f1a2aU,
  0xf3db870c160d1cd1U, 0x15e77f47dc1d0541U, 0xeb30096515dcde2aU, 0xff12cc2a1f02a9f2U,
  0x122c0c125df724ddU, 0xdbd1e509c4ebfe0fU, 0xe9fef6f81c0e7d22U, 0x40e4a249bc60cd8U,
  0x2b2a0cbcd8e127c3U, 0x193e02c6f0400881U, 0x226e402eaae0d23U, 0xbf3caf03d4232b08U,
  0x9c4e27e509ebe5f8U, 0xe927f041171e3b2cU, 0x1b0dbff9f99f10e2U, 0x1528beab3027492bU,
  0x10caaccca920c334U, 0xc06b6da11040d1fU, 0x6e2f289aff767feU, 0xebdccf18e418c132U,
  0x3abd722e3070818U, 0x3b2a26221918f4f8U, 0xfdfd2e58bc99e38U, 0xdb1060e46cbbeafdU,
  0xc33d40e0cf4a8e0U, 0xb43e4532cb248cd5U, 0xbc2a41f3070fb81aU, 0x49c715f60e1154faU,
  0xe415223f7506edc6U, 0xf721afc407c0eddbU, 0x24113a0c9fd61595U, 0xca811f15002d43d9U,
  0xe825e936ec332807U, 0xee14a0fccf010faU, 0x1f25ede2101a27ccU, 0x25e9b4eee7d6fd20U,
  0x3213d33184f8141cU, 0xdbc1d6f06109f000U, 0x100049c923e9f303U, 0xbdfed6d6212ad0f3U,
  0x2a24e0e0b80adabaU, 0xbc4f15e34318f317U, 0x2b074be318202b23U, 0x26cdfb15092cd3d8U,
  0x1cc003fccee7c7efU, 0x14d5fcffebf9b932U, 0xdd8ee1d0dafcf3e0U, 0xb619ee2ad6d31619U,
  0xd192ffdfd580edaU, 0xb06c454a5251dfcU, 0xddebb313e614f7e4U, 0xe60885e5ca1a25dcU,
  0xc04fbdc574fdf0cU, 0xd8edfa120205ee06U, 0xf3406215d7ebccfcU, 0x7dc05f3f9c28129U,
  0xd4ddb4f215d2f6f9U, 0x74a0ff5eb2e9417U, 0x37d8e4e7c6c18cffU, 0x37d261f53d3cb1f1U,
  0x8dca0ee02d4d7fb4U, 0xd819eae226bc0cd7U, 0x37bce5f695203104U, 0xaf57f42c4d24ebe9U,
  0x2d2ecc2dd82a121fU, 0xe4f7a91afdc9cf05U, 0x36ed41480534fff6U, 0xba22b439033ae700U,
  0xc22b07c5bd5fb144U, 0x3c3c02fae90104bcU, 0x5e1b2a64e08df19U, 0xd40128a14940d0bdU,
  0x1346adb4d0f618beU, 0xbd051e36f9b2cd32U, 0xc4b260acdcfdc514U, 0xabe5ffaaeadeed9aU,
  0xb1d5dcf51506cdcfU, 0x2e9cbdf22da8d1f8U, 0xb446bf2193d5ffdbU, 0xdedd81e80197efcbU,
  0x26fa52f04d0d2ff4U, 0x4619c9e3b3fdc93aU, 0x730c151a0efa4ddfU, 0x41fbd5d5b599090cU,
  0xdb04f6cff7eecfe7U, 0x16f7662cc9fc1c03U, 0xb7e82d46da0ed8d8U, 0xbcfff8f5f93e9233U,
  0xee32bd305101423U, 0xe00fe31c22fbc8f0U, 0x1a10f7c7e6d513fdU, 0xe83b0b1ff515c81fU,
  0xbdfca7fc10eec306U, 0xa5ef81f6faec0df7U, 0x15e4aa000bcffff4U, 0xecfe0dfe09320926U,
  0xb19b9be19eff619U, 0xf7e4ff16eafb0bf9U, 0xfceae1d4fb1cd9e2U, 0x1bf4eeda07d60bf8U,
  0x727f4abf9150920U, 0x19202d0e0f0a0502U, 0xbfdf105dc13fa11U, 0xf3f9efe242d5bb08U,
  0xe324b810fced3be4U, 0xbefc342428a3d229U, 0xf52bfcfd0d22fb81U, 0x2a0042f01e200f15U,
  0xd40bc801d5c310a1U, 0x12f3cdef01e59322U, 0xdae7141c2d28e9ebU, 0xcb3b2d31cc2acba1U,
  0xfe28d3ffcd0532e1U, 0xf7cdf60dd71216daU, 0x1a0a2917dd02ee1bU, 0x40e9cb04f820081bU,
  0x25eee0cdf9f2d6c9U, 0xf2090603f7f8ee0dU, 0xd6e0f6ae180133ebU, 0xe0f9fd20050ef6c0U,
  0x271dd9ebf728a714U, 0x81ff15f1f5e3fa2eU, 0xcad7f21f12160439U, 0x608f928f0ce3109U,
  0x4c3bc8df13323020U, 0xfbda05c7cc042132U, 0xe4d724fdf4f71400U, 0x11e7ef1f14e61f36U,
  0xbfdebe2c8fc0708U, 0xeefcef3dd7190738U, 0xd310f2eadbf9fef8U, 0xcf21eee9cef6d313U,
  0x2f118e5061a0918U, 0xf6f70404dde0f514U, 0xeefc23c81afc1d11U, 0x24d906ece3e1f7e2U,
  0x16c142029e0a14c6U, 0x6217021048e81cc7U, 0x2fff20ed2eea2915U, 0x3918ac16f0e3f508U,
  0xe6eb360281110810U, 0x24de260aecd8c22eU, 0xdc42d9f1b70101eeU, 0xec0bc1f4d704d106U,
  0xd6f8c90a3d2d2301U, 0xe306e029ceef2a01U, 0x8cebfa382d0b6c06U, 0x29dae4ec07d1d6e1U,
  0x12d704140914db05U, 0x231ccb0128f0e5faU, 0x11d017fdd9d1f922U, 0xfcfed191fea0419U,
  0x1f05f7d13bb7e1ccU, 0x2e13f6fb43d60393U, 0xcbbda707e9cfddebU, 0x38b681bd1b1cb0b5U,
  0xebb303cf07c1eb4fU, 0xedcfe7bff3f2121eU, 0xea10d13220eae4e5U, 0x1ed1bcabdfaaecd3U,
  0xe7041f31c5da2326U, 0xf0f0f0ceeef5f52cU, 0x37291d1708ebf702U, 0xbdfdfa43f3e224deU,
  0xe9f0ddedcbb9d834U, 0xd4b4e1252a1ac016U, 0x18cea292d71cafd7U, 0xe83a33ceea05f0U,
  0xf7d8d9cbe9bd22dcU, 0x21e22c1feecddcddU, 0x4f39f19dbf6fcd3U, 0x33da14daf2f99cf0U,
  0xd5d1ffeeb20341d7U, 0x2ca6fbf125000706U, 0x431b1bb8a11714daU, 0xd604e613f2f581faU,
  0xabe8030745fb11e0U, 0xfbcaf8ffd9f9ecbfU, 0xcce42339eaf81acdU, 0x4b022c2ded00e9b5U,
  0xb31fd0afcebdc1eU, 0x34070904b507ecffU, 0xe437082113c007f2U, 0x7cb420e21f12136U,
  0xa3ec0289cdae3feU, 0xad090118f8e20c47U, 0x350ee3323e02b8f1U, 0x563531ad14d71409U,
  0xdd0023ea23d6101aU, 0x240a02e8f4e38109U, 0xe3cc2c0bbd1e280cU, 0xe63a432faf37e3c0U,
  0xc51e020c010518dfU, 0x17f2e2f4dff91dc9U, 0x6f9d918fdf907fcU, 0x38edc1dae4f6dce2U,
  0x8f3ec0fbfedfec5U, 0x15fa0ff238111612U, 0xb4322a29f7d1270dU, 0x2cdfd7021ade30e1U,
  0xe620de47f501c3d9U, 0xd51af3e595d607fbU, 0xd2d9101b07ada608U, 0xf91c81a320ff1de3U,
  0xf1efea172b29eefeU, 0x1136b32719c1aec0U, 0xf401f5d2aff01dfbU, 0xfdb40bb0d9b8b9e0U,
  0xdf07fc2623ec0429U, 0xf01aeabeef270aU, 0x440adbf72afb0bfdU, 0x25f416c0c4f316ddU,
  0xe4f225d610e30ac9U, 0xd3c333fd0c01ea1dU, 0x19ee1d15fd041129U, 0xeefbf70890f1e5f3U,
  0xffffff790000001fU, 0xfffffee1fffffec2U, 0x11ffffff45U, 0x28fffffe94U,
  0x7affffffefU, 0x140000001dU, 0xffffffa7ffffff7bU, 0xffffff4dffffffa3U,
  0xd80517fcfbd6a304U, 0xd903140509eef2fcU, 0xf7f02afcd4c8b60bU, 0xb030cf7e30ce5f3U,
  0xbc02fa06eaf2e0e8U, 0xdb110906f5e1f8eeU, 0xdc1624f713e3d4faU, 0xd20a0a0cfdd606fbU,
  0xe6e52b05e3cfd80aU, 0xd50ce511e1f0e9e4U, 0xeee9dc19e8fdd105U, 0x85fed715d0edf8d6U,
  0xf00f1ce11ee9bff5U, 0x93f520190cd81305U, 0xdeef3506ebd6b605U, 0xc6fc071813edede6U,
  0xe3f8ef05e5f6bff0U, 0x810fd2efcbf5f0e1U, 0xe725f40cf9f5bfb1U, 0xc7e3091fe1a0c61bU,
  0x3ed41507fb11e5e4U, 0x42d4f7472c11aad4U, 0xeadb3bf5cebfc4d9U, 0x2b1dec0bee39d79bU,
  0xb42c10fe13f08aadU, 0xebea232ecab8d9edU, 0x1ae33b10cc129fe8U, 0x76cd0e130915cbf3U,
  0xa6e32bd0e7bbdffbU, 0x5ede6ddda4ad9b8U, 0xa337e6e20c12ceecU, 0xe2ebf2e7c1f3de0cU,
  0x33e30f31f3d381fdU, 0x6dfb19e8062000d4U, 0xfa0904d9addfdae7U, 0x5ff08e0df18d6c8U,
  0x1ce80d0b0d1cabc3U, 0xfabfac0af3d7bb1bU, 0x717ea1614f4c203U, 0xa99ee71f07e2b31aU,
  0x20303fe0a0dd6ccU, 0xda0fede10c00ec1eU, 0xed0df01e1817bddbU, 0xfe17a32cdcfc0417U,
  0xedfcd4f4131ee1e5U, 0xc0810ff009ebc111U, 0x8d1cd724030ac7edU, 0xbb07fdfbe2f6ec14U,
  0xf05372002f8b8f6U, 0x170abbfbf1ffdcfbU, 0xe307fb160902ecd3U, 0xd701e724eafde602U,
  0xf002fcfe28ecdfb0U, 0xadd2130416f4ba12U, 0xeb09b023f5f50631U, 0x48e2e5fcc33de70bU,
  0xfefb2202e2191c05U, 0x3fefd1cbbc1a03f8U, 0x5e315f5f4fe0df8U, 0x100c2d26baeeeeb6U,
  0x22323f2e105cf17U, 0x46e93317d81bfd37U, 0x11ef8ef2d0095c2U, 0x60d22f3754a80d12U,
  0xc0fbf9d9e925db81U, 0x33146dfbfaab1aa6U, 0x5aebef32dafad636U, 0x15ee1200c440e7ebU,
  0xfbc9c418def5cf06U, 0x45fc1d1c1508eeb8U, 0xdef2d601ec0ee2f2U, 0x3f232a52c9e72cadU,
  0xededc0eff4fed693U, 0xe3cecc08f314f3efU, 0x23dd01f4feddd39aU, 0xf0cacc0004160befU,
  0xebf6f3eafaf1d4ceU, 0x1c06e10f08f72adbU, 0xdcf0e80208e881U, 0xd04dbfdf10ee3eeU,
  0xed04f5fa01d2acU, 0x2e5dbf8f12fe9eeU, 0xc9ed00f3fefafbceU, 0x1cf6d710fc0ef5efU,
  0xfaf71ce5090604b0U, 0xe5c0fa29e51fe1e2U, 0xe4d91de00eeff8acU, 0xb1e7c0fee21f11e7U,
  0x1fb06e9fd00dceaU, 0xe301f60ae308eef6U, 0xc1ee43eae013ffe2U, 0x141be8d929c312f5U,
  0x96203420ee16091cU, 0x1b3ae0dceae0f9e6U, 0xe70bc71ef22310cbU, 0x3b1703fb0cc1f51dU,
  0x2cb1006d525f8f5U, 0xec13a9fb31eee6d4U, 0xd8eb42f7082c211bU, 0xf232de04e4e4efd5U,
  0xfbe3e6e9eb0610f6U, 0xecf0cbfa0db0d6d7U, 0x16cbf40cc8fee4e0U, 0x3c2390fcc9e5dad5U,
  0xfda84305c31f1ae1U, 0x91da32ab5c9e0afU, 0xbcefd203ef0720dbU, 0xe6f58103cdbee0baU,
  0xffeeb802e1e1e400U, 0x202d50f2dff12ddU, 0xcbfdd203fbfe040fU, 0x2d03a504050d0cf8U,
  0xf20d230b04fdfa04U, 0x2d15f6e6dcfa0e0bU, 0x7e7c4c5f2c1ecb1U, 0xfedd952527b4e501U,
  0xe001d801effafc07U, 0xe8eac1f1f7ef070aU, 0x172a2a08fc0ffe14U, 0xf81202eff80e01eaU,
  0xf9e60bfcd0c1e7b8U, 0xdae68128269fc5f5U, 0xe8f42bf7d0e316f2U, 0xfbddd7f133fbe5eaU,
  0x2a0b1b0afbf60318U, 0xe70200f60d15ffd2U, 0x9fb0b0dd9e7fe0cU, 0x1a05f81a09f4e9U,
  0xf9fefbedd5cc08b5U, 0xe503ef0c1381e7f1U, 0xed80ef7e2e704f6U, 0xddf7f90c1deaeaf9U,
  0xf3eef5fc07e2ec1cU, 0xe2f218060505ecfcU, 0xfeee0005ed04fce7U, 0x211c0a0309e0f70dU,
  0xeaf1060ff30f0f13U, 0xe301061ff408e407U, 0xc13f60505f8e511U, 0xdffe1a0aef092214U,
  0x3904f2091226fb0cU, 0xf30cd6fbe42016ffU, 0x47050f1d19220928U, 0xd3eab3ebc61a04feU,
  0x5c271914dcd50401U, 0x90b25e3e91025fdU, 0x3524ba2fe9dacecdU, 0xe414242213ee2103U,
  0xd321ef8e3e5a6b8U, 0xfb1d28e60ef94bfaU, 0x2fe5f105ecde0921U, 0xe3f5faa9dc00e4e6U,
  0x1f06c91fd8d2d3d9U, 0xfb0416dfe7c520e1U, 0x4ed4d9e32deee99fU, 0xd8a832c23caba428U,
  0xe0d9212a0bc90324U, 0xf2131af6cd3ce2e4U, 0xef98b20f5f70511U, 0xccf10c15f90ef90eU,
  0x2bdcedf720202681U, 0x1cbe3030f3c2aa23U, 0xc9dea0b3d804d4dcU, 0xb4b6300808dc0404U,
  0xd2d3d4c1b5edb5c5U, 0xd6cc0c01fae8ff20U, 0xdbd4c9eae21609f0U, 0x11ab20fa0af2ec26U,
  0xa6eb88b7da05f3b1U, 0xba094a1502a01d08U, 0xd9f1dcecc5dcd5e6U, 0xac1509f6dcd53425U,
  0xc305deba00fed31bU, 0xa4f712250ccf133cU, 0xe7f281c3ddfd01e6U, 0xc3e434fe060ff3ebU,
  0x1a01f2d2d3eef316U, 0xc92032db0d1435fbU, 0x2507fbc3efd2f9c1U, 0xee0c2a1e24d31722U,
  0xdda6f0fa8199f409U, 0xc6d1ec28b1fbdca9U, 0xecd30cc791a906ceU, 0xe0de0433c7b2f297U,
  0xc7cef9078ec3f2e3U, 0xf8e00d2ecce2eed4U, 0xe0d00ae1a8cde708U, 0xe4ac2406ea09e3c5U,
  0xfcdb18c8b8cbf9edU, 0xd9f11d18e6f4ffaaU, 0xdbf10411f0dff302U, 0xfbdc31040df410c8U,
  0xe4e1de15c3efe911U, 0xeee10ef002140ffdU, 0xce2d5fff8f40007U, 0xf9e52eed251c19cfU,
  0xe2f5f7fe21cfee10U, 0xec1348e9110f1ce9U, 0xec1d0efee20c0222U, 0xb531fb16a40836c8U,
  0xe90a49010809edfeU, 0xb325cdd794e81fe7U, 0xea13fd15d81710edU, 0x9f2edf03ac0b3ac7U,
  0xf0002613e2f5052aU, 0x1002e0349d0006c8U, 0xfff2efefbeefa1cU, 0xc911b627abf40cdaU,
  0xfe5fdfbeaf41806U, 0xccf1d1298118fec3U, 0x4ddfe1de618fefcU, 0x639be03bd1713d4U,
  0xc9d02804f800f61bU, 0x5fba5eb9217ecd9U, 0xfbf1de24f2111df9U, 0xf8fad01cc71925f6U,
  0xd20309e3100cd0deU, 0xb00f23f8edfcf90cU, 0xbc15e8f9f906aacdU, 0xd1fd03f9b8cdfaf0U,
  0xf628bffc100881d1U, 0xe9ff24fbd0c42215U, 0x36f3320b01060c0bU, 0xf112eb13e7fa0703U,
  0xd0d2d21ccfe6f008U, 0xd70e9008a1f7f6edU, 0x30ace1607fae008U, 0xf405e0f5c8f70907U,
  0xdbf63105fb2410f5U, 0xfe290010120a05efU, 0x24f7070db0151ce5U, 0x1c15de1624e7f0e9U,
  0x300dfb11ee0224f8U, 0x1a1ce5e30ef6190aU, 0xd6093944e0cfe50cU, 0xe44fd611990a42eaU,
  0xe25ea12bfb9d620U, 0xde30cfee9d043105U, 0x72ebf2917dad70fU, 0x9f19ea16a2e54708U,
  0xd6f41a31ffd7ef22U, 0x1739d1ffc80822feU, 0x14e31618ded1e801U, 0xfd2da001dc093017U,
  0xfb13130d23c1df21U, 0x21222feedfe1dfaU, 0xa0239290e06192bU, 0x3305ca18d030defeU,
  0xa21d2400f9060a13U, 0xee1381f2d6091520U, 0x7350c2416fa1017U, 0xe0ff03eafb2a0ffdU,
  0x45f100f9ad241c16U, 0xfe21cfe5f70e33edU, 0x4bbaf4d0eee8c731U, 0x2008eabbed1f14faU,
  0x2586c3cdffe79dfbU, 0xed6da052411e507U, 0x2300d7d9bf1c16fcU, 0xd525eaf519d611d9U,
  0x47aaf6ebfbce8605U, 0xc0bf20efccb0e12U, 0x8a09ae0caa6c697U, 0xe1fcebe8eca70af0U,
  0x7f9dfae9c317342aU, 0x3dfbd0e63211e8d9U, 0x41c701c7edf1be02U, 0x800eef001faca29U,
  0x2ab2f50bd1e88593U, 0x1511eefed985f915U, 0x3e06fdf4ffedf3efU, 0x2d17dff9d10b0dddU,
  0x38ef2bfbd7dfe00aU, 0x16fcfff7f606f097U, 0x2eeaeb21dc04ee24U, 0xf52610c6172c1481U,
  0xe6e104d4baca2dd0U, 0x18feec201ad2e9dfU, 0xd6b01000a3b9dffbU, 0xb6d2ee1c12f4f1acU,
  0xc2e8f9159fdef01cU, 0xd10814090a04f7b2U, 0x16dd05e6d4db01d9U, 0xd511d9211ce40421U,
  0xf58d04e4b692f9feU, 0xfacbbf301ff1e403U, 0x4e8e41191bdf421U, 0xc91bdf0123041bf4U,
  0x3bfa06cd0ffbeae9U, 0x55491b2ea2eedd00U, 0xedd10f2fc01edf9U, 0x1c30ec05dff417e0U,
  0x8df2a12070ee500U, 0x2cf405b2090ff8U, 0xe5fef0d3fdedf004U, 0x9e1150e9b0381eaU,
  0xcace2ab809e5e804U, 0x1af31e23cd10c5e6U, 0x12ecdea03de11U, 0x21ecde20b50e94deU,
  0x2ade00e6010ae7d9U, 0x2ef625fcef0ba9fdU, 0xfbca44e408ed0dd5U, 0x54fed603d7e6def1U,
  0xfd0516f80a09fed8U, 0x5713b7ffea16c4eeU, 0xdf1fff0ae6df0ef7U, 0x2a1f3914dd22e6e9U,
  0xc91acee3010ce8bbU, 0xccfd380becd614feU, 0xebf0efff0f0fd1faU, 0xc01629e9f5da1d13U,
  0x4071bfdc5f51aefU, 0x62c18fbf429f3c9U, 0xf0f9e4dee60d13abU, 0xdce40c230fe0baf9U,
  0x6ed2907ef0d08f0U, 0xed0c05280c0a1707U, 0xe30b0325e20016e7U, 0x53280ce6c82bf2d3U,
  0xfee48bb90d0121c3U, 0xe8bbeb1504088117U, 0xf600f0f8020500f6U, 0xec1d0af5ddfa0000U,
  0xeb33e9223438dd1aU, 0xf323cfead41d2c0bU, 0xe0f04071809c30cU, 0xf51bd6ed150c16d7U,
  0xf0fe920e0fdf10eU, 0x9151bee18f917d1U, 0x31e2c261eefe604U, 0xfffeeb19ef0d09faU,
  0xf3ea10f3c198f8edU, 0xf2d2000d15e3d5b1U, 0x7e2ed01bb9c0aeaU, 0x40ed01ff01d8f1c9U,
  0x10e3310a12e90d06U, 0xbfebe1e25fdea31U, 0xb029c6c481fde7U, 0xe9b2b1320bb1c904U,
  0xfdc3f9c8a1a0fcf1U, 0xfbff2faf9bbe3ceU, 0xc21401b6f6d8cb81U, 0xc3e817e700bee6d7U,
  0xecd5eda5cedef6a0U, 0xb8d209c9e6c003f0U, 0xc725fa1217f0d7dcU, 0xbdd4ebcee9e00c16U,
  0xe6cdfee3d4ebffffU, 0xe9b6eae2fd06bd15U, 0xf8c107e9cb15e9f5U, 0xfbc400c9db16af27U,
  0x2e130e22fa2cdcd9U, 0xdbf1bfd10fc090eU, 0xebc301eacef80d1aU, 0xece82df1fe21c9f7U,
  0xeaf7f4f2f9111a05U, 0xfbd316e9001fa50cU, 0xf201bfa1518060cU, 0x14ed1cd9042bbf1aU,
  0x1234f0ff0cd7f31cU, 0x4ea7f8e505f7c61dU, 0x1afb49e5021beb14U, 0x49efd0f6120e0e05U,
  0x4099760cdf2b1b1aU, 0x522081ff1153d6d0U, 0x21ecaee25bd00a9U, 0xd79afeeb17afb01aU,
  0xb8ebf5f2e8f7eff5U, 0xffffedebeff3ef0aU, 0x4fc45c08a624e5feU, 0xf06d0e7d33ce599U,
  0xe50202c709b9b792U, 0xe496f8faeeb7d911U, 0x5b93acd0fe9cae0U, 0xf6e20c2018bbb123U,
  0x50ca2a0ac9d0edf5U, 0xf2080c03ff19e7d4U, 0xdf12c6ea04faeec4U, 0xd3df00b5d80ab60eU,
  0xf6ddf1c3f2fee4edU, 0xc0b7ffa70f02b43dU, 0xebc1489fd80704daU, 0xd2d00dd828d8ca31U,
  0xef0fffc0d1f1eae5U, 0xee8104fa19dc90fbU, 0xa81030caeafd10f6U, 0xe6accf03fe11d420U,
  0xaec4288c9eb0905U, 0xf2c9ed140a0dd526U, 0x8112edb8d5f7f4ceU, 0x76f3e426f4f3e0cdU,
  0xc7c0cbe2ece10bfdU, 0x541fc31ecd0ce518U, 0xf8bbecc5edd12212U, 0x38f0b71d0712ff1eU,
  0xe1afb7a0f7d9b5adU, 0xdff9eb2f36fab7e2U, 0xc4c6c9f619130421U, 0x28edb6f1a58e2cd6U,
  0xd4bde9be9be8f4d8U, 0xccb90f020a0acbd8U, 0xcb8a899598e0f330U, 0x33092032d7ceeaafU,
  0xb41df6fbf108c3c3U, 0x1016becad89a9ec0U, 0x18c918c0aea88ef5U, 0xb1012bf5bce4b68eU,
  0xd6a7d614c1eaf8d8U, 0x9ddf741badcf403U, 0x1006f2024fdca081U, 0x1d97b2cb4787f6c2U,
  0xd8acecc9c8dba819U, 0xa9bd0110e2aefe8bU, 0x349deaea1404dec3U, 0x2c7f90d0adbb800U,
  0x320aa7df18e406f1U, 0xd8d81316e5d8041fU, 0x6617a01a19e3eefdU, 0x181116d2bae4ff19U,
  0x2dda14f91df2ecc1U, 0x5c1a1e1f01d204e7U, 0xd0ddcb20f903fbd3U, 0x913e7d7c4e11701U,
  0x3529d340d6f71af3U, 0x2b29c5f8aefe24f2U, 0xedf10e0d36f719daU, 0x7ff3fa18100ed3d6U,
  0x2fe9fa08bff605cdU, 0x6e17f1fe172202cdU, 0x21191113a8020e04U, 0x4b20e015180f0beeU,
  0x4cb5b0906cdaf0aU, 0x3005f9e898faeef3U, 0xbdd204fb01cffccaU, 0x9f5d7f0b4e801f5U,
  0x24eedaea1cf9e0eaU, 0xed080caec7da2222U, 0x31c53207f1fcc512U, 0x2e0dabf48102e9d4U,
  0xdfda0216e90a0ed9U, 0x50be0faae140301U, 0x600a7db1707ac17U, 0xdb0a13e1b4d31f1cU,
  0x41d3490fdb0aed0bU, 0x550a9bf9ac0adbd2U, 0xedef0a17cbf2e1e6U, 0xebf99108b30bdfddU,
  0xfcea9cd40901b4beU, 0xcaaae9e7b498b923U, 0xd029efbbf1080111U, 0xfddb3c31120fb11cU,
  0xcd3243ac0a13030aU, 0xdea11e0a1904f417U, 0x42fb3cd3e5130a08U, 0x24b9231223099ff7U,
  0x65fb0eb98ed927f0U, 0x390ff8f90d1f0cb7U, 0x5d0a130cc7eb1906U, 0x5d3516f0091612c9U,
  0x7fe404c3dee719efU, 0x36efd4feea0ad3ffU, 0xcc209cae30912f5U, 0x6c1b4da071b8cdcU,
  0xfcdc15f5fbe5e404U, 0x2202c3d901f5dce6U, 0x3ed402cce1040e05U, 0xf9bfc220171bbb0fU,
  0x1aa29ecd2dcfb090U, 0xf0b9e6fec1bae4eeU, 0xe5d2ac9718e1a6daU, 0xe995f8baf9ee81d3U,
  0x1e94f5b6c7c2c1eeU, 0x1c0cd6b0b6c606dbU, 0x2ba6f3dcc0ada2f6U, 0xe395f41bb2abce43U,
  0x4e9cec9b2804add5U, 0x700e9d5b7a2db05U, 0xabdd3c1d9e695cbU, 0xdecb92192d2af35U,
  0x6dc19f1f32ce4bcU, 0x41ee41afba0fcf2U, 0xfdac1d110cacf5a7U, 0x2acaae44e3ca1cb5U,
  0x1fb033c60f062e2cU, 0x39b01110de8835a0U, 0x1a1a15aff9d50c13U, 0xf12ad06000a051dU,
  0xf8f3c59deed306f1U, 0x49facff6d3f3f3f4U, 0x4f1caa2c3f41ff6U, 0x30e8cdffff19cdf5U,
  0x1cee15811abd060dU, 0x26d895cd06f8f3fdU, 0xf8f5e3b11a9c19f7U, 0x25f8f3e7ed0cfaf8U,
  0x1ee7028506e61d0fU, 0x1ffacc06fb01d016U, 0xc301fe8f18caef0aU, 0x41cc112f5051609U,
  0xcccbc4c0fbd10916U, 0xbf60308e914ebf6U, 0xf6d7fdce07f90a07U, 0xf8f1e8eeef0ee518U,
  0x2e0f9ba0de3edc8U, 0xcebd19e82f81d82cU, 0xeadd29b103dd0a81U, 0xd39d09eb4a97bd25U,
  0xd8a94bd8dfbdfbfeU, 0x86c4f8133e25da12U, 0xfd02cdbb0202c5cfU, 0x1d043bf01db10f1bU,
  0xdbf7e59f0dece115U, 0x53cb27ea0e110514U, 0xc7f531c301e9eec3U, 0x36000cf82b0914f4U,
  0xe1f6ca12fcd29321U, 0x273120e61c0b242eU, 0xcd1ed71b0bdaadfcU, 0xed2a27eb160d2b17U,
  0xf7e1f20edabc0103U, 0x371023e62521fafaU, 0xdae3ff20101af2f3U, 0xe5471f320c17f1dbU,
  0xa2d7f913e3fab625U, 0x263dfc23ed1153a5U, 0x93e2042ccaddac2bU, 0xe444a002cb242baaU,
  0xa302fedf331bff96U, 0xf6ad411d19028300U, 0xa60f09bdec160bbcU, 0xebeafafff104ebfeU,
  0xb3e6c8d2e5e9c40fU, 0xaafb8106ee0ad8e8U, 0x7220fd52b0b04beU, 0xf8a64e072a09a8f1U,
  0xfa1d05dbf42513c4U, 0xeb181c10090c06f1U, 0xe4f8cccffa1eebd8U, 0xf5ffcf1d1b04eafeU,
  0xfd080cff09f610e6U, 0xe512ef0f1ec0e405U, 0xc4013f030305e7dbU, 0x240ee9f21fb1edf7U,
  0x9c30f16cd0ca3f4U, 0xd11e7eff709ebe4U, 0x1142ffd14effe03U, 0xdcd90ad9220298f9U,
  0xdff62002db0ac0e8U, 0x1b0d07f40ff7e0e4U, 0x900fd1adffdaa11U, 0x2c29fae4b90e15d3U,
  0x8134f5fd0723c616U, 0xe3c6250323fca216U, 0xbef3220ff718bc12U, 0xbec7f7f21c18b605U,
  0xe6fa0efebfe9c421U, 0xd3f4ea06df2e07d7U, 0xfd1c0217e1df1525U, 0x140fcce7ac212bedU,
  0x15fdff16a6bdd736U, 0xdd2aa6ddb5f107c8U, 0x30f6141724de8a39U, 0xd4072cbbdff5fd00U,
  0xc1f109011ad6f829U, 0x19f28efb8e090608U, 0xd0fd40d3eef1b0feU, 0xd2e8bbd2a7c7fb13U,
  0x79f022ff20e3fd0dU, 0xfef21ce21cbe04e4U, 0x4d028fdeef0de1fU, 0xff31811eb30ef2f5U,
  0x391058f0e128e0f7U, 0x713901fb5a62ad7U, 0xdf90a14260c12f4U, 0xf404fe0510c818ebU,
  0xd5b0d6c6e7d60f30U, 0x8f7dfecb8100ce1U, 0xebd89fd1f6ca2020U, 0xa7f4c9ffa3292c20U,
  0xb02f9fcf306242aU, 0x4f3d331b82e48eeU, 0x2ab2e80b0bf10c48U, 0x54cd8102e21db9efU,
  0xdb09cd1313ce083cU, 0x3be79810cf221c08U, 0xe41ce22f09dc1932U, 0x5ccc9238b210f2d9U,
  0x5fd17e114de185bU, 0x39a11d04f13cabf7U, 0x8cf2e1f62df60b4cU, 0x50edbb03c42dd406U,
  0xd7e6bf302c180653U, 0x4cf213ced42edf1U, 0xb0f4eb1bd21512f3U, 0x3928ff0416e205f5U,
  0xe141b20e4fb0181U, 0x3a260d0f1e8726c8U, 0x7f5200dfef809b7U, 0x1fe90bdf3ee3deeaU,
  0xf7c80d0104f826ffU, 0x1bbe1d21810d8f5U, 0xfb1901f10a0e25eaU, 0xf0f40e0eecef2ddeU,
  0xcfd4f6f4ff112a0fU, 0xe2bdee0d152384cbU, 0xf8ca0816fafe0f37U, 0xbd4ca06df1cf703U,
  0xf12e9ebeed51224U, 0xf9f2205b01f737daU, 0x21ed03cffbd61b2bU, 0xeba5eefc0efdc3ccU,
  0xabfb17e9d2130019U, 0xd0faeacdbb16eaceU, 0xb60b10fcf1e4e409U, 0x9bdafcfbb213ccf4U,
  0xc60d17ff1e1b22c4U, 0xe6dbfcc725f3fbf2U, 0xe4f52112cef3f802U, 0xc601d7d9f90dfaaeU,
  0x8d1f901d1e7dd0cU, 0xedfcc70aefffd3e0U, 0x30d0ff41cede1daU, 0xb1fde2d9f8c5f505U,
  0x10e50d15e6d1d4fcU, 0xce180af007f5f5d8U, 0xf7fbef15fddabc06U, 0x81eaed06e3dfe1eaU,
  0xee08fefe12feb4e0U, 0x8500fce7fcd0de0dU, 0x30072de603fcffdbU, 0x322230102bb13feU,
  0x200a0fb6e8f80ae5U, 0xd8fe0700f9d3f906U, 0x13fee5d2e80224e9U, 0x161fecfaead11ff5U,
  0xe4fb09c40ddcfedbU, 0xff360cd109983b0cU, 0xd0ec1ab6e5e5fcefU, 0xf2fc1bdef0a11210U,
  0xf60ee9d9da1211f6U, 0xfd02f0eef3f915efU, 0xe9e800dd19e9ffd1U, 0xd3bf15fe00bced0aU,
  0xf9def5daeef3fff5U, 0xc88106ffedc5dae7U, 0xf2eaceeceee814cbU, 0xcd981106eedff4fdU,
  0x1af925e2fce50ac4U, 0xe4fa12131381feeeU, 0xfedf7f2e6edece7U, 0xdbaf07f1f68afceaU,
  0x36f90df006242d04U, 0x7d108f801e80ee4U, 0x2ef34df140b0de5U, 0xece8f0e706ad060fU,
  0x24dde805e4ed02caU, 0x7c6dbfbfb8519efU, 0x21ff05040bf50b03U, 0xdd0f9ca0bff18ecU,
  0x2ff51af921070bf4U, 0x25f2ddfa09db100dU, 0x2ed6d8e8ff11facfU, 0xbdae3d908b911f0U,
  0x3cd6d4fb0ffe26fdU, 0xf705fcea100305e7U, 0x1821191e1f21dee3U, 0x5ee40fb50105ad04U,
  0xe100ee05e717f209U, 0x36dbf8d3d41ca3e7U, 0xf0eeb403f5fbf0f4U, 0x27d3c9c0d8f4baf3U,
  0x1635ec162b22ecedU, 0x24be2cf4fafe8f00U, 0x712f712140cfb1dU, 0x2a0c1811ec07b2faU,
  0xe06cff8f71f080aU, 0xcbb61130d80c8108U, 0xc080d12111c1004U, 0x24c428ddf81b81efU,
  0xd002d0f2112ff14U, 0x77e439f715189cecU, 0xf905d2111a01f9fcU, 0x3ece1e08effda408U,
  0x370004be05a6c4e8U, 0xcf04201df5dc052eU, 0x3ff207d1fa94b401U, 0xea11171cfae91112U,
  0xf0fddcd81cc4e6e5U, 0xe70a0d2915dff734U, 0x1fcfdf9d3fe81f2U, 0xc6241812e60719e5U,
  0xe16ef0ef312a4feU, 0xc12011f8d10f04ddU, 0xfb03e909fa01b4dbU, 0xc00f240ae20714c8U,
  0x5c5e2d2a31ddf08U, 0xcbc40aecca16b5c5U, 0xf9dfc8e8d6ffea04U, 0x8e2ca00e32bacefU,
  0x10e61cccd617e1fdU, 0xe500f008cd23e2dbU, 0xf6e10d5002eefcdcU, 0xebfbf813fad30b35U,
  0xc40a1427f5d710d9U, 0x952c253629fb2000U, 0x4d321bde8c802adU, 0x81d911e42712d019U,
  0x5bd61c4af8fce00fU, 0x52e6b8d38e2bf01fU, 0x53efef11c3dfb6cdU, 0x1e1e2ab7f5fd2af5U,
  0x29c518e3e7d224d3U, 0x3badfad635f3a0fcU, 0xa1124180dcbe723U, 0xc16e9e6c7040b22U,
  0x17f9e701efe1d210U, 0xdcc11efc0b1eea12U, 0x80204a4002017bfU, 0xa3c412f5d9eed9f8U,
  0xb1f42f29f9c9bb00U, 0xf10406eeeb1100e1U, 0xc0f9eb21f8c9e207U, 0x280e01c5de0d0decU,
  0xc2e6cf1918e7fc0aU, 0xf40a34011e14edfdU, 0xe9eff11406f3c0e1U, 0xbf6e8cff6ddf4eaU,
  0xd506a3d7fe0ceacaU, 0xefce4cad9db1102U, 0x723bfbe2c0bfb81U, 0xb8cd26ea01c4e306U,
  0x1628ef170bfcfdc5U, 0xf3f908ded59f0cfcU, 0xf3068d080206fccaU, 0x70204efe6d1eee6U,
  0xe21fb013021e1ec2U, 0x9081e09f707efffU, 0x43c61d27fabefe2eU, 0x2224daf5be2c18c4U,
  0xf6d3160721d0bdfeU, 0xb103f0fbbbf3ece5U, 0x340eca03fce2e705U, 0xe0ce0614b6edb3fcU,
  0xd10bfff82fc8ca2fU, 0xfceac7e0f90f0330U, 0xba0fe8d42601eeb1U, 0x94db430b1a85b712U,
  0xd02ab50922faf1a3U, 0xd9c00204b19a9115U, 0xcdd6f81d0cd7eb23U, 0xd3f2ff24a804030bU,
  0xdfe505f203eb04a7U, 0x84df2c251981ace4U, 0x300f1ea04000211U, 0x1c1e00ea3db9ffaU,
  0x45c7dfe8f5df0307U, 0x10c4f32e3dd707ccU, 0x2eecddcd06f307fcU, 0xe2d8e4f41dd303cbU,
  0x2f171b12f7f4dbfbU, 0xea10401dedd828dcU, 0xf4e622b7e4c2d9a9U, 0x1c6bce6309af4d8U,
  0xf7c8ced6eedcfbcaU, 0xe6df81022c96f6daU, 0xaf80e1efbeff4e5U, 0xe0116f8eff505ceU,
  0xfbf534e0daf2e9d6U, 0x1300bf2c36b718f9U, 0x16f303d4f4dbe0d9U, 0x6ff9d162da90bf2U,
  0xe0a13ffda0cc7eeU, 0x1e0ef5d7fd0120faU, 0x41cfafe18f4f400U, 0xa7ea26f929fa0c2bU,
  0xdbede10ce3d1ef04U, 0xe601ff08f1091012U, 0x5d6fa08f2b1e81aU, 0xde15f5f5e2f7fb0aU,
  0xa233fc010ee4cbfeU, 0xd5f649e1eff4f81dU, 0xf519c518deb3edfaU, 0x40aecf4a8f01d02U,
  0xeaf2f901f0defc07U, 0xf0f9ea0897fff90bU, 0xeefd1a181ecae013U, 0xf00905f4c408000bU,
  0xe8d42bd4ca0910U, 0x17f7c7ee87f913e3U, 0xa9d6ea15eed0fa07U, 0xf4f6d0ee81090eeeU,
  0x1fb4e0d4acef2fc6U, 0x1e052311d310cf81U, 0x159f228d091532f5U, 0xd9082e00f718bfbcU,
  0xceffffe0b3d4bccU, 0xf4fd12252f15ccb7U, 0x22f4940429bc0a0bU, 0xa500b609dc06fcdeU,
  0xcded82814d3e7f6U, 0xcf24f8d6daf715ebU, 0xd3ecba0e16e0eedaU, 0xc9dcaec5b8db0de2U,
  0xb2f9d9e7f3b8e114U, 0xcef244f4061b1e26U, 0xb7013b10eed2df01U, 0xfbf63be2dff30ef1U,
  0xffd9e134f4cbd30cU, 0x9ae4e9d319d7ff11U, 0x241603f10d21faebU, 0x9d26f2ecac1027e8U,
  0xee16d605cb300d04U, 0x9d25df07851b4bcfU, 0x150ef6dfb20c1500U, 0xe91c012d951c39ddU,
  0xf0f90302ee0effc0U, 0xe82cf3ee04ff00eaU, 0xf2f40b0caecafaecU, 0x837fe12dbe81bdbU,
  0xd20e10b8caeef5d9U, 0xc507ed08fbea0aeeU, 0x4814dcf2352dec97U, 0x18c41e172ad1993eU,
  0x28fd1c194af0fe81U, 0xfcc310fe38e29434U, 0x29f2c9e735099a8eU, 0x1f622f81fa8f131U,
  0xcc24e81c260ad9e2U, 0xf71403feb9c8010aU, 0xf0d42e1a040481e9U, 0x704f71a22cbe50aU,
  0xf7c42004d4d0d3f8U, 0x2012edfd1516f5dfU, 0x9d10ed062e2ee8f4U, 0xd3efe7efd0f1d522U,
  0xe8ed00fb080ac1ffU, 0xcffd00f91602fd0bU, 0xbfe205f2fdc8ea06U, 0xba0809261f1febf5U,
  0xde0ce913111d121aU, 0xf1bac0f7dc1ad312U, 0xede81dfdf4eafb1eU, 0xe9dfe7d1160be713U,
  0xebca13edd5bee513U, 0xc0070605150c0cffU, 0x60c401ae5101f02U, 0xcd12eafd2d080bdeU,
  0xd4d7290fc92011e7U, 0xda29fe12080f14d4U, 0xacf42ccd32b1ff2U, 0x12d6f81c14f1e2ceU,
  0xb8f80d04defff608U, 0xb01ab416e2061ddaU, 0xe4daf703bfea16eeU, 0xe818c6e8c9fcf181U,
  0xe30400c3d2f423f8U, 0x18cedce7c3f5eccdU, 0xd4ea0b2d1d1602fbU, 0xc00ddff7ea14040fU,
  0xf7fd2d060e000df7U, 0xc7f1eaeacb010518U, 0x1c05ebc109e728ebU, 0x4d2feef07fae504U,
  0x13404f2e621f3c6U, 0xfdff2ef20ab01215U, 0x2f09ed12eef0fccbU, 0x15fb36061cb4280fU,
  0x310b6b0cc1040fabU, 0x56081800fcfb0704U, 0xe719f3e00412f1f0U, 0xb9fc4604c9a7fafcU,
  0xf5f6dcfbdd07efd5U, 0xfa140df8e7d52b03U, 0xcd0547fde41005afU, 0xfc1734ed10e310dfU,
  0xd2faf1ceef1ff8e1U, 0x810138061997d602U, 0xe6fc05dc051d00e1U, 0xd6db3c39ffd208ffU,
  0xc7ef54ea110b12d0U, 0xd90535431707f8d8U, 0xf7c121bdfcf4fd9eU, 0xddbf32510c40bf0U,
  0x3f4fcb513f101c5U, 0xf0db331010edf806U, 0x1522eec1fce310e3U, 0x190d3ce20b0f17fdU,
  0xceb80698e50403edU, 0xba81c80508fc0fe4U, 0xece7e8d0ebf6f8eaU, 0xe8e0000802fb13e3U,
  0xe70007c90dd214fbU, 0x1c0f10fdf62d39f8U, 0xbcc7118cc1f205d2U, 0xbbcac21b16ed1405U,
  0x1e42604e40d13e9U, 0xf6da142310040207U, 0x120918d51c0522f3U, 0x2e10421016130deeU,
  0x3119dfe302c00402U, 0xbc2821faa1e61e0eU, 0x44fccfdf0ca4ff07U, 0x8cc909cf81c60f2cU,
  0x44e024dec18ffa01U, 0xef1e6cd8af3fd11U, 0x5ddff07f1c7f3efU, 0xf9f4c3d79adae10eU,
  0x27adf9f9e69cecd0U, 0xe8ffc4da81e8000fU, 0xeceb17f2f3abf9efU, 0x1609c4ebced0f80fU,
  0xcee6ff0908eafb00U, 0x3e00c8ebc6f0de24U, 0xcfddfff40eba07e4U, 0x27e7a6bc8ffcd52dU,
  0xf8d2f2d807e3e604U, 0x8039bddd9d7f7e9U, 0xf1e217bbe9f4edecU, 0xc806a70696c7e303U,
  0xaffeee6e009f51aU, 0x2226eff9bff9f2e2U, 0x210ad3001deb10d5U, 0xebc73af009eb9701U,
  0xdddc1deceef9f9f8U, 0xd62081fec5e202dfU, 0x2311d4ebe7e7f9f6U, 0x2a1bf1f9c4fff4faU,
  0xfcffe9ea1eebeff1U, 0xae60b1102c7ae04U, 0xf0e220ebdbf506f2U, 0xd229f17faf7f4ebU,
  0xc3f0c9e5ece711f1U, 0x1ae9edf7faeffcdaU, 0xe90ffcfb0afa18dbU, 0xe0c8f6e42cd7a9f7U,
  0x6227c4fb2231fc31U, 0x168bd5dfa4389df6U, 0x84c04d92d62f73dU, 0x4fb7f2d50133c2e7U,
  0x271db6eefb32152cU, 0xe903f1cc1411dae4U, 0xc1edbe28e1efcf2bU, 0xf4d2320916f3ebd2U,
  0xebdfb4b6b7af04e8U, 0xa4f2fd50d99f00c6U, 0x1c101b97f3f5f7b6U, 0xedfb1b03c381fcceU,
  0x2bb31d0b04f4d029U, 0x43ef1df006e00dffU, 0x138dfa96c7daf6efU, 0xeceb392217a7ccc6U,
  0x2eb735db9bf90f18U, 0x31c2fd1919cfdc10U, 0x19f8f29d0cf9220aU, 0x153b19001005ed02U,
  0xf2f80f81fef92cfbU, 0xf6f3fc02150d9bf3U, 0xe7e9cea6eff20809U, 0x24e30603f2e6eb04U,
  0x5e3f1cce0dd0904U, 0xf6e4f4fbfee0fcU, 0xe4ecf6d915f2150fU, 0x13feb6f7f1040303U,
  0xe513b8e226e8f7fcU, 0x3bfbbe08ec09cf12U, 0x17c5f3c2dff5170eU, 0xf1d2b9151b199cd8U,
  0xed8ecbbf1fd100eU, 0x1fbae21be5ffd5dbU, 0x1fdcdad8e0fbe912U, 0x17f3ea2cf1f1efe7U,
  0xfc01fd14210204e6U, 0x3d1b33f10d0afd1bU, 0xb40d0d0006ecfa19U, 0x61f2081c28eb0a2cU,
  0x2beb32f8e909f9ffU, 0x1418b5afbc2137deU, 0xe10e02fff9fe0997U, 0xe5e913dbdcee12e4U,
  0xe7ec1ff10ed3f0d4U, 0x5d9bf01d0dd2d5feU, 0xc1b57b0c9ebe4c7U, 0xfd19f7cdbae42ed1U,
  0xb513f2ffffd5eec0U, 0xa71f18e3d7303801U, 0xd6ded20de5eccd81U, 0xc596152c18d0baedU,
  0xcf18dfdbd4dafde9U, 0xcfeffeed1bf912b7U, 0xec000911110706eaU, 0xdd0bfa110312190bU,
  0x10f0f2f80effeaa1U, 0x15c7f5f91fa5e91bU, 0x2ed529f6d117eb9dU, 0x14dac8062295c4cfU,
  0x11fb0ffce300131eU, 0x1b2e26e917180d01U, 0x9db09f9fded22f5U, 0x3cbe3f208fc81e2U,
  0xddb30c09bc2314f0U, 0xf7dab2201b17c4c8U, 0xc1f3060de6f10121U, 0x2d330df9172026c3U,
  0xc9f4ee10f0e91a2cU, 0xe3caf2e6f517c3efU, 0x4ebd1806ad082031U, 0xb7daa6f5000ce8b0U,
  0xb8e8168ebf2abcd7U, 0xb9f82fe8ff142510U, 0xfd06e9c6cc43d515U, 0x1b1507d1f1312216U,
  0xfb1010ae0126ebd6U, 0xa60d2aca220f2f30U, 0xbcf227819e20c893U, 0x3e09ec1919a23510U,
  0x2cd41d9dcb01f4a0U, 0x62f015b5f7dd3231U, 0xe1fe5996ca031c8cU, 0xd5fdf3cb3ab93134U,
  0xe5bb5dc09f280adaU, 0xc111e40b56ee2003U, 0xfabc23d99bf20100U, 0xad3fd8fa07064d08U,
  0xda2244d3a8cffb92U, 0x9a1b139f44ac4606U, 0xbf80c00eaf6d3e9U, 0xe81602e6fdab1b05U,
  0xeaeccef21feaf0deU, 0xdea2fd001da2b119U, 0x3db3618d90a09cdU, 0xe24e20efb2b19e2U,
  0xefaed1af1eedc13U, 0xafaece3f1effe0aU, 0x2afbe0fa03f7cde6U, 0x6befaeffc81e215U,
  0x24d12010fb05efd0U, 0xc19f70d170308ffU, 0xc916cdfe09fefd1cU, 0xe8f0ebc8e329f707U,
  0xc41bcaf30bffccf2U, 0xed0eac2cdea0a03U, 0xf4e71a0603f4edeaU, 0xffeec0bfcfaf7U,
  0xd2d53514f3fd06e0U, 0x33273c2bfc1b22f9U, 0xdee432dde7f30debU, 0xd5da1b11eb2aa2f7U,
  0xc0e822f1f4073bf1U, 0xc6050c06ff14abefU, 0xf6d3ea1efcf6eec3U, 0xfd370d17f22efef8U,
  0xc8cbfbfdeeebf1cbU, 0xe32c1709ee22f4f9U, 0xdde30e1504edf8bdU, 0xd119ceddfb16e5f8U,
  0xe1d8f9fb0304de81U, 0xdfb73cf1fb0ae908U, 0xa4deeae7fc00ecafU, 0xa6fc00eef5200afbU,
  0xf5e130ebef0d0d99U, 0xb1d5eee5ff1fb106U, 0xd11d1e3edff1594U, 0xdbde40f113c202d5U,
  0xef0fe4e1e706e5a2U, 0xf1e91deb26b4e1f5U, 0xc920f5efcbd3f7b5U, 0xe8dd0f2111b4fbfdU,
  0x1f0f171fbc000aeaU, 0xfe1dfb1dc4e71fd2U, 0x24200b2db9fa1afdU, 0xf416fc05c4f621d5U,
  0x1b15ee0af2f9ff00U, 0xf30add0ad7f813d3U, 0xcc23f92ab0e9bb00U, 0x1c06160397f81be7U,
  0xcb180427b3fe9c10U, 0xe0ee9f58c1106ccU, 0xf92fd82bc2f8c20bU, 0x1f18d1ea81120fd4U,
  0xd6f2fa1e0602f3eeU, 0x20b00120ff6fe02U, 0xaef2d03f9f0fff3U, 0xe624f60be6141adbU,
  0xde7eec6e5fa0102U, 0x40afb0bde2b09f0U, 0xd09eaeb2dfff39cU, 0xd28b1f0b1887ac13U,
  0x5f23807f7eed1b1U, 0x6d8080d0520d3ecU, 0xdbdfecec02c7c7dcU, 0xd5c813010c1ccbf5U,
  0x2906f7fa0dfe00f3U, 0xddea31fa0981f01aU, 0x39fe22fffaedc5feU, 0x10b21eb0a1d0ffdU,
  0x141eef21fcdecff0U, 0x271d270cf31610feU, 0x2df0c7ccf5020de8U, 0x12a4b9c2f80bea04U,
  0x27253906f5ff160cU, 0xbe7e5d7ef011d0eU, 0xf9dfd4c1efdd0b1eU, 0xb1d2fefbdf1613ffU,
  0x1b0fc2e709caefe0U, 0x23dbb4d2ecc8f7f2U, 0xb35de011fdd0104U, 0xdd40ec8c0e2d004U,
  0x3325e7cd08011c20U, 0xfccf0b6f2f9180aU, 0x2907ec06d1b604e7U, 0x7fedb95105b7e6fcU,
  0xf25f3f6f4f00beeU, 0x2bcfb753bee6a6f0U, 0x320bd9da15d709fcU, 0xed98d71bc4fcbeffU,
  0xf2e4f6e8faf8f4deU, 0x34dcec010df3c804U, 0xbde7dc010c02f8efU, 0x27fbe3f015e5b305U,
  0xf5ebf2fc090b29e8U, 0x1d02b2ddf113b200U, 0x100f2faf9f5f20dU, 0x3116160ef3e1ee10U,
  0x5e8c307fdfdf9f2U, 0x3b17da23efcf0b03U, 0x25f50ef40207fff7U, 0x2cfaaa0cedebe006U,
  0xf7f2cb050cfd0a11U, 0x16ea1013f4f6810fU, 0x9f2b00a0b00f4feU, 0x4220f321e7e9ebf2U,
  0xf201140ef2080bf2U, 0x4011d12abef1a611U, 0x20ef01133fbf42bU, 0x13edfdfad827fc0bU,
  0x1c09ee042cf3ee08U, 0xcae908000f0bfddaU, 0xede070ddeeff135U, 0xb7fbfe02dc30f1b7U,
  0xf10008f1b7f8e908U, 0x4eafefdf91a24d1U, 0xc913feda0de5deffU, 0xea0009040de419c3U,
  0xd8df1604a2d5f806U, 0xaf0f21f8eb000581U, 0xe500efeea6d5eb0cU, 0xfe01fd24dcf72b8bU,
  0xd317e8b9b2cad6f0U, 0x31fe2654edbd349dU, 0xbbef3decb0deeff6U, 0xc32a1c40efd61ec7U,
  0xfffffd97ffffff3dU, 0x5fffffffcdU, 0x14fffffff60U, 0xffffffb6ffffffe0U,
  0xfffffebbffffffe3U, 0xffffffbe00000199U, 0xffffffd0ffffff88U, 0xf400000114U,
  0xffffffc2fffffecbU, 0xfffffefb0000008fU, 0xfffffe5d00000018U, 0xfffffe8efffffdaaU,
  0xfffffe20ffffff93U, 0xfffffed3fffffe57U, 0xfffffe86fffffefbU, 0x54ffffff38U,
  0xffffffdbffffffa2U, 0xffffff49ffffff63U, 0xfffffe1300000075U, 0x2affffffa4U,
  0xffffff9efffffe34U, 0x850000005aU, 0xffffffcefffffe8dU, 0xffffffc6ffffff82U,
  0xffffff30fffffed0U, 0xffffff7b000000fbU, 0xfffffeeeffffffdaU, 0xffffffc9ffffff9aU,
  0xffffffc6ffffff14U, 0xfffffed1ffffffccU, 0xffffff4bffffff8cU, 0x11affffff89U,
  0x94111b7f95ccee10U, 0x5712d620ca3dd6b4U, 0xd7fcf981cac91c1eU, 0x1d9af015140c1b3cU,
  0xf7150e3e2f3ca381U, 0x2f201be5b7a0f808U, 0xf31541e7f56b90caU, 0xdfc134e5fb817e63U,
  0x2d2dfdd2dd4b32c7U, 0xf7c114d92e0e81e5U, 0xd0bfe8adfb02329dU, 0x4bc8114a6d0781c2U,
  0x7f25eb00f9dafefaU, 0x1b20cacb158e19ebU, 0xcc424d3684f68881U, 0x9ccb3bcccd9823a3U,
  0x2361b28a45a6f594U, 0xc6b739ba5681dbb7U, 0x47263c546816813cU, 0xdefcf421ddb9c0f4U,
  0xcb1c812202c1c7dcU, 0xa21c16fff3f2f021U, 0x4d23041ad60781e1U, 0x13bd2d2528fc13e3U,
  0xaedfd1f6394b3696U, 0xfbd20e2a404a8115U, 0x27298a41b58132f7U, 0x2b7fd429aa3d1b5U,
  0xb4fedbcdeb81f0d5U, 0xeb27f014f5b5b5b6U, 0x37811d9ebaddce8cU, 0x36f2ba18b1bcd3e8U,
  0xeae311b345c246daU, 0x96a34ef6081081d0U, 0x4834d40881fe5f0aU, 0x281ac9300f0e0cb8U,
  0xc5d4cbf5d116f202U, 0xdee9c52581dc2af2U, 0x1da1a10706a72553U, 0x81ee902dfe3f2e02U,
  0xcd448131d08a9629U, 0xa5d6cbbe0fddc3beU, 0xd8dd1eb43dbc2dd8U, 0xbe813b20face8ddfU,
  0xc516899af035e260U, 0x5bba7f47a84baf20U, 0x170241b213053d28U, 0xc2c8067fe433e946U,
  0xa5649031454c18bU, 0xbbe70a56819f0136U, 0x195b1d814059de9aU, 0xe6795dc505224e20U,
  0xb6a3ddbefb81d797U, 0x28a221d50be131bU, 0x106068105d944cfU, 0x3db1d1628ccf5baU,
  0xed8111ebb2f0d085U, 0xf0cda596639f20feU, 0xc80ce9eb161151fdU, 0xa52fd2123681d4f7U,
  0xf9fff3a5fc051904U, 0x41cf6d7f72de881U, 0x2a3d3ebea72535c1U, 0x270bcd01c90e4581U,
  0xd30af29a9ebf810aU, 0xe7d72e09edc5ce2cU, 0x123099caf2dae381U, 0xb8bd71b99dafc99U,
  0xee24bff6fd2582dbU, 0xc291f2b6f5a981c5U, 0x8fedfe4e625032aU, 0x2605d4b98118f711U,
  0x20661daebb5481d7U, 0xc75528c4e3b34a0cU, 0xf8e486eab9febd4fU, 0xa481dfc12434d242U,
  0x5a1f81dbc01e055dU, 0x6d4201d8a623b1ecU, 0xf7c95278d62afcfaU, 0xf2584211e13e813bU,
  0xa62ee6eaeb84b6beU, 0x18f3cbbbdfca8117U, 0xe34f2fcd130dd816U, 0xf5fcf92c24c67f90U,
  0xfb2c31d8c5fe9db1U, 0x1312335a0381ea24U, 0x1001081f81419dbU, 0x14e635f946f0dad3U,
  0xf4163e04555f36b6U, 0x2e8142ec0d379901U, 0xf51281070e1dcc3bU, 0xe933f0ef0cdffb29U,
  0x68304cfe46258f81U, 0x222203fbde9dc4e4U, 0xd1f93ca8e320d4f0U, 0x7481b1eeb9cbebedU,
  0x2c09eb2c81dbe63aU, 0xc0bbea290bfbc0daU, 0xd7cce1370e130234U, 0xd2a31a96131e8141U,
  0xf281f71b3d1290U, 0xccb4ea0ff9cd31f2U, 0xdb1e45c6810f29c5U, 0x26d04f6a5fd0648bU,
  0xf881239f2de14701U, 0xc8920941f0083cb6U, 0x81ce1f05d0ac92ffU, 0x72a33f30da75314U,
  0x2e2fcd11dfdb8f14U, 0xbf1310fbdf1b8131U, 0x5a3f140d81d63aa0U, 0xf909f2fcceeb46c7U,
  0xf2defb81f333cbfeU, 0x1de444f639ee04b8U, 0x3104cc962fccf581U, 0xe9a22df52c87c8e6U,
  0x14380b08f6204fd5U, 0x81afd1fec2b8cf10U, 0x8121a036e5050821U, 0xf338cd7042012c5U,
  0xb1fcfe07efab9b81U, 0xe6ea86fb39d1f329U, 0xc00164d08ffae2c9U, 0x9925255da4c97481U,
  0xcf1881d029f8e13bU, 0xe706f0071323f7c7U, 0xe117272d1b4b81feU, 0xa0e5e900b83c8f24U,
  0xffffff4e0000006cU, 0xfffffef0fffffe83U, 0x24ffffff20U, 0x236fffffe4eU,
  0xffffff95fffffedbU, 0xffffffb9fffffe6eU, 0xfffffea0ffffff48U, 0xffffff83000000a2U,
  0xffffff0700000003U, 0xffffff5fffffffeaU, 0x6efffffec8U, 0xfffffdba00000029U,
  0xfffffdebfffffe15U, 0x8c00000050U, 0xffffff24000000bcU, 0x7efffffebeU,
  0xfffffe05fffffdbcU, 0xfffffeb1fffffeb9U, 0x10ffffff53U, 0xfffffe9afffffe6cU,
  0xedfffffeb5U, 0xffffff3a00000026U, 0xfffffef8ffffff45U, 0x20afffffee6U,
  0xfffffe52ffffff77U, 0x2bffffff95U, 0xb70000001eU, 0xffffffaa00000085U,
  0xffffff2cffffff75U, 0xfffffec0ffffff9fU, 0x1500000017cU, 0xffffff99fffffec1U,
  0x9ea062b101af30aU, 0xd1c19f8f7ea32fbU, 0xfec69c2bd2cf0db7U, 0x6f71536edd7fb3cU,
  0x38e7bff904000ce1U, 0xc4302919261ae2e1U, 0xfc9af6c527022b81U, 0xf8e5ffa3f3dd0011U,
  0xef16f9fd2510f802U, 0xfd2cff10d1d31a1eU, 0xde021032152300fbU, 0xecbf18d10cfb0f0dU,
  0xffa51dfec6f71cd2U, 0xfeb7ccd7ced21e3dU, 0x2f13f9d50201de18U, 0xfe1305ce39eaef3bU,
  0x2db081a08ee435a9U, 0x55d44feea8372c28U, 0x72fa35bc7e61e91U, 0x10cf1a1fc80a11adU,
  0xf5bf4b093f4126bbU, 0xb4f9bd6f801d4dcU, 0x8b9a0f8bcdb8f6c9U, 0xb6f3a2a52ab31db5U,
  0xd4ec19e0c4ed3148U, 0x11c0c5e9f1e0b59cU, 0x84363016e33c9494U, 0xedd00911c760d30aU,
  0xaeb89dcadef98f1dU, 0xc9af29d140c3fceU, 0x1a32a616d3b534f3U, 0xb3ea43ec020dadd9U,
  0xc8d7131506313601U, 0xe034d037fb1929daU, 0xe9d8f3a2c5d8d6d7U, 0x8ad8003ae9270637U,
  0xd2aef1bff0d0ae4U, 0xd316e82ef2fae1f0U, 0xaef80d21c20bf5d7U, 0x35ece812e10dcdc4U,
  0xf0e4d5fff1210701U, 0x26e4ea01d2f5e1f9U, 0x22eef5ea2637d9faU, 0xdce8f209dfe7cec2U,
  0xf31df615d6d3f611U, 0x8125ed10f01bf30bU, 0xd1bc0b36d3e0e40dU, 0x190e17d8d004fafbU,
  0xd6e6fd160de22081U, 0xe90d09eee7ccddf9U, 0xcc20bf493b71220U, 0xe5bf0c421b14e5d5U,
  0xf68212f70ce3e631U, 0xe007c9ecfd251fe3U, 0xe3070a27221006c7U, 0x21b40f09b5d909edU,
  0xe016c532ed0a20eeU, 0xd5fe01ed090820c4U, 0xf60824c8f7f907e9U, 0xafff803ff26f2f8U,
  0xf7f2ec0dfddf09b2U, 0xbf18cc0abf2605e7U, 0xea27f1b8f0ec151fU, 0xff1cddcfe16eb41U,
  0xf5d4eb062d18dc89U, 0x34faf7251321092cU, 0xfc97da11f32dc249U, 0xebc4a5a4b4b0ec39U,
  0xe39cbce3eef4d92eU, 0x99f500cbe5c425e9U, 0x99ffd9e6afe218daU, 0xa0b50c86efd60602U,
  0xf192ec91f3a60702U, 0x8cd7e9b79f72066bU, 0xcc37e231d78104bbU, 0xe0624b3d13e3303U,
  0x2ac1c1080d0cee05U, 0xce93bbc6b388280cU, 0xccab41535dfb4beU, 0x32bef7f5ec481516U,
  0xf2ddb5b9e8d2c4fcU, 0xc0de0bc9cdffdc0dU, 0xefed0f1feae6ddefU, 0xdae2c7f3d918d3ceU,
  0xeae7ffdcd303e104U, 0xdbab80404f6d92bU, 0xe72bee17a4fba4f9U, 0xe1fdba3afbe9f429U,
  0xe81ec909ec17ecd2U, 0xb232f242d5a7e3ebU, 0x350d124bf8be07ffU, 0xf3e4e0e2e717032cU,
  0xddd1f8d3d606ce04U, 0xecc6170cf71a1981U, 0x10c510fe1f0a1bdfU, 0xd7f80c000b2206f2U,
  0xc3dab50d0fefc8e0U, 0x5eddc3cf4ef2cedU, 0x14fa02c0e0fbe2d1U, 0xb6e8fe86a2dc281cU,
  0x2ae3f71306f5e310U, 0x23ff1a39d6e2dcefU, 0xf4f9c1fbcd0235dfU, 0x26fef1e0edf7fd0fU,
  0x212ea260c2201edU, 0x2ec41007f2fdf81aU, 0xec1ef5140d980414U, 0xf0162a110ae6cbe0U,
  0xd33611ca0bd1b1f3U, 0xb3e7e717e61f0615U, 0xf715d81703eb0c14U, 0x810eeee7e8231eeaU,
  0x1e1024e53f260af1U, 0x815f1e201fcccf3U, 0xf60ed8d9f50fecc0U, 0x211e30f2cece1e2eU,
  0xda1ae43e31bae3f6U, 0xdb2aede8ca0c1a12U, 0x40e1360122f5f781U, 0xf10e3adf051dd7e5U,
  0xe303f5e7e2ec1bd2U, 0xfdc8f70bfbceeab3U, 0xf4fe0cf4d6dfc724U, 0x11abfbf142f4ffdeU,
  0xb8dd14cacf03f7ffU, 0xecc5db1709b5d2d3U, 0xa9ef05ebd5108e02U, 0xecd112dc13dfb027U,
  0x2f01d1220f0210cbU, 0x1d21d8220f332bf4U, 0x28082aeaf3002a06U, 0x1052f01c2b690f0fU,
  0x181411000fece4fdU, 0x27ea25fae02621f1U, 0xf1224512d50820b9U, 0xff0c284f1106fc26U,
  0x26e3d908e9ed23f8U, 0xdd13acc5d9b20d14U, 0xf5034f24272109U, 0xb30f0d19e6010a15U,
  0xbf5f6fe1209dfdbU, 0xc305a25edd9ef03U, 0xe2fb1a7feaecfe1cU, 0xfe10e81e0a0523dcU,
  0xaf0918f7392ff2e9U, 0x2ee8a91a07ed1de6U, 0xdab713f00c03d7d9U, 0xb0080202a90ee6f0U,
  0xf29f03070df5e70bU, 0xa15fe060ffd0cf5U, 0xeff20acb1f2cfae0U, 0x2a0af2e115351d0fU,
  0x15ed00f21923d4f9U, 0xa5c4c22fb5f110feU, 0xf82504d0d6f7ccd8U, 0x93d3d6e5d0e1cbedU,
  0xdcf9e6dfe6d6e5c9U, 0x81dbed841d1ffacbU, 0x1e0102daef9417c4U, 0x810703f4e6f9d7ffU,
  0x10799b0f60d0511U, 0xfbfde220db13c7f9U, 0x3110d7d3e6e6db96U, 0xca0501f49058fd15U,
  0xe3dcd4283ed4c80bU, 0xe207cfc02c2410d9U, 0xd9d635afe6d0ebd1U, 0x21f5e138f41232beU,
  0xf2f9e4ff1f0810aeU, 0xf2ce16e4d2a41e2dU, 0xe5db16812897e937U, 0xd1f014e3c2e5daf0U,
  0xff23ceb52ab8af09U, 0xeb0e77f486f6facaU, 0xe7fe09111217c40aU, 0xc3ddf5173901d8fcU,
  0xecee5b2919e7ef04U, 0x23914a3c1c182e09U, 0xf8d23e23fa06e843U, 0x1f173f185030fbe5U,
  0x2df3f721111d07fdU, 0xd315f51437080ef9U, 0x38ec390a38111ce3U, 0xe815fad510310927U,
  0x1727c90f0d011b07U, 0x2823fee7d281d51aU, 0x152f13e81be90df1U, 0xf22b340113f5f4f7U,
  0x34e5f0cde7e42eecU, 0xff00f8f80115f506U, 0x2b140eb8c3effbd6U, 0xb1ca210bf1f310f8U,
  0xa1604eaf3050700U, 0x2c0502f303030981U, 0xf2f3f5eae4f911e3U, 0x1fef116dff4e7f8U,
  0xc06ddfdf90cf41cU, 0xf407f9f9f7cffffaU, 0x190006edf6f7efbcU, 0xf2ddecf501ee93c5U,
  0xf10d0003e10fc7fdU, 0xed110a3a001705eeU, 0x2ff3f7fc210a0bffU, 0xfd030b1505fb03ebU,
  0xeadc05f9e616f2f7U, 0xe4d2efd4ef11d8dcU, 0x1ef4f6e501ff0800U, 0xe3f916f711fbfd12U,
  0x18d3fb0f0117c837U, 0xdbc3021229f63c1bU, 0xf6ed3e3a0600140fU, 0x8100a6af020412U,
  0x581ace12e00e0234U, 0xd42c2b0fd218d208U, 0x183ed9f7fb26ec1eU, 0x160727cd3e221d28U,
  0x120eefd1dd122c13U, 0xcafe1e1b22beef18U, 0xf904a84210b403f7U, 0xf62d412caf06d454U,
  0x2d1fee9dfb10daf5U, 0xe3558fe18e63a37U, 0xdb06d6f205040b20U, 0xd9fdd53d05023df2U,
  0xe806031afffa20eaU, 0xd4a80826f0e814d4U, 0x26fc10ce0f0e1d1aU, 0x24190e001be2320dU,
  0x8f6dae6ef0b00cfU, 0xe9fac92b1d061113U, 0x6c6f514170cfa11U, 0xf6d4e6011325e61dU,
  0x1d003e0fefda1181U, 0xb9c6c5e61e090eddU, 0xc9f2170c21e82301U, 0xcbec0fd9f60a1807U,
  0xe0db11f50adf1deaU, 0x1b15ef23cd0f23ffU, 0x34f8ffb01b021c2cU, 0xa9d3df20ea1bda2cU,
  0xe0f4ce19090315deU, 0xffe7e9dfd4bedafdU, 0x3cc9a3e232b1ba27U, 0xec1905d798de8ceaU,
  0xfadeaf95b21115d4U, 0x2bc9d0e1b281d5cfU, 0xeca09547d902d8deU, 0x830c9916d3fbd893U,
  0xcdd316ea3bc8d4f9U, 0xf9bfee17c6289b08U, 0x11d431b8abedd829U, 0xc11f1fcb5824f314U,
  0xd8cb25cedfdc1ef4U, 0xf3a518b5b7f811deU, 0x34a42de3d604d29cU, 0xd93d63235917b8c5U,
  0x3c1e2cec172f28e9U, 0xfab30cd008f4f731U, 0x6dded2f130e172fU, 0xe357d8130751e633U,
  0x10cf0131a01effeU, 0xe2e6b1e6e6232af9U, 0x7d701f6d3f506e6U, 0xcf0d163aeff01af8U,
  0x356711f5d1cfd4bbU, 0xe2470b0ade93d464U, 0xc0e2074e09aa41cfU, 0x11d8ed322e17fde6U,
  0x3a00e2130e1217f9U, 0xdbd7f312e22ad00cU, 0x2f21f8441fe90310U, 0xbce02ee581f44809U,
  0x105c0fe1729f7d7U, 0x272bfffdc9221dc6U, 0x7defadde118d8e4U, 0xddfe1ed0be001320U,
  0x8e1d32a12fd0bf8U, 0xd0250af2ea0afd08U, 0xedf028c4ed070481U, 0xf2e908c002f5d3dbU,
  0x1b1917f7fff9dcf0U, 0xa4e60d131e07d013U, 0xc1df05d9ea0b2ce0U, 0xfdec18f3ddfae81cU,
  0xf2181caeeb10e5b4U, 0x28f63fe0d9e3120bU, 0x2cf21f030efcd418U, 0xd009f3002d0aee07U,
  0xaf0d30d1fd25ecadU, 0x10de1bcfc0ebeffaU, 0xe4c4e2c8a2e7b3ebU, 0xa711c3c5f538d306U,
  0xfedfa8d8ba30d4e5U, 0xff5b31e0ba41e0fU, 0xf09fbcc3b236d8f4U, 0x1acdb1cba2d4171eU,
  0x25bfb4cef00c40e7U, 0xcb1d0c27f6f5c2caU, 0xc406f1f1caba2de2U, 0xebe236b50b081411U,
  0xd5e0cf81fbfeafd1U, 0xd6c0289dc7b7404bU, 0xed090a0eeac4c2e6U, 0x2526001bcee70919U,
  0x9cd4e51d083e31e5U, 0x61caee25c3fe1e13U, 0xa5acfee908cac6feU, 0xa6f01230131e14e1U,
  0x1cd0fae9e4e81b2aU, 0xebe52a3cdfbecb22U, 0x97cb08c8182226bbU, 0x1ea0dce8ba2315ddU,
  0x1047e8e006f4f31eU, 0x1b2d2e2a081ece2U, 0x3d03fd1fd7cd9fe7U, 0xcf06cff31b33c8c1U,
  0x30ed0fb317ead8d0U, 0x9837fbdae64204f6U, 0x2b02fb1dfd30f2c2U, 0x99f3fb26c7f0d006U,
  0xcf14de0be0d80733U, 0xd73cf5ef1c0ff8a3U, 0x2b53ff3d3ef409d2U, 0xf53ef62ef803c9fcU,
  0x4b5d44d72e070b0aU, 0xe12116ed07fd9e0fU, 0x2f11c7dcfeef2f58U, 0x2331ef252d39a1d2U,
  0xf54df5b010cb161bU, 0xe9f8eafe0cbb19fcU, 0x2821202f0cff3c00U, 0xf30f061ef90f0ad4U,
  0xe27f22ece21b1532U, 0xebf814f8f005b706U, 0x3418fdf325ec3cfaU, 0xae1203e043fbbe1dU,
  0x2b1433401ed0f9c9U, 0xf0de3c0befc39a56U, 0xe52003f215cc9bf5U, 0xb1ddf52d1df9c821U,
  0xacd623e5f4e7fbf5U, 0x2b96e2c6fd0aeb1aU, 0xd001baf02b8f511U, 0xaff6d301cdc515edU,
  0xf72bb99a81110f60U, 0x41eff226ce1e10a2U, 0x10d6e67feeb4edfdU, 0xd91c18ea47f7e0a3U,
  0xffd5d41ad1b5abd2U, 0xc23bdf0387c6b412U, 0x1e3edc0025dfe1f2U, 0x333bd26ccd335baU,
  0xa7e7ccdda7b2e84cU, 0xfab8f2f7a92ca926U, 0x17e625eba0868823U, 0xb524dff1a7b7e4e0U,
  0xf746bd97d9af2b14U, 0xf0e8d5d5f5e11a45U, 0xe8dedbfee10ed7f2U, 0x8beda9eec1b33a1fU,
  0xd9c3529d3d917a2U, 0x889304000537079eU, 0x2c2b2ea941417c9U, 0xed04d61100b7a8f7U,
  0xd099b990a904d7f2U, 0xfee1b1f39b34a8c1U, 0xd80f2530d181a520U, 0x9c2ebfc8c8f7f6e4U,
  0xa02c111128e83907U, 0x8ace167f958071eU, 0x342dc41935142829U, 0xef3dd887021b39e5U,
  0xff07c616f257ff31U, 0xe549434e13168b1cU, 0x35a3d0f8f4cfddaaU, 0xc31bc19038fa4adfU,
  0xc8bace06aaf95002U, 0xe3ba423d44c74bfaU, 0x8ce1cffd4feee18U, 0x8ce6a5d37e73de3U,
  0x1ebe0aaad700ac38U, 0x29911a460ae7aa3cU, 0xbc1438b9cd02d3d5U, 0xdab4de177f15bb17U,
  0xfde20012709d4b9U, 0xfd21dfe3fbf5424aU, 0xdefbea10d42019fcU, 0xe1c50851fb18ee26U,
  0xcfefcfc61e29f231U, 0xdc380237fbc70827U, 0xc706d5020939ebe2U, 0x39e01e13ee1c4210U,
  0x612681ddef08cf03U, 0x12fd84030018cef1U, 0xeedff8f3343ad427U, 0xa7d0aae3f30e08f4U,
  0xf7da1e2f179ed9ecU, 0xb81e17babd3bdbecU, 0xefe6c71517b836d7U, 0x462bf5a98dfd1803U,
  0x260905f823fdd21aU, 0xfcd119ec19050a2eU, 0xe5ef1bff1c0fef30U, 0x1effecca0ee91104U,
  0x10f1d324e9fff6f1U, 0xed24e701231f30e9U, 0x30e615db1ff6dcdaU, 0xfef235d2fef72e2bU,
  0x13dbf9fe26031712U, 0xd7f6f0140fea041aU, 0x13f8d7ed07811eddU, 0x1f9ebfbe1f9e003U,
  0xfae0d5e605020b06U, 0xeff80d1004c20e09U, 0xf915bee9ff00ee0cU, 0x1df9ea1620f5f101U,
  0xb80e010318fb239bU, 0x14b1f0df280b1f17U, 0x34bde4e3d6810fdeU, 0xc753e907ee3a2e17U,
  0xf40c1bfe0e06d4eeU, 0xad0deb0419ee1e31U, 0x2de190217ffeed5U, 0xf9f592e7e0da21ebU,
  0xb807d9eeccd914a0U, 0x9713da85b1ca4512U, 0xb4eb100b14dbcbe4U, 0xdedbc34000d92534U,
  0xd0d2031a1e14ec0eU, 0xd743cebcada0ef1U, 0xae4f21ebce7133dU, 0xf00ee22dd9242637U,
  0xd232f1c9f52ff137U, 0xe9f4af28090deb3dU, 0xe00add9af024c215U, 0xba02e71ec9e5d82fU,
  0x2ce0a6f62ee6042fU, 0xd8f618d133c4ca2aU, 0xa2bec7e7ddf131c6U, 0xe3dbbfd30ee35a4fU,
  0xc9eaf60a2616f6e1U, 0xf3e7f35bb80dd3feU, 0xff311905e9ebbcc3U, 0x81eeeff7f3c6b207U,
  0xcf12db0aedf6edddU, 0x9ff6a40d05e609deU, 0x4af3e0d4f8db0616U, 0x9506e9f5200e12f1U,
  0x8119f11403f4c11fU, 0xece10e1be3232037U, 0xede3f0cbfdbad404U, 0xa2cfddefde19eaf3U,
  0xf02aaff426111920U, 0xc9fcf3220d1206e6U, 0xb4d1eec5e6f6eda1U, 0xe7edb7cd2021152dU,
  0xd6b4fbfb411416caU, 0xc9e223f5e9cadf25U, 0xfa0fd214d4e43e1eU, 0xec0a0f07a70ec330U,
  0x318fba932feddf5U, 0xc7d9f0fff4d911ddU, 0xf03b1a1fac4dcf2U, 0xd012d21d2a0a09dbU,
  0x10fc0cea06e5faf1U, 0xea47f8e504fdfcb2U, 0xedf30a0a100ae9ebU, 0x10f30f1a25181df8U,
  0xaeb0a27f907fc17U, 0xe32bded1c5240504U, 0x1c01f8dd1de10e03U, 0x10101b20fdeb81d1U,
  0x251c082401e01419U, 0x2926ff11fb41e900U, 0xedf7fc220c3aec05U, 0x50d16c8eaf6eaecU,
  0xff1afaffed05f8ddU, 0xe9ff39f2f41542f3U, 0xb1aeb38f6f7daf9U, 0x34e913c1d3dde727U,
  0xa6f2201e151bf8f1U, 0x1e2de61e041b1f04U, 0x1424e9cbdadee207U, 0xf1e8f518f9dc1aeeU,
  0x3d1cdb10000215fdU, 0xe035302c1ade2311U, 0xa2ffd8d5f8162cd1U, 0x20168bc92918fd42U,
  0x2ca0306ff0d19faU, 0xd0d5dbede0141502U, 0xc80405042b27e711U, 0xba0d1620fc120313U,
  0x72d1dec1ddce8f6U, 0xf211daf6200a1128U, 0xf5eaebd30ae3082aU, 0x81e8f3fec901e9e0U,
  0xbde7c997e50834ecU, 0xfd190f11fd05d0b8U, 0x8195d4ec0525d9b3U, 0xe5daea030644efb5U,
  0xdf7daf99ccae607U, 0xf0ab06c4eaffaefbU, 0xd0c8efbbf8c8c4ebU, 0xc4f40f3106edade2U,
  0xd4f0f2eeacfffcecU, 0xf809f43808e914fdU, 0x1207cbc7bb23faddU, 0xfdff16503f1cf16U,
  0xc4ccdbc815e6b9bbU, 0xdfca61f7e8f5d3d2U, 0xca9edd18e5fbacf8U, 0x1604153021e9ed56U,
  0xffffff21fffffedaU, 0xffffffbdffffffb3U, 0xd1fffffe57U, 0xfffffffb00000063U,
  0x12fffffee6U, 0xffffff08ffffff70U, 0xffffffc2ffffffdfU, 0xffffffa0ffffffcaU,
  0xffffff8bffffff6eU, 0xffffff33fffffed6U, 0xffffffa8fffffe8fU, 0xffffff00ffffff04U,
  0xffffffe9ffffff75U, 0xffffff1cffffff40U, 0xffffff8dffffff38U, 0xffffff54ffffff58U,
  0x806270912fdfc3bU, 0xb11ea151bfc1deeU, 0xb8fb19081b092c08U, 0xd530faef15fa0219U,
  0x7f509080aec012fU, 0x240ff83f08130b00U, 0xe6fdf80709f1290cU, 0xd429fc0e340409f9U,
  0x211ed6fdf23a0628U, 0x18f9051d0a292505U, 0xd8fbe6c7432d2efeU, 0xf03ff4213f051504U,
  0xdabcff020fd7020eU, 0x2c00ef0107fad306U, 0xacfefed4e50a1afbU, 0xee1e061d04d80fd9U,
  0xfab2d200f6c00524U, 0x2f22f61208efda07U, 0xcef2dfeac7f109f3U, 0x201216fce9ee13beU,
  0xe1e88a0ce1f1f717U, 0x817fc20011aeeedU, 0xcdf1f5afee291ee4U, 0x1d130c08f4f412d7U,
  0xd3bddff708e40503U, 0xf6efe6d40bdee6faU, 0x9def25bce8101012U, 0xeb000f0011c509feU,
  0xdba4b8fcd6dcf6fdU, 0x907f7d011ff0bf7U, 0x9bfee2b0ff0c0de9U, 0xf8f31a3a0fd22cd1U,
  0xa6e6810ee1fa0aefU, 0xedf8f1edefec0ce7U, 0x980af6ec1f0f17deU, 0xe8111b0cf9dffdfbU,
  0xd817de1730270cf0U, 0x25b818acade51803U, 0xe30a133ae40305dfU, 0xfe02dae2dcd7c211U,
  0xae1ad6111d2e0ae4U, 0xd1e02f8ad2f226f9U, 0xe7f327ee021f0420U, 0xeb0ad6e6fdf0b419U,
  0xd230d11d4324fd07U, 0x100830ba05172b25U, 0xdb00eff9044ef81cU, 0xef0ce8d7f929bb35U,
  0xfdd5f1110fe2ffd0U, 0xfcddeffbafae7efU, 0xbffae6f9da0d0ff2U, 0x8c7dddde4eda7c0U,
  0xeae705f5f2fbf1beU, 0xf3c4f5d6d219f2edU, 0xadf43ee1e027d6d8U, 0xe9cfe9dbede081d0U,
  0xecfaf7fa361b03d4U, 0xc6f6fad0f8d90cfeU, 0xadf4ddccd10bdd0fU, 0xe1d5bdd2dd06b90aU,
  0xc0a83bfb18aa11b7U, 0xfde7e820f005b9d8U, 0x1704d1cdbbf9d2ffU, 0x12b8a0f0eddef7adU,
  0xd6c63b0a28bc0eaeU, 0xf2e0e615edebc2cbU, 0xed090de9a520e5faU, 0x16b9d0e0e60cdea8U,
  0xc5d22cfe22dc11b3U, 0x90adf27c12d0604U, 0xfef820dcca13ddf3U, 0x15e098dddc11f0cfU,
  0xf0e209ebdbe8fb16U, 0xed3beb2513fbf006U, 0xe09f50a0620e7dbU, 0x2206bae820f6c9feU,
  0xfe120de1e0170319U, 0xf2050ce717df303bU, 0x18f22808d922c1faU, 0xe2a81f6072e0917U,
  0xf035fe03e823fe28U, 0xdfb421dc07114205U, 0x6ebf3de1533e7e0U, 0xf2ab14906120d2fU,
  0xbb4f0f4eacd03caU, 0x1c2e06f515dac32aU, 0xe8fae5f50803b8ebU, 0xeef2d5f907fef7faU,
  0x14e0050ae608f9f2U, 0x11e1f7a302e5e52eU, 0xfdea3cecca15afdfU, 0xcfc96eafe1612f8U,
  0x50cf71231feff0aU, 0xe5daf0c5e91e2621U, 0xf00d37d9f409cddfU, 0x20feec27faea0c14U,
  0xfd8304042bc00bdeU, 0xe749e43518dfce23U, 0xd6f1e0c005fcb1f5U, 0x4ce4cae91b23f1e4U,
  0x3d00c0d03ee02c8U, 0xc2b5d10cb9d6c308U, 0xe4f4ebe4f11494b9U, 0x4fd9a704fd34d5faU,
  0x21ed161413eb03f9U, 0xe0cee823d31ef505U, 0xdcfa32ecdfe1d7c5U, 0x3ff0eb170106f8fcU,
  0x32c0e5ee21b5f331U, 0xee2725c9181cb0ffU, 0xd00febe3fe162c09U, 0xf509d40bf62d08fbU,
  0x2fdf090023d70610U, 0xff060fea1213e101U, 0xc70502f30a280d13U, 0xfb15fcf8f93515ccU,
  0x9dc230c26e0f823U, 0xee0ff5ff14f90900U, 0xa4f907bdf4042005U, 0xeaea05ead93718ddU,
  0x25daed0702c601f1U, 0xfb1705830b1ad0e4U, 0xd208e0e0d93f12ffU, 0xf0ecc80f0705db09U,
  0x12000d10d3f10ee4U, 0xfa05f5a0ebdbf5e3U, 0xdc09dde7ed04da0bU, 0xc9f6d702fb070607U,
  0x14d2ff1ddfe0f50dU, 0xf703fbed08d005e9U, 0x8406f8a3f8fed90eU, 0xceeeda0bdc29300bU,
  0xbfb030304fafbe0U, 0xf1fdf626081618feU, 0xb0f8be810236f409U, 0xf603d4e200dca424U,
  0xfc20fff2d00df6ffU, 0xeae70a14f32328e2U, 0xb8fbd395010df5e8U, 0xedfdc2fafbead53aU,
  0x506e8f2ef050d12U, 0xe9fef42bfee729f3U, 0x9a0904941c10d2dfU, 0xfafedbe7f8f8013eU,
  0xdaa8d5ebf1f71931U, 0xebec02f7810cc9aeU, 0xe8231bedf1ecf8b4U, 0xf1f6f40010c40ef3U,
  0xd4c9f5e1cef1ea02U, 0xdce1c203cb1614d0U, 0xf6ec0aafedfbe8d8U, 0x1c0cd1d619e1c3b2U,
  0xc6c9acf70a0212daU, 0xeeddbfedc6d3d511U, 0x8e517fafa1538a7U, 0xe809f015f316dde5U,
  0xb3ece2e1f1beecfeU, 0xfb99fc1dcf19f4f9U, 0xcb1d10ae45fb2baeU, 0xd80101fe2db4e8c2U,
  0xbcadbedbedbe12f3U, 0xe2d2f815e8ff16d0U, 0xd41424bfe4f2071cU, 0xf0f6f9dd27ebf4f3U,
  0xe0ccb61d0bd0103dU, 0x1fbc9fdb14ebc023U, 0xe60005ad41eef026U, 0x16dd193cbb0315f3U,
  0xf8c6e70cecc601edU, 0xd4f5c911f1d8f627U, 0xe41424ed060bbfe3U, 0xe0c204f1ec13e81cU,
  0xe1c309e9ebf3eae8U, 0xeabfc1da02dff9U, 0xe3140dfdf00efb03U, 0xe4d604081c0ed731U,
  0xefd2faf8ffd6ddc9U, 0xc01b8e2fc19d3b7U, 0xda24ebf1eb17c8eaU, 0x7eaf40609ecdaccU,
  0xf7ce060f17e0f923U, 0xdb01c7040fea1de7U, 0x1108dbd706e308fcU, 0xe72ec50c0510fcf8U,
  0x30e500110cee052aU, 0xf601012308ee2ff9U, 0xa0920eb27ec2f1bU, 0xe31df9041d1920f1U,
  0x41e5f2141dee0a1fU, 0x1000e8160fd7f7f5U, 0xe00021e90b0e0535U, 0x17f40624253000U,
  0x28ed80825b9082bU, 0xeff1ade1f6fde9e3U, 0x2d00d8e6e616e2ffU, 0xfaf5cef7f415dcf4U,
  0x19b4d41c1df0fd0aU, 0xf7e1f0fbef010ce4U, 0x26fd1ce615f7e40dU, 0xf819fcff141c0efaU,
  0x1b9ec0101eb8fae7U, 0xf0d5f1f4e6def8U, 0x180937fdeef7d222U, 0xaf309ede5090a02U,
  0x16a0d0fd1dcd050bU, 0x10f481fd0609d8efU, 0xfbf2e6d3f60bc41bU, 0x5dcfae5fb1dc613U,
  0xeb5baf12dde0010U, 0x26edc20705f305f5U, 0x6e2c80900db10U, 0xe7e827d3fa02ed2dU,
  0xea1a9f121cbf60cU, 0x12f9bf17f8f1ed10U, 0xea0439fff6e0e31bU, 0x16cd16d5ef15f131U,
  0x2cddea1919d111f8U, 0x25d5ff14f2f7e7fcU, 0xb2f533f7edf1e70dU, 0x7d43ccf02fa1fc4U,
  0xffac3020feb01f1U, 0x25cd1b14defde601U, 0xe8fc0821fed3ebe7U, 0x2fd910f305ff20b9U,
  0xf21de00e09f8fcbdU, 0xbc510e6de2bdafcU, 0xda0001d1fad8f9feU, 0x28cf14bff71719baU,
  0x130fe11b0fff0de3U, 0x13cf0f1ef9230a11U, 0xb10417e1e9d61f16U, 0x20dcf0f0f5100ff1U,
  0xd024e6fc080704daU, 0x6d11b17e44c0707U, 0xb70a09ba00e73f08U, 0x2de103e5fd3404c7U,
  0xe9050ce60418f9d8U, 0x9e4ebe3f235061bU, 0xa005d9c1e3fd3917U, 0x22d204def73903d0U,
  0x1fc05f109fafe0bU, 0xfbb6e125db2304e2U, 0x9efc15d1fec601d5U, 0x18eee90511f0ddefU,
  0xd3ec1912f9f70b07U, 0xf2c0d12dfbf505dfU, 0xd7fef5caebf309ffU, 0x1ceaa418f5fcf1ecU,
  0xf308261ce104fefcU, 0xfcc09f24eede1bcaU, 0xe9f60edde3dfe500U, 0x1f00810ff712d9f8U,
  0xebfedff4e304f7deU, 0xdef3fad4e0f6f3ebU, 0xea18d7e40b06dadcU, 0xc70807f0f50597f5U,
  0x18f4e6f10cedf5e5U, 0xf82a09e7f90bf4e5U, 0x17f3f60ef316ecf8U, 0xd9eb10f1eefbd5e3U,
  0xf50208dab4ef0afbU, 0x1c5305c20c12e90fU, 0x19f72b25f6ff052aU, 0xd7f7fbfbfd3502e0U,
  0x1000f3f2e210f3c4U, 0xf8f4b93100ff0521U, 0x83faf0890cefe704U, 0xe1fcdcdc14fb8115U,
  0x9ecdf170bfdfbd9U, 0xf8f6fd1205f6ea21U, 0xcaf9f5e8f7fa04f9U, 0xf1efe2f7ff0adefeU,
  0xe8e8c4edfbf5fd06U, 0xff1617f616bce326U, 0xf00eefb00ec0c11U, 0x1501ff021c372e0aU,
  0x150906220b0803eeU, 0xf5f7ce0c163215feU, 0x8d07f5ca201d0d0bU, 0xd90736e4f0f5d108U,
  0xf7fc2108fdfbebU, 0xcfeafb20051d04f7U, 0xda0308df0a1904cfU, 0x8f5f903f3d0dc09U,
  0xf70300c9d1070ddaU, 0xc6c43f29ed11f51aU, 0xfb07f7fef41afebaU, 0x23f90ef006d92e0aU,
  0xe3d502fd07e8fb15U, 0xf4253d151640f002U, 0x20a110d2a314523U, 0x1f1f6d51135f9f8U,
  0xe5e01d0507ea000cU, 0xe314141f0d1ced11U, 0xe208fe121106251bU, 0xf4f806f3df3ce40aU,
  0xc2093affe00ef10cU, 0xdff0dd02ed081be5U, 0xe01404ec132318efU, 0xf5070deb051ad501U,
  0xd6e409f0f9f7fbf1U, 0xf02026d21af4edffU, 0x11130ef927f01c1cU, 0xe5f9f6e7100f0bf7U,
  0xe4c51be61ce2fcdfU, 0xef01ef10fffbfa0cU, 0xed060dfe00f6f503U, 0xe4e8faf2f639da18U,
  0xebeb17feb90300fbU, 0xe6f0d3c3fdce19f8U, 0xb21420bb09ebed08U, 0xc902c3f30cfccc19U,
  0xd11b1300f11ffce1U, 0x513256cfef424deU, 0x28ff02e93f1143f2U, 0xef22ea0807c9f124U,
  0xf3fb1a041c18f1c7U, 0x9bff348eb1113f6U, 0xd20cf1be1af300e1U, 0xec0308eb041cc42eU,
  0xe8fe0d02ce110ef6U, 0xf1acea2bf3271f03U, 0x810607a122f702dbU, 0xf40289fb19e3b81cU,
  0x16f32bf60e2f1035U, 0xebf7f5e115d40a1aU, 0xb8f7efc32bfb21fcU, 0x253407022b2d3208U,
  0xfc3130005d90720U, 0x1c03f1f608f7dd05U, 0xf8fcd1fbfc1eef04U, 0xf140011173808f8U,
  0x17fcd9091af6f317U, 0xfbe1e6f4faf107faU, 0xadf5e7900b07e6fdU, 0x2c1c0dfd160f1403U,
  0x20f31cec11130415U, 0xff1cf9eb1424f723U, 0xcef6cccc22fc0a09U, 0x1b3eef0a1c2314f5U,
  0x9c406001ab6020dU, 0x10000ae806f8b0f6U, 0xdd0ad9e1e7e9e2fcU, 0x161cff21fc2131dbU,
  0xf9e7c51e05e203e4U, 0x1ae6f40bf021f200U, 0x99f9cd9ce3eaf7ebU, 0x3f0901f7ed0f0ce3U,
  0x1ce7cdf3341a0e1bU, 0xed10de9f1520f30aU, 0xb6ded79532bd0603U, 0x322807fdec16fd29U,
  0x29cec7011fe2f71eU, 0xd006fdba0329d10eU, 0xcff0cbaed9e6ece4U, 0x4bf207fdd20d19d7U,
  0xffe6b7f8fce4fae4U, 0xf8f1b4f7e5f6fafdU, 0x81e102abffc2d104U, 0x46e4f8ffde1bf7faU,
  0xfaece2062720f81aU, 0x1900fa2af20c1a0cU, 0xfdfa14f72a031702U, 0x3eef0100405080cU,
  0xedf0e0011812fd06U, 0x1f09c91b0005200fU, 0xfc0a120410cdef18U, 0xf3e5e205f211071eU,
  0xe3f1f907120af522U, 0xa17e02419070e15U, 0x306ed0604f3f027U, 0x5d7befa1b1ff012U,
  0xe7eed0ec1c05031bU, 0xfa0ae21c02f81015U, 0xfef8270a11031009U, 0xe3faf7ea05ff17f2U,
  0xf5dda81e1af804f6U, 0x2516a81f16ea2712U, 0xe90210eb10e00923U, 0xceedce5fe05f502U,
  0x17e6b20a08e2feecU, 0x1004990f0eedca13U, 0x1a07fe21da02fe09U, 0x2e7a7f8f808eee2U,
  0x3e7a5ec2d10000eU, 0x30eabd213f20f17U, 0x4f1031c27040f1dU, 0x7eff7181cb118U,
  0xd4ddb215110602e8U, 0xf1986951ed4ee1cU, 0xf8f61914ffe8f221U, 0x15f8edfffb0e9926U,
  0xe6f4c908080205daU, 0x1609818cfee7d319U, 0xb010b23ed00ef16U, 0x7d0a417f0f3dee2U,
  0x46d1d41bb7080713U, 0x37babb1ec8cc27d6U, 0xc5fce9f9d0f7ccd4U, 0xcfd8deeedad111f2U,
  0xd4e5ca03fff9f42fU, 0x9d4d00bb60b2aceU, 0xfe07e7ea2505e0c9U, 0xb303c7eee424f1caU,
  0x229fb3ff05abfa81U, 0xe51c13bbd3dbd3d8U, 0xfdf9e6a3ff0ba5e6U, 0xd5cdc786fbe3353cU,
  0x2cafdfe8caf600ddU, 0x21cbd634dec2e0faU, 0xebf0f1099efe96b5U, 0xd9dae9d7ddf106dbU,
  0xaed5d9ed15f6f727U, 0x90eb7f9e6e3fc00U, 0xfbf7e90e16ecc9ecU, 0xb708d6daeb38e9c2U,
  0xe9b1e402f6c803afU, 0x1d90ecd9bf7bcd2U, 0xeafe02eaf9e9e6cdU, 0xcae1fea80fe631e9U,
  0xe0c3b9f5be05f625U, 0xb4edf23425d5db24U, 0xf0e5fefa9510a81eU, 0xd9fff4fad717e005U,
  0xdae0f800e9120815U, 0xe212d82f19bceb1bU, 0x7f0f018230e9302U, 0xc00ad6f4d211e8f0U,
  0xfaeae301dba1f5e7U, 0xdeef1cecb2a9d1dfU, 0xfb15f0fddce3d9f1U, 0xcaeefcffe6112605U,
  0x660fee0ff70b1534U, 0xe30de5f4fe1605daU, 0xdffc28d639fc3d0bU, 0xe514f4062dd326f0U,
  0x511bc1e9e5fcfae5U, 0xdfdeda18bd2bcdbcU, 0xfafc2af441fd32a7U, 0xeeefea30e0f5edU,
  0xbcbacb17b7d006d0U, 0xc8920bc3cc16fcd4U, 0xeeedec1a2e0cb0edU, 0xfeced4d833ec24b4U,
  0x110013f40af0f95eU, 0xf4f424d2b7f62ce5U, 0x12112da64af429c0U, 0xdf23e1333ef93efbU,
  0x390cfcf0c5f40025U, 0xefdd05a8be05d21dU, 0xe6fe4df0410028dbU, 0xdb14f215fb051dcbU,
  0xf8d8c90790020fa3U, 0xd9ab13a7dbe32200U, 0xbe31e012025abebU, 0xd50a11d60e2120f1U,
  0x19170a14c1ea0461U, 0xe42614ddd5201b27U, 0x40e09ed19fe25d2U, 0xd221d3291c041b0aU,
  0x1a02602282fffb22U, 0xf6242a2d0114ed44U, 0x16fe66df3af62f08U, 0xd5291411002b06ecU,
  0xdbdc03f9810af1b5U, 0xee0a169be7e50b2fU, 0x11fbf6ec1c31aff5U, 0x9a4336fec92b0ce0U,
  0x17af05e5dfbcf705U, 0xe0c91702d50a0af4U, 0xcaf0d2dcde2bcbffU, 0x10eed5f110eb03a6U,
  0xf5cbff11a2860721U, 0xdf06d41cedd1d6d1U, 0xe0290fe820d4dc20U, 0x9c60007fb0acfb8U,
  0xd59ef524f4a4fe4fU, 0xf719ad1d05ef10b5U, 0xd0e005d9eef121fcU, 0xe0a5dbc2e1cda7d4U,
  0xd5bb32ded494d6f9U, 0xcc5ffe9bed4f4d3U, 0xb902e3b6c508f7d0U, 0xd5fee9e6d70cd3c5U,
  0xdad6f8ee25a60ad6U, 0xf4afeb2195dffdb3U, 0x81fde2c125dee6c8U, 0x29e007c520e7e7feU,
  0xedead3f60ab9ed0eU, 0xcfcec3ebee02b0abU, 0xd60b26da181ebdebU, 0x23060606040ef2f3U,
  0x18bfe21ebbdbdbbeU, 0xd9ccc29d9a07fbccU, 0xc41c2edaf70301dbU, 0xf1b8a70de8f1cce0U,
  0xf7c1e20cf6c1d318U, 0xd0d99de40119e7d1U, 0x9516fce7fb1f1cbfU, 0xd0ffe6f2e108b2b5U,
  0x11f81d2bafd6e430U, 0xf0be3428f9e8e7a4U, 0x8929ebe6fd15d4ceU, 0x45a7a01530f2b0a3U,
  0xd505f1f41701060bU, 0x514e40af1f10dd2U, 0x9601e681f62d0fecU, 0xdeef1cf519f5f709U,
  0xd9fb0cd82001f706U, 0xf6fdf72a0dfbfdefU, 0xd7091aee061dededU, 0xf5ef02d2f3ffe909U,
  0xef052ae7f8f5fcefU, 0xf5e7121b1a0ce903U, 0xea070fe702eae0f0U, 0x3f80008fa14f204U,
  0xe214f3eaff0bf90aU, 0xc160bf1f52213e1U, 0xdd16f7f4f4041de0U, 0xcef82210f8d9fe02U,
  0xff0ce3d81713fbf8U, 0x1de4090df3290c09U, 0xe10f1e320e1009e3U, 0xdbfefee6fcf7f31bU,
  0xf70507e0f1fc04fdU, 0x1e9e21ff1effe80cU, 0xf130f1df729f1cdU, 0xdefe1d10051b1302U,
  0xbf100302f906f504U, 0x1d24f0c5e424fee8U, 0xe41c12fb01131fc7U, 0xbe11170f08d3e00cU,
  0x50a03dfe8030306U, 0xf9f31bebfeffff0cU, 0x11f52b16fcf4fdd6U, 0xc8fcfaf50cfaf202U,
  0xe90507dbe701fffdU, 0xecc33ce5091cf813U, 0x1806eefdf20701d3U, 0xdcfb041b00202c02U,
  0xdbff10fcf2100ee1U, 0xd08c0826900e06bfU, 0xd512ffdf0c1019b0U, 0xe80ff50609e8d4faU,
  0xd50101f8a51504f7U, 0xd481dff2be341586U, 0xba000ad31eeb13b8U, 0xf81d070a17ad95fdU,
  0xcb04e9f6e40ef6e8U, 0xb8a3f2f2c5e310b6U, 0xe40904ee1bf80ce5U, 0xe4fccf1afac8920cU,
  0xffeb250f1af3f2ceU, 0xb993f833afc0dfd6U, 0x4fdecc7dd03dbb9U, 0xdd5f9adf2f8ebddU,
  0xf80009f80109f1edU, 0xb698e22ab5f80cb0U, 0xd4f7f8ca100e1bb4U, 0x6f8efddebedd8f8U,
  0x240a0f133012f7f6U, 0xbbc0d8fcf6de2ad0U, 0xc7fc0ad012f4efefU, 0xfc0713feda28fc23U,
  0x72a612f049c704efU, 0x6e5290afae7d7f7U, 0xb080f94eb0bf20dU, 0xd9f216bcd53032e4U,
  0x73b2fde762b9062eU, 0xa181e18cfe1d7fdU, 0x2f6e3a201ff1ae5U, 0xdee627c0e40e4bc0U,
  0x4afff528720a0101U, 0xe60b0de5cd0405U, 0x3e2f0bce30deeecU, 0xc0ea04d5ef102ffdU,
  0xe6e02327c50efd17U, 0xdd1ede3e071bf312U, 0x25f3161e05bfd6e8U, 0x6b0be8fa16f001ecU,
  0xe60100feb930f41cU, 0xecf4d80c0c011148U, 0x2306d60b17d406f6U, 0x661abff31190ef01U,
  0xc43406ffa623ff43U, 0xf5bbe4e4f0eb24d9U, 0xca0bebaf2c0820c4U, 0x152ffe0eff97ea29U,
  0xc8af121e04b9fcddU, 0xfa0f0630dfeb8e13U, 0x21f1ea1bffdaad05U, 0x21ce37fce40411b2U,
  0xae9eff4e1e6f5f2U, 0xc3cfd6d6eae9b8eeU, 0xdffd812ddd3edf5U, 0x2202f505f1b019eeU,
  0x12ed1fc1fffd0dU, 0xe2cede0a0cc706edU, 0xd509e1aafe07fc01U, 0xda121c08f6811f28U,
  0xe3c50a1708e1fcccU, 0x140ffaf9f2c5ce2bU, 0x1207ea250ceea6ecU, 0xe3d0a8e8ebd9a011U,
  0x31e8f704b3f2f116U, 0x18e3bf2ae6e0d3f1U, 0xd0e4da0cfa0e1ce9U, 0xeaff0729dfabe8fdU,
  0x101e10aa602fc07U, 0x9d2dfde0cef1324U, 0xf211fcbf1cfafa07U, 0xbd1f04fff6a22a35U,
  0x9dc25f22be4faf8U, 0xdce2e61bfb00d0efU, 0xf703fafcb6dbf306U, 0x1fd2f8f5dbd8fabcU,
  0x1b0f32fceaf60727U, 0xebb5e938d7f8edf0U, 0xf0081608ee1622ceU, 0x4e8e227f5abe8f1U,
  0xe8050b04cc0afc00U, 0x591ea10ecff09edU, 0xcf0ed0e171b0fe0U, 0xe003c9f504ddd30aU,
  0xf8d5ce040fe901e0U, 0xf7cb0411d6f5e4fbU, 0xf2f9050bc7defae9U, 0xf3eceddefeeb00d3U,
  0xd03f115dff4011dU, 0xfa811d39a718e804U, 0xe9fffef8f41a4abdU, 0xf8f9f6330f2100d4U,
  0xfc000908c4050501U, 0xf490042cd11c180cU, 0xfcf8ec00220715dfU, 0xfaf9f2f6123cff0bU,
  0xe3f2a4fffb0606efU, 0x131edd04fafefeU, 0x8120507e9ccf305U, 0xf1f904efe7003003U,
  0xfd21cff6eb04fc16U, 0xfd0e1ff8f820050bU, 0xf906f70ffc2723e1U, 0x905ec28fe150aefU,
  0xfb19de02ea09090dU, 0x1b1209f1091416f5U, 0xecf6d9062022fcf9U, 0xfd1808e2fb2d0c0dU,
  0x310203ede3f80a22U, 0x521eb301df2fd05U, 0xe3f9f1f92fead117U, 0xf6fdd7f4f9f7f8e8U,
  0xd3dec2f40808fb10U, 0xe210062b25ebf30dU, 0xf1fff1bdf3faeaf9U, 0xfb0422dde1e712e9U,
  0xb006fd12fb0f0d29U, 0xf5da080b01cdf5f8U, 0xf00900c108ca01f0U, 0xe502e40603caf702U,
  0x9d80fedc2d7fffcU, 0x322ced905e9d102U, 0xebe2fe1bf6fae204U, 0xbbfeaeff10dedce1U,
  0xaadccfecffed06fcU, 0xeeef11fc09deeaf6U, 0x19f7e3d2de05d0fbU, 0xbcde0e04dce822eeU,
  0xb4fcee02e603fe01U, 0xdfd42011dfd3ff01U, 0xcfb24c901f206e4U, 0xccfa20fde9c61b08U,
  0xcc12de03c615f30fU, 0x181bca940519fc26U, 0xfaeb1f3129d214f5U, 0xb201ce0410cdcefbU,
  0x9104f3f90010fb13U, 0xe8d6f981f621112cU, 0x204ea0b1c0605f6U, 0xb817dc10fa00f914U,
  0xc804f619fdfc030cU, 0xf1e11bdf06060010U, 0xe40f20ab1cf72204U, 0xd309001502d80718U,
  0x4116edf21bf1fde2U, 0xe90f814ef722ffd4U, 0xa1f13da90be30027U, 0xb3e907c304c2b60dU,
  0x110de6d50e140809U, 0xd00cc93c26320dc2U, 0xce04392b0fe30f0eU, 0xfccd16d7dba8c312U,
  0xdc0bbee4a902f9f8U, 0xf70d14ac3616fb08U, 0xdefd2e0621e4dafcU, 0xdfe6ff05d7ed0bfeU,
  0x17f820fa0ceef7e3U, 0xa20cc11011b09d3U, 0xd0fcf2bf08cd0d10U, 0xbe0912e6f8e8c30fU,
  0x1b0e0105130b0ce9U, 0x8c10f2008151ee9U, 0x1105362004f24217U, 0x19ef07e0f39def19U,
  0xf914ecebb421feffU, 0x1bb542b8ff1eff1cU, 0xf01013f12524fdebU, 0x60617fcf6f02224U,
  0xd1fe22d233fafdd1U, 0xe72fffd0150609d6U, 0xf319f1f0ede806ffU, 0xb4f9f0e2f3ecdd02U,
  0xa01b29efff0cfceaU, 0xd0dc0eff030c120bU, 0x1d1b2a0014fb19f0U, 0xe1f3c503ed0cfaf8U,
  0xc51613f8c30004e6U, 0xd2c95c991807002cU, 0xb030b021a16e5fdU, 0xc0fed80d1b143008U,
  0x8fe61b17f4a6f1abU, 0xd417c6d20510d431U, 0xa010fcbc00fdcd20U, 0x27050a0e075ce903U,
