<<<<<<< HEAD
/**
  ******************************************************************************
  * @file    network_data_params.c
  * @author  AST Embedded Analytics Research Platform
  * @date    Wed Jul 23 12:01:03 2025
  * @brief   AI Tool Automatic Code Generator for Embedded NN computing
  ******************************************************************************
  * Copyright (c) 2025 STMicroelectronics.
  * All rights reserved.
  *
  * This software is licensed under terms that can be found in the LICENSE file
  * in the root directory of this software component.
  * If no LICENSE file comes with this software, it is provided AS-IS.
  ******************************************************************************
  */

#include "network_data_params.h"


/**  Activations Section  ****************************************************/
ai_handle g_network_activations_table[1 + 2] = {
  AI_HANDLE_PTR(AI_MAGIC_MARKER),
  AI_HANDLE_PTR(NULL),
  AI_HANDLE_PTR(AI_MAGIC_MARKER),
};




/**  Weights Section  ********************************************************/
AI_ALIGNED(32)
const ai_u64 s_network_weights_array_u64[35718] = {
  0x7f0000007fU, 0x7f0000007fU, 0x7f0000007fU, 0x4eb2cf20000007fU,
  0x1f4507b8f1b6a01bU, 0x324481fdcb9b0427U, 0xdbc21cf93020f20dU, 0x1b4e2cebf728e0a3U,
  0xdca12839d2a749b1U, 0x3e487550d80ed781U, 0x8dc036c586d7fd49U, 0x993c58ec03ddcefbU,
  0xee482f10a1b0ef38U, 0xe49eeb3e0c7f25e4U, 0xfb1f40ccca7f3e20U, 0x8ebd914d1a3e92cU,
  0x430b0431defcf41aU, 0x7d1b3a77f739fa2bU, 0x50386cd89b30cf5fU, 0xf8c281cfd1a54b1aU,
  0xeb2f4b367fcb3eb8U, 0x35e71b0cfbd109bfU, 0xff30420ac617cefcU, 0x53ffb8b5aafc243aU,
  0x7f0225ad10fede21U, 0xbfb28dcad1156a78U, 0x10c2cfcda7262cd4U, 0x2d7f005806b3f03cU,
  0x57f93deeed233e36U, 0x93fb50b447efb8a3U, 0xffffe731bb90330fU, 0xffffd33300001228U,
  0x4ddd000016c6U, 0x1f2bffffe2e1U, 0xf103d47100000ba1U, 0xb9f034501e1361f0U,
  0xc1a9dffb1728f4f1U, 0x1afaeb71db020beaU, 0xe80d103cf4dc29e7U, 0x3e4513080401d7U,
  0xc74c6f21aee40c2eU, 0xda33b05a14f9f8deU, 0x1072b0017b57fdeU, 0x3e2c24d3d9ddb723U,
  0x29082118f1bee7ebU, 0xd310be0d1601d7f0U, 0x20e120ce0b1628edU, 0x5de0bda19e5d95eU,
  0xfc0805f33b022f74U, 0xd6002b1af02f49f9U, 0xf495db2235e1191aU, 0x18f2240029cb347fU,
  0xf6baf13107dafd33U, 0x2e3efae3340f301U, 0xdbb825bb16f10b2cU, 0x1f27d81917dfcaf9U,
  0x1758db4f004c00b5U, 0x2334130bdd25d21aU, 0x584d120ec0118107U, 0x576b332edb07dcd0U,
  0xd86e1cd7e82f10efU, 0xc24524fd08ea80cU, 0x16522ff7eb2c3ef8U, 0xf1540e15ed2bd0daU,
  0x117f086bdf4f14e2U, 0xe7a05efff521bb9U, 0xe366f4f9e716c2bfU, 0x275032f0d04b41f8U,
  0x222f1106c82117cbU, 0x10ff2301fe21ffb5U, 0xd5fde2fd141029cfU, 0xf2fc12e6202620d4U,
  0x30efefbc2009f859U, 0xeadf00260716e23cU, 0x4f9fd152b001281U, 0x1a11f9e10eeec9eeU,
  0xecf6a52200d3c034U, 0xed2dc9edfcdb238eU, 0x2d5a1d07e603d7afU, 0xcf07049ce548af0dU,
  0xc2e1eb0ceefa1222U, 0x714637fe12100f0eU, 0x21da15027d0700beU, 0x680ceeb5de25d953U,
  0x48ead8df171dbefdU, 0x359dc4a771f4de0dU, 0x56e818cbcb0ee87fU, 0xa744e3e23726e5f6U,
  0x253f072404f718dfU, 0xf0dcaffa3c37c8c9U, 0xa00febdc01fa223bU, 0xdeecc3d8c8fcdee3U,
  0xdd4a0a3381d8ede1U, 0x4e0940f7dc44cdfaU, 0xefd165fa1fe10d1aU, 0xefc4e7fd23af0803U,
  0x37edfa184b55184bU, 0x210efdfb29e036e0U, 0xf65cfd1af0e405ddU, 0xf126efc4d4d408f2U,
  0xdaf4a1d92f1e45beU, 0x2656c51cfc8c14dfU, 0xf25732c8261402e6U, 0xe926e41ae5311fccU,
  0xfa73f027d1c61d81U, 0xd8e9b8bd2c24ffb5U, 0x45a700f0c9a20af8U, 0x3fe34041d3f1066aU,
  0xe9c3cbe8ea381b62U, 0xbc4144cc71e102cU, 0xf1e72751033cab50U, 0xc621d9f01826e24aU,
  0xe004117fd3fc0812U, 0xd72ccd63e74dc114U, 0xb6c054de639f90bU, 0xf8ed05e5d40bea03U,
  0x130ce2c810dc0ecfU, 0x17d0eee342a6dbfaU, 0xfb2004d40602ff19U, 0x1ffec0d7f4e519f2U,
  0x27fd06fe7fe02be3U, 0xafd08c761240705U, 0x5dadb0d07edfcfcU, 0xfce5e5da321b27e2U,
  0xd415440b39f51c03U, 0xe9e0b599f062cbfaU, 0xf8d2172408a31b09U, 0x25f45e01e441cd05U,
  0xfbf2e7b63c37fe0bU, 0xd8e41310d013bf31U, 0x4df923090c2328bdU, 0x5b2a3bf8de290e25U,
  0xd0d62df0107fe1e3U, 0x1c5e1703ffb632dbU, 0xf6e7c7c14a03f3c8U, 0x14291e142a813bceU,
  0x868fa000135dc1cU, 0x1a38eee633d21abbU, 0x5fbeaea18b304d1U, 0xd436f60428ebf5feU,
  0x33340b12d3d108d2U, 0xca18270917fbf3c0U, 0x2dde9e4626f41ef6U, 0x213928ec18202c16U,
  0xe4d5e6290b32e8f7U, 0xc43cbd17ddee554fU, 0xe0f638b5dd251ad9U, 0xd925e400cbe8fdU,
  0xbd6f3a39d01a7f0aU, 0x11351525e4e7e0abU, 0x57a7cfac3aa225c7U, 0x61d09014403e859U,
  0x42194551ddcdde1fU, 0x36eede2ff723ffcdU, 0xf20d33f91dc9c702U, 0x1fd456e96a092cdaU,
  0xc8ecb0e63be9ee4fU, 0xcaedfa24d81c19faU, 0xf61b19cefd15feeeU, 0x2e348147e3aea7e3U,
  0xe8a9c5f22475e5feU, 0x3fc82389d68b1800U, 0xe598b3f7f88d8b3aU, 0x1cb4adc0b445e632U,
  0xcbf7f1b0cd81ba02U, 0xcab5121be7900813U, 0x9fee018b6e4561cU, 0x9b9fbba516eccfcaU,
  0x1fd246b70da71432U, 0x53dbea040c18aa13U, 0x152f971cefbee7d7U, 0xc2d6bf2a4b110ee5U,
  0xe2f4accd0950051aU, 0x222f9c392a0224f6U, 0x56d066e5c696fbdU, 0x225616f71a5954e1U,
  0x2f1bfd4e16154de2U, 0xe72dff25167f568fU, 0xffffe848341f65daU, 0x718ffffe1eeU,
  0x3bf9ffffa265U, 0x13ffffff858U, 0xffffce9f00006956U, 0xffffe21e000030c0U,
  0x5c00001ca6U, 0xcee6fffff738U, 0x57f87fe8ffffee04U, 0x1f0142ed13fa2ff3U,
  0xf6f5da0509eb0630U, 0x220edb81d20fc8aaU, 0xb4372fdbe6102fb3U, 0x30b4cc869293cc96U,
  0xa28c852e0c7fb81U, 0x39074c2a1e2e3e7fU, 0xee93f960U, 0x0U,
  0x814557d100000000U, 0x814856fce67fc3ccU, 0x81d1eb31bf81ddebU, 0xc77fe5bffb7f6ecdU,
  0xe7564c81d212b481U, 0x857f98b59ede81a5U, 0x98387f1ac67fadb0U, 0x74491b81197f018aU,
  0xad1b68812a0bU, 0x84ac00008bebU, 0x60fc00007a66U, 0x6dec00009705U,
  0x88ef00003e2dU, 0xa54500007f52U, 0x7df00000c5a3U, 0x3f0000006c4eU,
  0x11cd196400009d0bU, 0xf202ea0cfd0e81c8U, 0x1c4a4927ef29bed2U, 0xa9c94c7f22bac473U,
  0x5b55bfc14bf92cddU, 0xfc5f373a19333af1U, 0xa9d064cf37da81d4U, 0x342232192d307fa9U,
  0x1ecccee12e7e12f3U, 0xe528d9c1f46c0b4aU, 0xa4dcc49dc6e87d7fU, 0x601001205b75b7efU,
  0xa3c415fb2c7f72e7U, 0xcdf66af1cf91ba28U, 0xe7264041437fd0f7U, 0xf7060dfe297fbfdfU,
  0x3909e87f0f033226U, 0x5eb2b05322963adfU, 0x51c64992e042d233U, 0xf1c5f157a063f149U,
  0x1b3ac1d7a3e47ffbU, 0xd881d82a3a29180bU, 0x21a0aede8f608d0U, 0x5fd97fb641fc3940U,
  0x6e95de1d24082f14U, 0x67ec5181613be9afU, 0x20a47f22f70aff2fU, 0xf4ed50b20cc2abf8U,
  0xe9cbcacc1c1eec78U, 0x81006833fc1e2c1eU, 0x3635eae5c204140bU, 0x85ba4350cc1dd67fU,
  0xd81a8b02U, 0x0U, 0x0U, 0x0U,
  0x0U, 0x0U, 0x0U, 0x0U,
  0xa785931300000000U, 0xb135c0bdfd47f62bU, 0x8c187511b981aac3U, 0x152ed73e9a2af081U,
  0x137caa87d3f4d126U, 0xe6b8c3f1aac0fb27U, 0xa83af90c265f81beU, 0x48c19a0d45df12edU,
  0xd82f99d51e092d7fU, 0x81955f61f019268aU, 0xd281cab9813174e7U, 0x5a44336ce3375530U,
  0x852ef30ad11cffc8U, 0x1e031d0e6e07f87fU, 0xd97d86e40ee1950fU, 0x7f1800b7ceae19fdU,
  0x30a3b636f8f5U, 0x142800000f5eU, 0x18acfffff7ecU, 0x8ca000006ccU,
  0x4f8f03f0000072cU, 0xd952b420a6138d70U, 0xcc0f051b1401cb5aU, 0xc4deaa180c38901dU,
  0xd0f5b3f9b806da4dU, 0xe3f7f3d687f3a07fU, 0xf81a2bd8a846d01aU, 0xe8ff0cfef4f6f518U,
  0xf90217ecbaf8f238U, 0x130e0de60123f033U, 0xbe06a7f9f735fcd5U, 0x9ee5c91be0f0fb04U,
  0x56e42113fb81d93bU, 0xef0ae9f3ea45dd18U, 0xc51f1bfee7ef06e8U, 0x35e5ed09119effe4U,
  0x1dea14f7123afd1dU, 0xff237001ee719ffU, 0x281933e30feb2103U, 0x281405e8e165f115U,
  0x902d41eff580ef8U, 0x12ee240718071814U, 0x131c31e6de76e4f4U, 0x14f9eefdf37fdf07U,
  0xfaf014230f0a2a37U, 0x2afc1905f94411f8U, 0x23e5fedcea38f705U, 0xf5fcf43817df180dU,
  0x25d7004d0f272d3eU, 0xebecee2aaf23364fU, 0x55daf634a4460828U, 0x4925005ccc14187fU,
  0xb35af132de174157U, 0x1f3cde3f6ff39ecU, 0xffd30903ca08133eU, 0x1e030400c8350c37U,
  0xe8edbcb8342d2bd9U, 0x9034d2c40a0a6b05U, 0x9e4ae49e051829baU, 0xcb15dbc3f0f1cec4U,
  0x8641d186fca67ce5U, 0xc64f0be30bd00081U, 0xf129e8c7fff906bbU, 0xe0f4eacd0b0317c1U,
  0xc8f505f703ca0fb9U, 0xcd04ac0021eb28fdU, 0xa722bb0527fa44f7U, 0xf2330a07d804f5fcU,
  0xacfcafeff206defbU, 0x812adeede9f113e9U, 0xb82f0f00e6b5f4eeU, 0xe7dcdad415dad313U,
  0xed10070adfd32000U, 0xa2404f322e9e6eaU, 0x11e738d108f2e10aU, 0x50c13e82024eaa2U,
  0xe604041a121a23bfU, 0xafa45d102131712U, 0xfde71cf23627f581U, 0xfbede8161a312cafU,
  0x718e70f0bf921f3U, 0xdf50b07111d09f9U, 0xfef60712121811caU, 0x45d00ba0f50e11e3U,
  0x2df714931dcff710U, 0x37d30dc426dceae9U, 0x35cc148d60c5ff00U, 0x4f0317811efde210U,
  0x51d6ffd744cee5ecU, 0x22f00ae73add051aU, 0x1cd501db1df1e5d4U, 0xed08ccfaf5f9eb1dU,
  0xe935c108fedef924U, 0xf55bf909792d05ebU, 0x2427e1f73d4e24f0U, 0xc6a999ef040f2a48U,
  0xc872b9e2bc2d33b6U, 0xeff607347f2916d8U, 0xf18f9fb352f113eU, 0xd532c9184d3409cfU,
  0xfae6e1ef293927ccU, 0xd1c5cf500e03f7dfU, 0x6981da4efae34c65U, 0x6613d7bd0d413236U,
  0xa8f7dc611126eac5U, 0x7ac8fff427ed77f8U, 0x75de0aaa3bff10e1U, 0x25f5f209ae2e91fcU,
  0xec203207271f0117U, 0xe349221fca2ff9beU, 0xcaf81edbae2eccd9U, 0xbb1e482cdfa2e3afU,
  0x2000442b5e2b181U, 0xf4071213e7f80c84U, 0x3e3f4509e098e4U, 0x371feb2cf21490bdU,
  0xb0ce5e5bc14efa4U, 0x91dec30d2c700ddU, 0x15eae10ad3f6dcf2U, 0xeb6c4311d7f801bbU,
  0xe87f29010116b5ffU, 0x122231de4731d127U, 0xc35d130218f5e009U, 0xd56211eb0be6a70bU,
  0xf231140822e9d232U, 0xe6321fe208eceaf9U, 0xce0224cbf5cbe0bdU, 0xd2e30ec6f4f9c000U,
  0x19fde90c0cc9d10dU, 0xdbe7ffe2fd23c71bU, 0xc2e4eb12faf48111U, 0x3cb2b50ecfd9a123U,
  0xecf0e6c203ffe84dU, 0xc201e0dbe3d2b416U, 0xffc4d9dc21bb9e09U, 0x369dc3d6d9f610ffU,
  0x24c4c0cedb02c805U, 0xfaff368d1a033a09U, 0x2d097fe7f8f4aed4U, 0x1417fce7c548a7b0U,
  0xfee6efd6de3ff9c5U, 0x222436f9db1acdf5U, 0x23e400f0b955a3e9U, 0xf8ddd3fcf021f7f3U,
  0xc00dfd801e8f417U, 0x4ffe2fbbe0adc07U, 0xfd200553f8eb2a0cU, 0x740f422e4290e06U,
  0x28fefcf935432eU, 0xceedfa53b61811f6U, 0xccf22045da415516U, 0xff191eef81685321U,
  0xecfa162fde25f1f1U, 0xde2d091503140419U, 0xdc0903e6fa0907e3U, 0xf403c7fbd03cebe0U,
  0xd901ef06f8adb447U, 0x12411ce05878c71U, 0xb1ecadf9fbc49857U, 0xae0bd20fd0b3ee7fU,
  0x42255e8c88cb763U, 0xecea0626eaf2ba5dU, 0x1af731229ec2f838U, 0x2cf9441ca9d3eb39U,
  0xe7e2b926fceffe53U, 0xfdf50622140765ffU, 0x605161cfc385cf6U, 0xce22b85328047fc3U,
  0xf5f4056e46242b13U, 0xdff3f95c1b483901U, 0xf905d216044978dcU, 0xfb27c15511172af9U,
  0xe2f3be0b311a19ebU, 0x1b1af8be102e18efU, 0x4ad1f0bc1a01c4d9U, 0x32dd4fb04423ecf5U,
  0xb6171bf4320bebf1U, 0x3be0fb811d46d7beU, 0x2bde27dc4122f3e4U, 0xf3f539fe1e09e032U,
  0xe93122f90c15fef7U, 0xf004200e242602f4U, 0xe00b56d00e06d22dU, 0xac2f41e1e517b3beU,
  0xfa17cd34e346dacaU, 0xf30d5c0d0f102e1bU, 0x10224306cd6dcbc8U, 0x232ac311dd7fcaf0U,
  0x1010faed1c09fa24U, 0x10f9fb150304e913U, 0xf0fff222f5fbe112U, 0x46db18e6f6bd0e00U,
  0xd4d405d103d03aU, 0xebdbdfeac110c724U, 0x14e1eb22ed20b9ecU, 0xdd7f3a27da35da29U,
  0xfedbedd49dbeaf0U, 0x100724b0e119edc1U, 0x3351703ebf8d5d8U, 0x20edf1fb0d14ffc3U,
  0xeae5e6200bf02feaU, 0x96dd8d5b8ebcd2eU, 0xae8e7117fd90b39U, 0xc31a00bb23112befU,
  0x8edd08fa1000ce99U, 0x65f9eacea904212eU, 0xa709dbf723440055U, 0xddeee7eb09e22002U,
  0x8f33e0de2e6e2ecU, 0x27fbfcf7c0122218U, 0xf5089e01fc0ef1f9U, 0xf60ce1ef051fd012U,
  0x10008041ff0defcU, 0x19d28115fe001fe6U, 0x12df8efae320e713U, 0x506f422f902fc2fU,
  0xf702010124151d27U, 0xf7fdfb270d0b3210U, 0x2bd73ae2f40bfc05U, 0x4aea56e1e41206f2U,
  0x6e40f1dfa061bedU, 0x33fd59f512083415U, 0x7ff255f6fc140304U, 0x5ae8ff12f3471e1fU,
  0x140d151617fc330cU, 0xeec13080e030901U, 0x20fefc151326f90fU, 0x19e20dfd01fc1211U,
  0xf41d432b27fe3625U, 0x7f05f1017cc4c02U, 0x47d91f31e5b80ef6U, 0xf60e687ff8d2092cU,
  0xee386ef0e9ea5101U, 0x18f9343c32eb28caU, 0x10fb3c25f0ebe5d3U, 0x3d11220407e5e1d8U,
  0x9fb90a0c10061fe4U, 0x4057151a970eb8c1U, 0x47f1cbd9122dcb24U, 0x1241faa40fdf140bU,
  0x24e422ab3d65dab8U, 0x81f7290db97e2bdaU, 0xebffccf4b5d3fb0bU, 0xe5ccd8e205072c1aU,
  0x2a0dd814173e13d8U, 0x15e1cedf1708f20fU, 0x1fd7ec8105c22cdbU, 0x17daf7f018c6c6b0U,
  0xc04b5cfe5dcc7c9U, 0xfaa8cd813bb552a8U, 0xeac6dfcc2bc0d2b0U, 0xeb0dfb1be7b2c0ffU,
  0xd2d7ee02ee22f6U, 0xdbfc8191cb31ee4U, 0xdc4d27e20ac1170aU, 0xd81f382c214ea2dfU,
  0x45e4f0be47f9212U, 0xe0452f400147c100U, 0xb715ee3beb57bc06U, 0x1b090ef6c26bb4f2U,
  0xdae51708eb43f021U, 0xf32c1efef63d0114U, 0x60f1219fd3ccff1U, 0xfd3611352100d41aU,
  0x81f7b3fef2fb161eU, 0xfa1ab4f1e9e5d712U, 0xef13d810f524cff5U, 0x91f88398d4f629feU,
  0xb6e4b8c4d6b9dddfU, 0xffeeedf8dbd8c0e5U, 0xea0911e207e31af5U, 0xd61ff2da05ff13f2U,
  0xd9dcdf9ddf4e007U, 0xdac6e611bc0a0ef9U, 0xf50a0f0bbb09fe02U, 0xf84009e8051210f2U,
  0x257cebe53e08f9fbU, 0x613e6f57f2cc5eaU, 0xe80e20f4def812U, 0xfafd06eaf916faf4U,
  0xff30c0aedfd1c07U, 0x12d9ce0fe9f50c08U, 0x1bbf08f90d202eU, 0xdb08fa14511fffd6U,
  0xedf9db160d071b0eU, 0x34a601dbd2120506U, 0x29ff16fa810ef431U, 0x62512c7ff1bda09U,
  0xcf4a24171603ecd7U, 0xeb03edfa3a0f1bccU, 0xd1f2b23b0101defbU, 0x8ce78c67b625e9ffU,
  0xb4fb9b31810ac122U, 0xd91d073fe0f03913U, 0xa1329649e327bf29U, 0xbf02c53dd828fc1bU,
  0x9f50834dbe70b0cU, 0x1d15ea12f81aeaf9U, 0x14e422eb2c25efU, 0xcb7f170b16fa3b16U,
  0x1bacebe96c00d4a7U, 0x1517e90b97050a1fU, 0xecf5c405f312051cU, 0xc301ba2f2610eceaU,
  0x32e90bfcf5f044e3U, 0x10eb15ef110b0c23U, 0x150424dedd08e1faU, 0xfcf729090111f216U,
  0x5df6110b0bU, 0x6e2000002fdU, 0x689fffff798U, 0x1220000092fU,
  0xfffff6ec00000344U, 0xe140000001fU, 0x8380000032aU, 0xfffff93400000675U,
  0xfffff4240000002eU, 0x105a0000016dU, 0x79100000620U, 0xfffff5ec000009a0U,
  0xacffffff4d0U, 0x24300001027U, 0x1d200000be1U, 0x79500000202U,
  0x3855082100000060U, 0x5a16e136381e3a0bU, 0x407a2a3242682cf8U, 0x2764cfcc7f1fd0a7U,
  0x412fe53bf736d806U, 0xcbb214f31cb237dfU, 0x3738ca4a56480bf0U, 0x4053f119fea57037U,
  0x2719f91c33757f36U, 0x6b27d752f6007f76U, 0xe43c2fcde0f528cbU, 0x5243d72fc8b0fc20U,
  0x3deaeacdfaf2dd13U, 0xd9d72e3506043fe5U, 0x31f31022d9d2e1ebU, 0x3a3d1a27dfb612b9U,
  0xeee116b17f1aff6bU, 0xcdf70f26d87fc03dU, 0xa31b094fd310fbfeU, 0xc1ecf541f14e375cU,
  0x1b00d2030a443df8U, 0x34c462046a2a01e2U, 0xc8d47f3a56f503cbU, 0x383541b00cf9cf47U,
  0xf47f61e0bdd2aba2U, 0xdefdf231c70dd6c2U, 0xf27c2ed6891049d5U, 0x1c650f5ccc165f14U,
  0xcc05eb0a0f45f545U, 0xe072c8aaef7f2862U, 0xeacefec9e9d07d04U, 0x53544dfed8fe4914U,
  0xb547e441d72efbd6U, 0x2da11f7f5757dafaU, 0x56277af50b04e2ecU, 0xf0bde66fcc10fc64U,
  0xbe2859f65ae55960U, 0xed46a10054530945U, 0x1729fabf2bf83018U, 0x52dcdc0a2115cebdU,
  0x2bebe500da3c81c6U, 0xdf324efeef0b6a3U, 0x1bd405f7ec270cd1U, 0xb03081151cdce9e6U,
  0xcee5060614e71115U, 0xec599c02e8121bcaU, 0x154de2b5ffcd35e9U, 0xc0273a1a012221e2U,
  0x1e2974039e24c281U, 0xd042aeffdd9fb19U, 0x202739a92a035e7fU, 0x46cf5221dcf3600fU,
  0x1b0edb051058f1e6U, 0xf9d150e244ded2f4U, 0xf35611f21f40f4U, 0xe5d53808d67f66ffU,
  0x497f180a05d5103dU, 0x16e70c03260ce0cbU, 0x1e23c0eacbf01a18U, 0xdce2f6350d4904f9U,
  0x1b0b2ae230eb2afeU, 0xd3fcdb2531392414U, 0xef01fbcff6edfbU, 0xad77f0f16ec3210U,
  0xfe4511bU, 0x0U, 0x0U, 0x0U,
  0x0U, 0x0U, 0x0U, 0x0U,
  0xe6e9e23700000000U, 0x7f9644c60639f5f4U, 0xc356327e19eeecf9U, 0xb23b0bc6c94ed438U,
  0x10587f998112aac7U, 0x5c0ac0445ae030d9U, 0xd9a16629cd970f3aU, 0xf0448b6cc65d5900U,
  0xcf23a0e189207f81U, 0xe146ec7f6a791359U, 0xde7b1312af5b33efU, 0xff7f2d501217a5U,
  0xd8a449f83c09135fU, 0x19bf1ac6f15581cfU, 0x79fa090fbe7e3d66U, 0xfdaa0937f456813dU,
  0xffffe4e558ebc6cdU, 0xffffe750fffff13cU, 0xffffbcd7ffffeb1cU, 0xffffdf6effff9a4cU,
  0xe4ee1217ffffe3f8U, 0xded1532fddfe12d2U, 0xd9d61607d41f2fe5U, 0xe2eb1a2de7ebe2c9U,
  0xd85be70ac4203ae9U, 0xe8ef223723217f4eU, 0xee1502eef3db34e3U, 0xe909ff331c021defU,
  0xae0072903194ce6U, 0xad0cfb1d25fa080bU, 0xdb3deae10e1f06fbU, 0xd406edec07fde1c5U,
  0xf519d90d07ccd3deU, 0xc42654d3f20a0aU, 0x1cd31534dd1f1d7fU, 0x1ce2f108021be50fU,
  0x14fbfa2ce2f5eceeU, 0x1cfd072d12422e5aU, 0x27de1a173ffff646U, 0x561f40eae6cd0632U,
  0x32083339ce9f4b3aU, 0x10010d19f3b12237U, 0xf281576bc3fb5a3aU, 0xfdda5c3e09224e7bU,
  0x21d62121efec2859U, 0x8c4094ed7234b51U, 0x1dd9386b08fc2f5dU, 0x550221fffce11b42U,
  0x140af3e3cf1795cfU, 0x3e21e3d0d7f9d8ecU, 0x3d082ad1e8d6ed08U, 0xe9d94f59c014abdcU,
  0x18eef7db190ef5b4U, 0x27cf0daad9c2d810U, 0x42f71fd7da2881baU, 0xd2f6d9ef16e1d2U,
  0xfad40d21fb08e5f2U, 0xcfec573fb6eff9e2U, 0xefe8343fe904fba6U, 0xb2da0f49caef24c5U,
  0x6a46e6bcade9f0fbU, 0xce0c3e00f4f6097fU, 0xcedd0b3fd5450bddU, 0xdec4213596ee3cd3U,
  0xf3c3244f96f92ef0U, 0x109d260dfd0007dcU, 0x7ada2bf60413e6deU, 0xfac107eafdf7ddf8U,
  0x7bc0bdd31290318U, 0x8153f5e3283edfe8U, 0x46f9e5b835a6f19cU, 0x31a6040317b5b613U,
  0x38b0faee1be8fb00U, 0x41c6d5ce37efc800U, 0xe8e0f6d62f14130cU, 0x9becebfaf6150df9U,
  0xaa0df0e3fa2100caU, 0x96d72215ce08eec6U, 0x1228f48f0fff2e05U, 0x8113f4e3a9d6e0c3U,
  0xd7f4093107ee06c5U, 0xa8e52c3c2727f72dU, 0xe0c71706cf140e2cU, 0x1b32fa282804fa45U,
  0x1d2a19f1ec0a7fd8U, 0x1c1de0190f0576f6U, 0x251e1903d90c2406U, 0x31113534d1f56d1bU,
  0x373406ec4229651bU, 0x1de61309ee123b19U, 0x17fa0efefd0f3800U, 0x1afc1029f5071e24U,
  0xfa37d230e60f2119U, 0xd914c514c52455ebU, 0x1615ec20dd7833fcU, 0x3d4ab62eb57f33d8U,
  0x14b5c63bb336692cU, 0xe01acd5cd25531feU, 0x3c21f238db644802U, 0x140ce846d5113310U,
  0x1c00142013553133U, 0x808fa300a3f3009U, 0xe106003ad810df01U, 0x5dee921e430081fU,
  0xeefd103bf9fe0302U, 0x40d8d6ed3c3518U, 0xf12be728fb2e2052U, 0xf6f71d36f60d200dU,
  0xdc08f57f000f0822U, 0xe1fd0527f8303646U, 0xba2a13e40cfefbfcU, 0x8119cb0be6fbf209U,
  0xcdfdf2f4c50cfbeeU, 0xd617fbfccf19dcf8U, 0x49d002d0e1f728f8U, 0x9d19e92bd9f2c21fU,
  0xcb36093edc24ff07U, 0x974b184cdd14340aU, 0xa0282408d3f94b05U, 0xe2c2270ec6e126e0U,
  0xe2c82551cbd91310U, 0xead4102cc4eb12b6U, 0xd6d9313bcaebf1ebU, 0x1a7fa5a0de02ecd4U,
  0x4e1070402f14754U, 0xfbb91c05fdf219d2U, 0xc9cd2c0b01f9ffe8U, 0x1bc1de0d0fd16d2U,
  0xff5ce03a0013ef02U, 0x231afc0129143514U, 0xf334343182615edU, 0xf050e61f48212b36U,
  0xf58b721b26ca1dceU, 0x26f50c29dbeaf4aeU, 0xed6ee81a285e4f7fU, 0x2465c9d914d95506U,
  0x3010ed331adc6523U, 0xcd51113f5505444eU, 0xef4eee1b35f4502aU, 0xc94a0116ff1626e4U,
  0xce441c32f81b26f8U, 0x5b9b6e0430d42e0aU, 0xef7ff0eadd12b4ebU, 0xc31ced15082609ceU,
  0xf744e81814e44931U, 0xcd2803e6eccf2e15U, 0x20a7416107ee0e02U, 0xf6be20211deef600U,
  0xbe35f2141029f309U, 0x7816337051520f3U, 0x8d40eca37e2d805U, 0xbb2dddf4e51ac0e2U,
  0x5ba1c3bcb4b02cfU, 0xc8e003fc2a110544U, 0xaf168ed7f71a0f1bU, 0xe30cbb2aed2f32d7U,
  0xffdcf942f3071f17U, 0xd805c918f551300dU, 0xbef3ff2af5270b1dU, 0xef32b7f9021c6609U,
  0xeb0be824dd18043cU, 0xcf2ed73a0a0c28fbU, 0xc1fd2066221c792bU, 0xbe1d19240c397f36U,
  0xe1d209331c034018U, 0xfcf432e2d040f00U, 0xf2be611504382d36U, 0xc50e0d21de0f0d30U,
  0xd46bf7030b0760dfU, 0xfc1b1af933be7f1fU, 0xe60d063e1cb34c02U, 0xaa0c315ef7db4013U,
  0x11131e26e9d5550bU, 0x17c63641169a052cU, 0x53e411042023e304U, 0x29f3271d0620e21bU,
  0xf1132010f835242cU, 0x1d63ea8f1d1b0dfbU, 0xff09fb220ed805eaU, 0xe60e02ede4eafff5U,
  0x243be48113db0ffeU, 0x2af3faed24d8fa06U, 0xf913fa16e2f1211cU, 0xe1f80739040bf902U,
  0x14e8110609130f12U, 0x3090432fafcf215U, 0xe3eb057ffc361806U, 0xd05eb25e93e291bU,
  0x20ee00d11f5051cU, 0xd2f308440729fcfbU, 0xfffce9edfa202a03U, 0x22e7f91221fcf105U,
  0x412bfdc2f1feed0aU, 0x170f13b2e6f6012dU, 0x8f9fa0d0af3fafaU, 0x85291560ff0cfaeaU,
  0x1b2af7bbf3cf0e81U, 0xfce1fd2403ebeb29U, 0xf4f7f909e300e01bU, 0x14f5f4f1f902e3f5U,
  0x5df43ecfd5280828U, 0x7b5df4ae10f4ab06U, 0x4d3bd70501fdfc40U, 0x7b794198e4b82926U,
  0x77c05920e0a008f9U, 0x5639bff368fad7e5U, 0xeb37f406ebc5f7f9U, 0x527fb7b5eed717e9U,
  0x963cdf521ef1dceU, 0x6d1071ab6fc1838U, 0x18e3fc20d5031c32U, 0x13dede38f22d2f33U,
  0x28fc1835ec192454U, 0xa101de0031e3272U, 0x3b280c062fe7377fU, 0x2602f9f52231243eU,
  0x80f1517e826092eU, 0xf06290ef22e403bU, 0xe1f0e0e0e9461434U, 0xd3190421e3ef0500U,
  0xeff5f3e50be3d40fU, 0x208ea040bf6e30fU, 0x72ac5e2ce9d008e7U, 0xfee7feed4e4de87fU,
  0xc4f008050813f9e4U, 0xcd18fbe5f2f5efc7U, 0xcc2ff3de200cf4e7U, 0x230490e0d1d3dfe7U,
  0x43140b7eff3fb11U, 0x50808d410d707d6U, 0xaae3dc1d24a606ecU, 0xb45400dbfe2900f3U,
  0x310129ea062e1595U, 0xbe9a81ba29bbfb03U, 0xd6befbcef7efc402U, 0xf7a1d7db081dc6d5U,
  0x1332e6caf41dcb34U, 0x4911d4c8aee60e0bU, 0x8d5fc217f1b1c5fU, 0x3444c2c6dbebac09U,
  0xc42a0e0aedf00f50U, 0xeee628513d103ee7U, 0xf20d1d3199af8aa2U, 0xf271401dcf808feU,
  0x17db4d561dd8d2e0U, 0x10d80a00ac09ebf4U, 0x4bf110b2fc08f32eU, 0xf30c3e5e80d9decU,
  0x4cea09ffe0fad5d2U, 0x65947f6fd7050c40U, 0xe01af6e11c3bcbf2U, 0x1401f010ea2af29eU,
  0xff07ecdd0e2c1afeU, 0xb10ad8c5e6f9d7ccU, 0x2cef1d0dadedc9c1U, 0x4d5d2f8e925ed0eU,
  0x9e105041f031325U, 0xecfeedf0e72a0006U, 0xa23a81ca0c1f0710U, 0xeb03f4f7efb40debU,
  0x2e012d13fbfed3deU, 0xffe4ec11eeffea1dU, 0x4ff211f07fcff00U, 0x26e90cedec0eeaf9U,
  0x20b17fc0d07e91eU, 0x2ae61ffef5f4f5f3U, 0xe3daf203ea18f417U, 0x816ccdea0814fafdU,
  0xfef90fe5eee440b7U, 0xbd814f2e5c9ebedU, 0xed06001cfd1fda0bU, 0x2edd12f4fc05fd0bU,
  0xe7d40bdff50cdc05U, 0x38db4db79f0af0dcU, 0xcfe09c2b5e8d8b4U, 0xcaeaf011eed0f9c6U,
  0x322820b2ccfb15d6U, 0xf91136bf7fd3180aU, 0xfbf8e7c1cbddf907U, 0xb614f8e6cc0a0e0fU,
  0xeef002c303bd1ae0U, 0xebd5a4e5e1d502f0U, 0x5514e3c3c829a90aU, 0x3ec9aba30338b2eaU,
  0xbe81d3269d33a7caU, 0x17993567f5f1cb0fU, 0x3ee0b1b63e4e4327U, 0xc3c4b8e9f7fcc0f1U,
  0x2bafa32f21afe07U, 0x5689b5e50740d0ecU, 0xed1fefede23ada2cU, 0x272c0daad514fd14U,
  0x51bd8fdebdaf923U, 0xf019f001dfda00f6U, 0x99c7f5a021008ffU, 0x131b0ff7280fdfd8U,
  0xddf5ecf4e4f11719U, 0xea02f4ebf0fde503U, 0x150ef60dcaf8f6e1U, 0xcc1bd500c0d4eefaU,
  0xeb0fe8f8150310d6U, 0xc928bf03e902fff2U, 0x6faf5d5e6ff26feU, 0x678154e9f4d5d3e3U,
  0x17fafd140623b90bU, 0xde10dff50111160aU, 0xfce4ebd9fef405e7U, 0xd9f6def7dceed2e1U,
  0xfb15ed160701221eU, 0xf62be30926e20abeU, 0xed3709e401b709ffU, 0xe409e9e10bda1ef6U,
  0xac07cb9f0fab27f3U, 0x8152f9fbbea922aaU, 0xe4fedaea29e12b0aU, 0x9a26e209f0e221c8U,
  0xbf3ccdf810a85ae6U, 0xed2bf5e12bcb1416U, 0xc7169b090bff0620U, 0xc915de0c0f0ceb1eU,
  0x212bed6f02dee38U, 0xfde49fd2ffe4f3e1U, 0xcfe3b51dbbebc00fU, 0xff15bb0a004d0f07U,
  0xe61781e0f2d8defbU, 0xf70dde02e4cce8d5U, 0xea44ddcfde23f705U, 0xe62bafe500e6de1cU,
  0xbc54bcfbe7f8ed15U, 0x611fd021e450fU, 0x46c619ee1ff4d8e5U, 0xd7f404f6e80c81c5U,
  0xdeb5336173d06e9U, 0x12fa102337f8dd2eU, 0xea052938faf7b408U, 0x35057fe61b0afb45U,
  0x38fd6df639a1300eU, 0x6f641322b8efff9U, 0x22fd29f63ddd1b37U, 0x21156bd653a32403U,
  0xf3245c0371b8217eU, 0x2b6265f38bc0231U, 0x36e2460b3deee812U, 0xe5d4171d2bbc2b2fU,
  0x24ba110e36ee1e2fU, 0x39f87fe40cfbfb02U, 0xe4ea4132d41a173cU, 0x29efde0b0efb062aU,
  0xd67fc5cc2f05f20eU, 0x293112ae6dab5634U, 0x18ac2f080db81c56U, 0x51c51df6abfecb0aU,
  0x15c754140103bf20U, 0x2317dfedf61cdb1cU, 0x53db0a01ff221d70U, 0x210eefdc3414487fU,
  0x290e0def2e111a54U, 0x17ebf8150bfa0249U, 0x25230bfa0006073aU, 0x30f22323df210125U,
  0x5be746182aec1523U, 0x380708e425f30c4fU, 0x362619e9fb141011U, 0xf91abe06de15fef8U,
  0x23f9fe333636fe0fU, 0xf940eb1a22c781d6U, 0xdb08ee56b020ef0aU, 0xadd10c72d2755b6dU,
  0xdce702282e0bd9f2U, 0xc108cd493205b3e0U, 0xdacd0c1e323a173dU, 0xe02ff1f23dbdc715U,
  0xc00cdb13d9e61ee5U, 0xf8ff092e1f14f60bU, 0xe3afefd1400d90bU, 0x25b04a16e3c80aeeU,
  0xeee2267ff50eccf5U, 0x24eeee91f47072fU, 0xfe19ff28efd723d9U, 0xf9122528f61c332fU,
  0xc3a01ff321bU, 0xfffffd3a00000227U, 0x13f10000051bU, 0xfffff7a6fffff389U,
  0xfffffb8afffffc54U, 0x1bee000009e7U, 0xfffff10e00000b68U, 0x51800000f43U,
  0x16610000056aU, 0x85afffff6bfU, 0xfffff34b0000014eU, 0xfffffdc8ffffd488U,
  0xfffffa89fffff9d4U, 0xfffffff5fffff4e8U, 0xfffffc8c000003ddU, 0x2dfffff911U,
  0xffffe2f7fffffbaeU, 0xfffffca6ffffe90cU, 0xf3fffff655U, 0x2b7fffffb1cU,
  0x4219350b0000100eU, 0xe15327120ae0d50eU, 0xbdf6d8ee108135fdU, 0xbc9a38ede0754315U,
  0x10f100fa6e5a4c55U, 0x363f42432a22c707U, 0x1f2539233509d0f2U, 0xdd51815b28d75c10U,
  0x4c9e9c422dcf5b9U, 0xd4022e362acacd28U, 0x24fb14be0f11f8d5U, 0xce5d5c0d815dd6cfU,
  0xee28bfa80f39bb33U, 0x230043f09dfc70c1U, 0xc461cebeebff3fd7U, 0xc582a838f7bf43a1U,
  0xae97725cd8a738a2U, 0x9774ece6e6812a09U, 0xdffbeb6011f56389U, 0xfccf049f9536b1ffU,
  0xed56d6908f500006U, 0xdfc205da5434e602U, 0xda7323b0f3b5030U, 0xd0d927cc7ffc4a1fU,
  0x1f38df1969381afbU, 0xc6fd4b41eace2826U, 0x14c39bf56c55ef26U, 0x7851d81e34db4d4U,
  0x2a100a3766365df1U, 0x951c2aa137356bc5U, 0xd9b58108e9c5390aU, 0x2ff321c3b909f142U,
  0x1cce030432e7f7ceU, 0x2d02dbf20bf41cb8U, 0x129eff16e7033616U, 0xe1cccfbbf5e2ef14U,
  0xfe59184fd655813fU, 0xbd3309446b5af5U, 0x155146c7d11b0fe8U, 0x18136b592bef36c5U,
  0xf5f4c0145c4cbccU, 0xbce9f4b813a5fc17U, 0xcde9f4c2239d4221U, 0xa7cefbcd23ea06c0U,
  0x6f8e0423188140adU, 0x4defe113ab16662aU, 0x17121bf8c01f32d7U, 0x2318090e14e9efdbU,
  0x7f2e1d0030ea13f6U, 0xd4ed023bd2d12a2dU, 0xd2c3e200d910e951U, 0xec813c0a12b2fdddU,
  0x319d481d2517a409U, 0x51380b0ff5ed03eeU, 0xe51a94baea080eecU, 0x26e2b3eda4e75827U,
  0xd9d0d6c0352124eeU, 0x301df82fb41a7f27U, 0xd5b92bd92738291aU, 0x53ccc4072c5b703eU,
  0x5bfb35b1b1c23438U, 0x8107cb0d28bb37acU, 0x5818fef6f2f02c22U, 0x4513073018fc0830U,
  0x7ff351e0b5d13feU, 0xd910db223eefef0cU, 0xf73901e92a22065dU, 0x99dfae51f01bdbd4U,
  0xe826c8beeab720afU, 0x708102e8ef13c821U, 0xbf2f3bf8feed3461U, 0x87353586f821c9d1U,
  0x39f476a7b620e94aU, 0xfbf33c789821a67fU, 0xd15c32b1fd01d6d6U, 0xc2b30e397164d71eU,
  0xbb0564100426f7eeU, 0xf7f4756345013faU, 0x17f69a5b184e2811U, 0xd5cfc8ee852801f8U,
  0x5d2b65c8U, 0x0U, 0x0U, 0x0U,
  0x0U, 0x0U, 0x0U, 0x0U,
  0xfb1b811c00000000U, 0x5dfdb8dcedb19ddU, 0xfa2bc312af278103U, 0x6ba3be4612171f7fU,
  0x169954b99026f158U, 0xd4306ba7ca5c56d2U, 0xedfdbfdf30905081U, 0xccbd25cfe938211cU,
  0x17d4657f81c12fdaU, 0xfeb0b6313ce032bdU, 0xe32c9fad00e8f59dU, 0xea597f148b2f30eaU,
  0x40fa2f7fd7c81256U, 0xd3dba9c7dad92601U, 0x10e88d345b1fc1faU, 0x2be00afbc317c516U,
  0x2eea81160733U, 0xafbffffefd2U, 0xffffff9d000025cbU, 0xfffff6ed000004a2U,
  0x6e81abb50000111eU, 0x1e0f157fdc3b04d9U, 0x625bd3812b241047U, 0xcc15e0196f0ac01aU,
  0xd822f0de819dece2U, 0xf2dfed7f04dc7ff1U, 0x43efc4a2c30654eU, 0xf15e4de2ded17fd7U,
  0x581154911632a481U, 0xd13573f0c8327f29U, 0x8b7fb494c46b537fU, 0xee8bd6a638df2ddbU,
  0x41c45dde817a18d0U, 0x2b81b0c4f50e8135U, 0xdd0814bd3fa0b2eU, 0xd03bd40aeabed7fdU,
  0x25d8ae473beb7f75U, 0x1ae31f4230f58151U, 0x369fe50d3d7fef59U, 0xf55435fb4081f137U,
  0x19d725be1b7f1096U, 0xf591171add00810cU, 0xdf338ae76bfe381U, 0xfe0481b87f5141a2U,
  0x8187f51a9d11dd89U, 0xd003bfbd41326badU, 0xf3f636e35b63577fU, 0xeaf781fc9f7f0a1aU,
  0xda0ee5f50cf003feU, 0x3fc81eb13027ff4U, 0xced6007feed6f36dU, 0x81b1e3edbf22ded6U,
  0xcf68381bd803637dU, 0xf110e8232ffe7fcbU, 0x11b11e157f210227U, 0xb0f113f1eef36b7fU,
  0x2a207ffe7fc2e0ebU, 0x91135e423fe3230cU, 0xb9ed16f15d7f346dU, 0xf1835757ff2e6ccU,
  0xfe18ed7f380e1a7fU, 0xe9d834812010fb5bU, 0x31047f08c5d41a49U, 0xf625efff2207c3c5U,
  0x39049f84de811649U, 0xf8df35337f3a2625U, 0xaadce6ede83e8129U, 0x3b6262e74781d9feU,
  0x148c8815067U, 0xfffffe7800000398U, 0xfffffce100000254U, 0xc3000002d8U,
  0x18800000575U, 0xfffffa5e0000083dU, 0xfffffe1cfffff55aU, 0x59dffffff95U,
  0x4850000124aU, 0x6b800000063U, 0xfffffb87fffffb89U, 0xfffffa83ffffffdfU,
  0xffffff48fffffe16U, 0xf7fffff77eU, 0xfffffd2bfffffe58U, 0xfffffdb400000014U,
  0xfffffb15000001e8U, 0x6f800000663U, 0x34bfffffffbU, 0xffffff6400000cf7U,
  0x56000009f5U, 0xeefffffbddU, 0x3a800000109U, 0x3f6ffffffb5U,
  0x10cb0e00000139U, 0xd6dceeedceca3d0eU, 0xe9f3defb14dad9f9U, 0x9110000ea1c0dc3U,
  0xb2080de340159e05U, 0xf0ec1effb60f19efU, 0xe34981edeef2f9faU, 0xbaf6f71cd3b35c41U,
  0xb13c2fae8ccf4e9U, 0x350413da0be7f0bcU, 0x9fe415dcf92a81d2U, 0x1016f3cbf6d101f7U,
  0xe141a5dedb0adff4U, 0x7df0052d02d32539U, 0x2122afece0eaf603U, 0x2ff70dc81ef102bbU,
  0xb6ed02e7f523b2e2U, 0x408efbc05d3f90dU, 0xf7f5eb14da22c0f1U, 0xc2cc0ce8f1ddbd20U,
  0xe4e9ec020ef9f4ecU, 0xf010bcf2ef2211e8U, 0x810b060b0ef0c0fbU, 0xf4e943c6d50409ebU,
  0xbecfc1adde2f306U, 0xacd7f9cdf4f9d101U, 0xdce00e0e1303eaebU, 0xf118c001dd23080bU,
  0x87fafbe710f2c3f2U, 0xe5e638eee80c11e9U, 0xd651c3e7e6cdf6f3U, 0x3319282c12b45547U,
  0x2812ade001fb2a3eU, 0x18132bdb1fe5e9d1U, 0x1bdf06fadd4a8df2U, 0x201edeaed5f9fb0dU,
  0x9e778997e6199a0fU, 0x2a416a783a877f7fU, 0x7f74b1b1a220684dU, 0x788e6eae5ea9d781U,
  0x3d8196fba07fb440U, 0x3975d2db3d93c954U, 0xb254b9938d75be6fU, 0xf195b5b3dab3647U,
  0x797abcae900e4512U, 0x7f816c855d920191U, 0x75c09d1381540457U, 0x3a7fbad07fa9994dU,
  0xc802f2fc816b965dU, 0x38da240b1dd2de00U, 0xfffcb7ee10ede4aeU, 0x1cfc0af3f80312cdU,
  0x5bfa0e06d92f9ee5U, 0xf62af48120dcde06U, 0xe6e522e50dc50fU, 0xcddbdde7f1d7c3e1U,
  0xd8d7f71928e6e3e2U, 0xd01301fbca151401U, 0xfa100f0404fd98c3U, 0xf3012ee3f2060fe6U,
  0xb54327c4e7d2eaebU, 0xf95640442bb03627U, 0x271ed3c9e13e3462U, 0x10e60eba30e29ae6U,
  0x2abe44d942b251fU, 0x3828b5b4c4c40021U, 0x817f4581ed1dbb30U, 0x7f7f7c7f7f962918U,
  0x737f9c81817f7f7fU, 0x4d9178817fa781afU, 0x268481669065347fU, 0x7f7d86b52e81d87fU,
  0xc8355493af528161U, 0x43547f6257810aecU, 0x626681b18e455620U, 0x59887fcc7781d09eU,
  0x6baca344a05f4d5bU, 0x444e81ca628a8173U, 0xce0427f4b67f9f7fU, 0x7e0181befd5d0e6U,
  0xaf7cbf2eaf5efaaU, 0x180245f31de10af8U, 0x3dff0ff9d316d6eeU, 0xfb1ec2bc38d6ca0aU,
  0xf9f5e218071cd007U, 0xf1d8e3f4f200cfe6U, 0xefe1082819e5ccc8U, 0xf30d0b07ea15ffe4U,
  0x161014e408fbbac9U, 0xeefd1ffee0090ce0U, 0xf9e0200c12e4deeaU, 0xf42620f3feefe7bfU,
  0xe7fbe5f0fe12e826U, 0xf915c4ede931acdbU, 0x38010d51f6ef18fcU, 0x3fdb7efee03fe02U,
  0xdf196cfb0de6c514U, 0x163c4b020ed1c78bU, 0xfc02d5c8e8310928U, 0xef118c807fb91b3U,
  0x1ff2f67fd5255e28U, 0x1ef9a7bdcfec0e1fU, 0xd32c5ff3f1f7caf9U, 0x2c183f141dd6c4b2U,
  0x1a0ac1d7da2b211eU, 0xfbea2fe61fd102a6U, 0xf9fdff52e20c551eU, 0x3a09c2b4e3efe21dU,
  0xf4f31208f11fc0ebU, 0xdaf119f5f0f9eadaU, 0xf2f5ed1bfffae8e0U, 0xec05fb00fbfa0cf9U,
  0xdb1801e42c01091cU, 0xf3f6d90013fee9f6U, 0x16ebf01c0e07f4efU, 0xcddfdfe2d810ecfcU,
  0xe9f2181d04e5e4d9U, 0xec20f80fdd251408U, 0xdcfe0be7fee6ccedU, 0xebfc0c16fb04faf2U,
  0xdf2f82515e6f0f7U, 0xbafbecd2d20fabd9U, 0xc9d8f9071ce4cdeaU, 0xf823e10dce10dfe9U,
  0xf421130a0ee5e0f8U, 0xe6e1e6ee0ceffdcfU, 0x3e1453a04d50fd2U, 0xde0ac0c9d7decbc6U,
  0xbfca07fb1ee2bbc6U, 0xf511f80bbf2cc5e6U, 0x2e221838edecd3a6U, 0xbbe09b0b11b05d6U,
  0xf82b1c0dcb0ae4U, 0xe30fe4e3e2e9e2e8U, 0xf1e0eefd19efe7eeU, 0xdd0014eacd0ff5e1U,
  0x201f211eddf7fae4U, 0xeda02d1c10609eaU, 0xf9f0e11c11e105e4U, 0xc5e104d7e91bdff7U,
  0xf5ed02fb11f9f4fcU, 0xf326d50de30bf6feU, 0xd911faef04f2e710U, 0xe308e20506f7faf2U,
  0x20faf31300ea27f3U, 0xe8f1e1e0dc0d0511U, 0xf6f0050106fff80bU, 0xfd1fda11ea14fdfeU,
  0xeb02f9d00cf5d80aU, 0xf10734f5110605f9U, 0x3333ffebfbefU, 0xa90fffffda1U,
  0x5700003ab8U, 0x33a500000089U, 0xffffeeb4ffffffd4U, 0x155ffffd75eU,
  0xfffffd42fffffeb4U, 0xffffffc500000099U, 0x214200002887U, 0xce000027a8U,
  0x16fbfffff3f9U, 0x158000001c0bU, 0x1a6efffff738U, 0x29c8fffff016U,
  0xfffffef5ffffddfeU, 0xfffff8bc00002b3fU, 0xffffff8500002b3aU, 0x302000001359U,
  0xfffff53cffffed08U, 0x3f2000001e79U, 0x232efffffed9U, 0xffffdf6900000e32U,
  0x350ffffe7fdU, 0xfffff99700001cc9U, 0xe2e9215400001ea8U, 0xe36b49cffe7aab1U,
  0xeb0d30d9587fb02eU, 0x10d1a524344ee922U, 0x2be82f1056c9b9e9U, 0xe4c608c2132625f1U,
  0x46c3ce2ef13de515U, 0xdf43f71f9baf0f3U, 0x5c47c86cd6037a30U, 0xf8a7e9c13459f6c0U,
  0x73c4226488323b7fU, 0x75f6ede1d804f5d5U, 0xbba1031f0e321d5dU, 0xbadc0210ec377617U,
  0xa8c61b818b40f12bU, 0x72ee34e7d267f800U, 0x53fe206ff68d4d7U, 0x2d15f62840e2319aU,
  0x7dae5f42e6515c0U, 0xb850ddfd24710b8U, 0xb44daba85711cb25U, 0x1e8daeb811f31abU,
  0xddbbb6ded87e23a0U, 0x111547291e2af24fU, 0xddec89fe12c1c815U, 0x36120310290804feU,
  0x70810e31f6a5de23U, 0xc4b2c004e3dfe0d0U, 0x272d3223f30451f5U, 0xa9ec39ddc5d3e3fcU,
  0x12ec0c5704ecfdfbU, 0x21120014e8f5bcefU, 0xf1dce8432bcddcfcU, 0x1b18de1457343233U,
  0x9df51c3308c24ffbU, 0x46c71b50d17ff4d4U, 0xd991d307d194fe0bU, 0xed52b02aa71cafe8U,
  0x9703bceec7f19cb6U, 0xe2f0051c37a863a4U, 0x69c6aa08a9f2f5d5U, 0xe860e62681a0ebdaU,
  0xfc0d06e5a51d1f28U, 0xf004ec00140c13f2U, 0xf0e5043841f2262fU, 0x180118ff320932eeU,
  0x2d261a001e113424U, 0xe21e26351e4b4cd3U, 0xdca2c2a7fd3fdd5U, 0xc9ba18d6c21cf010U,
  0xe1000aff5f0af905U, 0x9733815de554f11fU, 0xb60d4d0d251d1cc7U, 0x8da03030443e70fU,
  0x11defdd93a42188dU, 0x9bebede3d12438ecU, 0xba42d1eef0ea1328U, 0xeaf60af78109fdfdU,
  0xff03c900fe19eeebU, 0x252a1a0a31e8ed25U, 0x19d51c20f811e0fbU, 0xdc0e0d0dfb3feb0aU,
  0x12d7bcfb4681d730U, 0xefa5f548f9e72212U, 0xf1cfbe4253d0f0fU, 0x466dd946bc0f0230U,
  0xa7f0c230605be98U, 0xac1231d03d0e235U, 0x11b34c61c1e61812U, 0xf3281929f7e2215bU,
  0x2924871d480c1e0dU, 0xc8f412cdd1f929f6U, 0xf74ffb40U, 0x0U,
  0x0U, 0x0U, 0x0U, 0x0U,
  0x8eca31400000000U, 0x1a043fdf7fa88c6eU, 0x1e18e038daf7937fU, 0x230a101cce4d4171U,
  0xaf102e7f32fa3020U, 0xbbc37f39c143f150U, 0x55dded4729a4b830U, 0xf23d327542e8097fU,
  0xacbdf1ee601fe4bU, 0xc924b6780ffd2e7fU, 0x2200dc287f32eb54U, 0xe1e3e5cf553cfe4eU,
  0x3159ec0897c87f60U, 0xff81005a111ef2f0U, 0xc7c1a8cf7681717aU, 0x62f3b8f8b0eb37cbU,
  0x162b307ff922b841U, 0xdcfdbc5be1f9a47fU, 0xa22eaf32a607ee52U, 0x11c1f07f09f518e5U,
  0xca03e34d0f25b40eU, 0x3193e8c0fb4b7f41U, 0x5c767f532af85159U, 0xc005de81bf6cea68U,
  0xe42af49f6a9b3ac4U, 0xd662bc2c811cca82U, 0x1df4ec4d7f1132faU, 0xc30110ed2500e4c9U,
  0x217f86d375e56d4aU, 0x14197be62af4b617U, 0xdebe7f6beb417fe5U, 0x33185d26bcff602eU,
  0x19e921eb81d3b2deU, 0xffa6cf9f00f7f93cU, 0xa20967d5fb3ab97fU, 0xe9d4fb157fc7f41bU,
  0xdae3e02ef60a3039U, 0x2b0b81c31ae5463fU, 0x5a1cdccc0ec9b0fU, 0xfe850fc2c508457fU,
  0xcf7f1cb33ed32551U, 0xf143d9874bd0e437U, 0x57a98a2bd3da237fU, 0xb7ce2d7ac6b9787fU,
  0xdac21eed589628c1U, 0xb2f3b37f047f5944U, 0x58a35dc9866fbdb6U, 0x14113e1a048349f2U,
  0x7f49022f07f17ffbU, 0xbe0d50212909d815U, 0xa6fc0891002d3be7U, 0x54c73afde6397f03U,
  0xd427ff8b6090f0eU, 0x9d4dd325ecd48158U, 0x81fcdd42c0d7b845U, 0x9cee2147e6a1e51U,
  0xb4d9f41c58183195U, 0x1c4b12290e7f1efbU, 0x75eaf5bce3cb8116U, 0xa26132d272acb59U,
  0x337e4b67101a1a7fU, 0x56768127a9220b3aU, 0xd232d9f87fc006a3U, 0xbbef0f811e0126aeU,
  0xdab1641a0960e9c7U, 0x33aed97fd1dbb709U, 0xe4ceb772dc003009U, 0xaa7f2f711e42e90aU,
  0xdee4811c438844e3U, 0x68e9e7f70678f8d2U, 0xe70f09387f1f293dU, 0xd2e281dd14cdffaaU,
  0xae26fe5d6db0U, 0x674c0000c04dU, 0xa60500009fd8U, 0x1181d00008d6bU,
  0xac73000072a7U, 0x71140000d00cU, 0x9b410000b03fU, 0xb93e000089e4U,
  0x1309d00009f87U, 0xcb1700006a58U, 0xab4f0000e565U, 0x9ab200005929U,
  0xaa280000686eU, 0x92de0000c257U, 0xc67b00008d48U, 0x100ae00007a98U,
  0x64800000784eU, 0x9b870000a7c0U, 0xbca30000a06cU, 0x9c08000063bbU,
  0xca5e00008a17U, 0x8f9500008730U, 0xbf9e0000b0efU, 0x918300010361U,
  0x1d57ac570000d1c5U, 0xe2ce30f5194af8c0U, 0x251a33f24d25a4bcU, 0x9d42ea14b1c3e535U,
  0xe84496bb173feab7U, 0xa47817ffe681dd72U, 0x45c3963a041ae306U, 0xe85ae1c62ed4e17fU,
  0xd0157dbf2f3cdf2U, 0x7361c3f32fa05a4U, 0xf642d81c48dfe97eU, 0xc0d61933b4e338e6U,
  0xd639ff272e49c0aaU, 0xf3b26df39a1a51f4U, 0xa46928ed835350dfU, 0xd43d4fe9db2bcc21U,
  0x9b598f7cc1098d4U, 0x22add3daeadb1615U, 0xe38f99fc81751fefU, 0xfacbd90b8142c53fU,
  0x1615149e1e71c8f2U, 0xe7e00619352e2316U, 0xa3c539fb6c56f308U, 0x103f567eba6df243U,
  0xcbe1eb443631dab5U, 0xe4fed194ce9fdedfU, 0xb4550fe5f90aedfdU, 0x577f90f9dd40e1bfU,
  0xce2ed403cf232e7U, 0x490dfddffdd521d4U, 0xbd4be5f3e947f2c4U, 0xed6c00c76f7ad0eU,
  0xde811879c3889f09U, 0x340c12d3481b01c9U, 0x2414fed92dbd89adU, 0xb336115ee00dee3eU,
  0x377fe1ecba02d4edU, 0x3e110f20e1bf3f3U, 0xf70ef3e1f1dffce4U, 0x90712cfe5f3ce1dU,
  0x1edbfcdc0a1dde09U, 0xe2e7dcfafcccf906U, 0x16f88cbfd6270256U, 0x123fe265a3669dd1U,
  0xa5154d520cc721b2U, 0xf4e31148210af158U, 0x1ab146df9bcf0cd1U, 0x5700407fa74c0a07U,
  0x3945b3df4b0c6c28U, 0x202ae6a7db3efd00U, 0xcec7ff6e71f51a5U, 0x49d506d84014d657U,
  0x1177f3e5d230d8d2U, 0xc9f75d42aa011fd5U, 0xe905fa5d0afe512cU, 0x20e3bb0c5305eac0U,
  0x54accd41123b48bcU, 0xf506f1e773417f6bU, 0xb8f44713c941facbU, 0x11c01484f6efe293U,
  0x3170925fdff1f16U, 0x326a90a022aa9e4U, 0x1cfd1939bb7fe2eaU, 0x105f0de1ea380834U,
  0xfb281e9c5a1f51c5U, 0xf2a465efea952e5U, 0xb1184297d44f7110U, 0x15f9c5cec0ee4311U,
  0xb3bebacb5129df26U, 0x361725e86a0021c6U, 0xf96511a3dc463233U, 0xdcd238c925ef7fb4U,
  0x7033cf8143cdd531U, 0xdfe3218ece2a7d3U, 0x2e3904e02b1f481bU, 0xd4cb040a03c6db9cU,
  0xf3e4cb152ed41308U, 0xe8031157d90e07b9U, 0xf749e23715dffe39U, 0xf21643ecd3def545U,
  0xfaf9b317c40acfdaU, 0x29d253d8ded336b8U, 0xdf3a72ee8033a68U, 0x4dd7e1be0fde81ffU,
  0x358106c7ef62ed54U, 0xeaa01cfdfa0f27ebU, 0xfd4cf3f214234a1dU, 0xe03fe45f40721d1U,
  0xcef21cbaf3b509b3U, 0xdedbfafb1f0df8f4U, 0xc960befbe7f91daeU, 0x43cddd49c69ee36aU,
  0xf3eaceb2a433720bU, 0x292cacbbbdd036beU, 0x25819f5fd7a24327U, 0xddcdb171082ae6f5U,
  0xffffe99deab38e35U, 0xfffffb1efffff661U, 0x353fffff68cU, 0xfffff6c50000123dU,
  0xffffe51ffffff5dbU, 0xffffd269fffffa6bU, 0xfffff93f00000590U, 0x114c000000f6U,
  0xba2459b8000009aeU, 0x7f654f64e3281a51U, 0x6acee63c49020ad3U, 0xcb7f193091e3bf3fU,
  0xc17f2e9b2711d419U, 0xf05887b15d53a181U, 0xf4150533faed72ebU, 0xa28caedead2ba66U,
  0x19e2724df7fc1bbU, 0x37f4c4888ed6c3fU, 0xef4a490bfff2b4a2U, 0xf747f1fd1a131f7fU,
  0xb7ae526daf12ae7U, 0x594e742107f9df8U, 0xb3d924ad1c1731fbU, 0x9eac211235027f18U,
  0x81cce4413004e9efU, 0xce6d365d13686ff4U, 0x151ef71ca2c22f66U, 0x811f13b8053b094fU,
  0xaf8b238241cf2d6U, 0x93dc19d8a4ab7f88U, 0x6afecf28c10a94c4U, 0xe40781383b14fb5dU,
  0x51e7e965326ff969U, 0xa8c081d61a190cdcU, 0x9eecbde6eccf5feU, 0x3e3ed30d16db1805U,
  0xe45c3f8ea388123U, 0xddff3bf9b83ce4faU, 0x470bd620220f7fe0U, 0x4670401a1ee7c2fbU,
  0x1afd612f7f18e713U, 0xdc5bbff4011ad37fU, 0xef27e4d4e70e08faU, 0xe7c349081fbbe7ecU,
  0x32cf4d21e0173981U, 0x2ccf2d447f4c56c0U, 0xccf5ec34f8c1f5edU, 0x461581f5ea6c191fU,
  0xc7fbff8168e4533bU, 0x4ac365e1cdf506d2U, 0xdef1b2bda1d636afU, 0x11fd0df75903ba1cU,
  0xefa57dc7ff6e509U, 0x3e027f7a4b317bcfU, 0x6313551df4c8bff7U, 0xd77f3e4025cfc975U,
  0x174a13133fc515eaU, 0x9147f1b27ff9b1b6U, 0xdac710310a4e6f00U, 0xdbdee4f20b357f00U,
  0xeb2cc1d5dd28c3d6U, 0xff1e7f20f6fd28e4U, 0xb5dde20e01c90ddcU, 0x13c3c88aecfd7f43U,
  0x7ffa35ddb419e2adU, 0x7abbcf61dfe6b126U, 0x4c0cf86c1ee5eba5U, 0xcc1c2409f8f88f87U,
  0xefd2bf7ae281484cU, 0x131881070307da38U, 0x5c2cf9e80c1c0856U, 0xaf56e1057f5e1308U,
  0xcdb0122570a84f27U, 0x46432f74e1037fb5U, 0x27070ae2c8b81612U, 0x3136fe7e9ab28f9U,
  0xebde490381e1ad89U, 0xab8100ee4a9753caU, 0x1cc33ff6ceeedb1eU, 0xbc0d7f33ceb0e4feU,
  0xf57f1adddae5debcU, 0xb1bcc01cf3de924U, 0x38ca0c3f560e2c22U, 0xc234d3f764fce70dU,
  0x6f9d741ea258122U, 0xee537f38f4df08c8U, 0x1e450e1234b5fc73U, 0x457fee1c110bc97cU,
  0x4e08ec2441fe0513U, 0xf92f45fbd8e481d2U, 0xd92c1b81312849efU, 0xf7f5e328e13fc6bcU,
  0xc2bb28043906a2d0U, 0x733ad7f6ffed1c7fU, 0xc833e081f921103bU, 0x97b81afd35a9258fU,
  0xbeefeac69299f309U, 0x1b0dd781a9dee836U, 0xe8549817ee274607U, 0x511bcb0160429a54U,
  0x1104ee5e7fd73dU, 0xe4d4f1da1f23d381U, 0xbe44277fe13d162aU, 0xed8186e6ede9b45aU,
  0x276ea0b0ea6c9b21U, 0x57ca1b28676b0a81U, 0x1bf003c7f24ef000U, 0x50ec0d2f3e3040e8U,
  0xf6c4013a208125f8U, 0x11ceece481d2fb0dU, 0xc8f1fffb58cc05eeU, 0xaf4a1e8240a2233cU,
  0xe6f31327ff14ed81U, 0x1f5e400a7f442f19U, 0x81f108b8cd14e4f5U, 0x270617f8d93a0fe6U,
  0x811b391828d93f19U, 0xd0063acad331fbf3U, 0x1e0b49faeecf57eeU, 0x57f3a544dc288110U,
  0x6bc201a0d5e9767U, 0x6d72cf611067fe2U, 0xd10533defd2ee52eU, 0xa119084d40f5d6ecU,
  0xc6f8ced3b281cff3U, 0x240317ccbce4e6faU, 0x812a05f77f163b2dU, 0x2e0f12e1e75e0cf3U,
  0xc425fa6c11e60f28U, 0xa9e73d81daf53037U, 0x4fdfe84ebfb91ae4U, 0xbf1f51712c9e631U,
  0x7f14b731147fba24U, 0x82dfd8c255bdcaf6U, 0x52209d9255eddcaU, 0x81ca09f032fec5e6U,
  0x39fe00f1c6f4fb08U, 0xf572462ffd537f63U, 0xd9c1f79504e1059dU, 0x98ac1dc11cc5ef7fU,
  0x1eebf28122a50c0aU, 0x5cd604f0d60e32b8U, 0x173c102bccb23cb3U, 0x28d85ef38a6172baU,
  0xf2f258ce3a811a2aU, 0x7fe1f2540de614f8U, 0x57f848eaf1e735b8U, 0xdd4fe50b3f81d6e9U,
  0x1edf01d8e637b6f6U, 0xbc1bc31c631a7f54U, 0xeada23ffbae9c21bU, 0x81bfd6f85920ef38U,
  0x811ae145ac12a9e5U, 0x4615efedeb191828U, 0xa60b572e45d84117U, 0xcd26dc2d0f23617fU,
  0x5f33ba7fff031445U, 0xfe2cd49dcfff42cbU, 0xbcbbb91ed5d80d10U, 0x240c33ebf0f4edacU,
  0x39ed14fc812b532aU, 0xfea712c7f9bdc7ecU, 0x1d2448358153b3b4U, 0x17f0740e8c0b128U,
  0xed07fe20e1d0815U, 0x1dfaf0101017e7ebU, 0xb408efa11ec90807U, 0x7259e85481ff24fcU,
  0x15e343b938edc27bU, 0xf27f7a78eb167240U, 0xfad631d7c7c5e1bbU, 0x3dfcf0bc81a732beU,
  0xb4fbe8c91c62d6a5U, 0xf0b4ff88019f1a14U, 0x555235a157f15c5U, 0x293858f0e0c9818cU,
  0xbc1ba2813e472907U, 0x2ed8dae2f3cb2012U, 0xd007b78d61f1d134U, 0x4bc831f4e4d3aaf3U,
  0xf1bac1458f4bf481U, 0x2f7c4f16d397facU, 0x2aaef3eeb70de11aU, 0x7f10ea40600d1fa2U,
  0x123281214636b375U, 0xeffe1910c508cce5U, 0xa6da008124093600U, 0x1df6a0043b34294U,
  0xe252e12a13f51d3bU, 0xcb7ffe2f103a4a01U, 0xb719a7790cc65301U, 0xba07b003e131df7fU,
  0xf33168d92ce9d526U, 0x44812b2c08434bdeU, 0xeeb51343e53679dbU, 0xb7f7f706211530f1U,
  0x376e52dd48eb917fU, 0xe16701fb1e3ff801U, 0x383581bdefa01581U, 0xf5f528e0f20fca01U,
  0x75ae302f312U, 0xffffeec700000801U, 0x76b00000152U, 0x7640000012bU,
  0x3f9fffffeafU, 0xfffff569ffffffe8U, 0x12a00000f08U, 0xfffffccf0000052eU,
  0x8b30000054aU, 0x46bfffffc3dU, 0xa00000ba1U, 0xfffff3edfffffddaU,
  0xffffff8300000777U, 0xc1ffffff66U, 0x60fffffda0U, 0x862fffffd03U,
  0x25afffffee8U, 0xbefffffc69U, 0x3c4fffffebaU, 0x21b00000534U,
  0xfffffdb300000ec6U, 0x9a2ffffff6aU, 0x62dfffffe28U, 0xfffffb0e00000436U,
  0x10fffff31fU, 0xfffffb4cfffff662U, 0x40bfffff90cU, 0xfffff5adfffffbbdU,
  0x1e00000045bU, 0x1c6fffffd76U, 0xfffffccbfffffefcU, 0x4a000000ddU,
  0xfffffec3fffffd94U, 0xfffff9e3fffffb44U, 0xfffff8e5fffff9a8U, 0x93affffff30U,
  0x7890000033fU, 0xfffffa8b00000868U, 0xfffffa8d000001fbU, 0xfffffe2bfffff747U,
  0x9c0000015aU, 0xfffff50efffffab7U, 0x1000000000aU, 0xfffffef7fffffd6aU,
  0xfffffdb400000a6cU, 0x48ffffffe54U, 0xea000000e0U, 0xfffffbf900000555U,
  0xf5e417f7fffffd93U, 0xf319e7eb17f104e0U, 0x11fafee9f022fd06U, 0x17e6bacdda37fcfbU,
  0x241c2a17f206071fU, 0x21bfcef04e6f109U, 0xf00b290f1af209fbU, 0xce1dee3e5102af8U,
  0x92f2e4e74c030703U, 0x30decfefae40421U, 0xb209e2021f284ff9U, 0xc4151e3bebfb19b8U,
  0xdfa91bf5060433acU, 0xdafbeaf5d50bf8c2U, 0x1930dfe0e01b03ffU, 0xecfd93d12721ffe1U,
  0xfd1fe6f4e0efabc8U, 0xfc1ae5e3f8f6f6ceU, 0xfc0be714ee19f8e5U, 0xde0a0bf6f9f738f7U,
  0xbb10f6dbdd17f2f6U, 0x9f0c127b720fc2bU, 0x99eb070c47d617eaU, 0x9a28f913ea11ecb5U,
  0xd49f7ff9122a2d88U, 0x370de5f1a918f3a5U, 0x44e4f5d9eefd25ebU, 0xdf0c81c43321eacdU,
  0x1509db00f6ed9ff7U, 0xb0994f4dbfeebcdU, 0xf0f90419c30ae1c5U, 0xd41512a0e3d528e8U,
  0xa318d3dfcb2809dbU, 0xf528b8d29e25f470U, 0xe101f73a79ff91fcU, 0x843ee852e3060081U,
  0xe8ac4f030e2c1e0bU, 0xf900eeffd410e3baU, 0x12eff7daf0ec0ff4U, 0xe2f4cab94e3309e7U,
  0xf819fbec07ecc4e4U, 0xf50ec2f0f0f7ead3U, 0xf5f302f0f608f805U, 0xc90104ebcbd711e6U,
  0xeefbe0e7ed0907a4U, 0xd04c7cbdb1c0157U, 0xededfa097fc0a0f1U, 0x95170f52ed11ffc6U,
  0xf79f2b0d112934b1U, 0xa4efed04e5f2f1c9U, 0xbec0de40d22fdfbU, 0xaeee8cc6dd201faU,
  0x2a051104f702defcU, 0xf71dec1c02f5ea01U, 0xeddb02f6f8e201faU, 0xc5d92210d0f010feU,
  0xd0f309f5e4030991U, 0xbe9c7fce90e0224U, 0xc4e6f6084d42ad0fU, 0xbe270806f6f60fc6U,
  0xe640fceae1e113ddU, 0x1f4f0d82a06e7e0U, 0x120cf0dee4f70105U, 0xeef8dde31a31f0e5U,
  0xf1f40103f7e905eeU, 0xff38fefdf400f8feU, 0xf8033c09f00807e6U, 0x7d3c9efe1f60b0eU,
  0xd4dfc709460eff18U, 0xb1aef030300f91bU, 0xa5efef095fa94be7U, 0xff1f125cee0906bbU,
  0xd11fdc034446f6U, 0xfacc11c2ab21dce3U, 0x137fd31ab6a6fb04U, 0xe32893fe1af919d6U,
  0xe208abbeaff681ccU, 0xd18d2d9ece804b9U, 0x545fce2cf45fe05U, 0xd93608b1f9e43621U,
  0xe5fdf80f9e07e320U, 0x30ce60bc6ab007fU, 0x8143331c6317eb03U, 0xb603c0da0b13d1f6U,
  0xeef50ba13210e81U, 0x49b23879d0fd2f5U, 0xdd3d911f798d0513U, 0x5952e5477e4f6c34U,
  0xddde9fbcd314b617U, 0x50f0278f2fc31ff8U, 0x397fc181c72afb3dU, 0x95af6c81bc05353aU,
  0xe067f018bede285U, 0xe5130e90e4571c76U, 0xec7f3c214fad282aU, 0x81be8107313fce17U,
  0xfae15eb50a0aa7bdU, 0xd6cb06c29c0ed1fbU, 0xec0ed9052eadfdfdU, 0xf504d312536f26e2U,
  0xd0e6d19dbdf3c5d1U, 0x34d9f4d9faf40bc5U, 0xde4cadce737fcebU, 0xc89e35c9d1ed190eU,
  0xeeff1d12c4fee881U, 0x101d26cdd7520643U, 0xf43a2216612af909U, 0xb0fbd56cfe32cfd1U,
  0xf20b3af71570e9c3U, 0x81f4f6efe50add12U, 0x9f600f1172b09fcU, 0xf6faf2ea7c1027c2U,
  0xe0dc1bf1e2ededd3U, 0x941fc030008f8bfU, 0xf4f1d8eef1df07efU, 0xccef1c08e5fc360cU,
  0x81ede20e270af5c3U, 0x308e3eded3ffa1cU, 0xb3d6f6f648ea1702U, 0x9b261735ee0a04d8U,
  0xf47f1a171026e597U, 0x76d8ffd7e21dd9acU, 0xf60504cfbff127e0U, 0xe2fac0dc1bf8eed0U,
  0x3c4ffe90ad7d5e8U, 0x27fc0f1ef11ef06U, 0xebf07f0d4e1ae3c8U, 0xf2dcbcd8d9d80b08U,
  0xecccd1ee1d291e17U, 0x910e4f6f30bf9f5U, 0xb8e6f7225b9e7fdfU, 0xcd2dfe20dbe615eeU,
  0x21fed1c5d97d5601U, 0x44a739ae92fbe336U, 0xdb49bb35c393d104U, 0xee49d31e3eb106fdU,
  0xa5b19aada625c2c6U, 0x36f918aef74c10edU, 0xb38f700127fea28U, 0xb206e592beec7b42U,
  0xfa050738b3f5c20fU, 0xb87f34f481b51015U, 0xd25b59e7fb7f7b29U, 0xc2bacf0e4414ab15U,
  0x7f01a981ea00eca2U, 0xdf817fbc8181817fU, 0x8113817f7ff7817fU, 0x7f7f2b7f7f057f7fU,
  0x81f18196817f15b8U, 0x7fef7f817f277f7fU, 0x7f74c708bc267f7fU, 0x81ae39bd817f6c7fU,
  0xf12d477f81818183U, 0x812d7f811e2a7f24U, 0xfd727f81af3c107fU, 0x1b81a77f7f7f8131U,
  0x122b1cd1aeef818dU, 0xf9af2bbdc2c7d30dU, 0xaef5bd1c469cd128U, 0xf608fd5a6d7f431bU,
  0xc1e0a081b325d4a6U, 0x6d2a1dba04411321U, 0x2a4ffe101e461108U, 0x8e817fcea8423d1bU,
  0xf5ef301cacdcbecdU, 0xe51527e28f76011dU, 0x1d3f32fdcbdd5023U, 0xfdd1ca712328c208U,
  0xf5582d1ac86fd0f9U, 0xd2e1ffcde017e7e7U, 0xf0e808f1fd170ce4U, 0xecfcb7e8292ffbf8U,
  0xbaaa2fd20cebc2f6U, 0xb70c7fff415eddeU, 0xf0286cdd6d011bdcU, 0xd8e4eef1edf23405U,
  0xb6ebf0f12f2703f4U, 0xfd25e8ec042ef8faU, 0xfdfaff2021c663ecU, 0xda08ea0fe1041bf0U,
  0x4281806d67fedf5U, 0x3ec9f109f9fedac7U, 0xe1eb09e1fbd319e0U, 0xf2f7fdd72103e6d7U,
  0x99c15f8fadbf8f8U, 0x1460cb11ed31f20dU, 0xeaf445fc6102ffebU, 0xe711ecf6ea2e06f8U,
  0xd2e6fbf11c180b0aU, 0x1504d90105f3f7f6U, 0xb9c7f30a460742e5U, 0xe820f6eee4f721f4U,
  0x2031f6f4f5562c32U, 0x4ec01be6c9feebf2U, 0xf15eb9170d81eaf4U, 0xf01de1210de80fecU,
  0xe8b2ced5d7fcd0e2U, 0x1a50eff8f45500a5U, 0xf640389d4f4913e6U, 0xe528dae6f6f26214U,
  0xe735091a01f8e015U, 0xde33f8fc9685f3d6U, 0xe13b22f9da8f5a0dU, 0xbfbffcd21418f433U,
  0x3331e4dae807f105U, 0x32b42a8190bcc627U, 0x9c0db73ed788ee1cU, 0xee37df443a103627U,
  0xd7bec3cb903cffebU, 0x284819c4e07f2309U, 0x1d61e2fa314533e2U, 0xbe28f5dad9207f29U,
  0xff7f015ff7aafc9eU, 0x912b00a602e016e8U, 0xfa7f29cfa12b8534U, 0xe3a3e800433cd83eU,
  0x113926e9bc10c8dfU, 0xfcd725dfe5d0dffbU, 0xcee0bb13d791f20dU, 0xee1000132a252ad5U,
  0xf2aebfb5befee881U, 0x232df6e2fc26fad4U, 0x74af8f762381aefU, 0xb939fedcf3091219U,
  0xd90e03212ce6f695U, 0xc6040ddbb66805bfU, 0x17010504f340ae0eU, 0xc7e70234071ffc2dU,
  0x4102d02d05fd433U, 0xd70d11f9e8edf2e9U, 0xd4dcf8f30ef704f1U, 0xc06f6f031070af2U,
  0xad8112f704e804f1U, 0xe4cfe070215faffU, 0xf51b71b76a0f2009U, 0xfa12f8fbe8d01cf6U,
  0xd6ed09ea2916f0dbU, 0xf822e0e70b5101e8U, 0xe4f9f8ed1417c8fdU, 0xdbe3fdebf40e0d0bU,
  0xfbd80f08cf34f722U, 0x19dbf311ff00d1dfU, 0xf0cb12dced0819fbU, 0xf1df03eb0af9f2edU,
  0x15b8291e19fb0dfcU, 0xfa2201fd0007fe08U, 0xe3eb43fa0ae4f7e4U, 0xf625e8dc01130e00U,
  0xd3c9000b46fd03fdU, 0xdf3ff070d81f8f5U, 0x9f0cfaeaf51103e8U, 0x2a1f250de5f8260eU,
  0x21e30eedd233037U, 0x1c050512edffdaf3U, 0x14e9c5e308e7ff0fU, 0x1001f6e5f0fffcfaU,
  0xe3c7d3c6feea0fbdU, 0xfe13e003002f0af0U, 0xefc93bc74f102befU, 0x2e30cbfb0e1d37f7U,
  0xc01bf4194f0cfbe5U, 0xfe0afcd1d589f8d0U, 0x83e50008fb02f0f9U, 0xcceb2608ecff1624U,
  0xf7424401e840234bU, 0x1fc61203ea11dadeU, 0xefd300dae1b91be8U, 0xfff5cbffe844f612U,
  0x11d3c48df1e9d1d3U, 0xf560ddf9e83efddbU, 0xf6bae7e97f072ed1U, 0x1e06c4ed140f1f00U,
  0xe354d90d650916c4U, 0xd738f39fa5fcf8feU, 0xaafa1a201aeccef5U, 0x9cf81847f3171508U,
  0xfd2d1eeef071f713U, 0xedef14fc00f2dbf7U, 0xe0c0fef3f4e705e8U, 0xbfef3ebe80905f1U,
  0xfc9fead7e7f922b9U, 0xf72df2f9ff2800daU, 0xf6cf25eb01ea35efU, 0xc44598e60506b60aU,
  0xee1ff51f5f05febeU, 0xd209e6d0ff04f3e6U, 0xbbf60807f7d7fafcU, 0xd7fb177ef00d0c0cU,
  0xfaec04ffd92b0c09U, 0x9ddd071acce4effbU, 0xdbd6f6f2faff0605U, 0xf2e6e009f6bb05fdU,
  0xc58c1f0b00072d04U, 0xf290115f817f7f9U, 0xf2dd71e709da1bfbU, 0xdc21d807f9fd23f5U,
  0xd5fe01ef29fe08f7U, 0xe620f1eb1c10fffeU, 0xda151cfa1d049af5U, 0xfc142205140c0bU,
  0x27d781f80516U, 0xfffffeadffffd39fU, 0x1a30fffff685U, 0x122400004e58U,
  0x308000004ceaU, 0x1940ffffe7d3U, 0xfffffe83fffff45eU, 0x34ca00000a02U,
  0x422ffffff97U, 0xfffff92a0000517fU, 0xffffffef00001cfdU, 0xfffff9e3fffff208U,
  0xfffff999ffff9f67U, 0xffffeb3c00003ffcU, 0x3e05fffffe0aU, 0xbb00001d22U,
  0x4b4d00002fadU, 0x4d0100002355U, 0x12bc000025f4U, 0xffffd7c9ffffff2fU,
  0x235e000001b4U, 0xffffb2de000004c8U, 0x561ffffdcd3U, 0xffffeec7ffffedefU,
  0x2059fffff74dU, 0xffffeb6ffffffac8U, 0xffffe106fffffdd3U, 0xfffffd73ffffe2b2U,
  0x35fe0000353aU, 0xfffff4ecfffffda0U, 0x504100002dd1U, 0xe5b00001dfcU,
  0xfffff4d9fffffaa3U, 0xfffff791ffffff13U, 0xfffff97c000020d0U, 0xffffeea8fffffb9dU,
  0x2f0700004078U, 0xffffe44800000c96U, 0xfffff38200001f30U, 0xfffffeedfffffd38U,
  0xffffffd9ffffe5c3U, 0xfffff7d3ffffed8bU, 0x6370000421eU, 0xffffe01500001cb9U,
  0xffffc7c4fffffe7fU, 0x14df000011f7U, 0x123a00005152U, 0xffffbc0b00000197U,
  0xa4acce3c00002078U, 0xe4f4c6a9baecdcfbU, 0x9d9d0da103abb997U, 0x81f03d3c10c9298eU,
  0xf32b28b1d6fbeb8cU, 0xdf1822194cc4db0aU, 0x4417aeaf4337d9f9U, 0xeef8ba9f993bce1U,
  0xae2afff28cef3bc1U, 0xc0fb124ae8ecb4e9U, 0xc81912fd939cf819U, 0xc2f840f88a3ca62cU,
  0xf325122709d401ccU, 0xf53923daffe29af0U, 0x30133148bf071bdcU, 0x3e01a25e213e11eU,
  0x241736979ce832U, 0xdd391afe077fd220U, 0xd28c3c2024754501U, 0xced3e80f382a1c51U,
  0xecfad058c51651d0U, 0xd03e18cf30028206U, 0x1626e4ee35da1304U, 0x1de1ff1301d63f0U,
  0x8fa59cbcc823c913U, 0xc9a8ad5e138894b9U, 0xb56609aee018a04cU, 0x6cdf90a7580ae0e8U,
  0x34ca1fe2158126dfU, 0x1d64d29e8616ebb7U, 0x59205e2b9427e4b8U, 0xf8abd4b6e13fda9aU,
  0xd091aa842288623U, 0x258a2008d59da6deU, 0x143bb4340aa3ffa3U, 0xdf93a55aa5b0b2c0U,
  0xad153adfb8e1efc8U, 0xe29ce029ab0f99deU, 0xa9c38e54f6be0e1bU, 0x5e0f053905c794beU,
  0x2618dd26d400c6baU, 0xf633c534b6f596b2U, 0xdc4890d60a291b5cU, 0x84c8fae6a2988ffcU,
  0xb93db5050e57159bU, 0x895ab2c223d2de95U, 0xc20f3946aefb8cf6U, 0x5e9a2d819dc55d1fU,
  0xe2cc003d8fdb9239U, 0xd3a53cbdf4943f1eU, 0x60a3f50be720bb97U, 0xe5f9ee900641a011U,
  0x66fbc2de32e34101U, 0xea3788045219e5a2U, 0xfde32e3d55f6496U, 0x4743bc9effe39412U,
  0xfff50c16b09ad433U, 0xfba29e07b3bcc8afU, 0xdc95b1a4814c9bcdU, 0x1244390b96d43a51U,
  0x2340623cbcfd17fbU, 0x1e3238f813d3a3e4U, 0xd07f44560c51d2aU, 0xb42d3521eef8d40cU,
  0xe10afe059546cefeU, 0xfdd5e818592459e8U, 0x2d9dae20da119c2U, 0xbee6fb68354acee7U,
  0xd6fb40162fd8ce9cU, 0x28143e81182bc528U, 0x2988a8f2edde12b2U, 0xd6adf70edb300c40U,
  0x4ca540ed175ff706U, 0x2b1e9896e3d00110U, 0xa55f213dedcdc92aU, 0x2f225bf7dfc8e01bU,
  0x17a7e09ffc3c13afU, 0xa344ebf8ffd2b2efU, 0x2fc21f14ea1ee330U, 0xda0ab940fca59dbaU,
  0x9f4e0243d01208d7U, 0x9a1f460eb5c78f2cU, 0xda40814fd0fac31bU, 0x3821b5f2ce15ef98U,
  0x2cbae85331b3d99dU, 0x4817f623cae818e3U, 0xccb51ac40be6dc17U, 0x163a280bc2de411cU,
  0x15fefb1641523c54U, 0x3ecd3e0d9a0106faU, 0xf94ab6e3e447703aU, 0x1af7e81743e743c6U,
  0xfdf10201caf11b3bU, 0x15d2df4ffb0114a5U, 0xee3102f4d38e810aU, 0xe42ae3cf0702e3faU,
  0xde38ad13e1a6d5feU, 0x33665bd27971602U, 0xd2c622ecd413e36eU, 0x3b62834f6923119U,
  0x151e1ce4e2360e4cU, 0xb8decb1ee3cbd6b1U, 0xe981e2c6df2a7218U, 0xd1cbc4e92ee1aabbU,
  0x9b9bb28211c2721U, 0x38132fc630148aeaU, 0x3f0adeea029bf9edU, 0xf2ebc1f61537e9f4U,
  0xcca826e50747e001U, 0xe830810813154119U, 0x2be207e9f322bbb3U, 0xb50924acdcf9e5cdU,
  0xe901e1be3edafa06U, 0xdc09f93ae9fb2719U, 0x18fa03d5dac605dbU, 0x4404c8e8ff0bac19U,
  0x2ddde002ce22d02dU, 0x26d40a4715053703U, 0x16aaf010e9e41611U, 0x342ce4f2f716f019U,
  0x21ce2d3a1affea19U, 0xffd7040d222945f6U, 0x33b234d5b62117f8U, 0xf8e3dffcb4c3db22U,
  0x25d6fd433f0a1526U, 0xf3f91720bad03627U, 0xc6f0cff1c41eddf3U, 0x3411affb3132c6fcU,
  0xf6f6bcdc23cc1108U, 0xe9fce70efd100d81U, 0xf8280dff9ac4ae27U, 0xe20b25171afb07f5U,
  0xf6dae7e009b7f4f1U, 0xda700b053c8bfb06U, 0xc0290ffa00132ecdU, 0xf2af44d3e3d0dae1U,
  0x4f5e39041531e10cU, 0xdf39064601163b1dU, 0xc7b1edf4d0b521ddU, 0xe938fc30e413f93eU,
  0xdbfae4c4d00d0639U, 0xe6e31c16f902bbf2U, 0x42ccd7f87f17b921U, 0x1ad64edb4304571fU,
  0x81f2b5b0181c3d27U, 0xaa3eb8e5909ecca1U, 0x3f503dfb2e22a8d6U, 0xd9bce78be61222efU,
  0x3e832f193ae73cabU, 0x5a400fce1b16eabbU, 0xdbe3904c109f3703U, 0xa22621ce0dca1927U,
  0xa2c7f8eceaaea04dU, 0x45b94fabbfc72de5U, 0xa611c4b1f424cbb9U, 0x3be9352fc93e05dbU,
  0x8c40afba1c2ffabU, 0xf4e2f9f1383aef20U, 0xf0c1c305d8023c0eU, 0x212107e929dce2d4U,
  0x3041326c045f9U, 0x71e0732d3d3cfdcU, 0x5f41f442b78e81e1U, 0x150fef02410eca35U,
  0xbf43b4be4f24ef1U, 0x65cd13d6051338d1U, 0x4701ff0ddf05dadcU, 0xf2ca60d29dc60ceaU,
  0xb11a0825311ef8d9U, 0x5319e82309db9bcdU, 0xe9f5fb1116eb1b04U, 0xabd84451d9222927U,
  0x2e4c2511adb4d001U, 0x3afa0d1f3e0f0e4aU, 0xc6da23dff05c42c3U, 0xed1a531dc4297faaU,
  0x16e0d82ed1d3f531U, 0xae0074b41f7fe36U, 0xfb06e5c212b20e7U, 0x19c2e604e509570fU,
  0xe901d2ec2a2246f9U, 0xdb15f33f044b1b16U, 0x21de9c02fa2017a3U, 0xd34d13d1e74306f7U,
  0xff32f7f5f2f63624U, 0x2208ea1aefcfb408U, 0x1aef24dcd53a81c0U, 0x16d5cb2344e2ff08U,
  0xfcfab2020531490dU, 0xfb240e4bfe0c37cdU, 0x18c54cf7f0f6e731U, 0x1bfffe35b9d3c10aU,
  0x54d2e0b7e5edf8d9U, 0xfc0f53e2ee328ff2U, 0xd430adafbde353a3U, 0xb04f938f001291e8U,
  0x1ace05c3035c31eU, 0x34e9c114b3117d3U, 0xf85deec13af02918U, 0x4852cc3f95d0938bU,
  0xeef4815b9bbefef9U, 0xec2cd1b31eee16U, 0xd4e90f20c5ad94dfU, 0x6e8f9c08c48bccdU,
  0xde81e900988e0b13U, 0xea2be4f521f00bf4U, 0x25030cb11c59df02U, 0xf8c845e9dc1722caU,
  0x1f0712200a1129fbU, 0xd7c8c42cfc35ea27U, 0xfaf6e2e1edc429fdU, 0x302b5f7c8e8e229U,
  0x140ecb0114fae631U, 0x120001d6241109d0U, 0x1ffde4c61d0ee514U, 0xeae2dee54d200b04U,
  0x30f87ff6ebfaf418U, 0xe9d423d013e303fdU, 0x2df3e91b3809e615U, 0x1d2b3313560e370fU,
  0xb3400f9ea2bd2feU, 0x2149fe0914c4ecdcU, 0xddf2f9240a175916U, 0xd637ee549a4720c7U,
  0x111ff71e2cd9cecaU, 0x18111cf029e52afdU, 0xf620feff04081930U, 0xe9fd20fed3931d41U,
  0x26acec1d1be00a12U, 0xbd1e89bbf48eae81U, 0x3257b49748b4e3d5U, 0x2ab6e3d4e2f4a9c0U,
  0x49a0afca1101ddfbU, 0xa4a34af63e4311e0U, 0xefd83d8cedb14047U, 0x469fa2c51be22216U,
  0xb289fe9d3029ecfcU, 0x9ff710970101c9bdU, 0x4b05b731d60d1ddbU, 0x8b4fa07f2a59b27U,
  0x38d9fafb461e393bU, 0xcca1a0d652e1ef9U, 0x3ce5d3e5c63d3826U, 0x1f2b0491b3e7b925U,
  0x1a16e64811d41231U, 0xe538d24de0ecf408U, 0xe6ee3700f4e48134U, 0x6b0fe36053deacdU,
  0x902e1cebcee11eaU, 0x27f0c7c9250afcffU, 0x39b9d4182ae7b2feU, 0x2d0d545df4c6eef6U,
  0x1276020b0ecb2010U, 0x34d91c0b19d0a6ffU, 0xe92dfe0ae8ad7f3aU, 0x2947ed01e40c4f05U,
  0xdd063461343c9d0bU, 0x61c61c12f94c1ef9U, 0xa2e85c1bf82be524U, 0x1f1cf2f27bfb2298U,
  0xd544f119fbec5dd3U, 0x241f8661036b837U, 0xf4d300030e0fec59U, 0x311ae63e04332710U,
  0x962e710e2db3401U, 0xfacf55f7b9ecbdeaU, 0xf6f714fabfe50342U, 0x6ded4412d812303U,
  0x11cc161cb11f002aU, 0xe904db3f04261d03U, 0x56dd1633dfe6e3c2U, 0xe8ca38e8f315fae0U,
  0xec618f2e402fce4U, 0x1508fe13f527fee1U, 0x4540fdd52012bd11U, 0xb7c9d9fae3192bfeU,
  0x29a3404d0601cefdU, 0xea061c02720455fcU, 0x2ae90ae508060de1U, 0xe9f70f9bee9e182bU,
  0x853f53c1bdc13e1U, 0xcaf9d93af9e329efU, 0x40331624b781fef9U, 0x2509b768321efee6U,
  0x3403c7fb14d50bd2U, 0x2506ddff04f93dc1U, 0x3593ddd711061a3dU, 0x221a5728e6da17e8U,
  0xcce44046U, 0x0U, 0x0U, 0x0U,
  0x0U, 0x0U, 0x0U, 0x0U,
  0x0U, 0x0U, 0x0U, 0x0U,
  0xe421de4600000000U, 0xfc770b4c8d14bcdU, 0x227f4d3301f11bd5U, 0xcfcf810f2d25a222U,
  0xf7d2d9492b091805U, 0x2fb5b6e04cb458cbU, 0xe30ed3222c0bf2d8U, 0xf3137ff5d620ecdcU,
  0x61225ee0b0e0f14U, 0xe730450af91bc932U, 0xce39e4457fdc0c1bU, 0x38d0b0e7ffa07e2U,
  0xec23c1f8d3073df5U, 0x7964f15c41cafa18U, 0x241567bfd8e0a4c4U, 0xd82a36036f7f95f2U,
  0x2fdc11efe12ece2U, 0xd27fe62cde074606U, 0xe4c73dbb32de0456U, 0x371eed3d4e20fff5U,
  0xec031b3dd17f9bc6U, 0x44d610d2749f1c43U, 0xb87113f4253bb4d5U, 0xf8e2cfc588f122f4U,
  0x16e6ff191b027f11U, 0x7aab605eee820cdU, 0xfc7f5f2386cfe51bU, 0x31c5bd278f32d0b1U,
  0x29b943701d2ac0beU, 0xd7c57f0ea90633e0U, 0xb9e610ec33ce92edU, 0x24cdf0c581dceae6U,
  0x28cc9f186e0c5ff8U, 0xd73e22332fcf5074U, 0x16ad4be87fdbd013U, 0xec452ff1ba0eb70cU,
  0x24cfb7fc2afddedfU, 0x20cb38b1c80e1a07U, 0x110f2a290ec04ddcU, 0xacededc7fe8bdf1U,
  0x20a304076545f9f7U, 0xe3e56fb92fe84cb7U, 0x82cc91d171e81fdU, 0xca0bf1f106dc4c05U,
  0xc114ae077fd17500U, 0x21dc61e30f14bd0cU, 0x3b3e26fe0821ebe4U, 0xcb8cf1cf62a77f3cU,
  0xf2ede20c00be2efcU, 0x487f341affdad02fU, 0xd5db66d6f51cbef9U, 0x9d173ce1bcfd404U,
  0xaf02d0e7f71b662cU, 0x18a79d0347fee71dU, 0x11d72ccd9f2c7f95U, 0x813ed8620f5d55ccU,
  0x2e0d1a111c009cefU, 0xcbf434cd30d08b8dU, 0x42e2fb200024c8cfU, 0xd7811be6e218e12dU,
  0x14d707ce0bb4670cU, 0x775b437fa4e31ff8U, 0x2d0920c11a834cd8U, 0xf03f7035515bc6f9U,
  0xf059d145d33ddee6U, 0xf8f8e4c881b7b906U, 0xe6d224d5cf0b5720U, 0x28ee0912f0d41b0aU,
  0xc9d6c52c00810402U, 0x11d8ac0226168e16U, 0xb9814b1ff3d22de7U, 0x9ece6ed47f118d2U,
  0x2229ac63e4f29b21U, 0xdb0f3415fe2d00bbU, 0xf5151aba16242af2U, 0xd2313a067fbf366fU,
  0xfde3083e051eef37U, 0xb27f5526c841a133U, 0xeb3cccb43f0c47e6U, 0x337fda66d51239caU,
  0xf0243dd0e0d5693cU, 0xf729eefa76e2a7faU, 0x5be665fd242f082fU, 0x9f37f087008f3f1U,
  0xea25a62df2021eeeU, 0xe00f7fd51000e416U, 0xfd4f27f808cd0adbU, 0xd50d29f809efb0f6U,
  0xf3e8bb7f131dd810U, 0x150422f904c507U, 0x3beb5ad014b107d7U, 0x141d68db2419c9ffU,
  0x35b029f07fbdfb04U, 0x25f9e6255a46fc79U, 0x3830f80cdf2c0818U, 0xfe437f27d9bde3dcU,
  0xd3e5fec61cdd9e0aU, 0xf0ecae3050d72029U, 0x4b5242e9f49d4b3eU, 0x21e3b9e17f36105dU,
  0xdde8e8c7df23c3e2U, 0xcd3434f043867febU, 0xe9fcc1ef1bcae401U, 0x197ff31e62ff1ff7U,
  0xd58d1e0abed60f2fU, 0xd8bdceb51c0cd203U, 0x5251c48191df33aaU, 0x203641b09ec1b214U,
  0xdb301efab6592e73U, 0x38e06e81e4260a2fU, 0x29ed1ef847a640eaU, 0x17ff43ebdcf6ee01U,
  0x7c93b0fce270ff1U, 0x14d10df27f152304U, 0x3226b533d0f9b827U, 0x98da1718ced9031eU,
  0x2b7fc9e03aa4111bU, 0x343beb112da3ef34U, 0xa7f2244470cb533U, 0x2094621d359f41ebU,
  0xbc4240000e420c5aU, 0x2ee6ca7f383e75edU, 0xd43023cb2f583f0eU, 0x20eeddfdb32024f6U,
  0x1d1042d30ffa1e2bU, 0xe90837ead5fdf50aU, 0xf111c5187f13e626U, 0xded02829eb0c040fU,
  0xaf410fc7f13e9e6U, 0xb1329e0ed1cf9f0U, 0x810c3ce9e820682bU, 0x16398c10f3fa0610U,
  0xf5f8f61bfcece9feU, 0x3a2a7f1505fd22e9U, 0xe6d44ffb79d605f4U, 0xf8f72f0342f8bf00U,
  0x20ceeec81173302U, 0xe8dc331d40e667dfU, 0xfa16fefd31facb40U, 0xe9f27ff5d919180eU,
  0x3e9ebed03f814f9U, 0x1ffe32a2c1ad3f7U, 0xe013db1fe733c833U, 0xdab7ca207b811508U,
  0x305032f9ebb3404U, 0x2f987f09c2eac604U, 0x13ca7929f02dad0eU, 0xb2cd049504e5bec9U,
  0xec687f0a8cadc00fU, 0xdafbddb1299fde0dU, 0x25d30729e0444983U, 0x812acb6535cdda07U,
  0x2cb7b407ceb5e40aU, 0x12e71639ce4103c3U, 0x40452b35fe35c547U, 0xebdb7fdf0bf7f73cU,
  0x416e81ee0e9c936U, 0xda7dfeda7fee710fU, 0x1df3eaf22405de31U, 0xec12e4db5e342ee0U,
  0x2b7fe428eac903U, 0xecdeece8f1ee2901U, 0x3ce7c5f515efe411U, 0xd20b7fda1c44b6edU,
  0xf5c40412ffa55a3bU, 0xadbc7e0c0ba5be0bU, 0x3e4acf7ff5be9e48U, 0xb83d56d6f548162fU,
  0x3330f25c9a529e9U, 0x12d39fe20e1dbbf9U, 0xfdf44ebe222081bcU, 0x1ae41416d5af43f3U,
  0x1be5337f3332dd25U, 0x4afc090203d2efU, 0xa3111d104b4ccd5U, 0x10fd7f26e8e84425U,
  0x32072316ecf802c9U, 0xf32a7fe3675ff4f0U, 0xf4b4c503b30e4af6U, 0x20020fbdcdb17efU,
  0xdd094813b7d7da06U, 0xf5dddf530418eb02U, 0xf120dce0f640b00eU, 0xe8c3ce1bbe7f0801U,
  0x1d3f523de8f042fdU, 0x27fb7f1606dc2fe2U, 0x8cc081b1bd884eeU, 0x579fd7f64d61f35U,
  0x20119c8a50a08e9U, 0x8fc440a4dc6cef9U, 0x26810b41e5e303d5U, 0x2af5f42119f610d3U,
  0x1f2c81eac81f0ca8U, 0xd36542f930f1de23U, 0xda08f811edb6c714U, 0x19ca1a01472cde23U,
  0x504641c20e38c4U, 0x4b03d15f3c212f8U, 0xcf3e84306bdefc7fU, 0xa74df14a68c1d62bU,
  0xd2dac2edcae69c48U, 0x14f1b4e930d5607fU, 0xbc12d61f1012ea2fU, 0xdbcad0130dd8d820U,
  0x38c3d9e413557f00U, 0xb0bf3ed65f36910bU, 0x4cce8135edd20728U, 0xafc15ae21405505dU,
  0x557fa6d961c72fe7U, 0xc71d4c4fbe9b39bcU, 0xc015d4122e975c56U, 0x58fd2c4a3716140cU,
  0xd3f441e37ff118f0U, 0x2328ec0a34f9a7dbU, 0xaff43bf8c50935dcU, 0xf4fb82fb7fd5071dU,
  0xf2f645ea1a3c2fffU, 0x6cbde0e2d91ff8faU, 0xc3c30c020add28daU, 0xce0b96e02681f84cU,
  0x27512417fbc0fe6U, 0xddf926bf06f688d9U, 0x22fd211a18d1f1a5U, 0x5112ba20ebec5607U,
  0xd8c41de581dd162eU, 0xdd1beff04de4b6e0U, 0x5d5da98c4d1aa200U, 0xc7db1719a3c58dd9U,
  0x133204d6e5ea7f20U, 0x7976f0d573d57f1cU, 0xf2f218f09eb4eef0U, 0xe63cf5371443d6edU,
  0xe8be1aadbbdf028U, 0xfef4e7f97b93fd41U, 0x32302f810d10adU, 0x37f4694021cdfcddU,
  0x3cea48298cdf0cbcU, 0xf40dee337f0be2deU, 0x833527d60f1707ebU, 0x8e3f3e7298ee93dU,
  0x9d312e2007ff0deU, 0xc1123010533fceeU, 0xddcf0fef530b15dfU, 0xcc28fb22547f04faU,
  0x2bd3c6b9b6e881c5U, 0x17dd4cebf7a360ddU, 0x16282fdb07b1346dU, 0xc7d60bedd836c938U,
  0xc739a7c6166f24e5U, 0x203ab00ae3a0327fU, 0xc86731f57ff9aa2fU, 0xe3a0e29aa198bc1U,
  0xd5ead7c14282a6edU, 0x12220731e6e2bb25U, 0xeb4e7f121be7f33U, 0xebe5816e460b06d6U,
  0xb02b48435be12206U, 0x3ce615ed24c938fdU, 0x19bc8f5374bf3c40U, 0x4e14e2ff0de18d01U,
  0x2381e32b98bad8eeU, 0xdf3ab6230c639b22U, 0xece81ec6c02ed2c4U, 0x216bd0d3af67fd6U,
  0x13eb08e86ffb003eU, 0xfcf2c957ee053af9U, 0xf606131cf6ced8f0U, 0xf059f645f57fddd2U,
  0xf06e7939fccfd3c0U, 0xd68d7f07a8578affU, 0xd10f48efd4b8b9a6U, 0xd99e2158d2376d36U,
  0xcb01544dce8f7f23U, 0x33da2be30d3dded2U, 0x14bf0e7ff6ddf31eU, 0xf8453e120f2e1716U,
  0xc7051c290224480dU, 0xd7b60defd2e5eb39U, 0xe41525ef0105401dU, 0xeecffd221a810d46U,
  0x314f7f11a44207e6U, 0x2b9c243259caf01fU, 0xdbe4f90d3b3fbaf2U, 0xbd81fc0dc9f5f102U,
  0xf8059f132ce7e31bU, 0xf11ff7f9f5bd230aU, 0xf2fc241806191020U, 0xf503fde70a1481e9U,
  0x7d0af4f8cbd9U, 0x4c8a000079f5U, 0x8fd70000a2d5U, 0xb41400006c9eU,
  0xa15300009399U, 0x9ffd00008da2U, 0x6a9f00009e55U, 0x71e10000e176U,
  0x6c780000a16fU, 0xbdf600007620U, 0x914800006d71U, 0x98100000a5f3U,
  0xad9b00007637U, 0x971800009f07U, 0x5be5000068c0U, 0x89600000560bU,
  0x9ae900006ebbU, 0x6c13000077ffU, 0x6f330000b849U, 0x945100005895U,
  0x91af00008147U, 0x4c300000541bU, 0x6fca00006574U, 0x4cbb0000717aU,
  0x7499000084f6U, 0x67420000ce7cU, 0x96bd0000a059U, 0x86d700004cb9U,
  0x84f90000d5adU, 0x7de200005b80U, 0x545800006fc3U, 0x7e4b00007963U,
  0x630e000066a7U, 0xb90000007715U, 0xa02200005c66U, 0x7a5a0000d209U,
  0x740100005721U, 0x7b6e00009bebU, 0xa92900009cf1U, 0x939a00008ca1U,
  0x6895000079b5U, 0x9764000096f9U, 0x694f0000a163U, 0xbbc20000aa9fU,
  0x474600008230U, 0xb4700000cc70U, 0x92090000721eU, 0x696d00009bacU,
  0xde23e82d000050a3U, 0x221cf7efe2284418U, 0xd4e9dd01def308e6U, 0x1902d0d72cf981e6U,
  0x22f25fdfc081416U, 0x72bcf3fa325e6b6U, 0xf31c422dae0cd9b6U, 0xf0efcfc37fe7ee07U,
  0xd814c0140fdc09d0U, 0x20dc30c43314d426U, 0x2dcdf019fdcf30faU, 0xbdb969ec042220dfU,
  0x32e4dc1c1860cf25U, 0x2ad3d23b24490261U, 0x32dd0239b500d6bfU, 0xe2f3fece5f6fb17U,
  0xc35edb0231052706U, 0xcbdefa541ff5bae9U, 0xf0f00b204fd9a827U, 0xe0a14510ecbbe0faU,
  0x1a24517f04160f1cU, 0x6a982ef4090cd9fdU, 0x6dfbe08efc2dc1f6U, 0xb6e310ffbe9e2ae5U,
  0x22d9fe2b54bc150aU, 0xe9342e0e0d81fcd1U, 0xe001f44a1f0c1beeU, 0xf4e2051cedd203edU,
  0x3dec1c45dc2704f5U, 0xf51304fc5fdbf925U, 0xf305d7f60ee747fdU, 0x202ce930ebb0d0e8U,
  0x1bd3cce0d5c7feeaU, 0xe3dfddf19ddbcc3U, 0xf31e0af110f4ececU, 0xe9dd030cccee1bdcU,
  0x641eced9070252dbU, 0x34e106182407ea19U, 0xfed2292022e0c1cbU, 0xb3c3b2944fc2b2eU,
  0x4023f4c2ffeade84U, 0xff16a331e7ce42a1U, 0x2d1916fb2fe012bfU, 0x1af8d93e116b3029U,
  0xd8f44ef723c0af3aU, 0x4ff6e024cad07f62U, 0xe12658e21533e02fU, 0xbf4a45b8f403cca9U,
  0x114d01f3550f12c2U, 0x9f30f6ba2d0dd6b0U, 0x5e2c49501fe6c4b4U, 0xd40d003a2b110cb4U,
  0xb819add399cb18e3U, 0xc81de1e63be5f6a0U, 0x1817ff02901506beU, 0xfc2805ff03e00634U,
  0x1ef5efeff9061429U, 0x141e43177fae6108U, 0xd50ced40a60f20c0U, 0x73d325ffb5a34dcbU,
  0xf820c8ec2b1e4818U, 0x4349b7012f14112aU, 0x41ef7ddd13504eaU, 0xcfee4feec80c15d2U,
  0xb8de1cfcfb1f29fbU, 0x14c3d434920a0adbU, 0x4b03ddcb403b36f7U, 0x310d117f0ee0ff2bU,
  0x3bd9f7cfde1e2af5U, 0x6c8ef4df8101415U, 0xd5232f29dfd6f9c3U, 0x829d125570c1c0eU,
  0xd4d1ee5c96c2c1f0U, 0xff19f2bc27d250e7U, 0x8220c2e8b27b310bU, 0x98136b2931145ce6U,
  0x1a07514ae57f2947U, 0xbe1ed341f164e926U, 0xa4b6ce4117be0001U, 0xbdc40aff20ffd2c9U,
  0x70afc7ecff230cf5U, 0xc5df26d85901c139U, 0x25c6b62c03d4d9bdU, 0x910eb4d501c63ffU,
  0xff2c4d1adf14ca11U, 0xdf211ae8411b7ff4U, 0x13e3dcd5fd16e1fdU, 0x924bf90f37b03117U,
  0x283a5043c3ddefe8U, 0x38434e5cc7edc2f7U, 0xe111ad32ef111b1U, 0xbbd9ef11282ae8feU,
  0xb661a2297eef109U, 0x2103cfabb9b131c6U, 0x53d0fbbfe7d9a6b9U, 0xcdc3fcc647230131U,
  0xc3602ceeaf7077fU, 0xd1fec8d4e7fbccccU, 0x4aed0be74934e988U, 0xd27fbfe0f13cb11cU,
  0x6365acdfdf8f0ab3U, 0x32b615035f1eba00U, 0xc507d7b3f93af1c8U, 0xfff717214236e67dU,
  0x2edcaa38320e2bafU, 0x33f133eebeb5f5d3U, 0xd446f9ddcac71cf5U, 0x5dc8220023b838c8U,
  0x2cbff422211504e3U, 0xed0bbc7f05161a42U, 0x25dac3a1280205ddU, 0xe749dcc129d5212cU,
  0x861fb00461bcf9c3U, 0xe81328d0d5d7f6faU, 0xc70ed8e5d7cb16efU, 0xf4f3e2d717c8f2ceU,
  0x2cf1ebf3184619f5U, 0xf6129ef2cdfc37ddU, 0xdfadfc09a5ad0e1eU, 0xcb33d62c0df8cd13U,
  0xceaf2d97e6e5ffc4U, 0xf181f2a035e6bd48U, 0x4405fb372ace3fbcU, 0x37cfd8f854ffc5f4U,
  0xdb0734dffbefa5f4U, 0xf6d7eeab4ae6b6d2U, 0xe0f00cde22f71fcbU, 0x91eb3a0ceadaa903U,
  0x395cdb403459b5bfU, 0xe7131dfed4040854U, 0x1c1739a6f2ecc7b8U, 0xc3d421dbd02d25ceU,
  0xb71820ee19b3f4e5U, 0x2e2cd9eb2bfb302aU, 0xaba940de0408f0a9U, 0xd8ece58100c0b879U,
  0xf43f262c05e6d1deU, 0xbcf7260a09f8f4c4U, 0xd3ed01bc17f2dc28U, 0xa731cfccdf2f0106U,
  0x2ff0eb232b4c0b2eU, 0x1e0de4891605f407U, 0x34bed70400340219U, 0xdc39180770d0e66bU,
  0x49e8033dcd252becU, 0xa80eb7ebd59e69a4U, 0x221126e52d76ad14U, 0x99c3c50922d940bdU,
  0x32738c1c335dc11U, 0x92e21a073ed841d9U, 0x9b66e8bb10182ea7U, 0x34f11edaabd33dddU,
  0xde22040546bd81e4U, 0xfdd0c265f3abebcdU, 0xf7407323c13b0f1bU, 0xe735a5b251b15b2aU,
  0xd63d3cd4c6089fddU, 0xe3f21919a7b106ffU, 0xf8e8952de7e95705U, 0xd7fba9281ae50f26U,
  0xce1282000c71747U, 0x631c75ab611db960U, 0xfa3ef03f352f203eU, 0xa02364f401540a00U,
  0xf1f4507fd7f928c7U, 0xfa1448139dd1c5e0U, 0x16f1060c4d2ccf19U, 0xec19fd0216f6c3dbU,
  0x2a191f71303cfbddU, 0xe8f1c4e9fc0bfcc2U, 0x3b001cbd3d3385f2U, 0x30d9b7ef0932dc08U,
  0xc694b727c744b3fbU, 0x6e124124f132726U, 0xe20140db161d324eU, 0x5c9ff0ddcc4c8e8U,
  0x2be6bfc8ea81d2f9U, 0xf0ec73b03dcef43U, 0xdf16f24631f91f53U, 0xf833f8fa06f6f018U,
  0x83b157dfe5fa010cU, 0xfbdcd9cea107f7feU, 0x33bf0d431502d5fU, 0x3433232a203bf7f7U,
  0x3f262e84ccd8c2ffU, 0x52531dc027048f4aU, 0xe250e8ca04a747fdU, 0x8c505cfd21596bbU,
  0x52a07f3791f43aa6U, 0xc8072923ddf7be16U, 0x453703660b7f5cdcU, 0x34cca0ff4ad633feU,
  0xa19ca1fe8c6U, 0x5ddfffff086U, 0xfffff1a5fffff006U, 0xffffe59bffffed85U,
  0x4c2fffff910U, 0x1d9e00001bd2U, 0xb62fffffb35U, 0x3b5ffffff41U,
  0xd7048132000003b1U, 0xed8fcfd5e84013daU, 0xbb43e6da2079fe53U, 0xe4816efca83c15b2U,
  0x547cbc469590202U, 0xe720b727593281e5U, 0xf5c481ed30364922U, 0xe9fadfa8dd0ef78dU,
  0xcbbbf26c3d5d17c2U, 0x81d21dab17af5527U, 0xef3c9d6081d10fe0U, 0x92708f177f05c51bU,
  0xf9f596528a92e5a8U, 0x2038d6eef5084b81U, 0xec6d23c6efc465dfU, 0x2d55350d84a78137U,
  0xeed2383cd35227daU, 0xb660f35658d01919U, 0xea5b02e0048195fcU, 0xdffe16f7dea38151U,
  0xcd0ea4cd2f561530U, 0x581dd25163c57d2U, 0xffdac7dd0074e9e6U, 0x5ed616c01d2a1181U,
  0x2326253a48d12d53U, 0xb87f2536cc2b9424U, 0x818f0065f1fb3043U, 0x151e170db915e592U,
  0x91e6ebf1ca13310bU, 0xcaeec6a7f40cab7fU, 0x67c7cdd2a2e3a45cU, 0xb62d10b781c631a8U,
  0xa7c800bfeb529400U, 0xcc811c9fcc37d8f9U, 0xe6afc90593dbe000U, 0x43b5edfed2eb7fc0U,
  0x201dd522203a0635U, 0xba96913833e481b7U, 0xf919c92e79f26602U, 0x4c9d4dc9dc22c1c4U,
  0x1c1b7f03c0431581U, 0x3432d9460722f061U, 0x58ec812fac2bd704U, 0x6cfacf7cac6f4bc7U,
  0xa255f62fcbd7f33aU, 0x13da20f8c43a5e84U, 0x2b0d2b81fc7f253aU, 0x9e1ae8f21a7f5e7U,
  0xb0fa1ac41d37e903U, 0x1dd1a8f81fb15b8U, 0x2f04814405303105U, 0xe0a8d7df1ffdd0b0U,
  0xfad91527ed0e0b16U, 0x32b2b317ffe27ccU, 0x1ab14aaef5319d39U, 0xe6a33d5428d7474aU,
  0xfc1ebe0c81539eb1U, 0xde9e21a7220fce95U, 0x9ded9a24ee127f2fU, 0x34501b73c7fab15U,
  0x37ae2f445b4315d4U, 0x2fd5bdfecf401cbU, 0x381b1292fd0ae81U, 0xd0ccd1a818fd5dbbU,
  0x7e53b083be0f0dbU, 0xe22ce4ec0703f352U, 0x2ed77f0933ee4481U, 0xe9390761a6660e3aU,
  0x81b1c43dcbd2d67dU, 0x200b310ff15977c9U, 0x816cb6f708e0fb5aU, 0x672b29d44b0f0aebU,
  0x280aacf20c1819bcU, 0x188102d43a36f305U, 0x7f77f6f8f11ebff6U, 0xa837e924191c0441U,
  0xf1de3ee31349d5e9U, 0xfc8ce8d6818fde60U, 0xe6fc89be58b0c156U, 0xf481d8297b3d4bc3U,
  0xec78113e403510f8U, 0x3251472bf03fbce8U, 0x1d02606860c77fc3U, 0xb41d1ac78f7f41a6U,
  0x1f4781e1f0e5e1a6U, 0x94e1d81c025734e4U, 0xcd2fc017cf4324eaU, 0xd3c7cc1dba0ccf48U,
  0xc3d00f0f367fe069U, 0xfe1ce6003f7fe6feU, 0x28fc41dae40332cbU, 0x2034dd16b719fde0U,
  0x2f0894167f35221cU, 0x820eeeee63c61a7fU, 0x815dc72732fcec19U, 0x4a02d59c5e14afb6U,
  0xcaa60b4c415dd205U, 0xb3ad081e395d7bf2U, 0xf0576a207fd7abdaU, 0xd8d1c58113ef1144U,
  0xed2c28608a6aac49U, 0xb27f0ac9e29a022bU, 0x1552dbe796ccbee3U, 0xfaea81e5fad5fad1U,
  0x6d9c1241f67a027dU, 0xabbc819e12e9e71cU, 0xd160b7ffbb61111U, 0x9d4718de1af83fbaU,
  0x4c0df5d865cde4d7U, 0xf82e33585f322c43U, 0xe01fb1f5dcea81fdU, 0x2bb009c481fad9cfU,
  0xaa040805eb1ef7c4U, 0xd9fe37e6fcd60d0eU, 0xe1ea0ad481da41bdU, 0x6772297f6b24de2bU,
  0x15a1119fcd352255U, 0x3319337ff7115917U, 0xb34021ef9e9ecd5U, 0x57fdc610cd5b027U,
  0x13b53ebfed0a4729U, 0x4fe8df77af0d28U, 0xe108bc108111369eU, 0x238fd215e35a3b33U,
  0xf971b5422f74da7fU, 0x3c7f03000ba0c1a0U, 0x303d52850e30773fU, 0x1bd169fbfffd41b8U,
  0x304b760817fU, 0xfffff6c6fffffea4U, 0x503fffffd26U, 0xfffffa70fffffbb0U,
  0x7fc000000b2U, 0x1a0fffffdf1U, 0x1fafffff694U, 0x491fffffe12U,
  0xffffffeafffff5bbU, 0xfffffc32fffff990U, 0x53cfffffd99U, 0xfffffb680000020aU,
  0xfffffda000000951U, 0x48efffff839U, 0xfffffbecfffff3b7U, 0xfffff645fffffa53U,
  0xfffffc72fffffa3dU, 0x29f00000751U, 0xffffff65fffff897U, 0xffffff65fffff82aU,
  0x833fffff85eU, 0xfffff954000004e1U, 0xffffffd5000001caU, 0x177ffffffa7U,
  0xffffffccfffffd50U, 0xfffffb5bfffffc89U, 0xfffffacdffffff5cU, 0x4dfffffecaU,
  0xfffffdb3fffff41dU, 0xed0000045bU, 0xfffffda200000293U, 0x2dafffffe38U,
  0x1685dee9fffffae2U, 0xd8d5c5098110fb0bU, 0x321ecee4e917f2fcU, 0xf90b2d170ee895e8U,
  0xd6db09c102f836f2U, 0xaedc0de2ff456a6U, 0xd7faeee71b38c9eeU, 0xfb05efe4f2d20e0cU,
  0x18cc5f9d01d0e48U, 0xeae981f5c74e2102U, 0xca4436e609fa0817U, 0xf5094417df23a4f4U,
  0xd8e801addcae61b0U, 0xd0e5aeb5d8d654c1U, 0xe11c02de1553b31aU, 0xb00ee15d1f4eb20U,
  0xf19081f0c8dd412fU, 0xbabcb4e5df411f0cU, 0x8e4e56fb4be41810U, 0xf9151d07bc1ec7f6U,
  0xd1fdf7cae1955f81U, 0x95e2a698d8c3558fU, 0xa0402a391115c717U, 0x35dbdf25cad7f34fU,
  0x6c5b5d481e56834U, 0xecd8b9efaa2b0709U, 0xc85b28e20cd4100aU, 0xef131f19a426bcf2U,
  0xe6e5f6d3f0c33994U, 0xb5efe0ca8ccc28a9U, 0xc0fa02c0fd34cb16U, 0x22edf2f6b8baf023U,
  0xf90126fbd1e14c29U, 0xeeadddfb7520706U, 0x242dde9e10d000cU, 0x1de625aefe8105U,
  0xcdbbf8a2aae441ffU, 0xddffb8e0ccd420a5U, 0xdff5e63e003aec9aU, 0xe9cfebe206ba0c0bU,
  0x381b0f1d70fff46U, 0xc9eed06ca221002U, 0xf513c7f7f8def3f6U, 0x719e102e5358cddU,
  0x2f8ebebd9e318b9U, 0xf9c0c7bdfae423abU, 0x97f31920ed5bcd81U, 0x32eb020bcef5e43dU,
  0xd422dac3b3e30cf2U, 0x2adbb8ccde1042f6U, 0xae5d62e8ebea17d2U, 0x13f344b5105700edU,
  0x27fee40409de160bU, 0xabdd9cc4d0cb4e12U, 0x9a222c2608fac4f6U, 0x8951112afad7f355U,
  0xdf1d4aaddde37f14U, 0x132bbb3f2eb7fd5U, 0xdd7f7feb25002ecdU, 0x3be7f687315f1131U,
  0xf631c11a04aa0e33U, 0x8d240400cdd97f0fU, 0xb42959097fbdb50dU, 0x81f61448b1bce453U,
  0x1b8c1cce2a14a7fU, 0x4cce1afb63a2101U, 0xa16952e112dc0fe3U, 0xff2efbc057fe3f5U,
  0x40adf1a03dbffe7U, 0x9205c3eda4ec49f9U, 0x852b42e81ff3edf3U, 0x1db7f90fe1c7fb14U,
  0xeeb003f002ba6e3dU, 0x9b7f7d3ad2407f9U, 0xd42e28dff9dd01f6U, 0xfa03c805d11303f4U,
  0xe6f5f0f8c6c41aa3U, 0xeade8ff1fb0100cfU, 0xc5f9162c0058f68eU, 0x1d3eaf2f7e4fc21U,
  0xcc139b1fa50b0309U, 0x12acdb15a76d0d02U, 0xeb25d2e1e89d00f7U, 0xf342aae1cd34acd3U,
  0xedecd703e3db15c4U, 0xb9b197dbb4e7168dU, 0xcaee247feb4db4afU, 0x2dfdf01c8fe1e533U,
  0x815428fac9f92ed1U, 0x4b0bbae803cd47d4U, 0x30432418d8b12135U, 0x4dd60e814f0fd70aU,
  0x7f3db016064fbcf7U, 0x8113ec01b5de2d0dU, 0x197f3ade3beb39a8U, 0x857f1e47b181121fU,
  0xa477719f10ad3904U, 0x4365a6bc339d4c81U, 0x7f2c6d19f6bd7f49U, 0x7f81e4c069fbf17fU,
  0x5d7f945d5a3f8128U, 0x883a772e06cf5631U, 0x2d677f1c73ea7fedU, 0x94327f7fdbbe7f1fU,
  0xe2c0f6e85181c555U, 0xf82eaffbdfaa28dcU, 0x1e33630effcf1af0U, 0x22ede4965d5bd824U,
  0x524081383638f6f8U, 0xa11f19fac3db0ef9U, 0x9275471034061295U, 0x45c6ff2cd3ad1101U,
  0xec8fd00b2fc91331U, 0x229ac1ebcd20ff04U, 0xf232f7fcf7be03e7U, 0xf52ef000f848e5e2U,
  0xe2e6e123b0f73ea7U, 0xd0c8cbf232e1df81U, 0xb4182c55eb4bcf9dU, 0x2dd8f20acaf7e5f5U,
  0xf4eab521a22622edU, 0x26b8eefdbc7ff70fU, 0xed08eecc2281ed03U, 0x31bd3fa8b2d9ac8U,
  0x23e6dd0bae0213f8U, 0xecbd81e3a6b40afaU, 0x8feffc76f733f005U, 0x1eebfaffbef60145U,
  0xb23b0b40abeef4e1U, 0x40dfd145e0cc24faU, 0x1e0110b5098e0736U, 0xc0ac7c631f792efU,
  0x2a39c54bf042eafdU, 0xb4e9c7cfe3c031f4U, 0xc859341b109f1bf0U, 0xe53c0624c3b5037fU,
  0xb97dfa48ce88fbfcU, 0x7fceb74afdd713f0U, 0x61da40d00fa2217fU, 0x38050c997fd7c425U,
  0xe7fdf7ffb7f8c0bU, 0xa52019f3bfeb1108U, 0xe8505d502394210eU, 0x3d0a023bf9a51c76U,
  0xfb210f33efa2dbf8U, 0x3ed09842cdd70c08U, 0x2043ecb05e20b34U, 0x8f763c339fec50dU,
  0x152bbd1d053df1cbU, 0xbdeaced1c3ea06fdU, 0x812111f511f6effaU, 0x22b00210cce10f10U,
  0xf8a6f21710b8ef07U, 0x47a7f50db83dfb0bU, 0xf21bfdc60beb00e9U, 0xff124dfacb2ea8ecU,
  0xe604d435e70f1ac8U, 0xedd8a1fb21d1f2c3U, 0xcd070831f6f7e60aU, 0x5b9f7f2fbf2f2feU,
  0x707b505a10ff2ecU, 0xf2bfe179104ff06U, 0xf3bd1dd416e1e921U, 0x51fb5018936b6ddU,
  0xeb10de0db7122de4U, 0xdc3bffe81d3d1f5U, 0x1dbbe55febfee310U, 0x3a0d0af3e719f111U,
  0x555de44b10707eaU, 0x3914e056a61008fdU, 0xfcbf05b938bcec0eU, 0x7148112e9f0bcfaU,
  0xd228f034811247ceU, 0xddbbc0a9bf8113f7U, 0xda1af42de4ae3633U, 0x1f1ef81baafe044dU,
  0xd35b97fb6b4fbd4U, 0x3181d77fa0520003U, 0xd9ad7817fd7e90bU, 0x92bebf5eaeecddbU,
  0xd137053b981b1eb8U, 0xb881c681c18ef9e3U, 0xca0c2b46ee815727U, 0x54fbe32c9ae2e760U,
  0x75ee3b9ead02a7U, 0x4ae0d71bd560f50eU, 0x15a8c99e2bd2f211U, 0xf81314fdb815bcffU,
  0x130ff11ce1739d4U, 0xdcb3fbcd12e510fdU, 0x6f4e43bdcb92827U, 0xe8e2f8008124fa38U,
  0xbfbb30acde2f0e7U, 0x4afc2d21bd760406U, 0x5c6e7a71cdeed21U, 0xf40e430fc61fb4e9U,
  0xd71ce233c4031ff0U, 0xfdf4e5e612ebf5bcU, 0x38edf870fa971e0fU, 0x11e2fdeef7101430U,
  0xfffff5c29c0af7ebU, 0xfffffd6e00001689U, 0xf1f00002ee3U, 0xfffff365ffffe6f2U,
  0xfffffd29000040ceU, 0x310a000028ceU, 0xfffff429fffff49fU, 0x3ffafffff669U,
  0x28d9fffff6c3U, 0xffffe16efffff218U, 0xffffff88fffff95fU, 0xffffea2a000057d7U,
  0x2d2a0000013bU, 0xfffffc00fffff853U, 0x2d7cfffff7d8U, 0xffffff52fffff8f1U,
  0xfffff5d800001d86U, 0xffffdbcc00003a9eU, 0x3a7efffffcebU, 0x471dfffff281U,
  0x31ef0000125dU, 0x13b1000047e1U, 0xdf300006af9U, 0xfffff72100000103U,
  0xffffc54ffffff813U, 0xfffff0a6ffffe3a4U, 0xffffd2ad000046b4U, 0x39a8fffffcb8U,
  0xffffd2d8000010d0U, 0xffffffad00000008U, 0xfffff597fffffb9eU, 0x4b0cfffff275U,
  0xf0c9e11d0000226eU, 0xf90f3303321f81eaU, 0xf7e524f0561b60c1U, 0x121321dbec052617U,
  0xb3ab48fdf311cdaU, 0x34edfe34efd902dfU, 0xf9ecc21dbec6b9e8U, 0xd309132d0ff51eddU,
  0xab9c64f40e34b600U, 0x296ca991bb8eed5aU, 0xe7bba6e486c38593U, 0xf09fc5ba3ff39229U,
  0x3838294043e2e9a3U, 0xe4899f41a334cd31U, 0x1482d254890a3d18U, 0xdf5081525c3fb5a6U,
  0xd1221ada92e1b03cU, 0xab10ca480cfa120bU, 0x41f1b8daf7affefcU, 0xea25e3f8f8127518U,
  0x42843ab308b127d3U, 0xf526011f234bd802U, 0xdc3f4ca67f18b304U, 0xff9bc11303f0f1eaU,
  0x1341b503cde5afdaU, 0xd73500050c81661cU, 0xea27452ef26a1eedU, 0x3912e824143d4962U,
  0xf09825d0c503d7cbU, 0x289a0441042170e3U, 0xbc2edacf545de222U, 0x264b113abce0a5fdU,
  0xd9ec17f5eae9b813U, 0x1ae11920e8c524e6U, 0x150c0ffe2192ee9U, 0x37f0d6d527cbfdbbU,
  0x40ac37e2de680828U, 0x3b3cc634cbecdaceU, 0x401fdd30fd50f127U, 0xb1f9812ae8321f38U,
  0x1fc92cbd3f2fbaf6U, 0x14e136ea12bab16aU, 0xd1cafa26343fc387U, 0xfd1bbf1ed895e30bU,
  0x81ddfece0735e551U, 0xf5555b1ff51535f2U, 0x4800fd0fc4d10b1bU, 0xfd2d799c38d8ab0bU,
  0xb3a5bdc1e20ed406U, 0xa0c63ddbe21ede13U, 0x48bb3466a992ddf2U, 0x81d6a7272b28ef61U,
  0xbc38d6d6340da914U, 0xbfa3c887f2aac38fU, 0xcaf6140292ee8f2U, 0xd0bedc4bc44bd58eU,
  0x2fc302fb37cd8da0U, 0x3a20f54b3adfd6d7U, 0xc92030d1c4d4bfd1U, 0x2bded9f2f70831f9U,
  0xc2122f51d119c3f2U, 0x270aef1028fab312U, 0xf740dfc5bf0c0bddU, 0x8130d450edf3da51U,
  0x4fae24150e3b0329U, 0xdd05234f32930628U, 0x9fbbf1eb37c093ebU, 0x27e0f23ff3883ceaU,
  0x82ca097ac323b55dU, 0x39ec211f3b0ee8f4U, 0x323611c69c101bdfU, 0x17dc005a1a81d224U,
  0x33f5119de3341d2aU, 0x6e465e5f00c4487U, 0xc623f7e5f3d0403eU, 0xa0bdd2d1fe534b0U,
  0xf614e6f2c4f0c101U, 0x512bcd4de15403e1U, 0x2313ecfe07f8efe1U, 0xb7de812b60da32cbU,
  0x12d7f22930feccfcU, 0xcebf480c7fe61dc7U, 0xe525f207f1100802U, 0x2bfe0015ce5f1c1eU,
  0x10e92914d4ca35b8U, 0x1dcfed2fd22a2ff0U, 0xfd3116f41df7ea24U, 0xd02ecb05ed58f321U,
  0x20ec0ebbf70e5321U, 0x1f651edcb83724f2U, 0xcb413402dce42e40U, 0xb60b5af10efb123cU,
  0x2331160ce5583edfU, 0xc738cbe0b2c306feU, 0x2f61a93a1d1b00edU, 0x2fd4b4035b527f31U,
  0xddeaecfa09d81026U, 0xe4f0102eadbb3a2eU, 0x9b8fae2b502ac128U, 0xcba320a90fad30deU,
  0xd70ad887cb2faf15U, 0xf706ac4cd6b832bcU, 0xfe1730e20111f34aU, 0x9dd9cd81b7e1d3c1U,
  0xecde993815d7e8fcU, 0xb7a697c9b429a7a1U, 0x8f3feed4248d2c95U, 0xdbf7ec2ea048933aU,
  0xd020c6453181890fU, 0x9c1d0514c995b228U, 0x88cfd0d1cd27cfbdU, 0x878f86320a944c3fU,
  0xeee5eac6e4980eb5U, 0xd93a00eb34ff3508U, 0xba81b6fe00254048U, 0xe1f4e246baa9220fU,
  0xd513c740ea930b2eU, 0x4c58cdfa34190a34U, 0x4cbf004cd1c803a4U, 0xedd4d7b437ce2112U,
  0xca10d8d63908a9c5U, 0xdce039a52d404399U, 0xc9aff5c62af4d9e8U, 0xfbd400e2e0d22af4U,
  0x130362fccf1006e6U, 0xe5dca92b1e398e03U, 0x3e47264dfde1c0f6U, 0x81ae9de22b483d26U,
  0xa28df14U, 0x0U, 0x0U, 0x0U,
  0x0U, 0x0U, 0x0U, 0x0U,
  0xeb2dfec800000000U, 0x7f39531857b32550U, 0x3ee1c3541e6edf51U, 0xec517747f1e5145U,
  0x347dcf0c1d7233f8U, 0x867f07572acef710U, 0x163be9215236d0c8U, 0x6e263de61dd4d208U,
  0xf17fe5667ffcc6ddU, 0x11bd4c3130f6b301U, 0x93811630592911f9U, 0xdcb3ea090a314ff5U,
  0x572f3dcc29f2c115U, 0x810b017c1528be35U, 0x1b12c8e7a3d41238U, 0xec46377fce184bfdU,
  0xde5121df06ecddf4U, 0xdfb9267f52ed0bc9U, 0x127f279b67e02ca6U, 0x9e4dd85beb3a50ceU,
  0xed810e0ed9b51dd7U, 0xc6fbfc3613fb41e2U, 0xf10e1cd1c72dd80aU, 0x9db2f7dfc102fc81U,
  0x8b9d3422d453aecU, 0x8a2ade2c1f2b7fd5U, 0x7d5e5e0e79ace29U, 0xcbe5135b7f14dde8U,
  0x1c1af602c4d3fe09U, 0xb5c3a80eb93579c9U, 0xa715ca81e1812cf0U, 0x61af13bb01d0fbc4U,
  0x16d7d8211e2fa7d9U, 0x1ec980b0b0f1c9aU, 0xfa0cf68117ffd7U, 0xf6ea0d3c31f3632fU,
  0xca0d1c17fb7fef1bU, 0xeb0b24c281e867e5U, 0xffec09304ff327eaU, 0xf4130f2e06e53db5U,
  0xf40cf87f277f1f1cU, 0x283151d61e09030dU, 0xba12c02a27e4d7f3U, 0xfbb9d964203124e9U,
  0x5b1206faef7f16dcU, 0x2b657370a70d81c1U, 0x91d7e4c61749e972U, 0x3df31dd10a077f11U,
  0x1b0365ad66710d1U, 0x12fa1b7f6e0b0262U, 0x3024fc21d3e33f16U, 0xbf0081abf02bd9e0U,
  0xd3a017ddfb3043e9U, 0xd9095b57424e6e76U, 0x8108a2c85f7f1232U, 0xe04864da3df1c68bU,
  0xce20297942ca68fbU, 0xfb237fdc0017c64aU, 0xe775f5ea642ede29U, 0xfdf1ea7111337f36U,
  0xf91bbe6b241f1d0fU, 0x211d7f18ba153d37U, 0x4325d281e0e7d35eU, 0x252e3eed7d30529U,
  0xf1ffe9e7e6d1f30dU, 0xe7b41ec381fe07dfU, 0x893decd5f7592fe6U, 0x1dd8349d814b2bf9U,
  0x32ad2bffdcd5de34U, 0x161ff2f311c4237fU, 0x1c4fedcb35e10f0aU, 0x9a279dccbcd81U,
  0xce37f9a24e8ebU, 0x2e3bfea5232a9ff3U, 0x8bdf2bb05a4d8edU, 0x7ffecbf58b35cec0U,
  0xfe39b7e4caec3edaU, 0x1f7f38f7db45b1c7U, 0xff0045bf0ee39ceU, 0x30e3e7f4d8ecc1f9U,
  0xd2fbce57f88fd0bU, 0x3c4efe4212f3ed7fU, 0x1d7fe509e911f5f0U, 0x86deb655ccc1e06U,
  0x5ef82cdcaee49f10U, 0xb232cc1553dbb87fU, 0x2a7134734a0a12baU, 0x723b50eb5402e230U,
  0xb421f5dc7f7f28e2U, 0x28dfcffab8268187U, 0xd97fce134907fceeU, 0xd625346db621b8edU,
  0x3a7832290c2ded77U, 0x31ea3c7f3fdc2e3dU, 0xb2ee4389734509d1U, 0xf3ea197ff1f65ec5U,
  0x81253b0c507f0a3bU, 0x12efbdf2e54122c9U, 0xccf622be110dc31eU, 0x8a2f9fe8cabe4881U,
  0xd1cd02fe507f500U, 0x869418b681d6e38cU, 0x3e81f72df9ac36dcU, 0xea06a83419270b18U,
  0x98813cfacde8fae9U, 0xd2c020c208c22911U, 0x593b3a200b2ad748U, 0xa430ed0c34347f1dU,
  0xc10de481932ee319U, 0xe800cb45d0dbb9f5U, 0x10e13b6697b42917U, 0x7fea5703e3d63c54U,
  0x3c04ffceccfc4c26U, 0xf26a20c5d6cad5b0U, 0xee5c1871d3cab67fU, 0x38f67f4704dee409U,
  0xfafd48136fe0f2fU, 0xf055022d2920fa8fU, 0x4c81c53609f0004dU, 0xf0cf21374dd429edU,
  0xb3da34ec2cfee4c4U, 0x2ac22741aef37fb5U, 0xf2c92581f44fe20bU, 0xc724f26533e0d43aU,
  0x771cfce9fd3fcef8U, 0x23480034ceffcfe2U, 0xd5f91b1781e91411U, 0x367f13d3cd31fd0aU,
  0x9f0b70eecd17U, 0x930800008d45U, 0x734e00006be7U, 0x93ba00006a38U,
  0xa65a00007aedU, 0x483400007ecbU, 0x81ea00006c53U, 0x89b8000055fcU,
  0x99ee0000ada7U, 0x4cea000055f5U, 0x436100004e7eU, 0xf06800007ddeU,
  0x9997000088c8U, 0xa1d5000084bfU, 0x704d0000e582U, 0x861f00006ea6U,
  0x6f2100005cdeU, 0x7d2f00007f07U, 0x65ff00009e0eU, 0x9035000093d8U,
  0xa986000090d3U, 0x86c0000110e1U, 0x88710000a88bU, 0x9ca90000b75dU,
  0x7931000083ceU, 0xa15100009758U, 0xa30800006d85U, 0x7190000080f0U,
  0xa57000009a53U, 0x86a900007a27U, 0x8a9e000086c4U, 0x94d000006bbdU,
  0x3304e00d0000a65cU, 0xff5e64a8e43d0ed5U, 0xd301f3132518020dU, 0xcc8bff08923f52ceU,
  0x235f827fddb30dfU, 0x7fbc19e723263757U, 0x59b825e7e600b532U, 0xfc0fd23318f9f139U,
  0xe89eb943fa12d006U, 0xe68e7afe613c03bdU, 0xae703735ba4212e2U, 0xc42ee5b06373b70dU,
  0xa3eabb3c60114c37U, 0xe2f3155f10f8afecU, 0xbe3ae4cff0d80df2U, 0xa911d324473aedc3U,
  0xdd81d5b606097fddU, 0xfcf0c70af0ee3047U, 0xfa024198b4eee1a2U, 0xec1d29ecea6217b5U,
  0xb74010d685d438b9U, 0x4718d821e203bab7U, 0x2db2e15135dbfefdU, 0xa4db251b29a3a739U,
  0xeff6a4d6fc282fd2U, 0xfbf220c7281a2af9U, 0xae29bccaffeae4c9U, 0x19e128e23bf40a1fU,
  0x1f5052f63d32faffU, 0x17cdc4dbeaf50bf9U, 0xf43e7ff8cb0cd316U, 0xb3fb24073e62e730U,
  0x56bef370f19cf23U, 0xe31ad6a9e11ad804U, 0xd51619f8fa29df48U, 0x1f0d11f5e518fc7fU,
  0xf129ead6cdcee60aU, 0x7eefc200df01b46U, 0x4f5302fe31bf40aU, 0x3403cb0815daf1cdU,
  0x2cf8a4381c21ff39U, 0xdc03fce8ebd7dbd2U, 0xe110fdd4e12eeb1dU, 0xc4d5403a0ceefcd3U,
  0xe72337c365fe2fa9U, 0xafd42319cadb04ceU, 0x8110d8cd51dce12dU, 0x202fd90f2a2474b5U,
  0xc95116ac1d283effU, 0x12056032373709cdU, 0x214da3ccc038f412U, 0x247fed23b1d8e5a4U,
  0x2118e8a8253cd902U, 0xd34af57cdb1fcceaU, 0x20d84bdb2546f800U, 0xf3fe9115f0ee5bafU,
  0x6439ea039c61dce4U, 0x21d718d8af05bb58U, 0xd52a482eed216fd9U, 0x27bbf633fb12aac1U,
  0xe2f01d54d10cd429U, 0x7606cc0201e5f551U, 0xebadb7e6f5c513d8U, 0xe9f0237b7ffec618U,
  0x6827db1f21dd6717U, 0xfbc7ebf524ddce30U, 0xcc29d7e23d25a3ffU, 0xdb0a026c8133f1ffU,
  0x19d2c601d8cd1fe4U, 0x3e3fedfa3149d45aU, 0xe82b71e8e0c7c83eU, 0x12c22be34f05e747U,
  0x2de42f35189ebebbU, 0x4bad0306ce48e413U, 0x24e510c222e5dba0U, 0x2bbd0fabcd1f1d07U,
  0x3213e9a3d5355e25U, 0x9bc812c933c2c16U, 0xc72a0a4a576900e3U, 0xcaf1dc1efb06cd0eU,
  0x29ccaf46f6c31834U, 0x81abba020bbf2912U, 0x12ba33ad15e7e8f2U, 0xf2df2c31f704b24aU,
  0x2e23a6011d71decbU, 0x8db7e55c0d283a2aU, 0xdc99f6c6e5d8cfbaU, 0xbc571ef81c57ef01U,
  0xae2211ee5014f18U, 0xe116550531d9d53aU, 0x4592cb49cda7b5b5U, 0xeb421cd02134a2fU,
  0x22dffde3faee2d3cU, 0x2b3746152213b8f7U, 0x37bed8ebce313efeU, 0x912f9f0810893daU,
  0x17f411da2d46fb49U, 0x5710a4c4bc00dc54U, 0x814f7f235720d818U, 0xa0bceff0e7340319U,
  0xfc311209e1f52f2eU, 0x752b7e830c9fe28U, 0xeab3bcfb081135d0U, 0xebc10c231c8fe21U,
  0x1b26fe02f0faf6d6U, 0xf109ecc5efd5eed5U, 0xe9e6d2372d45ae05U, 0x342cccdffad020eeU,
  0x32227510254c3b49U, 0xbe2ef120efa0b109U, 0x3a3b29113cbb4cd5U, 0xd5b7e5d4fcfa10ffU,
  0x3d4a1a1b81f2204cU, 0xc72eaa64394f1bd6U, 0x3854ca13edc7a9cdU, 0x6427e43035f624ddU,
  0x14add2f4d5293675U, 0x9d38e0ec48dc9428U, 0xe4d0c11538c50b1cU, 0xe801c93352d010cbU,
  0x2fd5003b7fa409a7U, 0xdabcd0d82c3639dcU, 0xfdc6f2f209003701U, 0xc22bd84b19e4010cU,
  0xec3432ee3af20f32U, 0xc7e5ed06d20e0dfcU, 0xddbecee981153005U, 0x1f172f4f44072be7U,
  0xffffffa8f500d001U, 0x119cfffff3a0U, 0xfffff90e00000414U, 0xa900000757U,
  0xfffff5e1ffffe7d3U, 0x40a0000064eU, 0xfffffbaf0000013dU, 0xffffeed9fffffd1cU,
  0x18cf271afffff625U, 0x3b00e507fe1829efU, 0xd9b67ff3df1c8117U, 0xa5328d4f3b40048U,
  0xc2f112db09bd04b7U, 0x7fdbe7fde024fee3U, 0xdbde7ff96c00042dU, 0x3c06d21871b7d5ecU,
  0x113472fb2b0a2693U, 0x24d9c6e8e1e1e0c7U, 0x94f4a13321ee7f91U, 0xb12481c03f321efbU,
  0xf00cb3a2410ffcd1U, 0x173632321307cb5dU, 0xc3757f755f7ffb4fU, 0xd9ca8b184b00c859U,
  0x8117d72884380436U, 0xf609fb1ffc70dd0cU, 0x11aa6e6b0af40c06U, 0x1767ee7081f0e510U,
  0xd0a178dbca2ce50bU, 0xeb8f9ec717bc97b6U, 0xb702e70978815f7dU, 0x380901de117f01aeU,
  0x95122407f5d51b35U, 0xe1c8868107270b34U, 0xa2c35304567fce28U, 0xe3c8c623f33cfbbeU,
  0x45282cd77fa275d5U, 0x757f133649c8e2edU, 0xb09115f4f0e261eU, 0x5de4f24af52ce019U,
  0x8116b9cf098102dfU, 0xdb11de6fd3ce8f8U, 0xd481fe1dff264fddU, 0x14fb64cbbe2c2fd4U,
  0x9911f645d0e4c624U, 0x2860d37ff676325bU, 0xae213efd13a02d52U, 0x7f2bb241131f1122U,
  0x81fda8bad0f7de3eU, 0xfacdf98a14ff2da6U, 0xf9dcc31c00540b50U, 0xf00df2fd09492c06U,
  0x8125a4597fd72908U, 0xdfbebbedec4510c1U, 0x31bd7305fb19402cU, 0x8237f23082095dfU,
  0x1834a89bfa344202U, 0x14c6f2dae107ed9cU, 0x42a17f63817f09f0U, 0x17b80e15d50815f7U,
  0x2f8f52fc8eff7b4U, 0x1a0544c8bad0b581U, 0xde0a2524c9233ee2U, 0xd0ad066427f140fU,
  0x282007921b83f6f9U, 0x81d64b9ee8afc7f0U, 0xeccfb3663a05fbdfU, 0x23929eeb4d94ada1U,
  0x131c0af063a2997fU, 0x277f0f47dd31db00U, 0xd21bc4e1da0c90d5U, 0x5df87ffbf43ad4ccU,
  0x2242eb6a2dbe15a4U, 0xd900a67f53e6daddU, 0xb4c0c515dcd8c9bcU, 0x32e3492c2e000a96U,
  0x1230018101f5816bU, 0x20e1900ee182227U, 0xb4810bfb1b2b28b1U, 0xa15374b360d7ae4U,
  0x7f3ba114241fd9c9U, 0xf4cc31236502f911U, 0x7ab4ea81e13da4eaU, 0x264b5f15ebeff11eU,
  0x9e1bedbdc06c62e7U, 0x1f2b0081bd14fda6U, 0xc24120a35512cd7U, 0x7f442321d6fe3355U,
  0xc9f532cffa00a214U, 0x3c77b7e1164261b5U, 0xeafc07c333e6577fU, 0x2eeaf97f1ddce803U,
  0x32771c4ee7de44f6U, 0xdf2dfcfc9afb057fU, 0x81dfc665b4d51bafU, 0xe74accebb378132cU,
  0xfed03a3ff3f31bceU, 0x68153876c631c0c8U, 0xe72bd15006811b12U, 0x4d81ffe4c84d5bedU,
  0xa456cdec173ccb0bU, 0xa3c34fd7f712f1aaU, 0x75ed6262ccb7f0dU, 0xa2e94de427ff2d9U,
  0x9d40dfa3319fa5eU, 0x12ced2f5f0f9ff2fU, 0xec4609e0d97fb040U, 0x69a08e8ba1a99f1U,
  0x5a4399bae17f2be2U, 0xd2df3101ebb1f13U, 0x11284f484ded8148U, 0xda19a3a00465fe3eU,
  0x401eff3fe5810f5dU, 0xdf11e67a7feec86bU, 0x35f243afed7cdbcU, 0xe925d73c9c38787fU,
  0xff7ff2fdeed4f38dU, 0xf430ec26f60ecd00U, 0x81a9385a07263737U, 0x27cacd51872ac947U,
  0x6f5cd7ff0c51d87U, 0xb684f8b11efa3417U, 0x1ddf8d52556d022U, 0xfb81071510ef40d6U,
  0xc6012f1ce22844b0U, 0xdaf4e31dd84d25cdU, 0x27d520c8068107f9U, 0xbcdaafe6811dc6baU,
  0x57b601b003faf8d6U, 0xc121ecad3c1c3eb0U, 0x9c45511c072ae97fU, 0xda7fd70a25bba432U,
  0x818ea5292a96c7e0U, 0x49d49f90a03c0235U, 0xf507e232d9ade2deU, 0xaf707ff66a136e1aU,
  0xcedb7fdaa321a6bcU, 0x51684a55e95559deU, 0xeb2c0fd5ae5e1a6U, 0x5fe413a6e6a85819U,
  0x9ba0121b21add81U, 0x81c41be8fed133d3U, 0xd44910de020e0ba4U, 0x543b5101760cf10U,
  0x7fe35014f1dc7fd2U, 0x110ce2260fc80676U, 0x35481126f509b3daU, 0x3dff480f22ff9cf5U,
  0xd81681081e7cec5U, 0xe13e5719d8c00a16U, 0xc0c1817e30d5925U, 0x31065a7f4aafd5edU,
  0xdbefe00d060be31bU, 0x2504c3f9f77f391eU, 0xe0fb4a2cf514c040U, 0xb607cec90ed51332U,
  0xcbf5ff7f5af17f30U, 0x2698e7e6ec3215c2U, 0xfac6ee16022046f6U, 0x1edd297f35f8b452U,
  0x13e4ed1be5f00383U, 0xe3e88f1081ecf0d1U, 0xce38d84019e577d6U, 0x65942c42edfca1b7U,
  0x223fd9db8e2af981U, 0x9fc8f4ce5576f5acU, 0x345df5d4712d8104U, 0x44140c27c9e2815bU,
  0xa44bfdab0cfddc2eU, 0x5aa072c2946b72dU, 0xe29010ce2a7ff576U, 0x5d0e72e5689547ccU,
  0xe0814d6bca708110U, 0xda1df0c8def642f5U, 0x387ff8db0303a012U, 0x16b136edc9421bc1U,
  0x5d4136bde5fef8e2U, 0xd9e37f1823c91319U, 0xf1f8d97fd3171cd9U, 0xf4dcd561f73ef03U,
  0x275bee81f31e90f5U, 0x4f2a2892e6423f5eU, 0xfe3f0ea1fbf1d948U, 0xd146ace02de5e71bU,
  0xc51623cb32ee7f8eU, 0xd6d48198b607de0eU, 0x4dd7fdcea500abbU, 0x10819dc17040515U,
  0xd62a811320a503f7U, 0x35e544d4e927c318U, 0x1e9cfed5ccf947f6U, 0x6d17f0a329b09f3U,
  0xc0f0f0d8b930d926U, 0x3d0e81cf2416dbdfU, 0xd2f47f19dbbe540aU, 0xe2135612e4c31fe2U,
  0xf6d5eafbd2e2f0dcU, 0xebe1d5ade810ed81U, 0xe40a2aef1f04e5ebU, 0x1c1118cbf1dfc581U,
  0x3cb506fcd0ca35b0U, 0x81b3c8e215f0f9dbU, 0x8e8e0bbbf9c219d6U, 0x56f121a0c52781cbU,
  0x2ee2a81a89a708eU, 0x12d026aeecd41eceU, 0x17d44303e211fa1bU, 0x6cd44cf1f922c3c2U,
  0x1a1d282bd7379f81U, 0x38c01910291dee05U, 0xce131855b47ffa44U, 0xf3129cfed469814bU,
  0x81092601f2fe03d2U, 0xccb7dd3d6078440dU, 0xfb50097f1cd84729U, 0xc607bdb2a8101afdU,
  0x4db5d6a1b945f6b2U, 0x1ab3d1928b0cde8U, 0x421eec7fb74881b8U, 0x90c8ccce3ffcc80cU,
  0x321d0b1c3c65b03bU, 0xec1bd8183fed6eaU, 0xcb3db213f8442214U, 0xcd20481d6e50fcaU,
  0xc2efcdee1f128a2U, 0xe613e85203351d7fU, 0x147fc2ce3dcb5e47U, 0xbe08cb4d0103b652U,
  0x1d7f20a7461b432eU, 0x38efe7f2bd240525U, 0x1c7fd8dded05ea07U, 0x8f11bda30aeff7f0U,
  0xcf81173fdb69d607U, 0xf8f2f1f1e4cdfac1U, 0x10a2dd2e1c03e804U, 0xeb0df4e018b4ee51U,
  0xafc12368cf3d8135U, 0x42ee6bb4b97fe4b9U, 0x9e1406dac999e6ebU, 0x409ff0b9381fceeU,
  0xcbd6e2be9c4aaad5U, 0x3f1f577fd0afaa34U, 0x810efdff3f0ac41bU, 0xf7530956975cce17U,
  0x2f054ae23e390befU, 0x41cd001efba5d2bU, 0x5099b0a24ea3f81U, 0x8bc5e3ba362ad5ccU,
  0xffffff71907fd3f6U, 0x499fffffd22U, 0xfffffdebfffffc27U, 0x91fffff96fU,
  0xfe0000042fU, 0xfffff891000002a1U, 0xffffff0effffff5fU, 0xfffffd37fffff0cbU,
  0xffffed14000000f7U, 0xfffffe05fffffd3bU, 0xffffefa500000331U, 0xfffff696fffffc70U,
  0xffffefbe000006bdU, 0xfffff6b100000258U, 0xfffff5d2ffffffcdU, 0xbffffffdb1U,
  0x98fffff3d2U, 0xfffff72ffffffcbfU, 0x214fffffb24U, 0xfffffde100000098U,
  0x7fa000000cbU, 0xccfffffe2dU, 0xfffffa870000091fU, 0xffffff49fffffe63U,
  0xfffffebe0000018aU, 0xfffffd34fffffaeaU, 0xffffff07ffffff64U, 0x1ccfffffcd5U,
  0x325fffffe94U, 0xfffffa29fffff9eeU, 0xfffffdcafffffccdU, 0xfffff9f3fffffea4U,
  0xfffffe6100000235U, 0xfffffa98fffffd3bU, 0x76fffffd93U, 0xfffffda2fffffd73U,
  0x2e5fffffb0cU, 0x84000001f2U, 0xffffffd0000001a2U, 0x5c2fffff90bU,
  0xffffee51ffffff36U, 0xfffffb3afffff6baU, 0xfffffe33fffffeffU, 0x180000011bU,
  0x5ffffff994U, 0xfffffd35fffffed7U, 0xfffff708fffffd92U, 0xfffffe47fffffd0eU,
  0xfffff904fffff882U, 0xfffffb6effffff09U, 0xfffffe1b00000661U, 0xfffffc51fffffe7eU,
  0xfffff901fffffd53U, 0xfffffef2000001fdU, 0x90bfffff9adU, 0xfffffdd9fffff336U,
  0x27fffffb4bU, 0xfffffc2b000002a5U, 0x64efffffc1dU, 0xfffffd68ffffff47U,
  0xd71e34ee0000000cU, 0xeacd046cd5110ff5U, 0x9ae9637052f2e01U, 0xfabd025aa1efd5e8U,
  0x18e231ec2adae7d1U, 0xdaf5eaf5dd3704e4U, 0xe295d40014f7e510U, 0xe1a6f50cfcf82e1dU,
  0x24e6061a946d4304U, 0x2eddbedf3050fe0U, 0x1d16f411d33fecf7U, 0xec15fabef702f8ddU,
  0x81f1bfe35aebe3e1U, 0xf6f4ba2501463a67U, 0x26ffddf01530219fU, 0x225551afeefc09e4U,
  0xd0c7e15ed23057c2U, 0x3bb7d341015c6317U, 0x2b03c07f8fefe102U, 0x36c342bf3cc6e5faU,
  0x86e239e6d01b53afU, 0xcb81ab203be6ab0fU, 0x81a7211728a04857U, 0x33b8c41d8e793826U,
  0xe2d791cbf5171eaeU, 0x272d08f5852c2ad9U, 0xb9deb39443ad0cbbU, 0xb61481003ceba9b1U,
  0xb8ce8d389343f85dU, 0x4c2fb1a91b443f81U, 0x134257b98dd03ea5U, 0xd6ddda5eb23e68cbU,
  0x329db41de064480aU, 0x3851bd5fbf02bf42U, 0x5000399c33efcaffU, 0x860446dca93c5996U,
  0xb69efd3426fb9800U, 0xbfbf111944cf2c74U, 0x3abfa5fedb5a6a20U, 0x81bfc3a0ce2847d4U,
  0x221a0e3cc34316ffU, 0xd3f2a4815cf81eaeU, 0xe54c8f0933b8c3c9U, 0xc0dca8009554fb3bU,
  0x6245aeb4203134d4U, 0x76469e5c5cd5192U, 0xe0dcf851c3031df8U, 0x10d9b7810f5dfceaU,
  0x153afacfa524d706U, 0xf7f63dd111eafac9U, 0x81fd12cf02170ccdU, 0xd9cd201a13fdcdf4U,
  0xb8b6ef1cf9fa1e3dU, 0x21e7e127815d49ebU, 0xd9ddcfccdc1518f5U, 0x190a071ff93bec0aU,
  0xe63ff6ad10e3e9f7U, 0xb60d9db200c705d2U, 0xe30bd2fcb51eaf4dU, 0x2a04dbf3001c1bd6U,
  0xcdeb3402e7e036d5U, 0x199b0312dee4dd04U, 0x1e6c81b2812e094U, 0xc71c12db15fae90fU,
  0x2e542f8f40edad6U, 0xf8e7d1e1160c21e1U, 0xcad5e407f70112f2U, 0xfa010614ef17f5fdU,
  0xe7f5fddfc25df4e5U, 0x1100ffeba702fe05U, 0xe8fbeeeb11489915U, 0x5f22af4d906d41eU,
  0xc70ad7de43fe0d10U, 0x240607f511fceb30U, 0x7e6fb1cef19e711U, 0x2e502bbc06f5ecd7U,
  0xb8cee512b42a33deU, 0x298ef257de4d3d4cU, 0x3efda17986f0e6bbU, 0x290448f548b5c554U,
  0x15c029cdd6553dceU, 0xbb8fbf181ecdbe35U, 0xa2a315242fc22a20U, 0x2dc5d63a9d502b26U,
  0x4cdc2a30a1a1c96U, 0x51332228b21c3bc2U, 0xb9e0c22c1f9f36e9U, 0x14282e3048db9de1U,
  0xa6c1c936a077a454U, 0x4a0fc5832d7732e8U, 0x4f6a7f81c33134daU, 0x9a4faa7f8d717f8dU,
  0x7f81f067b07f7f40U, 0x7e50bf5f815ba601U, 0x7f0767a275819e5dU, 0x3a8c7fa6815e7cb3U,
  0x81be0d707f81817fU, 0x99ad4df958817f7fU, 0x6e818f56e0554373U, 0xb7968185655e6f81U,
  0x617a676b811f7f81U, 0x81e781506eca7f81U, 0x2f7a567f7ea18136U, 0x818f9d76a47f8c5fU,
  0x7f7fa5816b7f5d94U, 0x767f7785965e7281U, 0x816fa361827f7d90U, 0x64c3d926ad6c7729U,
  0x7f77b84e8b71973aU, 0x70165c816ddeaa4fU, 0x328a59c3a8577fbcU, 0xaec4337f7a8d9540U,
  0x97cc5f0d7d9b7868U, 0x66a0815ed4507760U, 0x8b87978e38506ac1U, 0x78597871bc3f75dcU,
  0x9a359c337fda5e93U, 0x3b7f3c737f8da701U, 0x89a2817f827eb41bU, 0x667bab955f507f9eU,
  0x2d402bbf8e514d8bU, 0xc64ae730b82e29b8U, 0x32c6d09be3573fd0U, 0x2246c4108b55c27fU,
  0x1b0523c44e00a8e7U, 0x28e352bdc7265abdU, 0xbdcd3d3224bcbe41U, 0xa99c2f1b21b35f2fU,
  0x32bc9041e80a4c21U, 0xf6d3c5be0d1a2fb3U, 0x272c2a4ab62e1d22U, 0x9e7abe3816b040baU,
  0x1c4243100d8eb7e3U, 0xa2dbd61885578124U, 0x5b52cdcd4c4544c6U, 0xc2230edbc62550cdU,
  0xe9d7f827effb07f9U, 0x18cfd6b7f8302b81U, 0xe12dcf11c9e400eaU, 0xbdb38fd14c7d5bbU,
  0x28f415e5003836d2U, 0xd4aeed0728e7e617U, 0x5db3e0ceff30212U, 0x20df03fcdbfb1d07U,
  0x1a07c70ed411e7d1U, 0x1c190739dc33b61eU, 0xb033ea04d68106e9U, 0x1ff71130f7bfd88eU,
  0xf103de1ce5300b0cU, 0xf6fa01d90a180512U, 0x30e348b60002fde8U, 0xb305df16ee112db5U,
  0x1e89fc44b22b354aU, 0x4292d87aac483cc0U, 0x33e629f75d9ad245U, 0xbf9d29e3e05c1fe0U,
  0xcadbdf2334b49d48U, 0xa6e718cb43a71618U, 0x24c2bb3d97fa2523U, 0x11d89ff041162dc9U,
  0x7536273cc7521dd9U, 0xb61fa50b3ab623c9U, 0xec3d171029e7af30U, 0xa7c6f13fc541e434U,
  0x2230d0ac11394a11U, 0x674949b2b3003ef4U, 0x9e6face681505985U, 0x4ca2684fab7a6e55U,
  0x751a8157df6c400bU, 0x553b7fc97f86907fU, 0x3b826e81b97f51a1U, 0xa2b92e6e6c89b057U,
  0xae9b4aba7f886853U, 0x7fa4b57fc5f07f72U, 0xcc8aa3a4647f7f9eU, 0x787b777fcc514382U,
  0xd24b9d5d76af54bbU, 0x115a3e605a90c07fU, 0x9487ae38a066fc7fU, 0x5a5481847f5876e1U,
  0x7f5a44b0884b7fb2U, 0x907381d1a7653781U, 0x4d9c443c9d5e6c40U, 0x722c9b59fc7f056aU,
  0x5a7f5ca453c0815dU, 0x7f817ab7a24f7b81U, 0xaedd4e7c7a85bb5aU, 0x83d77fd07a874f67U,
  0x74a49171c9c1467fU, 0xc281ca81677468b3U, 0x7f7f7f71ab3c46c7U, 0xdc6793673db07499U,
  0xb6d1d5b7d818e32U, 0x9e81b56ca7582158U, 0x7465a18b6d5b71e5U, 0x31200cd6817f5bb0U,
  0xcf52c3dcc325fdb6U, 0x1a8ad791a84d3ccfU, 0x361fb81edd590949U, 0x504533e135b9e7dbU,
  0x57ae36b5d74068d1U, 0x3d2322533cfc237U, 0xd6a820ca56ad4a1eU, 0x4bbebf2db8297b28U,
  0x7c5d2ca4f2330c7U, 0x47213b6cab2f1409U, 0xae7fe11df9d836d9U, 0xfc36f2272ebbdb31U,
  0xa7cae138be601939U, 0x2e39bab450365be7U, 0xb2e003e2b72d38ebU, 0xd8f6040dd5ff16f6U,
  0x1cddeb98c31b14b0U, 0xc926d037faff2234U, 0xee5100d1dc3dca7U, 0xddd11815e7131aecU,
  0xd2e9e41120e8d529U, 0x14de42e820e42b16U, 0x12e4eb06fec33438U, 0x1ff0bdfd1d01f5dcU,
  0x52b2344d938d61cU, 0xca33d709afba1a09U, 0xfb0eeb1f37b6f2c9U, 0xdef20712df375cdeU,
  0xd408e5110e5a320bU, 0x10bb14e1f4fa000fU, 0xfb2a19ce02e3dfd5U, 0xffdb1717ae242933U,
  0xed81da562f452801U, 0x2d4424f83e8d1b31U, 0xf3fe2505121df1edU, 0xd2daea0a06efcb23U,
  0xcdc3feb91ca807f6U, 0x23c9e3169c1c1b04U, 0xad9d4db7f0cffc9U, 0xf3202049c658cb04U,
  0xd21fccf510ec45f8U, 0xc927e3fa09c4dd2dU, 0xfbf1de0fc9403a2dU, 0xebeeeee30b1d2fffU,
  0x33c4cdbbd8141bfbU, 0xcd7fc887c11601b6U, 0x1bcc7f56813a235bU, 0xecaa32c414e5d26U,
  0x283939fd13bdc838U, 0x7a054abbb45318cU, 0xbdd44c1c3adcd51cU, 0x93812c8165b93305U,
  0x36a3c0678fe7501eU, 0xf6cab990724134c7U, 0x33235a5cb03bf7d8U, 0xeb529f1221cf53bcU,
  0xe127d31932e7914aU, 0xd9d7bc11b84c5f78U, 0x250cb3b23d3d56fcU, 0x50ecddb6c1e7160bU,
  0xd76dae849027efa2U, 0x2c0656d9739f60fU, 0x28eda92c4a576463U, 0x3b681bf93596c66eU,
  0xe5cf40aaca2b5482U, 0xf4f47f222aedc527U, 0xa99b51af54aa4325U, 0x34e0c652b8a74110U,
  0xedd9a5b0732e2a9dU, 0x431c5049a503feeeU, 0xe441ac1907cf67eaU, 0xe840e5283686c77cU,
  0xbbc8dd168153506cU, 0xd29c2ce295c4322U, 0x2fd202f6a1292f07U, 0xa1ef4c2d4ffcbdbU,
  0xf8b0e624b523f4c8U, 0xfcede6154d46572bU, 0x155129170186fdd5U, 0xe0b71dfcfb1913aeU,
  0xe1b9450617d7db0dU, 0xca92f6c70cc51ef5U, 0x16eb0b3ac5bb16fdU, 0xf6dec4da6317faa8U,
  0xef191b20f01ecb07U, 0xcb1aded7cf004f00U, 0xd721aaf9e7c5e965U, 0xeee2c714db18e25cU,
  0x2a24eae928262800U, 0xf0e9c008fb121c02U, 0x3ddf9aafbe7ddefU, 0x1c8d4b5f7f304aeU,
  0xd2fc10d41b1e1509U, 0x140a242208cf09a2U, 0xff090705fc2cf407U, 0xe6f648ea07d8f50cU,
  0x23d200de28f7f1e9U, 0xe7f6f8d2f52301U, 0xefff2cf47f6f4e2U, 0xd5f22205f640aa10U,
  0xfa09f916b8f92e18U, 0xe6f7fdeaefcf16e0U, 0xfb000606ee3b9d35U, 0xdae51b14ec22ec0fU,
  0x19c2bbf216fe100dU, 0xf1eef7bfdbe7b8deU, 0xe7c400e1d2060107U, 0xaca7d13d5c213409U,
  0x2b451e3127bef730U, 0x507f21ef30cd028U, 0xf9e32011f90a05e9U, 0xd5d7eba01fdf10fdU,
  0xffd31701e20f47fdU, 0x12e3f7c2400116c3U, 0x28e2f707d77fb63dU, 0xf842e1c5d3d61b19U,
  0xe516ce11fb04f01cU, 0x21eeb0ffa6383c52U, 0xe0d70bc6eb10080fU, 0x9aea1d9170b0421U,
  0xb945e0a3f0edc9d1U, 0xfcd46ec2bc1cca00U, 0xda95a73c7e397ff1U, 0xfc65052901bcf835U,
  0xe522d5df2cfac0U, 0xeec75e05f7f1d9eeU, 0xc0c740a75eb50cf9U, 0xcc1ff02a7e434faU,
  0x7ef9e845c1712cdU, 0x23e72e49e637c20aU, 0xe233a09ebcad18efU, 0xe6e4de1210e0c972U,
  0xe9e695fcaa311f16U, 0x90df7c909601c37U, 0x5e899bd2edd00a30U, 0xef40edcaedf5e0caU,
  0x2ad6c29ed05a604U, 0xe291e42b502160f6U, 0xfa630818ff9ad407U, 0xc2d72fdae9f607daU,
  0xd10925f411f301feU, 0xacc44bb350bb0710U, 0xeb9f221c8812ff3U, 0xe2e7c8c17c0a0ad8U,
  0x2dfc232dc211b417U, 0xf3019b92ca9026f2U, 0xee1fcf4529b9e94dU, 0xd6c49900ab183b40U,
  0x1fcf0e30b230b40U, 0x1bb8dee5e8e3ee28U, 0xfc11ea9fe3eaf3e6U, 0xf0d1021cad17b9f8U,
  0xf1d5f3ff22213be4U, 0x142d2127f1c505dbU, 0xe00002160508ebdfU, 0xf6fa200f14fae3f9U,
  0xe7da09e92ef707f6U, 0x22e00611f8b30ce0U, 0xaf4c487350316dbU, 0x151116ebf735040eU,
  0x60ae1b8dffa1bfdU, 0xd61bdc03fae80934U, 0xf0019df3b20e3302U, 0xeb110a00f32df820U,
  0x14f2b5ea000f1025U, 0xdcce3ba27e0e414U, 0xf6ebd8fdf80520f9U, 0xd0eef5d93bfb25d1U,
  0x1d2221201de42aa4U, 0xf208e721070be624U, 0xf31c2207f0fe1e0aU, 0x8090f13150602feU,
  0x13f8ffecf0841ef3U, 0xfdf3d7f31cf8f1bdU, 0xecee1cce1a0ad507U, 0x1b07fbeede0d19U,
  0xfde4100119e8f7ecU, 0x1507b8fafd05f526U, 0xef0d18fafbf7fd04U, 0x45580f15f71cU,
  0xffffd968fffff6a0U, 0x6038fffff435U, 0xfffff86cfffff7bdU, 0xfffffcbc000050adU,
  0xfffff49c0000475fU, 0xfffff616000035d7U, 0xfffff516fffffc92U, 0xffffff620000579eU,
  0x3567fffff913U, 0xfffffc11ffffdc16U, 0xffffea44ffffef58U, 0xfffff1fa00000f6cU,
  0xfffffb5000004aecU, 0xffffea75ffffe224U, 0x47fa000031fbU, 0x286cfffff910U,
  0xfffffcdaffffdc47U, 0x5447ffffe7d7U, 0xffffdddbffff8760U, 0x3f6f00002d8aU,
  0x5ceaffffe054U, 0xffffed2bfffffe66U, 0x5c4400004ff3U, 0xfffff3ebffffcffeU,
  0x313efffff324U, 0xffffc5b70000434cU, 0x644effffc648U, 0x2722ffffc150U,
  0x2720ffffd559U, 0xffffe22c00004451U, 0xfffff5d5ffffd62fU, 0xffffe67d00005925U,
  0x5b94000051c3U, 0x713bffffe576U, 0xffffe2faffffdc96U, 0x6cafffffee6bU,
  0x4a06000066f8U, 0x1061000029feU, 0xffff9dddfffff6b1U, 0xffffffb400003a72U,
  0xfffff400fffff4a3U, 0x428fffffb4a7U, 0x49f0ffffbe27U, 0xfffffb5cfffffa02U,
  0xffffe0ed0000682dU, 0xfffffc1200003b67U, 0x6b220000313aU, 0xffffea8effffecf0U,
  0xffffddf2fffffdbdU, 0xffffd6dc00000da8U, 0xffffd0e6fffff884U, 0xffffe47400007d44U,
  0x451b00005e9eU, 0x176a00004267U, 0xffffd93bfffffd5bU, 0x5c2fffffe7aaU,
  0xffffddf500004775U, 0x2641ffffe8f2U, 0xfffff3a4ffffe7a0U, 0x17d5ca520000604eU,
  0x53b3ff710c80ceeU, 0x6b327e8be03fce8U, 0x50f9eb2fc2280bbaU, 0xd5e134d0ecc70b19U,
  0xfe0818d1d6f4da22U, 0x1a4138b026df2716U, 0x1cc6fa33304b3e36U, 0xfc46510915e21315U,
  0xeb07331efe98382bU, 0x2f2e0d8113502b2bU, 0x19d5cdee2c09fb03U, 0xec0c16d32bec302fU,
  0x2d371116e427b61eU, 0xee2e560ac0118fc0U, 0xabbb9d0c2ed7e3f5U, 0x17cd1ddd0b1cce09U,
  0xbe0ebb07ef288da5U, 0xce2212eaf70fdea6U, 0x4d1ba416dbf45329U, 0xe9f4f4e3f420b0U,
  0x391d12e521f100efU, 0x282a4de9bd03f7dbU, 0x1afce104cde1fbe0U, 0xdf391f32f801dec6U,
  0x2f81e0220015df18U, 0xf02e150cb2e610a5U, 0xd605fee8f51f09a5U, 0xf42b002f4bc310e6U,
  0xfc1ec44147427e4U, 0x4035a5da0df5ffefU, 0xb0cf2cbe49b1acc3U, 0x5f822632131edb8cU,
  0x14ad95e7ab9afe30U, 0x9a2adf1005069f8bU, 0xd81bf3563c0140eaU, 0xcda3608d1298f696U,
  0x29f6536929c4b14U, 0xc020b83ca0caf937U, 0x130b9052089e2dcU, 0x3195c4263e81d711U,
  0x9808c503dfd1d3edU, 0x11d94ec481a405aeU, 0x9faac25254b8180eU, 0xe4a8dbfbcba3e403U,
  0x2fee111700f1ce26U, 0x1c22ea0cd71cb90dU, 0x25361dfafd222402U, 0x2edbe443f1262006U,
  0xf107f509c6eb01dcU, 0xeaff140ddccae405U, 0x2e00a61d6cde231U, 0x1cfa04f1fdd8edf4U,
  0x2df2ca43faa71627U, 0xcd1c12c6cbf8e4b3U, 0xf3e3f9f5f7c5eccfU, 0xb411f8c00ff8f3f3U,
