/**
  ******************************************************************************
  * @file    network_data_params.c
  * @author  AST Embedded Analytics Research Platform
  * @date    Mon Apr 14 20:22:02 2025
  * @brief   AI Tool Automatic Code Generator for Embedded NN computing
  ******************************************************************************
  * Copyright (c) 2025 STMicroelectronics.
  * All rights reserved.
  *
  * This software is licensed under terms that can be found in the LICENSE file
  * in the root directory of this software component.
  * If no LICENSE file comes with this software, it is provided AS-IS.
  ******************************************************************************
  */

#include "network_data_params.h"


/**  Activations Section  ****************************************************/
ai_handle g_network_activations_table[1 + 2] = {
  AI_HANDLE_PTR(AI_MAGIC_MARKER),
  AI_HANDLE_PTR(NULL),
  AI_HANDLE_PTR(AI_MAGIC_MARKER),
};




/**  Weights Section  ********************************************************/
AI_ALIGNED(32)
const ai_u64 s_network_weights_array_u64[32880] = {
  0x7f0000007fU, 0x7f0000007fU, 0x7f0000007fU, 0x7f5413430000007fU,
  0xcf88e2adc9b50d24U, 0xca19199245d0f37cU, 0xf9feae09cc04725cU, 0x7f5df9e6575f76e4U,
  0xe342b13a03282538U, 0xd590fee33bb90f54U, 0xcbeaca92411f3ac7U, 0x6eecc44a30bd3de8U,
  0xc816222bfdc2e9dU, 0x10ae29db42609a6cU, 0x81387254426f9123U, 0x61d69dcf06e3930aU,
  0x19edf5630fe161a9U, 0xcdfbd203b3cef881U, 0xe91b3a32b21faa69U, 0x212e0dfe2436464cU,
  0xc8019cbafd610baaU, 0x323dcbfbc6075c45U, 0xe89e41b926263ec0U, 0x541b9227f120a48U,
  0x16209aeb57e6c9f4U, 0xcbf9587f1bc1afedU, 0x547773b62cecee3U, 0x2c054f433a40073dU,
  0x17f362f50cc8a0cU, 0x29f6ab53e534dad8U, 0xfffffed60b018e8eU, 0xffffeb1effff8abaU,
  0xfffff0baffffeba3U, 0xffffdca6fffff96eU, 0xf4e2cb7fffffc561U, 0xd27f40b687b69e00U,
  0xdaef9ecdf4cceae3U, 0x37ef7f8b0e0c7f6cU, 0xcde0c27aa1b5f899U, 0xc4b212c17ff8f6beU,
  0x13175f7f7fe14b01U, 0xcce228129c2f0b2U, 0x1c85b14a11cb6de7U, 0x306c6c95e37fcfbaU,
  0x29667fb63f227fb5U, 0xcc8110347bdfa6c7U, 0x8f24327fe54e3016U, 0x7f965f9f995765bbU,
  0xfff574323000c842U, 0xf77ff49e81c65c9dU, 0x13052f16c2b4U, 0xfffffc6d0000054aU,
  0xffffff3d000010c6U, 0xfffff99c00000112U, 0x2080000087eU, 0xfffffa68ffffec96U,
  0xfffff8befffff819U, 0x39fffffb5fU, 0x1fc8282d00000620U, 0xa8cf3a7fd93439c4U,
  0x467f3f7f0b5b622cU, 0x7faebd031a61fa8eU, 0xd5f432d99d767a3fU, 0x150c8112cbaed596U,
  0x8107c7fe81333ed6U, 0x5fd72d6606817feeU, 0x93dba5de1115ac7fU, 0x4bb12a534c03581U,
  0x749504d8cf2d7f3bU, 0xc2f6c54933e92e95U, 0xb1a6c113d21219beU, 0x6ee4a3c57fee41f0U,
  0x43dc81fb38813736U, 0x8f23c3428ea933a2U, 0x7926b60bea9e83e9U, 0xcc8153a1bf68ed40U,
  0xfffffa951dbecbe5U, 0xa1000000ec1U, 0x1f8ffffffdefU, 0xa52ffffeed0U,
  0xfffffa2200000173U, 0x14c300000dd0U, 0xfffff23ffffffd50U, 0xfffffb2dfffff028U,
  0xe9d3f11300000f64U, 0xfa3d6d2ce7f5dd3U, 0x2f383be1d71e4f96U, 0xb5188d942ab7f27U,
  0x5af65b3da991b1e6U, 0x81f741964e022e2fU, 0x2450e1cd1084dcd7U, 0xc4fbaba534ab00aU,
  0xb831e81U, 0x0U, 0x815a9a5900000000U, 0x44eaa781bd3b811aU,
  0xb57f7b10c97f2671U, 0xa7d781cd0b4481dcU, 0x632d7f6eb67ff594U, 0x7c7f0a7c812ef3aaU,
  0x580a5e8192088155U, 0x7f3b2c37b339887fU, 0x164e1d19b8133U, 0x1d913000159c9U,
  0x153d30001c557U, 0x1732f000203e1U, 0x1792f0000f768U, 0x1773300017deeU,
  0x11e030002f374U, 0x1836c000173e0U, 0xc5929442000239b7U, 0x5037f3ba312b651U,
  0xd0303911dd2f71f9U, 0x40f99b1b253dfb7fU, 0x2f973677e2af04fcU, 0xde22536e6c81054bU,
  0x93cfba4ace974affU, 0xec505af5fb20b381U, 0xca7f31c648eca0c0U, 0x1202a25d7c434c2U,
  0x7f0b9c1860cde19bU, 0x2464a43611c5cc61U, 0xc9fc0bd7dafd39b4U, 0x557fcf384aafadebU,
  0x35db8016d544b7dU, 0xaa05fbb02b28a8bfU, 0xfffffdf2810f0e1fU, 0xfffff14bfffffa4eU,
  0x15f00000b13U, 0xfffff3a0fffffb12U, 0x5381321b00000800U, 0x998a02b1fc8242ffU,
  0xb44284397fe934e9U, 0xb1ae8171c82b7fc5U, 0xe9ae3109645aad0eU, 0x37ee81e37fb809ecU,
  0xf18a57812d195826U, 0x45d9816f53f83aU, 0x81e252938bb7aecaU, 0xdcd509ba9bb0bc29U,
  0xb39ab0816a581b7fU, 0x14e1df7f1cba907cU, 0xf40b812052da5602U, 0x7f53cfcd7e22bf07U,
  0x666c8815eb344afU, 0x7ffc0c42086659d2U, 0x1f81f1dd2c0eed5bU, 0xc5ee6bb9cbf7c7f1U,
  0x3c977f59af7f441bU, 0x9cd2f8030149f81bU, 0x7f7eb08d7ff5e3b4U, 0x5c81be143ac0e952U,
  0x3223d52fd51c13b0U, 0x5b931eb27f4c01bbU, 0x57ffa5e229bd81aaU, 0x7f7866967f571cdeU,
  0xb04d10eae3de276fU, 0x57139581af428181U, 0x6864b569a72058a6U, 0xfe7e1881c0dc7f92U,
  0x71030a3d2c2b0afdU, 0x7f7d1aef81cde8afU, 0x122bf1bc9cfU, 0xf500000201U,
  0x237fffffdedU, 0xffffffb000000098U, 0xfffffc70fffffec2U, 0x11d00000055U,
  0x570000016dU, 0x22c000001deU, 0x71ffffffc9U, 0xfffffe89fffffcfaU,
  0x22400000091U, 0x7400000039U, 0x2bf0000020aU, 0xfffffe63fffffd3cU,
  0x7e0000012bU, 0xfffffef7000000c7U, 0x3a4aab81fffffed9U, 0x47a8f5620ad34d7fU,
  0x56cf877941810ee7U, 0xaa58545a2ad19d06U, 0x15818186d2813d18U, 0x3814607f33bfd879U,
  0x4b7f3458cecc57e6U, 0x81557f3ab02c9b22U, 0x8e5fcdd4a9cb48b5U, 0x262fd1f1213a9e69U,
  0xf8c52d07fde0c20cU, 0xe3ecd7268101ccfaU, 0x5ac25194041e7781U, 0xf551ec664b01078U,
  0x5ae0817ff4412c90U, 0x9e7fe97fd7994438U, 0xb483d99c0ec11d3U, 0x486c7fd83d90b769U,
  0x7f9da762d0447f70U, 0xb803f9259d7f253fU, 0x97c22df98caa0993U, 0x7f7f8b61013e5c04U,
  0x35de0cf42a40e202U, 0xcb4636cf8e4d81fdU, 0x5aaebcd07f0d55b1U, 0xd20121ffdf812538U,
  0x1e3acbfaabf75eb1U, 0xbe5fdb48339f244dU, 0xf9a5e7d64db25afaU, 0xd5df46827f187f57U,
  0x323fdaa00b0b4f7fU, 0xce2518d88953387fU, 0x81e3d63ab0e77fedU, 0x1326710c59497737U,
  0x264c2b228120f103U, 0xa01b6eaa8770fbbfU, 0x24d1cf0adcedU, 0x8e900000a4aU,
  0xffffd2b800000070U, 0x5a3fffff413U, 0xfffffa6effffe9c3U, 0xfffff020fffff43dU,
  0xfffffb94fffff14cU, 0xffffffe8ffffeb68U, 0xffffe8200000088bU, 0xfffff92b00000f8eU,
  0xffffee7effffe541U, 0xfffff39a0000062fU, 0xfffff6490000272cU, 0xffffe394fffff26bU,
  0x1b8f00003160U, 0x10ebffffeba8U, 0xb621dd0000000b09U, 0xd21c195868bee037U,
  0x27f3f79e5e619b22U, 0xfab2b891600800bdU, 0x84e2119e33fbfb7fU, 0x41eebce02c2d465cU,
  0x8138542ec0f864d4U, 0x3c070cb4ba12431U, 0x5d646b9fbe5d1b1cU, 0x62615d4319c81a34U,
  0x39488ac95b684c5cU, 0x27cf2650f265da07U, 0x7fe8cc6845c35981U, 0xef0bebc8f4a550afU,
  0x6c1e3802f50d3153U, 0xe4634a1bd9f47ebeU, 0xe1a7d446feb3e2efU, 0x9371fdcd3e0a252bU,
  0x365ba6c9c82e7fcbU, 0xd944fe22a8d0ebefU, 0xd9d2c1c0f5ee7d5fU, 0xfbf01badb23e04efU,
  0x58bd2128e835ff52U, 0x81e2ad70f13b220fU, 0xa4e7ee7dad9840a5U, 0x190710c664cb21baU,
  0x810a3870ee0a3abdU, 0x1708bc25c0a1ddd2U, 0x201623c2a4d0550U, 0xdda324e31522e97U,
  0x8133b6c63f443033U, 0x3b152baee618c1bcU, 0xfffffc5640c559abU, 0xffffc40fffffec42U,
  0xffffec86fffff326U, 0xfffff7a300001050U, 0x7fde68b5fffffef4U, 0xd1539d2cfcccb66cU,
  0x7f2e27a72f195e81U, 0xec6527a796cdf923U, 0x615781a67f25ad28U, 0x5f20a3b5a30833e0U,
  0x612b7f7a087f1384U, 0xa57fe49e5fff02b8U, 0x26533ddf4c23fd64U, 0x7f0610637ff7ce1bU,
  0xbbf31c54676ca869U, 0x787f98d4813bac3dU, 0xc84c15f3aab312dfU, 0xaf29af52811910c6U,
  0x46ffe5c03527812aU, 0x265196390f1b57fU, 0x8c85227cba7f054fU, 0x227eefcdd8db7f9cU,
  0x26e7f2aec7f54b9U, 0xe4c7dd7fb2fcfcd5U, 0xe90087813500c307U, 0x7f671d2817f2bf90U,
  0x262a9fa51ab1f53U, 0x386d81c43ac17f48U, 0x8670a3afeaa45a11U, 0x4958c836cedb0881U,
  0x7d1e1ad6b981a0dcU, 0x81d5a41641893a81U, 0x5c717fad341ad3d5U, 0xef5dec7f09f7a508U,
  0x93d981de12c305baU, 0xb07f52cd1a511da4U, 0x434f07cf4446a89fU, 0xf8ac297a5815e5dU,
  0x7f288402869b8119U, 0xd77fd46697e605e3U, 0x392c7f2695bd2974U, 0xec462fa629eaa407U,
  0x751bed1b7f3cf1dfU, 0x5d813a94d5a97f26U, 0x7732246458U, 0xffffff62ffffffcfU,
  0x1f3ffffffa7U, 0xffffffa800000024U, 0xffffff3f00000024U, 0x6dffffff70U,
  0xc700000004U, 0xb6fffffef5U, 0xefffffffeU, 0x1f200000117U,
  0xfffffed9fffffd60U, 0x2a6000000a4U, 0x1b8fffffe1cU, 0xfffffec000000125U,
  0x9efffffdffU, 0xfffffee200000012U, 0x24fffffff28U, 0x198ffffffe8U,
  0xfffffef7000004beU, 0xffffff1dffffffddU, 0x81c0e80400000030U, 0x848176f854a0d5dfU,
  0x83947d8e2e731eaU, 0xcccb81f68c207fceU, 0x99c2cfa492112d81U, 0x14426d7f63fc98ddU,
  0x7fafdbc17fece4b0U, 0x4a263d2f001d7f27U, 0x4d3365581106404U, 0x81b415ee3297c0adU,
  0xec8d98f7ff81ea44U, 0xe7d17f7f092ccebaU, 0xb90acfd63d6ef4dbU, 0x314399f6ad540a0fU,
  0x17a807d2d106864dU, 0xf4001edf54ee812bU, 0x59eb11df0bfd2a90U, 0x3142346a61590448U,
  0x8346d8f6457f7bbfU, 0xc9d6c712691a7fb7U, 0xf7e046782072f10fU, 0xe5e50ed0368116f8U,
  0xc36a3a81322a1c68U, 0x11e3040533ce1fedU, 0xe981a361ced156d2U, 0xd77fe6b7a920afe8U,
  0xabe90b3c0a33444bU, 0xbdf74c245c3d1419U, 0xbe81477f872ae047U, 0xe0918b47f7b13ee2U,
  0xe9181297f8d21afU, 0x23432145069f7f81U, 0x817f28f0dc191d1bU, 0x7fd9d8ed3903377fU,
  0x3af813381054a0dU, 0x97bfbae828ba9e0dU, 0x84e246e6e6b73255U, 0x951a7fee838a3e7fU,
  0xbfabaced5ebd07d9U, 0xf7a865fd5181bb0bU, 0xc82c0b1a9576e07fU, 0xee2eea5af321543bU,
  0x1e3cfb07817f8f1fU, 0xa072d40298210601U, 0x6a9840819fb45be3U, 0xfffff5d28db434c6U,
  0x3ea00000298U, 0x40e0000126bU, 0x145bfffff1bcU, 0xfffff935fffff15eU,
  0xfb1ffffed86U, 0xffffed5cffffff95U, 0xffffeed5fffff29cU, 0x5ffffffcd9U,
  0xffffe362ffffe8c7U, 0xfffffd0100000c54U, 0xfffff627ffffeaeeU, 0xfffff654000002f1U,
  0x1f000000d76U, 0xdef0000082dU, 0x140bfffff746U, 0xffffffe3000006a2U,
  0x245a00000e9eU, 0xfffff98c00000becU, 0x12200001921U, 0xe2f32034fffffb50U,
  0xc83fcef847383bbaU, 0x21c7cbd93bbc2520U, 0xdbeabb05813b54efU, 0xf02fecdefbf9030cU,
  0xf7d8000112aa2ee3U, 0xe7e438316ade4781U, 0x4ac7ed3e6b2d9c3U, 0x3c19115bbbc9d328U,
  0xdea4ccb2de02f401U, 0xf13a593e9b2e3dU, 0xc54d2cd804827076U, 0xf4610beb81d23651U,
  0xf8ea0dc7e514a53cU, 0xe9621de81beeefb9U, 0x1d70ac74f4fccefU, 0x34679aac892c5fcdU,
  0xf893de099f881f5U, 0xba9a473376530ae7U, 0x34f33e57a29bd9edU, 0xcf5df4ccc64769baU,
  0x539a29a0f73f1863U, 0xfc3e3b1022b8dd02U, 0xa3c0f125b06e314U, 0xa1902fd835e629e6U,
  0xd628e7d4d97f330aU, 0x5c4e4259cc0ff61aU, 0x50f6ec17d4db1700U, 0x42b530534aa61413U,
  0xd599687fd33cf607U, 0xbbec99ce6066b0e0U, 0xcdf85063a24f1c89U, 0x43e292e72d2a2328U,
  0xc1d6efbaa4bea247U, 0x40dcc8e8f5afa91eU, 0xd515fd66ba81a319U, 0x4e5038de7f312306U,
  0x1fd139dcad343e51U, 0xfcfc6204395540d5U, 0xca15fe2035e1b5c4U, 0xfffffd31a30743b8U,
  0xfffff1c400000f99U, 0xfffff7c000000ce4U, 0x24dfffffebeeU, 0x5a4ad51affffdf4fU,
  0xd94a32ca7f1902bbU, 0xb5f0df1b47814f2fU, 0x81bde74316498108U, 0xe91f7ff5ae90527bU,
  0x4bbd2df2f2293bc6U, 0xcc6e7f0eda7fcfc0U, 0xcfde819e58bd2c64U, 0x288163cd4fe73e55U,
  0x61da8135d03057ebU, 0xeb81f448a1a846b8U, 0xf67f391c07df37a6U, 0xa2a4332b9a51d938U,
  0xed408f219fb381efU, 0x235cd8034c277ffcU, 0x4083b024e66f1a81U, 0x3030da0dae217fe0U,
  0x2fbc3f81feb27f5fU, 0x5cdfc710c2c837d5U, 0x82ac581e37f8e02U, 0xffaa5555882c656aU,
  0xdc44ae867f3cb2c1U, 0x2cfe81c8d2266d81U, 0xda4481abdc8b10f6U, 0x81f5e72d3ac3ee4eU,
  0xa07f74a61dc0f605U, 0xcb6dade5b1d8debaU, 0x8110ed949d9c3881U, 0xe0fbd17fb59c070fU,
  0x5ff1d7e4ce7b4f07U, 0x979e814f0081eb14U, 0x25a46d633864ceadU, 0xe0b481918167e99dU,
  0x6d2805ca0eb2381fU, 0xdbdc14287f0f19ceU, 0x9f9b813f5a819be2U, 0x6f6fe9d76a45c0fdU,
  0xc5c1472ddf816173U, 0x1e41aa6e7fd11e4cU, 0x3c81c804f781edbdU, 0x81d2e036e02cb5e7U,
  0x466b483a2d3d08d3U, 0x9881da397f28d26fU, 0x7f6f23e708bfaf57U, 0x40db34c284e134bU,
  0xd2f2e57f7f3fd8f8U, 0x65df812ce4a92dcdU, 0x8e508e6d5e48f68U, 0xffffff7cff597f45U,
  0xfffffebd0000034cU, 0xffffff3300000126U, 0x3dbffffffc3U, 0xffffffc4fffffeffU,
  0xfffffe00ffffff68U, 0x205000000dbU, 0xffffffe7000001bfU, 0x1c0000009cU,
  0xffffff8d0000008eU, 0xfffffcc2000002ceU, 0xfffffe66000001d5U, 0xffffffdbfffff5d0U,
  0x1b600000015U, 0xffffff7a00000191U, 0xfffffaadfffffeeeU, 0xffffffb3fffffe13U,
  0xfffffecbfffffe39U, 0xfffffd29fffffd90U, 0x169fffffe50U, 0xfffffdd0fffffe9aU,
  0xffffffb3fffffec7U, 0xfffffebf0000006cU, 0x1a7ffffff63U, 0x60e7e98100000109U,
  0x3a18b3ff001398b6U, 0x5b2042ee22ebf5bdU, 0xccb0d736cb6459c6U, 0x1a24fff67f18b6d9U,
  0xc87fc825f9da5c08U, 0x7f1338abebfd0d36U, 0xe8fc23f02ae5a834U, 0x3b37430821d1c326U,
  0xd401ac5b814752a8U, 0xcf0cb83450cfbdfaU, 0xe37cfc27dfc25140U, 0x70d9d8299620a32cU,
  0x1e03b71d12c0cd2aU, 0x7f2b3422cbda8d24U, 0xe5b9ef34ae3046abU, 0x104962350fbaa09U,
  0xbd0b26d60e815f54U, 0x4626f8a9cf48f938U, 0x53f8daaa25c9f92dU, 0x60d9e8c7ce1ec1d5U,
  0x1d6e216dd511a07U, 0xd508200a389eb9e1U, 0xb8030b8fcce7c517U, 0x12e6e605e0fab10eU,
  0x24c2ce32fed6d3d4U, 0x35b6d8a3f5ea4743U, 0xa21481e1bb09f9d1U, 0xd14a01f8ecc2ebaaU,
  0x7fe1e81e0ffec0bU, 0x6c0110bef31efd38U, 0x1f1831f0fbff8181U, 0x47f1b0b550e8905U,
  0x97b40a51fc1921a6U, 0xd72fb92011f7e90fU, 0xc04e46d905be553cU, 0x745327d2c01181e2U,
  0xfc3b642a45289bb7U, 0xca5401353246c37fU, 0x12c34c6f265275aeU, 0x9c0ccf5b49caac7fU,
  0xc75a5f1900b01065U, 0x6b644bf5aedcd827U, 0x1809da2b5afeb319U, 0x2b4d1f3338248146U,
  0x23a60158113333acU, 0x12efb21d692bdf51U, 0xd5dfdef81cca324bU, 0x5b362ddca918a813U,
  0x39cdf2a30dfdb3deU, 0x5221d32fe6004868U, 0xf6fc1a19156b49e3U, 0xc94307de561e8127U,
  0xbd3b2faac9e1245aU, 0xcf11e1b59b2ca4c6U, 0x2ce281fc15e9b1c5U, 0x242df0c227fb1641U,
  0x16f1f214047a130cU, 0xf6152bf20121cef9U, 0xeb1423a6d6c5ff21U, 0x4d1361e0d926f80bU,
  0x1f3b2c19a72d23ebU, 0xe93cf243fd423038U, 0xfb5ef3fe29e1ac2U, 0x8148a17f394ff037U,
  0xdb663a41ead90a68U, 0x37425ebda6cde106U, 0xf32f1421167fced8U, 0x13192013150ad849U,
  0x81e440412a225081U, 0xc6371e492b03ba0eU, 0xe2407f273a032661U, 0x647f7f508133ada1U,
  0x565f11cf265efb22U, 0x380c175b471790fcU, 0xdefa3b3755d37fb8U, 0xe10fcac921f1c913U,
  0xda005dd5199c7f0bU, 0xf3362f8abf37e8d4U, 0x7ff9032e0e3cb9f8U, 0x34e8da7f37392512U,
  0x92f3591836a650c8U, 0xcd2cbdbefe2cb74bU, 0xcf27f3f9e5b122cdU, 0x1800dd01bb29fed9U,
  0x18e8df35f900f25aU, 0x300cd121b174712U, 0xbed5b20c49601c95U, 0xb2dd2bebcd28b837U,
  0x1c0558f3e0d4e89aU, 0x19ce279be5d9fee5U, 0xde61da2eac1fefc9U, 0xaf7dd65f80f22cdU,
  0xeae01fd4cca12ae3U, 0xeee0ba19ed08ba2fU, 0x4f67630ee2d72aU, 0x58ee598ad126ebb0U,
  0xd27fbd13815cdbddU, 0x83a7f347f33034aU, 0x259f3ed7189e4bcaU, 0xd4f614461005af4fU,
  0x1b5f615443a2084eU, 0x3907451fb811aaecU, 0x1f55b438a81ee74dU, 0xfefbfe394728d5fdU,
  0xddc45bd0559116e2U, 0xa7f90ef10b4b93cU, 0x3d21440b35c8efecU, 0x1e131a86c77fe2c7U,
  0xfc15182cc4211138U, 0xf0e9ff6b4fe9e025U, 0x19c7e4b04cb22fd8U, 0x1a0d91b0bb0191feU,
  0x2e1d37d710dd1694U, 0xbd4e102ec1fbde6U, 0x11388472bada1507U, 0xfbdc150b653a5a24U,
  0xeda92399ed10f20aU, 0xf0f31bf4dc0be504U, 0x54f5dff9ded7fbbaU, 0xeee9fccce1f50fa9U,
  0x32c2d2ffa141201U, 0xf2da76dc1907fe76U, 0xe99b3b09b081b0f1U, 0xdaf6e8d6f6c9ab36U,
  0x1104311231efd2cdU, 0x380bdaf426f5078fU, 0x3ae73702f31e0606U, 0xa8f66cdb2b7fb16fU,
  0x9f8168a8c392f89fU, 0xeb17d933bc01cf16U, 0x7f48086a7fe7f9feU, 0x4320dfd9badcf1d2U,
  0x3b36202cf5e53808U, 0xa3fe17fe3821b652U, 0xed9925db24f70528U, 0x717e2d8b3b2e4e1U,
  0x63080c405f00baa7U, 0xb4f2c2a6f51a16acU, 0x2f17a33cf5f03f18U, 0xeade090a57f58a58U,
  0xaea6c5810bc6b7dfU, 0xe32281f7a3810725U, 0x3836b32b4bb60b81U, 0xdff00ebaed061f81U,
  0x5f2977fd60d391aU, 0x36e046d74a290641U, 0xf6e2b6a6b2f7d400U, 0xe6e8dedb9cd20ddeU,
  0x241e1eecf9d0dac4U, 0x531f02f30ea8U, 0xffffe9c5ffffeb45U, 0xfffffedcffffcc4dU,
  0xfffff204000033c8U, 0xffffdde800000249U, 0xffffe138000008e7U, 0xffffbde1ffffdebfU,
  0xffffe4f4000016f4U, 0xfffff251ffffbc18U, 0xffffe988ffffe761U, 0x4905ffffe8a6U,
  0xfffffd30ffffcbd4U, 0xfffffcf9ffffff7fU, 0x546afffff5dfU, 0xffffe32800002d3cU,
  0xb9400002ec2U, 0xfffff7b3fffff100U, 0xffffea3500003234U, 0xfffffc5900002a43U,
  0x3e06fffff394U, 0xfffff844ffffef53U, 0xffffb82dffffe05fU, 0x2c88fffff965U,
  0xffffeb33000020e1U, 0xa0bd8d60000668cU, 0xdd6ccccfa7c29ba9U, 0xb04e667b9cd4816U,
  0x3645b21bd14eb1aaU, 0xdf084fa751144099U, 0xe1c02681d4bdc8c9U, 0x3215c4137053b92aU,
  0x553d1e5b33d43aa6U, 0x17fd0d81dbd5180cU, 0x17e5f00a85371159U, 0xc5114b38cb52e3c0U,
  0xb031a622c10ff9aeU, 0x2ce20a7fdadbfcf3U, 0xe67195092fa9229fU, 0x13baf2bf53fb6a37U,
  0x39d5f129a24c6d2bU, 0x6fcd54e94eb2d041U, 0x92ac4123fd2e1501U, 0x29498fc202c11b07U,
  0x5059e78f0b99c9ddU, 0xd2cf87c7c8b981f1U, 0x84f5a73ea6a03026U, 0xd8bcec17f992399cU,
  0x1c2e3e03ff5729ecU, 0xabe93b09d8fa25d5U, 0x256110102f5f52d9U, 0xedbc5953e4e414c2U,
  0x5040df4b5f491959U, 0x3b6bbce8cbc2e1dbU, 0x7fc5b306c7210419U, 0x34ad02d70218d9d5U,
  0xe8f92029b4bf5332U, 0xf781611d71081cd9U, 0xc2d7cdbbe5244826U, 0x115ba633f07c2c0eU,
  0x41b4312c3caa3e39U, 0xb9d0cb232833404dU, 0x4d5e8a149eeceb0U, 0xc310ab4ef7413716U,
  0x5b37f5ad32580181U, 0xf1d0b53b22dd44c8U, 0x52eb1310fa294906U, 0x4145439a44fb0deaU,
  0xfffdc8fb5ac638b4U, 0xaa812ff2010406ddU, 0xbe1a685e46215e3fU, 0xa3f0b2f0079f57a4U,
  0xc0b8c19489ca651bU, 0x3b0ed87f85499f50U, 0xc264bd5525110926U, 0x1be164b52c293af3U,
  0x4d8bb3a1aecc32cU, 0x3afa3afde0e43fcaU, 0xfcf3d4d8ea1811bfU, 0x627ed4e52a0d0870U,
  0x182dfcc933c7d21bU, 0xe37f2bbcadff4955U, 0xd406e5426b06e8c6U, 0x94ff2d0adc196efdU,
  0x62de72413380797U, 0xdce5367f3b2d06aaU, 0x56d1dc5a67d3b345U, 0x4ad7dd61fb46fcc7U,
  0x4523073de92c2b50U, 0xc6a3421be843fc59U, 0xe4aa3d2ebffe1426U, 0x9420a60e451cea08U,
  0xc71e0458fc99c647U, 0xbad1fd8aa313215aU, 0x43500f902d8116f0U, 0xc318a5032a1b6c38U,
  0xfcfa49dd25db13dbU, 0x672b54a0U, 0x0U, 0x0U,
  0x0U, 0x0U, 0x0U, 0x380496b700000000U,
  0x143ee1f00c81fb42U, 0x98c5c6d7f34d4c0eU, 0xfd2be0f45b40ac7fU, 0xafe6c37f3bde1c08U,
  0x1ac13942c3ed0e5fU, 0x26f5bfd2f27fc126U, 0xf3a105f1f081ae29U, 0xc9f3efffd1340881U,
  0x7fe0909ec341090dU, 0xe6a372692da2df4U, 0x3b818c2acdb73868U, 0x4de28124b9aead4fU,
  0xe29d5063f14da36U, 0x452dad9f574233e6U, 0xd8b981b6decfcd81U, 0x2b309bdf7bb9e84dU,
  0x3881a01a0c5ed8f2U, 0xd023281f38e1d054U, 0xf246ae2046814febU, 0xc28142043a089ac4U,
  0xbb253bbcb6e7c91dU, 0xd61b81ac13bdf099U, 0x627fa6ea432b1e21U, 0x36357f15ea21dac3U,
  0x49cf1c582ee62a06U, 0xd4db06c83897bac2U, 0xe61a4af937a13c81U, 0xdfcbd3e50e5537fU,
  0x6912c5fd67e73656U, 0x30c1c95f3ddb2b81U, 0xd1d1c23e997f57fU, 0x417f46f95cba4751U,
  0xc2dfb524cf94029U, 0x57eefa4def519881U, 0x7b44eef53247f04U, 0xf706201f3b376825U,
  0xe2d8cf356d815665U, 0xc829681efe05799U, 0x2fb3d0ded90abb1fU, 0x34941812e66674cU,
  0x3ce5707f765b47f4U, 0xac2b636bdd5d580eU, 0xb7b5813f2b497923U, 0x21810bee587d397eU,
  0xd9acf726d531f568U, 0x389ea4810a020f03U, 0xe9ff2e6a3c178414U, 0xc0db4d7f81339f00U,
  0xf800d2fa06f1f804U, 0x9127130ab118ba1U, 0xe913f418d8d37fe7U, 0x2200644ec81dfdfU,
  0xaa9820a2b6da3a2eU, 0xc141780d11810e0aU, 0x537fb9465997adbbU, 0xa6e92ce6ff5e1ce2U,
  0xe7d886e8bd7feb73U, 0x5418b7cebd81147bU, 0x45de067f41fd231dU, 0x4347a8882aadb231U,
  0x4181a93b23391dfcU, 0xcd8f81b9a37c9ae3U, 0x585f1e8c2b4b3451U, 0xff448b812831e393U,
  0xefa8d8fafff3dd81U, 0xc21ea6f4c0e656d1U, 0x3a317881290a92c2U, 0x1b3bde7fd5ab096fU,
  0xd6f6b0e12606da2cU, 0xc7de3cf57fe2be51U, 0xbe13205dc1cc9d4U, 0xbaeea77fe701U,
  0x9c6900010826U, 0xb7a50000bf0eU, 0x162e10000dfb8U, 0xa00b0000e654U,
  0x106760000e823U, 0xe80000010727U, 0xb4d10000adc6U, 0xb06a0000f32cU,
  0x9a2f0000bafaU, 0x10179000128d4U, 0xe4ef0001109dU, 0xe7370000dbbbU,
  0xd56300016b13U, 0xb4a8000175b5U, 0xe83a0001085fU, 0xa46e0000cacfU,
  0x9aa70000e982U, 0x116e10000f4a0U, 0x11d0e00010adcU, 0x1313c0000a50fU,
  0xf520000156b1U, 0xe76b0000d461U, 0x11b2b0000bf69U, 0x4b2c4d110000a396U,
  0xb0d15a3264a5e425U, 0x1105f9ae06e14f6aU, 0x229ef9d97f6957ccU, 0xdfa63f3465aacadU,
  0xf134393fd9e5d521U, 0x51f73911641101b6U, 0xd609c6e83f536bf8U, 0xd1d0af122250f80eU,
  0xfbf35881476346c0U, 0xe1d3c9cfd7e911f4U, 0xbc06fcded8f0b26bU, 0xd7eccd7febd2a81bU,
  0x30cae743ea3fda00U, 0xdb4209de9aca1254U, 0xa8034b0001c0121cU, 0x25e9731ba70459fdU,
  0x3c05cbf33823f8feU, 0x3acd2b321beafa10U, 0x2c113535ef4ccbefU, 0xf2bfde75b61d48c9U,
  0xec141f0074edbebbU, 0x48d3f9ea7fe508bfU, 0x74123644414f544fU, 0x42b59e7f5ce42365U,
  0xc7e2c7afc4aa2e2cU, 0x52bdd9d5012206f9U, 0x114fd04fb0f22541U, 0x1e3632bcec1a3c25U,
  0xde05e91926614284U, 0x562cc6d22032fbe5U, 0x701f9fd63ad2e50bU, 0xfdd155c3b0182223U,
  0x8822e54eb8cd20bfU, 0xdeb7c3a633641145U, 0x9ed0287ab655a381U, 0x40b72405939e5cccU,
  0x1ddb1c2f4ee13e39U, 0xf43de35e29f3072bU, 0x32d240f128f8e434U, 0x3be1f65c0b1109f5U,
  0xef3eaac5b2e9bd5bU, 0x19be40f3814521feU, 0x2f43b2d3a27affcbU, 0x647ff691a7de6150U,
  0x19d65cd44b91d55cU, 0x97beabb210efdec4U, 0x53ce121328b459bfU, 0x3e3fc8e8520d2ff7U,
  0x11430f3281db3d3cU, 0xb1d9bede3e04b24fU, 0x4c576416d0e3de9dU, 0xef38ed0d1544303bU,
  0x37f6dfbb4be22cdbU, 0x312dff2d78b80e09U, 0x300df83f36542e16U, 0xe325d1d442fa25ebU,
  0xdaa2227fbb26f6f9U, 0x4935de25ffa7daU, 0xf100314021d657f8U, 0x7243cf71174df2f2U,
  0x2bda35273808a630U, 0x257f2630d7d1faabU, 0x5638b0e3bc2bc260U, 0xe9abf73075495032U,
  0x2fc79c24514a98a8U, 0xb8717ad2993d3841U, 0xfa1ec1b3584d1555U, 0x3178d3f7c7c54fd0U,
  0xd1b03ed1d941d2e8U, 0x784830e1dcae571dU, 0x3045a132445fe41U, 0x506cf8057fad12d5U,
  0x3c1919c64f2217e5U, 0x1ecc5018c43e2f45U, 0x3881ba232613ce0dU, 0x364f3cf2615424cU,
  0x2124e01ecd52dd3U, 0xe95f70bb57dd9d15U, 0x13a710062ee4750bU, 0x354d023281e89016U,
  0x2950f427b21f1a7dU, 0x494cfce892c9eb58U, 0x24c1203731e53c27U, 0xcf052d4387f00136U,
  0xefcb5063b490d9U, 0x5c3ac75246df2e3eU, 0x607f9815546aed1cU, 0xf444ff38253a850cU,
  0x3d0b4ef021563fd8U, 0x2f43ebfdd229de28U, 0xf2bdd1debee227b4U, 0xf4529c4fe638fd16U,
  0x22c80fb2683eedb2U, 0x2dbeaa5017f0d842U, 0xf104b929fed3fc22U, 0xffffecfe50262081U,
  0xfffff4dc000000a8U, 0xfffff5acffffe633U, 0xffffedd700001520U, 0xfffff227fffffa55U,
  0xffffe793ffffe8ffU, 0xffffeb77ffffeda4U, 0xffffe729ffffed6bU, 0xac0f5e97000001e7U,
  0x50b72e4f58c03308U, 0xaa28ee9717624081U, 0x7f262cfec80f2ee4U, 0x5a3f231831d9d826U,
  0x3906cc1e20ca44feU, 0xd37f3b2c67e38164U, 0x2e9435bde125ecedU, 0xf3f1cf50daae6309U,
  0xa26c1b112f63de0U, 0x409eb527f2f18fbU, 0x283b3dd639b52fe3U, 0xf826257f3bb8da7fU,
  0xf515642053111d14U, 0x4424d6a674b4d74fU, 0xd48575ca6c28dc4eU, 0x8b530a0c7f2e3ee6U,
  0xba37bdd13f2f4ee4U, 0x4d1e81baaa8199c1U, 0xff63f96c2481e0fcU, 0x46d118bb04618437U,
  0x34131f2bd28171d8U, 0xb5bd4a02db2a57U, 0x304a814ad6b05ddbU, 0x46bf137f0c629b84U,
  0x68fcf7d3d143d7f4U, 0x4bb259fb8845604aU, 0x2c0a97810c276614U, 0x22e30aa4d0e92fd9U,
  0x30314f0b2256b305U, 0x34f2473dd82f7f5bU, 0xe4bc5a2c5d81e407U, 0x127f2621c03235beU,
  0x2cd73d4338fc6334U, 0xe0db79a4f7aeac21U, 0xc6a68f8cb3ee8cd7U, 0x62dd83726bee381U,
  0xe13132f3815adeaeU, 0x1308b8adef692407U, 0xd068dd8810ff926U, 0xa1e89326edabc5e4U,
  0xcef971f9afb3c535U, 0xb9d124a0811cf524U, 0xb80081be10d0d1feU, 0x493090feebf4ce8eU,
  0x33d18cea0bc25d42U, 0x12f0041bb5d81d0U, 0xc08b96b85ec8816fU, 0x2502237fbcca563eU,
  0x5decb0adcc4a553eU, 0x781522fb4c71fb1U, 0x2361163767e2b8ccU, 0xfe38c28ae4eb7ad0U,
  0x373a09bc5d597f20U, 0x6db55b1429711fc4U, 0x682550efd9e7bc81U, 0x481d9c0a5cb55df7U,
  0xe4081ff41601baa8U, 0xd77fe5fe6b7f1d10U, 0x2c1ad52e4fee3012U, 0xe116b1f610058ee2U,
  0x9e22f696f710d2b9U, 0x7f04f6f72847bc81U, 0xd601656e09b4444bU, 0xa5b236edebb4a65U,
  0x2248f5b01e43357fU, 0xcbc0792501afe64bU, 0x6b14cd81df0633fcU, 0xcd1befcc5cf36a2fU,
  0x4ba2d6cc5996fb7fU, 0xe5c52e2400696ef5U, 0xf1677eb6f75f417fU, 0x4d81194035dccbeaU,
  0xa7b3303fc77e783U, 0xc3550d17033e7c96U, 0xbff9809b8404121U, 0x5e7f9137f2c31e4U,
  0x3db1689be35b281U, 0x46d5c5fa0c36d129U, 0x8ae8ab94157c8a20U, 0x21d26be822317fd1U,
  0x1e27e2fb70c9d081U, 0xe63aa7811dc74ed9U, 0xf04ed3b6e6bb4bcU, 0x818b05364eaf5b1fU,
  0x58f0cbbf9b32cf32U, 0xd1dae63a3e12ecddU, 0xc0076b10bd7fd810U, 0x504eab40091b357cU,
  0xddd68232e1e32cceU, 0x7abb7ffeb6ae81fdU, 0xfe10d3cf520a2907U, 0xbab0bd3e58b8ff03U,
  0x5d0b9828814797b8U, 0xb49fce76f6525237U, 0x6f10dbe38680fc1U, 0xdb5a2faa69292281U,
  0x5ff81ea1932244cU, 0xa3f2eedfa0c1a1caU, 0x7f46e13dd9bbfd3eU, 0xc0c427e10e064e40U,
  0xf2c12a81c00285c2U, 0xcefdd4554d542dc2U, 0x8142a3050b26de05U, 0x750c5a40c3bbfccfU,
  0x4a041da25a51d681U, 0xd2cff839aeca1a2aU, 0x48cc3bcd881167eU, 0xff01f77fcd9b92c0U,
  0xf4235f1e17149026U, 0x12df3983182f43bfU, 0xf7c62e9bdebd8ce1U, 0x3dd0b31c86d47fbdU,
  0x7057f2c270e4142U, 0xc7aa5b29b7a2fbffU, 0x4a9dca8e9591632U, 0x615dc966e17f77f5U,
  0xe649d77f46b2f8cbU, 0x4182b9bb7dab95dU, 0xc32ffa7f9fff101eU, 0xcb602914b20c35abU,
  0xd17f31ea00c731b8U, 0x8b61cdf4a276ee1fU, 0x113cb7c472a421f6U, 0x782613ef81bc473dU,
  0x34329708ef1e5158U, 0xf7a1cd057fcaf7e9U, 0xc4a46290b47f6e62U, 0xb10894db1b17d35cU,
  0x477f082d3cdfc3e7U, 0xceca1a19754ce192U, 0xfc0d1c8fe27fd5d5U, 0xb0c62773ff2dfb18U,
  0x3441b4b31acb9681U, 0xbe280b813fd90749U, 0xb3310eaa2a1f11c1U, 0xa7ff177881a5028U,
  0x18250d721593ba4aU, 0xf6f565f2f027c419U, 0x19fdadc7307fc1e1U, 0xa581d2d3053cf378U,
  0xba36c149c5bbeeb5U, 0x813310a558c6a32cU, 0x19a300e0aa3c1935U, 0x304181ceb1d0dc24U,
  0xe54cc45aea20e730U, 0x40fed38ab9520adcU, 0x817dca679f3d4167U, 0xe262d7efdad30087U,
  0xd1154ff37ffd5ff4U, 0xeeefc3dfe49fe42aU, 0xc5f3a119fe9dcaf1U, 0x75608ddccd81a3efU,
  0x6cb77ff65da7d262U, 0xdf30f4f048751e84U, 0x81fd002ceb72250fU, 0x81cfd89a48c7e3aaU,
  0xe95a84fdf2107d03U, 0xc7a91a2f57c34ae3U, 0xb1bdc22381c309d8U, 0x2218da49536c087U,
  0xe74c5a100dea141dU, 0x3422fcec0c7f4be8U, 0x812d1fedd4727712U, 0x2c345125060a7e0cU,
  0xf34eb17f58a50adeU, 0xe47ff724fcc91140U, 0xb7dd85cc4ce42136U, 0x6634fe344836a6bbU,
  0x5c81e20ee090c039U, 0x7ff6e9f629ce3eU, 0xe52442579e0e61c4U, 0xc5c5f44f9bf98309U,
  0xbd5d7f2eb9fbce55U, 0x3d9ea2b4721f918U, 0xe84235b8367fe74aU, 0x57bbd9d408da000dU,
  0x297d8ea28ef16b6U, 0x62404a43e97f30aaU, 0xb8c981dbb6770584U, 0xee3a35b471340123U,
  0xd230d6cf209c7fd9U, 0xf45033ad0cc86a16U, 0xdd030b7f7b45fcf0U, 0x31e99c2b58da3e14U,
  0xbbaf2160fbe04d28U, 0xf4a2e7ce81d9c5dbU, 0xb95ab2943e096467U, 0xf67464ec041f2281U,
  0x7f28f02335ba54c4U, 0x302d2078600ae6e0U, 0x2014c7642ea0477fU, 0xfffffe544cc8ba63U,
  0xffffff64ffffff3fU, 0x11700000193U, 0x1e4000000e2U, 0x270ffffff0dU,
  0xfffffdc4fffffd0eU, 0xffffffc5ffffff9bU, 0xb00000178U, 0x31ffffff46U,
  0x18e00000050U, 0xfffffd19ffffffebU, 0xffffffae000001cbU, 0x123000000e3U,
  0xfffffcfb00000164U, 0xffffff08ffffff42U, 0x27fffffff52U, 0x104fffffd5dU,
  0xffffff45000001b7U, 0xfffffdfe00000282U, 0xfffffed4000000efU, 0x20d00000099U,
  0xf40000006dU, 0x1cbffffffc2U, 0x9700000159U, 0x156000001f6U,
  0x7ffffffd23U, 0x420000000beU, 0x13ffffffd91U, 0xfffffdadffffff94U,
  0xffffffd00000002cU, 0xffffff8bfffffdf3U, 0xffffff6e000001a8U, 0xfffffe0a000000f9U,
  0x29b00000075U, 0xffffffdf00000274U, 0xffffff5500000170U, 0xfffffefc0000000fU,
  0xffffff36fffff7bbU, 0xfffffc3efffffeffU, 0x5800000273U, 0x36fffffed6U,
  0x490000014cU, 0xfffffe6400000333U, 0xffffff6a0000029aU, 0xfffffddc0000014aU,
  0xffffffa0ffffff14U, 0xfffffd4a000000e3U, 0x42ffffff2aU, 0x6742e615ffffff46U,
  0xf8e6fb3461cbb6edU, 0xeda4248c01ae36e3U, 0x9f1cbbf8b614dd29U, 0xf1defd1bf4691ee6U,
  0x2402d2ffa73ddb4aU, 0x81e3d0f3bcf5da2dU, 0x810ad942c80ee818U, 0xf2f5bb8181118e06U,
  0x3e36f6e506fee6d7U, 0xcfc4b6f827fbfac3U, 0x93daecf523e4e6b3U, 0x71e900f803ea3523U,
  0xbdede5223aeccbb7U, 0xb9ab8f08c2d2ef5eU, 0x816ae84b4d99e38U, 0x393dec67e6679ac2U,
  0x7f08dfd3a031fe35U, 0xfddccdf1c8d91663U, 0xcbf0c86f0bd62018U, 0xeb1cb59ea22ac3cbU,
  0x4535ee0162da7fdfU, 0xb5e281c161dbd4e6U, 0x84c5f1ff5ac210dbU, 0x38fcdf05ce0a4c4bU,
  0xc0e6b41f40cdcd99U, 0x92278120f2ecc629U, 0xdf45d8aae712f639U, 0x1c31e645f07d8cd5U,
  0x61daa79ba95ccb7fU, 0xceb6e1e6e8c9e074U, 0xb60be95cf0ded009U, 0xc9ea9fec061bd2afU,
  0x2a5a3130f8bd2ee1U, 0xbfe3a6810916d1d9U, 0xd136a1177f9430a5U, 0x5bf8c2ede7094ef0U,
  0xf8af41e9b58cc4U, 0xc076f7f72a819239U, 0xa057d9f32625d93dU, 0x391eae19e11890cbU,
  0x8d54498b35d1d77U, 0xdcce0d1bcc81e72aU, 0xc0deb2f1bbdbdaf1U, 0xbeebd4c59a56cbe6U,
  0x1e182ee003970cdbU, 0xf2f0bac64b0faaddU, 0x6dad7253c9f00a6U, 0x6243cef9e62b5409U,
  0xf3a9a50ea96e2e7U, 0xd3adeeb11a4ef08U, 0xcd0481fa2308fc2aU, 0xfd080de4f3239dfeU,
  0x50834fdd21dee2eU, 0xbfcde91fd2b7c72aU, 0x9fd2bf2faa85dbf2U, 0x203c8d70817dff5U,
  0x44215e451fe2993U, 0xe92d05be3cc4bbfdU, 0x2ed1eafb010abfcaU, 0x27c2e356dff03cf5U,
  0xce2aa97f18a3c936U, 0x9c4a3be36d11ae6U, 0xa8fa1d28b22c8165U, 0x11cffc65d6341dd9U,
  0x33df82b81361a1aU, 0xca81ce94d2eefef2U, 0xceb5cc25dc4df821U, 0x893781bdeb36814bU,
  0x6c2142f5f3becc44U, 0xca82efe45fb985f0U, 0xc7b603e31ffcfa19U, 0xf6811202c1ee4bfcU,
  0xc101955f7f970698U, 0xf1cc89fc1bef4ae2U, 0xd450153ea7028a7fU, 0x3d2b2c7f5b5fd803U,
  0x572ee703147fbcf4U, 0x1705aad70eaf3f4dU, 0xcdf6a94f53e5ac7fU, 0x81471bd2d3388bf3U,
  0x4a375a135ad0e614U, 0x81c5c2c67fdfbfdaU, 0x221f6b1944e4f15bU, 0x6bd03e41523f709U,
  0x910cb301eec5aeceU, 0x88fd76bf5f0c27dU, 0xbe7f03fa0ecf9758U, 0x7f17516e4a7e1ce8U,
  0x3f73f10a0c12dd5bU, 0x1b0b81bb521bdaf7U, 0xde6990cffa7f041U, 0xd1373595f223ab39U,
  0x7f127f6a7c914109U, 0xa3c1bbb85eebb8f6U, 0xc1417f226e9a9a26U, 0x41f4e4fec73e3653U,
  0xcfe5c42f38c4e381U, 0xdeac080c3404821aU, 0xbe5dd501f9f6ee18U, 0x4afb66272354b1eeU,
  0x4e7ceaf0d6d3fc35U, 0xf7e4d4fa15a02fe3U, 0xa713bdf8c985ed05U, 0xb90afbc6b529f101U,
  0x35f436201be144cbU, 0xcc0eceb92ddfb311U, 0xd1282e1c48add9e9U, 0x3d02dbf8e527307fU,
  0xfaede32431c4f931U, 0x96ec00220cdeb224U, 0xa93522183a31dce7U, 0xf5f8f3d8ff59d6eaU,
  0x44716f8a4e99b3fU, 0xbbd9fb3e9bafedc1U, 0x9f29f035a9b1ce1aU, 0x105caa89052ee44U,
  0x2726f00c30d932afU, 0xece9c4ec12d138f6U, 0x9251f603cf25e904U, 0x6312d87fc31f2555U,
  0xc40dd62f03c9a601U, 0xe181ebdd2cb601e9U, 0x440aa63fbcd1d003U, 0x219cc839d028fb07U,
  0xca51117fa46d1525U, 0x32c906a9b8e6f836U, 0xfea0cc363f48a6e3U, 0xadc586a0a47fb239U,
  0x30fbf705e2bca74dU, 0xd4c6c9000ce6ff23U, 0xb70edf0febe5f654U, 0x3d04f330bce1c04U,
  0xbee0c1c6259a8ca1U, 0xdbcab3d07f153e61U, 0x9a2ec77fa5a0aa0eU, 0x110220587f1c641bU,
  0xd23bd7364256e8e1U, 0x59dba295d4d50332U, 0xfbcfecb24401cae7U, 0xd6cf2cbef031ec18U,
  0xf80c72421383e17fU, 0xd1b3f1ce16e407deU, 0x817c5c3735b4a67fU, 0xe28f4edbec0baaf2U,
  0x8181bea713d79ab7U, 0x128300444b692d7fU, 0xdf37b946b7950624U, 0x2c437f7e657f7f16U,
  0x1b7f01e913a612e7U, 0x3a25a18d0bd981c2U, 0x3d2f1b67f811aefU, 0xee1ffcca3007d510U,
  0x211a771442810b2fU, 0xd181129f3f33e7c7U, 0x90726e7f73cf8145U, 0xd0ea12ceca34cc38U,
  0x90c281e94b8198b0U, 0x8cc5e7193b141c69U, 0xe922c726fedea7deU, 0x362e79403642f5feU,
  0x3a4bba160dc107ebU, 0x24f9ed86df01ee0dU, 0xeae3443b4ccced14U, 0xee3804d0ea38ed22U,
  0x2a2c295131cdf514U, 0xced3e9d6170e8e11U, 0x1c5742423a11dac9U, 0xf207fcfdeb4fe36eU,
  0xd800011101cb97e5U, 0xb6ca02561cce15eaU, 0xa7270a1530decc17U, 0xf3d97711f0f70d03U,
  0xda0eeb35bfeaae28U, 0xe3bffdea0103c1cdU, 0x21c5b4459586b81bU, 0xadaf8b6c2fbe946U,
  0x29111b5539c3d2c0U, 0xd71903ffdfeb1839U, 0xb7222fde388bffdU, 0x190cd8f6edd81970U,
  0xf9f9e63138df02d7U, 0xeccda209f70cd8e3U, 0xdffea650d0be111eU, 0xef81b649a5f3fb0bU,
  0xce714230b5f03e16U, 0x4bbac394d1e7d2caU, 0x4ad8fe00f822a104U, 0xede3c416e275adeeU,
  0xc1dcf38eb55c64aU, 0xb00d91700e6a251U, 0x2fc9db0e0500052dU, 0x1bf72035c4d2deb4U,
  0xbee9d8e425ebfddaU, 0xb7f5a2f24e27153eU, 0xe61b1e5581819efcU, 0xf92e43e35e4ff4eU,
  0xf76c0b6edefd3a0cU, 0x5fd7d39bf9c9a8fcU, 0x2b815cbae3e3d828U, 0x98a4efd6f623d729U,
  0xf735f3443710463fU, 0x7bdc2e1133eed65U, 0xf45eb01f5bc3e249U, 0x2aaf2a3b1bb88e07U,
  0x8deef7bccbcfbfd4U, 0xe4e4ce7e356e612dU, 0x5eff02f919df306U, 0x1ed1292517603337U,
  0x2d73e23fffe6683bU, 0x450ae4bb81b0fad3U, 0x1dee7fd84e8cae17U, 0x9a8120c0efdac27fU,
  0x2b1c4f6f46f26f2cU, 0x3cddeae0d4881d5U, 0x47fca547adb0c5dU, 0x7ff4ed06e7e4acf9U,
  0xbbd4031b62eabbc6U, 0xbfb3ae5319ce71baU, 0x8323a2caeec8cc22U, 0xf9ee480b160314f6U,
  0x41490fc13ef19f6U, 0x570ad0d5f3f62681U, 0x31df1d06f0c7e912U, 0xd2ba090aeef6e422U,
  0x13ffe58304dd8daU, 0xebd110ce0061cf3fU, 0x875cae3b6a15e0f3U, 0x2346e8cfebc381f3U,
  0x1dd9024a1418f2efU, 0xede9ea053dfe4afbU, 0x18f0d8051e04e1f4U, 0xc9f54012e2f02d13U,
  0xe7063400fed131f6U, 0xa95e1f41bc920adU, 0x282fedf085ba81eaU, 0xf7edef2b10f0011fU,
  0x26200c46a0fec1beU, 0xf498d0ecd61d397fU, 0xe919c1f3118142c9U, 0x10401cd292c83dU,
  0x21cd0414f2fac82eU, 0x81e2ec11f6e0b9a9U, 0x2bbac08f4b30505U, 0xaba5d138edf2985dU,
  0xba003ffaf6ca65f4U, 0xeaf115d6e62b10c7U, 0x2ee4e2e20b45c7fcU, 0xc633ab078122ee07U,
  0xf339df4fbf77d310U, 0x21f5cbd7fa11f520U, 0xdbbef402b027b81bU, 0xe8ec7f4581af1ff3U,
  0xe6a601ba0cacf3efU, 0x92a3e2420a01aea2U, 0x87ee8f39b99c11fdU, 0xadcdefed3556fd7fU,
  0xde35dd40a4f55a05U, 0x38cf1087e49224c5U, 0x37974dbf00f206feU, 0x872bc227f8f3bd02U,
  0xd34e2c58cb71eb3fU, 0x3ecaf7d70462f2e1U, 0xc34dd5210bdfbef0U, 0xd9d27e1dd781f8ecU,
  0xc5d122132a1abd06U, 0xd301c20351edefbfU, 0x91f114dba5e9ff00U, 0xb7ae36be57102449U,
  0xe05b814fcc147f11U, 0x10a81881f8a81890U, 0x37bb35fddcfa15efU, 0xc71bd0ca1e0cf733U,
  0x237f237f9d4e1811U, 0xa861ee0007fbcf5U, 0xdd0ed4045ae3b132U, 0xdac129ed8eb6be41U,
  0xe9d840fd5cf5e60dU, 0xd103e27f17d07faeU, 0x810307cbe6c9f6e0U, 0xe3cff8a24c4a0407U,
  0xd00ec204a9de38fbU, 0x2796cdeedbcbbda3U, 0x33be65d8edd1f614U, 0xaee3b340baf03440U,
  0xfa610b1abb5726d9U, 0xf9bcf1980255c906U, 0xadd6b60269c5ec25U, 0x17f527a3daa3df29U,
  0x1ed46206e61f811aU, 0xe1a8fe3020f61d10U, 0x9f0b6220b2a1a19U, 0x868840e107120e12U,
  0xc7aeffb0beee4bf8U, 0x1a07061c12f2d7b7U, 0x1fdd1681bb092401U, 0xf07bafdbaed154aU,
  0xe80fc4318150f4b4U, 0x2ed0d4def2215314U, 0xd7e9db0d4ce9ded5U, 0xfffff8eab8a00bd9U,
  0x1d5ffffff513U, 0x2881ffffd4e2U, 0x49da00004e73U, 0xffffe97dffffd97cU,
  0x1fd80000306bU, 0xfffff70d00004177U, 0x185afffff5caU, 0xffffdd54ffffdb4cU,
  0x31dd00003a9eU, 0xffffe0f700003667U, 0x2f4c0000362dU, 0xffffee0000002a6dU,
  0xffffe734000028aaU, 0xfffff3e900003852U, 0xffffc444ffffff86U, 0xffffdc0affffe998U,
  0x1822ffffdeceU, 0xffffe244fffffb80U, 0xfffff908ffffe88cU, 0xfffff5c00000251eU,
  0xffffcb8c00001522U, 0xa33fffff9e0U, 0x392b00000bf8U, 0x46b30000180cU,
  0x33ad0000215aU, 0xfffff3a1ffffeefeU, 0x330b00002673U, 0xfffffb17000007d0U,
  0x36e7ffffff15U, 0xffffdcef000001a1U, 0xffffe06d00003915U, 0x3c42000036c2U,
  0x5510000148fU, 0xfffffd1f00005573U, 0x14c5fffff72cU, 0xffffc14affffefe7U,
  0xffffd969fffff57dU, 0xfffff847ffffd337U, 0xfffff2cf00002b6bU, 0x3cf2ffffde24U,
  0x4aa6000034aeU, 0xfffff76900002c49U, 0x297600002dbaU, 0xffffe815ffffbda7U,
  0xffffd2df000003c3U, 0xffffe69c00003f0dU, 0x1a03000000caU, 0xbd14fb1a000037a9U,
  0xe729210fee055022U, 0xe518ba81060ffff5U, 0xd4fe13d21f1abf1cU, 0xdf102893ac05dad4U,
  0xdd123632082602e8U, 0xffd5dbd0e41f091dU, 0xa3c10a9ff152917U, 0xd7d0cf0300f3f2efU,
  0xd3860e2ecee20a0eU, 0x2b3cef2b20f520d4U, 0x820363cfc0fdbfeU, 0x74332ef4f1430eeU,
  0x85e61ebe8d3f4192U, 0x10bb0f97f8f3d533U, 0xdd499b0cdc2713eeU, 0xb511269eace26500U,
  0xabcbff3e0175ff1U, 0x513ddfed39910aa7U, 0x2e08e304b115dad2U, 0xe4dcdc1ef0581809U,
  0xaaca4c51ea3a1dc6U, 0xbb15c3f17f612dfaU, 0x2ef5f304d94b00c8U, 0x1cd7b4584ecd2109U,
  0x401021142fd3e307U, 0xf43d9b16d13e02bcU, 0xf6adfaddbb46d3caU, 0xb720b8ffb7b81233U,
  0x81563dd0572b1e49U, 0xf99fe0e2a9d43236U, 0x1cde56ec2de1d727U, 0xcb52093d11f64a0bU,
  0x189edb1eb234efb8U, 0x10c3524139c7e9abU, 0xc7e5f9f9ca6d30b6U, 0xbf0a0fb5fef20133U,
  0x245339561762ff2eU, 0xecddf281d821d3b3U, 0xeec90121d34dfd32U, 0x1303998c3fed5eeU,
  0xaff909e2aa2ec6a2U, 0xf22f5b1935dbdb04U, 0x38672129fafdf313U, 0x363cf66bc82511efU,
  0x1eb302fe21dad29eU, 0xef37def80047b808U, 0x741925c3d23c0ca5U, 0xa4bc3c43322d0729U,
  0x3f25354ebd7f77f2U, 0xc829564722c8bf13U, 0xd2654863c95cc23U, 0x9044290b3b179fb8U,
  0xb68a4cdacbf33cc7U, 0x435c10dfb24d0c30U, 0x2c2c6f2f4a939f3U, 0xbde603b03fd467ddU,
  0xa8f12a7507cc030bU, 0xd1f411c3461f04fdU, 0x42e9b7feb0fdabc3U, 0x2dadddf44ebcc3abU,
  0x3bf75539c8f9fc46U, 0xbb1baaa9a93231d3U, 0x99f1180eb7f20683U, 0x3ad18815face0181U,
  0x4f41d75ca3efb2e9U, 0x921d82f0f195deeeU, 0xaea8cf0ac1090f43U, 0xd7b73b5a100afd98U,
  0x2caeca5a2ebef39eU, 0xc0d2e6dcbdcfb142U, 0xb7cfee82ab8e962eU, 0x12bd5e9b22db5a8fU,
  0x14da85224da6b050U, 0x30b250e68e43d39eU, 0x8f928aa4c2ee1b1eU, 0x3c8ec1459656e1efU,
  0x2511f32681dfd0c1U, 0xa10b0189b9f02e4fU, 0x249d8859e155a9f7U, 0x1e8d2ab79d3f60a6U,
  0xebefb321249ba5a2U, 0x2dbab15e3456eccbU, 0x8f4418af10f99944U, 0xd6d1c260a6d5d5bbU,
  0xfc13cee6284c21caU, 0xffe60c99caf11ff6U, 0xe41b430f420efee4U, 0xdac8dbafb050f93eU,
  0xd3e43bd01c10c52bU, 0xc8091d11a0b9f50cU, 0x26f9e683d00ce336U, 0xccc6eb8157c242bcU,
  0x3c992531b11909c7U, 0xb5321c8cd53dabfbU, 0x15e2350993ecc70eU, 0xe165b2cd2c3114feU,
  0xdd06356a2e2a6377U, 0xbb42d6a64c3f2230U, 0x48c5ec264fe5ebebU, 0xf9016ae223e542e5U,
  0x49dfff0d2825f53aU, 0x481400df59ce07f6U, 0x2c0034467f15d7ffU, 0xea3b0840cebe00bdU,
  0xfb0e26ad715fe552U, 0x939632844d8203eU, 0x7309e56d933bdb2bU, 0x1a1024276143d4daU,
  0xbdf8e6e4307122d9U, 0x9ee1b285c39812aU, 0x66fc54c11ad7e336U, 0x12ee9c3401901d5bU,
  0xe102ca1220bffccU, 0x457408bc2b66e4aeU, 0xf017a43aa61fa2ebU, 0x220c3b660c32de3dU,
  0x6447db481624e6f2U, 0xfef7c248302a9d25U, 0x48e72b04df31bf04U, 0x9cf5d2ec23300464U,
  0x813b53d7a8b05edfU, 0x599ad2b1d6be6e31U, 0xea196a369881eea9U, 0xc4f66fb6f0cd41e9U,
  0x34aedac4925afa52U, 0xd23a0799a4ecb33aU, 0x1736d5acd5c19a08U, 0xaa4f2e1fa35ab210U,
  0xfb8e92c33dd16031U, 0x49909bf33a08364U, 0xbc8f69ea10a3eb69U, 0xb9f5c320b7460801U,
  0x55364fc98d871abbU, 0xcb402a38e52f48d7U, 0xe754dd539aa991f5U, 0xf1a7d7e081625af1U,
  0x2912f994526db304U, 0x6a99b88e0f196146U, 0xe98940cd4295c7e3U, 0x9b4fc441fea4b991U,
  0x4b81c508cfb7e1b9U, 0x7788fbcea830711dU, 0xe92dbaf18d45ccb5U, 0xc68c1ab9d7ffc234U,
  0x1b3ada99543cd212U, 0xb6bee98beb3b3d33U, 0x488f94ec34d9b5f6U, 0x49ea0703d43b13b0U,
  0xd2bd562c2d99f7d9U, 0x9052d9e381c2b5d7U, 0xc8be5e9343a9d4fdU, 0xaa3088125eaf686U,
  0x41d8d3acc199d409U, 0xe0b503100d358f5dU, 0x121bdd15d559c2ddU, 0x1818a11fce379b81U,
  0xce4ecd6f6420e29U, 0xdd20c0be2dc1262bU, 0xc021fa1bd30813cdU, 0xe1ef4df9d55be3bU,
  0xfee2e4f7e8dbb136U, 0x2ad01325a7d90af7U, 0xf647c8112e083d0bU, 0xa23e0212d7a9f2e3U,
  0xf5810f1e37121f91U, 0xa44fdac905cb24ebU, 0xecfd30d6eff700e1U, 0xcd14f2ff6f37d4f3U,
  0xdf3342352306011fU, 0x8af7000a0c35ae05U, 0x2f142ea9f2e1013fU, 0xcbae0c81d944c190U,
  0xb0e8fe9f45a52ed3U, 0x3eede20b4c073137U, 0xcc2823d1dad822a3U, 0x10dc32163ff03d24U,
  0xfae25119eec8cec8U, 0xf8e0f4eb66053cedU, 0x4408b5e7d5e6a61bU, 0xdc06411f211ee5cdU,
  0xec1d25310f35332fU, 0xdf15570eb9cf09bcU, 0x5c7f08b7300af418U, 0xea12b1470d1402fdU,
  0xb6a1dee223b634eeU, 0x3431e8cf3141f4f2U, 0x3129eaf0181f06a9U, 0xf8d8cb313f2ec45aU,
  0xcf46f91b2217aec6U, 0xe42004f02a1ccb19U, 0xc471b1bcd3e72c03U, 0x93a85c73ecffaebU,
  0x563a391c3d241e20U, 0xea29cbfe35216decU, 0x3fd1b2eb9568150cU, 0x460670749e1f2c10U,
  0xd7c6c136fbc6b15bU, 0x23e1194b02f5d1efU, 0xde124cef44ff52faU, 0x401b531ee0db080fU,
  0xeb20133f4f484edaU, 0xacbbbbaaf69544aeU, 0x4bee6a0d7fc0b7bdU, 0x24e3d11badb3e021U,
  0x3129de26a646df2fU, 0x3327f9f8f244e5faU, 0x11fe241af42322c3U, 0xd8ed81def5c9c3c2U,
  0xcca10aba2eb828cbU, 0xa2e19d2546bd329U, 0x17e4b3df052e07c2U, 0x26c5cb141603b71aU,
  0x360a1a3d4613aef1U, 0x15fe3afffad110c7U, 0xd607be10a4e7fbdfU, 0xaf356e4fbdcabce5U,
  0xbeb4b7cd4db1964cU, 0xf4bbab25a0f832fdU, 0xcacda8d0e1fc0006U, 0x49c9e171eedbb561U,
  0x2842dde838cd7426U, 0x35e7a1a86af00b5bU, 0x52dbf764be1523d0U, 0x250d5dabe41ca606U,
  0x7ff213f0f3ee06f2U, 0x522114f836e3a25bU, 0x3670f83f1327e2ecU, 0xe3ecebfd2a475102U,
  0x4f270eda013f32f6U, 0xe728c30c3c3d027fU, 0x9f2de4be42fe60fU, 0xe5c0f180302ff25U,
  0x474bfcdbbe74120cU, 0xcc890b0409c3fef8U, 0x6ef651d3439f5f3U, 0x2ed1b16032125bfU,
  0xcfd39fb3c552372fU, 0x60504d47c903100eU, 0x22f17269c81f4f4fU, 0xdd91cc38eadfcd15U,
  0x361553d0fd18d2f0U, 0x3a248b38e998aefeU, 0xcc263fd06781b818U, 0x3c5f3a12daad5b29U,
  0x3fd2e6bc96331909U, 0xf8ff8153f0512cf2U, 0xbb142d9c136399fdU, 0xe4a71808e8aa0014U,
  0xb2a6b51219f4ca4eU, 0x2033c3a31af50982U, 0x1dadb942cf8d810eU, 0xcafcdc3791488edfU,
  0xd1fe2cf4fa221418U, 0xb5b22fc16ab114cU, 0x36227dd41111e0dU, 0xfe3221111fcbfbe9U,
  0x1019894f151f52efU, 0x4c160d231c4025ffU, 0xf02342308ea3746U, 0xdfd959f54bbde63bU,
  0xc411a0e2f1d4d5d3U, 0x2ff75505d8481634U, 0xe203f5240c4be606U, 0xa3f8dd2fb1c12881U,
  0xf2339189cd4b36f2U, 0xc423cc3fcbf3a8edU, 0xf24fc50652a88c4cU, 0x9147bde3a703b021U,
  0x37ead11f07d04853U, 0x1291a3bb3aad84e6U, 0x8ce3e4bb88fe824eU, 0x53a51bec6819a91U,
  0xacbc1efb4e4403e9U, 0xafca1b9654e0e5c8U, 0xdf55ade8dfceb70eU, 0xe647e327e953fed8U,
  0xc37f8e9ba5c3be1U, 0xd8d01eb22351b216U, 0x30b9022861333a37U, 0x45e7cc25f10529c7U,
  0xe6fb4e281e50e628U, 0x4d55eccd544f3cfdU, 0x7e8332934dcbdafU, 0x74c21b5dbe7f2df5U,
  0x74b40c1723bcf00bU, 0xa0fde5e5ac0e4c9U, 0x7ec9eae31b102bc3U, 0xd210cf0aU,
  0x0U, 0x0U, 0x0U, 0x0U,
  0x0U, 0x0U, 0x0U, 0x0U,
  0x0U, 0x0U, 0x0U, 0x6d10dcda00000000U,
  0x98d0a64f90554d81U, 0x5ad5352fa2e34531U, 0x27fd70072993fed0U, 0x260c661aeecaae37U,
  0xf2f02e7f5a74e81dU, 0xc9f4e681203bc5d1U, 0x3005101ee9d0d8b7U, 0xddedd18d9b1a90cU,
  0xff02fde6f73b683bU, 0xea170742c2cea4ddU, 0x578805c8257fa13aU, 0x915b24ea6142bcedU,
  0x44b6e153872fb0bU, 0x306e03eb34b6819cU, 0xaf05b79b12b07867U, 0xee09d581472f02f0U,
  0x2d0f594ce1d754c7U, 0xc0d49581bdda252bU, 0xa7bffaa14941a9b3U, 0xfb3058f305d7dbcdU,
  0xccb5e549f75a063cU, 0xffa43a5ec96e2497U, 0x37f4610f9c21a4f4U, 0x224bd27f347f4e1aU,
  0xfc94f7a4b66d7632U, 0xe8f727ad1c1fbba3U, 0xd9162aec712ec04cU, 0x3121e4f1e5403a56U,
  0xafc500f0e47f61c6U, 0x811dfaf6ea2a14b9U, 0xa85c38100526d259U, 0x654eb7ead7226804U,
  0x76f0eecdf4b81123U, 0x53e93055e6e521dbU, 0xb5b81a0c8f0e62fU, 0xf1b56b1764b9ec1dU,
  0xb3e70f1d7710555cU, 0x2ad37fdc2f752741U, 0xfd54eaebad2dbbeaU, 0xfa41cabe2636fbe3U,
  0xf1ad8eef081d5faU, 0x490ae3b9deef501fU, 0x58c5fe367f3acc43U, 0x84f2d00673724931U,
  0x9a0355e6743b5e5U, 0x73d2512c3acaa81U, 0xb1d1efd327a052faU, 0xf4e9e5134b5d53ddU,
  0x22ef98810c0abad1U, 0xfecff5d904d3caceU, 0x817b79dcf3142b2dU, 0xc1c8c9e9fa8fc17fU,
  0x3df3e3f34f86e01U, 0x2ee19d4a0f7f5d3fU, 0x4608dd81293258e3U, 0x48e3009a169d3d9dU,
  0x16a6b13020dbc44fU, 0x41b8812506fb067eU, 0x399312a3b8baf03eU, 0x352b7f3a2827273dU,
  0xba44a9a0573cd8f8U, 0xcccf139ef72c2ac0U, 0x620bcfd037f4e037U, 0xdba571381fbbf34U,
  0xf45db756115fd604U, 0x5c312b42fcaf9c48U, 0xcac030445e2d3f76U, 0x12d01ff7bd7f63edU,
  0xc1cfbaa813c4dc2cU, 0xe2fcecec81222dfdU, 0x2bca1bdeaef3c203U, 0xd1d74e7f33ff0234U,
  0xafb1f5ef3c6913d2U, 0x641008f8cd921feaU, 0xbf1dffa4bf9e0610U, 0xedb29aa3ea3d49ecU,
  0x8b8b536dfa881bfU, 0xfd30195eca491425U, 0xf7e7bc521e3ddc25U, 0x44b8367c81181c2fU,
  0x839d224831d5ab0aU, 0xf0e2b1e879714917U, 0x4ed7822cebf7d556U, 0x7ff47e1919819945U,
  0x30219d314450973U, 0xc930dcf97ecd0a08U, 0xca00e5ea10e621f2U, 0x5728810414b55fc0U,
  0x523252f3a318aa3fU, 0x49ddd3bf94d1b245U, 0xce5f2b7fd90c3b0aU, 0x73141aaec401d00fU,
  0xc8a3e3d9451b0aaeU, 0xe4f637816fe4b112U, 0x8f63d407f7d8e50bU, 0x717f6a0ef64ca63eU,
  0xc04e527bc255e783U, 0x4f26c6ab8cfb8e1eU, 0x170cbfc76ea8b04eU, 0xf83af281f6eb348cU,
  0xb9c9c017fafb19afU, 0x6f54f52258289718U, 0x83fd6b7d0495c781U, 0x209f32dc1fe6bf65U,
  0x79d443db39d84d43U, 0xa56f4f4cf37225e6U, 0x558470c64a2c7f27U, 0xbd475579a3585401U,
  0xbd152acb7f1ace31U, 0x5f4ffaf375f5df2U, 0x2e4eec42b9534ccfU, 0xf1edaae3cffc33c3U,
  0x9581e1c249ee47ecU, 0xd9dd1709f8a1e0d7U, 0xd215f63534110efaU, 0x2cd424027ff4f7cfU,
  0x33fc30e4e637e51bU, 0x25d95447fed936deU, 0xb71025c37fe3bd1eU, 0x8871810645270a1eU,
  0x5e383cc1852c7096U, 0xc82d5033bcfc91ccU, 0x761dae7494f2fa8U, 0x264b8f3595cdbfd5U,
  0x3e007fab3c9c16eeU, 0x2e48913f9ebc48acU, 0xd9af46fcf5b849f4U, 0x7fc6f02ed5206815U,
  0x5f15fbf13455f636U, 0x600e5e538032d7fU, 0xda9a212f47420fccU, 0x32de8ea44dbedff2U,
  0x14fdfc9ff14703f1U, 0x2a812cb6b9b8e741U, 0x13b846d1dce416b8U, 0xf13682d14402562dU,
  0x9381e3c5b6177f4dU, 0xa7f18f94a14ddbe8U, 0xe081d791e0bdc9d2U, 0x12f64804e2cefe40U,
  0x2daf8715dd00653aU, 0x2d95f9d1244fe1fcU, 0x914e5581fdf711ddU, 0x51ee127f703f50faU,
  0xf34ccd7346e0cb49U, 0x16e29f67af6930a8U, 0xbe2717b0469b04b4U, 0xde1dd214dd4f4381U,
  0xedc6394a8406d32cU, 0xed19e0c02207cae4U, 0x1dd95526813638deU, 0x4873e4ea1d43b748U,
  0xf512b01e1d2b35f0U, 0xd90eb9813db80ca5U, 0xda1721b4c19048ffU, 0xbf32b785b5c522ebU,
  0xf9fa7f0af9d952ccU, 0xbd612a2db628961bU, 0x22d51bb9411c3fccU, 0xd23b0702ab21dc18U,
  0xf91420e9a7ecafe5U, 0xf540b2a2dfc28101U, 0xdbaa31bc06f3dc81U, 0x13cbecdc15a5f10aU,
  0xfe162ecd4419e135U, 0xd419fbd51dacb281U, 0x2dc4dd36b3e3f7e0U, 0xa2f3c6816b45d5f7U,
  0xb2f5ab57b7cfcfeeU, 0x5dcd750e001b0ddfU, 0x18e526d10f280eecU, 0x39d12ccad2fd1eebU,
  0xbd1833df7f1e2fd2U, 0xa8db0181dd1afcc7U, 0x642add152c5f991U, 0xd230bff1b590143bU,
  0xdde11b8197b96f27U, 0xd1ff5d4ac0511edU, 0x132211031d934de2U, 0x9333a2bbe9ea19f2U,
  0xf253dfc6594f39f0U, 0xd29b401881014366U, 0x7533bf19dd6586aeU, 0x4ae4731300c33693U,
  0x52fe4420f09f407U, 0x9e2ef3397fe2cbd9U, 0x42febfee7f4e255aU, 0x5dfc7f6cc51b9f5U,
  0xd01d9ada8a10f8ddU, 0x15a8d5b9d459e30eU, 0x23eb12b7b0d281bdU, 0xebddcda3f6f1cfd1U,
  0x2809e9ef003fb3d6U, 0xd82ef12dbbcf81c6U, 0xc2e126bc20223c14U, 0xfe0074d90b32c8f3U,
  0xd4b67ff72eea9a30U, 0x7f0739e3d120cb3cU, 0x62ec6a673c33e8b7U, 0x224951b7d5177969U,
  0x3f4b3a264a9dcc01U, 0xb1e6587fccc3bbeaU, 0x5151015053c51435U, 0x2521f9a7384d7425U,
  0xc41181429318f3e3U, 0xd617e154e3890b01U, 0xf3d148a8f94a0e43U, 0x19cc30eac3fa03d3U,
  0xe2292181f0e2a02aU, 0x1743e3d2eecaf7ccU, 0x3133271cdec3bf81U, 0xee48cba707ef9014U,
  0x8125c2acc04321d4U, 0xd33feee5c1124a20U, 0x3bba239211a8e308U, 0xedeaef241ab125ebU,
  0xd4e7bc137fdb35cfU, 0x5bc9bf59ec25781aU, 0xe60ab19f5429a90aU, 0xe711e51bbbcaedd2U,
  0x7ff30e15f6c7b2dcU, 0x98cd3681cdf726d9U, 0xabb430a4bbad397dU, 0xbd1b2fb63021c949U,
  0x87ead0a890c45944U, 0x774b363a13fd38d2U, 0xed0714442b9d42afU, 0x51af0fbddf7fb09bU,
  0xa13ac638ef2edab5U, 0xd38193a0cbb53e32U, 0x9ea7c7f46801f32aU, 0xaf4f744c216d05dfU,
  0xdd18c85ce0262edcU, 0xf1210618dfb481e7U, 0xd10f37290e2ddd7fU, 0xcbb8b2f237795a1bU,
  0x4c0d7f1908fbf90dU, 0xc849cba993a964a1U, 0xa8fc589552ced82fU, 0xf50becd710b215caU,
  0xec1f1217d6ec22f9U, 0xe0f1da0b25ee81fbU, 0x33beceed19e81c09U, 0x3597f11e03b38f0U,
  0xdac8e143aa3d601dU, 0x81f8a88f6d55fa5aU, 0x31510c14bd053a2U, 0xe4415b34ac9343aeU,
  0xbe0fedd21e0056d5U, 0x2d1067c8c4d3e5b2U, 0x15e333dd2c067fd0U, 0x582d79694a25c142U,
  0x617266f42bbf5a3dU, 0xa26aec79de206653U, 0xe7d368252958814bU, 0x4833cb22522b1427U,
  0x30d68432935f42b2U, 0xe1f1c1b81d5cab6U, 0x4431153f96163b0cU, 0x2d2fadf8dace0d0cU,
  0x5e1a760405d58109U, 0xb03eb07f4a062458U, 0x68c248a0d7066f53U, 0x3c2cc43aa8e9f0f5U,
  0x2a01424fd1cc16ebU, 0xf61f6b22f57f8504U, 0xe2f12fe506f2a722U, 0xd2f12ae7f822010fU,
  0xc31171cd7ff227edU, 0x1bf85333ed3c12d2U, 0x53eae5e359114819U, 0x8c0d3bdea1f6eab8U,
  0xf91eb0b1ab81cf4dU, 0x34b5c41e81cae9d9U, 0x3b210e20fe91c613U, 0x3f7f0648d7ef16d9U,
  0x3baa0b7405584fc4U, 0x3ba5ece99cc6416U, 0x631df2c4fa05032cU, 0x2447f05b142d1c1aU,
  0x60b1f05d387fcbecU, 0x744dc86bc403134bU, 0x41c694eada5be51cU, 0xaafd81a41a2bc82bU,
  0xc2ee7f141f1911U, 0xe3707d4f1d5d056U, 0x44dba371410152dbU, 0xee20dd589557U,
  0x90e00000a6d9U, 0x10e690000c7f3U, 0xc9dc0000b5b7U, 0xfcb500010054U,
  0xcdf600009439U, 0xb19f0000c813U, 0xe4ee00009d77U, 0x956d000102daU,
  0xfd030000fb85U, 0xa2870000c442U, 0xacf90000ba5aU, 0xf27700008a61U,
  0xbf1a0000ac49U, 0xa67b00014676U, 0xb87c0000e56dU, 0xd5fd0000ffe4U,
  0x1249b0000f1f2U, 0xb8db0001252bU, 0x7af90000e8c1U, 0xf2e900008f5eU,
  0xee600000c180U, 0xf5110000dfefU, 0xc59e0000f82aU, 0xc1560000e302U,
  0x978b0000c7acU, 0xcbf300009cf8U, 0xa4a3000094c9U, 0xbf7a0000ba1eU,
  0xcd7a00008c39U, 0xfa290000a2c1U, 0xc7020000c037U, 0x920c0000d02aU,
  0x109eb00009746U, 0xbe0f0000bb60U, 0x940900009a61U, 0xab960000b026U,
  0xcecb0000937fU, 0xf9dc00010d22U, 0xab030000f416U, 0x695f00010917U,
  0xcece0000d722U, 0xfc680000b340U, 0xb9b10000c3cdU, 0xc5b90000c5f8U,
  0xe4dc000074faU, 0xd0030000a6f3U, 0x10e200000d1bfU, 0xcb91d120000f5b4U,
  0xfbdcde2424d4e5ddU, 0x4d4d7eb2809a151U, 0x8e7f7b612111301U, 0x29eff60d0bba20ccU,
  0x50cd07cc3d403668U, 0xcd7f0ce43a3e310dU, 0x3a49ea0cfd36e1d3U, 0x4b2a5a0728112848U,
  0x353710f31331341eU, 0xaea8ebe9d115d3dcU, 0xf1cf76b927d419fcU, 0xd3c300cf03c8ddaeU,
  0x61eee361dc231d8U, 0xc14d402a012fc4e8U, 0x4f4fe4d9f249340dU, 0x313e0503ca13f36fU,
  0xc90df7b27fb3e525U, 0x29760010f0d515c1U, 0xd92f59b802ddbbe7U, 0xc51f0340e5e43114U,
  0xe003e4454254d9cdU, 0xd75f2c38c6ed313aU, 0x1e0a57e61d55e3dbU, 0xa213f1ee492022e6U,
  0xa23a17209e4fb863U, 0xf0101de3dc25401fU, 0xd033df26a9b79a5fU, 0x37d91bfe4ef33fe0U,
  0xe63c540a8bbd221eU, 0x3af5a5b24b291226U, 0x81a893bfd16185b2U, 0xf0feaa188cd0a63eU,
  0xb1dccf501f07a614U, 0x2b0a9f01cb22b89aU, 0x56a29f39bd22caU, 0xc5f9ea4c0034556aU,
  0x9b0cc1d8c84335ecU, 0xac7f8e641196e1eU, 0xca0eee4aeec41bc2U, 0xffc63dbb27f22415U,
  0x48d9e94bffdef31bU, 0x41ad5bdbcc0a5508U, 0x153f0dcac9172300U, 0xad5ffb49ddef7f33U,
  0xc0cb3c58d1c90df0U, 0xea411d302becf142U, 0xbda66dd1b022e53aU, 0xbc2a0d033df71954U,
  0x40c662d4d42fe2daU, 0xc309c90a1127dbc2U, 0x1fe2e2e0cc4d25edU, 0x6abbbdeea97623d9U,
  0x6851d0d4168f5018U, 0xf4c41513a5293719U, 0xd8a4d521f21ad3U, 0xcc1cef5b923fcafU,
  0x2733e902464cd632U, 0x2eff045a4bbfb7U, 0xafedadf62a2f7fb0U, 0x39b07f37253d43a9U,
  0x27eed6160cc4f7faU, 0x1fc7b4c431410307U, 0xdb2bfe30d838eadfU, 0xe71b003526f4fa33U,
  0x3b4825f5dfe1f5f3U, 0xede2ff3ce5d6ca17U, 0xc10d224c136df15U, 0x33e511d4d50225f6U,
  0xd2e2f8301ccffbfeU, 0xf90df3d7483d283bU, 0xef3b12ca13173215U, 0x18301d08f004c5edU,
  0x23d63a16e631120dU, 0xeed9f5c9d9182d34U, 0xb83d12dcd5d813abU, 0xf72acb1dcbbde2d3U,
  0x2fcc2d03e4e2e7f7U, 0xe4700b93328f110U, 0x26381a29340b1319U, 0xd6e81d1e32eba2cfU,
  0xf0157fcee80f1ff9U, 0x1520dfe5c204edd9U, 0xe9d26b2b273fead3U, 0x35f1001cbc0a0a2aU,
  0x35fa07161bc416dfU, 0x24452d2f3b0456f7U, 0x853ca3ec9e21746U, 0xc70651f82138e57fU,
  0x546a24d311eddf7U, 0xfebb2a4432e10fd8U, 0xa5f55fa94bbd1930U, 0xe925ffbdd02befa6U,
  0x26f29fecc4f4d9feU, 0xfdf0fb41af0ff4ecU, 0xc20fe93adff4f004U, 0xb3271d0c4f2321c9U,
  0xc0c54ee5dd96cad7U, 0x422efd00cee71fcdU, 0xea54c1bb41011c38U, 0x5111f8b15459ead3U,
  0x264e0311819840fcU, 0xc209ff59ded1f1c6U, 0xa1efd2815c342ebU, 0xe6c69212fbe265e2U,
  0xdf56aea5cbe91e1dU, 0x513e14d102cc0e55U, 0x27bab9a406e44731U, 0xa0c9053723bd1dd7U,
  0x2ca24e3e03dcde17U, 0x26a2ec02221ea205U, 0xa51f33b50f31630aU, 0xdfd81cb3ca14be9eU,
  0x4edffdca7f21cd1eU, 0xd207ca362fa13f2fU, 0x1e98ec9421bb3e07U, 0x347516a9ac1a1bf4U,
  0x37c912c1ab9ead39U, 0x4abf18b52838ccc9U, 0x21d3524de00ff654U, 0x1106d21d24350f4fU,
  0x13cfa150bb5bcaeU, 0x3ffb49f11eb4eef0U, 0x153ee915342b31efU, 0xfcdddaf1d74ff0c6U,
  0xfaf3d0f508e9e317U, 0xd24f4814d9e520efU, 0x450114ffcdd73be7U, 0x8d35f1cdd0c1c63eU,
  0xbf08470aefaaf1e1U, 0x82f81c2bdd210caU, 0xf3ea263d26ec002dU, 0x89bf5da482f1de5U,
  0xd42209feb5f3a2b3U, 0x7f42f2ad646de12U, 0xebbbeafcb8220339U, 0xc537c6c1c6cf3638U,
  0xe5b01edc10afa381U, 0xfef6c2ced3cc08f9U, 0x5acfe1d25b3070eU, 0x1f2939ccd344e314U,
  0xe454021a300fdf0eU, 0xf6e9d0b9b9071a0aU, 0xb2f00245aa460149U, 0xff9e12d1a71a4b24U,
  0x1284e3b544042209U, 0xe44665172dd205feU, 0xc5da05e819036cc7U, 0xe531be60e9b5215U,
  0xe409c0eeb71dd646U, 0xbabe4c7fd3251713U, 0x1a522d3c65ad034U, 0xf228041626296413U,
  0xbf4ba1f73f3c203fU, 0x64f102b543b0551aU, 0xdaf1e22fc7fad8ddU, 0x1648b51a16c046U,
  0x39efdfdb2c4c362dU, 0xaf36dafbed1be008U, 0x93be2558133dff7U, 0xf1a55bc73511b90eU,
  0x17d3d5371d36ca18U, 0xd2b1cb83d514dfaU, 0x1e50afa960181c53U, 0xafe53f6a5221ff38U,
  0xff05a711c90a3ca3U, 0x7e050d270b41373aU, 0x162c1f54520f4f0bU, 0x10e6d1182deec0c0U,
  0xa8bfe83e9edf161cU, 0xec2f24e8f150aed9U, 0x38dbb303cb952ce0U, 0xc9f225bdfc6e3ee9U,
  0xb5cc7f2e2a2b29aaU, 0xb32cc09122c59dfU, 0x1d8679ce3e034e04U, 0x1ac25387db552b1aU,
  0x3b1c2f420bf79972U, 0xa49fbc45062cd737U, 0x391c3d3005268b11U, 0xdff97dacd8a2d95aU,
  0x9f33c56b94debd1U, 0x2828cd0ec028d809U, 0x213a03c72f0a4affU, 0x1905f36d513ea933U,
  0x2a12d3cb1c5258e5U, 0xce7ffbd844d2ceefU, 0xf1e0459be916e82dU, 0x63eb1bd7d8d00455U,
  0x5ab3b24ac1f825d3U, 0xf0d71c66446deec7U, 0xf841b442a64baacdU, 0xffffedb524141becU,
  0x20d3ffffde84U, 0xfffffd8e00000351U, 0x106ffffef9dU, 0xac6fffff2a9U,
  0xc34fffff933U, 0xfffff6cf00002048U, 0xfffff956ffffe3ceU, 0x7f5a5b04ffffdc16U,
  0xbfc8dafc793c2c93U, 0x9ed83f7f8d3bfffaU, 0xc8902e1de5b6cdfbU, 0xa4e801df6b5e953cU,
  0xa8fde53ec5e209f5U, 0x8dfaa2cbfe72681U, 0xdabf5c22051fbf39U, 0x9a2d0dd36e1f367fU,
  0xd819dea451ff4beU, 0x3ade4b45cf9a1fceU, 0x79fdf9962544dc24U, 0x27ad2017367ffaecU,
  0xc1f4e73d0bcdb267U, 0xe4b4d3d77fef3011U, 0x10dd7f0f9feeba2dU, 0x56277f29c7604447U,
  0xe8d3ceba4a00dbafU, 0x621642d325363d02U, 0x63fcc58131c3d523U, 0x3fadd9a906e42ff7U,
  0x7f32b6aae8dc8db9U, 0x68081f2bb4c24e0bU, 0xbcb7251181a8bc34U, 0x13000c8165520f96U,
  0x19c909f90a25c2aeU, 0xe6037fbd2854c204U, 0xabbed0581427b7f2U, 0x177f18b0ab9f16c7U,
  0xce1ce2cfcfec0606U, 0x71b0c9ddecf3eb02U, 0xb6c8acf3f3d33fc3U, 0x2be69057c2338131U,
  0x42aebd4c10c7327fU, 0x81214c64279ed9c1U, 0xe0da002acea595b6U, 0xf99ea42a0bc8c28eU,
  0xd9c6fde7ac4bb9c4U, 0xdecb81454481cc62U, 0xade4665deda5410fU, 0x4c5ac9a54fc6cd3cU,
  0x71f501927f9ce3ebU, 0x6681124de6b1e46fU, 0x36a0a9da10f8201fU, 0xfe162819e4bc433aU,
  0x5ad23d0773371511U, 0x5fc58a3da3e6277fU, 0x1cd7eacab37fadffU, 0x3b81dc46f8983418U,
  0xc8edc7f0e3a0cd50U, 0xfbec7f3a0ccc5935U, 0xe01c6120ef38de99U, 0x77c37681f9725ad0U,
  0x5849c7b08f27f6b3U, 0x21e621b1b4e6f0c4U, 0x16a4e7290fcc0d3cU, 0xb421b556f3b5812eU,
  0x7ff6914fe4cdcb35U, 0xd2c4031bb049cf4dU, 0x5781b13e50e42cbaU, 0xdde8c1f3feef4e6fU,
  0x15b7b9d47fcde617U, 0xc7b94fd50bb626b0U, 0x815c0d009fd1e624U, 0xd054b8b9e886f4f8U,
  0xfe79c52ac30681a9U, 0x2c01617f1175cc68U, 0x4065f397a571bd38U, 0x28e47f0135ff14a6U,
  0xcaa424a4c38fc798U, 0x4ceaf3c4266a08deU, 0x18f6b210e426818cU, 0x8148a75051f920e9U,
  0xb6d8f634d0c70809U, 0x65dfc10bdb867dedU, 0xa9eec3a5cc3b2fd1U, 0xed90814f65687fdbU,
  0x55ba00f1b722c11aU, 0x28f0401febc50440U, 0x1a5c0418617f39feU, 0xbae339f4ce15031bU,
  0xdb1e3af27f28330fU, 0xd136913a00b2b21fU, 0xa7fe4500e807cef5U, 0xb81bb4797ed819bU,
  0xf53c46aa2f2011cdU, 0xb8b8531c0c2d0860U, 0x3ce1eccc679bffd5U, 0x5fec7f48662a7ffbU,
  0xe3122b1c2c46d9efU, 0x69ea02b4255b5d0cU, 0x370a602cbedf6a4aU, 0x58efebe2fcf27f28U,
  0x49c97fc9af404e3bU, 0x8dc3ea8d48bbf4f1U, 0x49261adb9e90481bU, 0xeef1a1f151a127fU,
  0xb0ea2981f5ef9f93U, 0x469f300bc9c26636U, 0x870f8dcb31f825bcU, 0x452bc40f57e5f07fU,
  0xd1a42e398d7381b6U, 0xcf686cb7fc9e5b85U, 0x7999e27c439d013dU, 0xf53db6db527f0dadU,
  0xd47f2081f9e40365U, 0x38acfada812fc435U, 0x45198a193432ed07U, 0x4da7d1a55901814eU,
  0xfff5a6366cfef6feU, 0x4834cd0981fb79f9U, 0xfbdf35fa4a35d1e6U, 0x7f44f3f681abda83U,
  0x440a35ec21b1c047U, 0x34c22c420d4ea6d5U, 0xff5ce2584d81d5ffU, 0x3fa4bb20ebe90e16U,
  0x510e3781fdb62c9eU, 0x596b812b42fd794eU, 0xa111b33f5b07de54U, 0x3242ff09dbc1b458U,
  0x1a43ee518132f024U, 0x389e7f65e9af969bU, 0xdf2f53d129423e0bU, 0x810e6af1de3bd9fcU,
  0xe6ad945fade226cU, 0xd9e1260a479c626cU, 0x17502718575907adU, 0xa6667f6d2dU,
  0xffffff07000000d9U, 0xffffffd1fffffc7fU, 0xffffff9d0000004aU, 0x18efffffcceU,
  0xfffffdd300000104U, 0x24d00000255U, 0x88fffffd34U, 0xffffff64fffffe4fU,
  0x1a400000175U, 0xffffffacfffffcf3U, 0xffffffaa000000d6U, 0xffffffac0000014cU,
  0x23bfffffd1bU, 0xfffffde1fffffe00U, 0xffffff74fffffda0U, 0xfffffe5a00000099U,
  0x1bfffffd90U, 0xffffff51fffffe8aU, 0xfffffe26fffffeb1U, 0x4d00000165U,
  0x179000000ffU, 0x155fffffe8aU, 0xffffffa2fffffd9cU, 0xc9fffffe48U,
  0x7100000148U, 0xfffffe47fffffe1dU, 0xfffffe0000000105U, 0x22e000000abU,
  0x13800000036U, 0x86fffffed0U, 0x10cffffff53U, 0x224644f0ffffff63U,
  0xfb309ff2d0c3d31eU, 0x5761230404fa2be7U, 0x54daebbf2e1be7acU, 0xe873efd8eef947e0U,
  0xdd5597d0d9b297eaU, 0xe303d00081c923a1U, 0xeaf2b826490fe5e6U, 0x5fe05cee9feed839U,
  0xff3f16f56938e431U, 0x174d0af7dee76c8fU, 0xa810dd97fb7f002U, 0xf263ecb6d1386129U,
  0x1048bf9bade8c61cU, 0x22542c0d8afaae86U, 0xb76a8164413fd5f3U, 0x44b861c398d20d0cU,
  0xe70a9afbf4a80e5dU, 0x3f341e35e0cd67e5U, 0x56e44e903f5e81d3U, 0xd539d8f41e2e4942U,
  0x4542908aa5e09b7cU, 0x97f05ff912286aaU, 0xa6279d600837fa38U, 0x38994d1c2fee41c1U,
  0xd0ca81fffebfdb3aU, 0x1749405fb8e3260fU, 0x3505409c331ac1acU, 0xac2b1311477feff3U,
  0x2a4ce1979fad9e24U, 0xe767dc00effede84U, 0xa8548f7cbf4be63dU, 0x4e157fe0d5d6460aU,
  0x8203891b43ed0341U, 0xe9270119c7921ae9U, 0xdba27f8100a3df01U, 0xbd671be9207ae6cbU,
  0xff23dcd0a9e6db2bU, 0x83bbbfbb802f081U, 0x8135ad72fd04fbefU, 0xff7f1ea69dd1327fU,
  0xdcf8c9ab8ff8fe32U, 0xcef03e60706238eU, 0x2bbba6a018e2eab0U, 0xdde905fe36134f00U,
  0x18f68e2f430eb133U, 0xc1198f2e21b047d0U, 0xe7e3e826c62091f7U, 0x293b2202c0db810fU,
  0xb97bd181c231632aU, 0xfff1380622e67fcdU, 0x58dc3edf2ad49bd9U, 0xe05b4ee3db1c0645U,
  0x1a66d79a2cfae130U, 0x810fce1cdcf0a52cU, 0xa13d508066ac7a5U, 0x27bf159481e2a7a0U,
  0x987f20f58fc92065U, 0x8fa1447d9c11f81U, 0x62da3915f96e882aU, 0xddf5efd6230b587fU,
  0x7f7298b6e206c250U, 0xc72136deaf0ac831U, 0xdb6ff1f2c336812cU, 0xe7b036c015ed0eceU,
  0xe033b52b21eabd68U, 0x42d437feefd4bbcU, 0x718cccd8107cec3fU, 0xcb14e5fe3d1a1822U,
  0x4d7fdea8818ad82eU, 0xad10cb06c3b190f5U, 0x558166f8133e563U, 0x5bea1cf211a811d4U,
  0xb1eec8248135fadeU, 0xe7f024af6d12bf9U, 0x71b2dfa50903b049U, 0xaa688cd4253800cbU,
  0x3f46cd978fcee1feU, 0x9ac98103e3d581baU, 0x8c31d573d3aaa318U, 0xf05ef382e4f71f4fU,
  0xd6def4d8a144042cU, 0xee53f72972f23e2cU, 0x5331d7b22e0adcffU, 0x1524a0990e14f80bU,
  0x2d0ccdd2a4f817f3U, 0xf4c2077f059d03b3U, 0x44e0ad7fd56abb0fU, 0xed1af6c1a9cd9347U,
  0xe82e1dba915c7f2aU, 0x1b36201c79d37118U, 0xdb6ccae202f3fdd8U, 0x7f11589d311b056aU,
  0x20508306c5b537c2U, 0xd3f6fa307f39ca06U, 0x8dead67fc27ff987U, 0x57d5fb97c0bab712U,
  0xaa401e2e6e0ddf5bU, 0x9321d1d41ee45deU, 0x1a26d6210d41980dU, 0x1f187fab20bf4670U,
  0x4d6416e80b11c2b7U, 0xf41d14d42a1ad01bU, 0x971ccf2db978df2bU, 0x21f3e3fee3a56eb5U,
  0x8e242145eaf0a656U, 0xd74e2d220f061e2fU, 0x4ffb3116e37fe625U, 0x4b004bcbfae9262dU,
  0x2062fdedbd0400afU, 0xae2cc1c589828e3U, 0x414e27ddb76c569U, 0x21c8528166d67f20U,
  0x811c193d0729a51dU, 0xee1606fce1d46340U, 0x7f8f1b051122157fU, 0x1156a6c73152f4f7U,
  0xee33d58ddbde6075U, 0xb2ebdb4233ba0bb4U, 0xed33cd23fbb6e001U, 0x1a692dd266fa0270U,
  0x963dd6aaaa32cc02U, 0x5456ae0931b90c39U, 0xfdeeede1cbbcd4a5U, 0x110fbbe9be283e03U,
  0xfac9d6ae9f197e1eU, 0xc3d7095244da15ceU, 0x5621940eb935c009U, 0xb491eaeaf1aab28U,
  0xb703c1b5e365217fU, 0x591dbf2f7fce44efU, 0xd837efa7f41ac9ebU, 0x75647581a8e7172fU,
  0xf5f3e7f09ef27f7fU, 0x200d7f656e1f9f5U, 0x1a7fd3dcb0c50781U, 0x340223e2eb27b9edU,
  0x3f30adf31d26e82dU, 0x31feb364af13842U, 0xdb1ade1c0afa8d4eU, 0x315e7dee08277f20U,
  0x1d2388001f02301fU, 0x242facc752f5050cU, 0xb56af929a8dcb869U, 0x26b1f2e2314912bbU,
  0x9e263821fb3dbcdeU, 0x34c0d93b3b170e75U, 0xce36eabcd3ceb7fU, 0x4a1955a3e8493f0cU,
  0x6f5141402d25b1fU, 0x23c0c2222492c5e8U, 0xab7a18e7b044fd60U, 0x7feb4512ea014d04U,
  0xd61ca912666ecf37U, 0x360aae6f0cea254aU, 0x484158d9ed4e2c36U, 0x69118b8837220fdbU,
  0x10dd03f120e37026U, 0x29d3291c24ddc6a7U, 0xc7bc2d1b52fd8adU, 0xf2a0ba333fd3936U,
  0xb117b6c5c62bc72bU, 0x7f40b41740813fffU, 0x4e58139108d2b65eU, 0xfa64d555fbfdb2dcU,
  0x1819e1c212485500U, 0xf9f5cd2bfac2e630U, 0xe015da4dc70cb5dfU, 0xda0c0ef00f638c38U,
  0xe7ebcb000a491d2fU, 0x46dba12843b82922U, 0x1b236a1cfc02df32U, 0x4523651813815daU,
  0xdfbac4dac57f0e1bU, 0xeff90bd7d747a4e5U, 0x2404effba8e5b99bU, 0xe111f1953979d35bU,
  0x401e9139137ff15U, 0x1cfd81e743de2d26U, 0x2708aef1f0150eecU, 0x260824cf851fefdaU,
  0xfddaa881be5e5112U, 0xed2020bcdb7f01e4U, 0x9581634af15ee61U, 0x48e602c4597fd70bU,
  0x51d1f01e57fccd2U, 0x19b3e41c0e270f61U, 0xf80bc2dff41ffc1eU, 0x327ffb92b721ead2U,
  0x142881cbe2f83bfdU, 0xf5d4c7e21de4c3c3U, 0xa41117f4d0cc8364U, 0x1617e49a71793c76U,
  0x25b9ddd307370ea4U, 0x12fbc14acf120714U, 0x143c48dad4c2faddU, 0x3f37d5cd151742d3U,
  0xe61397d7ef164148U, 0xf9accd040db9a8f5U, 0xb321dee00118a325U, 0x3f9778293523U,
  0xffffffc6ffffce6cU, 0xffffccb4ffffd62bU, 0xffffcb92000007d6U, 0xb2c00000e60U,
  0xffffdae400002319U, 0xfffffd70000045aeU, 0x2b9fffffc908U, 0xffffcb64ffffe5a2U,
  0xffffd4ea00000d23U, 0xfffff2b8ffffde81U, 0xffffea6000004000U, 0x3141fffff229U,
  0x5cdfffff9e1U, 0xfffff012ffffcd2fU, 0xffffd87fffffd49cU, 0x405500000cc6U,
  0xffffb974fffff9f6U, 0xffffdd13fffff21aU, 0x77fffff5c6U, 0x441800004616U,
  0xffffd2c700004e1eU, 0x306affffe211U, 0x1aca00002940U, 0xfffff4b5fffff8a8U,
  0xd700001f6fU, 0xfffff38300002098U, 0xffffcc39000040a8U, 0xffffb19a00003758U,
  0xffffb58500004065U, 0xffffec07000027d2U, 0xfffffe5ffffffd9dU, 0xf102d884fffff707U,
  0xe76bc4ad2ab4e164U, 0x97073cc33d25eb2eU, 0x2881ac1c62f2be5U, 0x2398319ed384ee5bU,
  0x9b08ca62abb93152U, 0xc1f309c22f2484a9U, 0xb3e34dd91202b21fU, 0xe2221d55c1818111U,
  0xc526b0b8239037c3U, 0xeb8f231e29f6bd24U, 0xb1a8b1a30ba391c9U, 0xf810c508d4a0bedU,
  0x941c10aafdd085ecU, 0x5101d596a4031cd3U, 0x8dc9754fbfb54aaU, 0x1d23bdd3b855e492U,
  0x724b1cbcffc8d95dU, 0x3146d4c6cce372ddU, 0xdb693041db582c27U, 0xd33243c0fedce9bdU,
  0x626df4c3dbf3da3eU, 0xb90069644c432631U, 0xbdd77f06c57124beU, 0x5267ff007fd24f6aU,
  0x3ab432d626ddf61cU, 0x3f3309fd24ce1b38U, 0x57f022294ed53c45U, 0x151add24a72309c7U,
  0xfeca9f34b1153cdaU, 0xf312e3dbb30229f8U, 0xc9544f1f810ae85cU, 0x9027d901aca94513U,
  0x65c526bde1e303bcU, 0xd5bf2c259614f2f8U, 0xf7d7001e17e85ecdU, 0xd2d3b8b737adb12cU,
  0xe181efdee1052805U, 0x14094dfff9cff94dU, 0xbaf0c5b25bb0df2U, 0x80b1a2c04ba1f2eU,
  0xacab1532c4510081U, 0x722ff1755736dd5eU, 0x2b4e52bffdfce1baU, 0xd45c1fa56d40a8fbU,
  0xe611b25beb1c054cU, 0xa129f8011baf46d6U, 0xfcfcfa462f9a1a48U, 0xe114ed0eed24f8d3U,
  0x26fa438c301421fcU, 0xc04ada4d8a810b96U, 0xca3cec56e7d551c4U, 0x114d85b2a5af10f5U,
  0xf51bea28914d4fb3U, 0x2a88e0a024491790U, 0x976b27a0eeb1f3a1U, 0xe7cc96998fa84fdfU,
  0xfe81de0027b496b1U, 0xafc136ea88d547U, 0x1f64a98a1e2b4086U, 0x6d5c5242b8b13e4U,
  0xd210402dca1190U, 0x46e25cb98d85a0e4U, 0x5a5a9607ac52d660U, 0x17ecd2b88805e0bcU,
  0xf1edd7f01e00137fU, 0xb4cc41bc13bc290cU, 0xb7e7bd060b19ce37U, 0x10edd13b017b1be9U,
  0xf15b211d021c4030U, 0x34f90f30151738cdU, 0x53383b1d235030daU, 0x8a2cb353f130b7c0U,
  0x5a155b3d2836271eU, 0xf3e21fc11136c7d8U, 0xb8b7fe310be87fd4U, 0xf5acbadcc542e648U,
  0x6a54cf45c389915U, 0x735f1abe4573276U, 0x58d0e3f6f81e53ceU, 0xbe22e430ead900fdU,
  0xeeb2ffcdd90ebbb7U, 0xd4ba52d206304016U, 0xa5cb813b15cb24ccU, 0x8d95afb2140ca90aU,
  0x3a8b42e217dfe65bU, 0x384243bb1b4a1b17U, 0x4fbb4ffa0f0869e5U, 0x2448a720a9401fefU,
  0x38450813343f2d0dU, 0xccd13fb32aecee1dU, 0x21081904034470dfU, 0x1f53002db04011a8U,
  0x27fceefd4710a2c6U, 0x323bff3942e13d52U, 0xfa4c7f081b3d422dU, 0xe5b958b2f4fd9c48U,
  0x284be0c48ff815f8U, 0xbb3926ce1299d8b1U, 0xf7bf314ebbf2bd9aU, 0xb353d98daeff9412U,
  0xc637d836812dad53U, 0xe739655a5b2dcbdfU, 0xf63b50f79ec218adU, 0xdada1348da88f919U,
  0xd2133b41e8dc1135U, 0x142dc47f13cb9530U, 0x63c3c434a7fb314eU, 0x11ea36305c3e1c74U,
  0xd725de216303b613U, 0xc2c5153027b72ccaU, 0xc808d942e524e0b5U, 0xb9e82d3d220c12c2U,
  0x6dc9cd3fc1312531U, 0xdfacee0d92407fbeU, 0xef3dea2f555653c8U, 0x92fc971ddc024a20U,
  0xa7c3372f1226b756U, 0x1529fa05375ec1efU, 0x6154cbd7ca39fa6aU, 0xedfb98ebdb184f2fU,
  0x13eca667570f2d5fU, 0x50f91d89923ab8eeU, 0xe6f4eef10013ed02U, 0xd9d7e41a14ac11d4U,
  0xdb3b53f9d5b651d2U, 0x4913d0795ef817b8U, 0xb87fe6eafd0319f7U, 0xfbcda84U,
  0x0U, 0x0U, 0x0U, 0x0U,
  0x0U, 0x0U, 0x0U, 0xf1cc7f9100000000U,
  0xe554c59e2d1cf5cdU, 0xe2e3c6bd3a007d00U, 0xf79ab0b4e9ea7fbdU, 0xc3a750f3c5084ee0U,
  0x81aabae57d05f773U, 0x1de07f92a92f5c97U, 0x71ff3316a6b28c94U, 0xf92f1afa3d33c142U,
  0x8b4202be735e581U, 0xb621023b47f1c3ebU, 0x647b607f5826f520U, 0xa5df2932172648c2U,
  0xcc7fe2ffdf41dc79U, 0x81b3982cf8bc3813U, 0x3d55ce13cd1b3a4cU, 0x35d0ece0af9df713U,
  0x40efd037c13ed07fU, 0xf7b681bc49e1e735U, 0xa893bfb0bcc68a0cU, 0xd3a2c0b6b536aab5U,
  0x9a8d94b7fd864081U, 0xc525df3029ea2f25U, 0xe18194055d0c1082U, 0x60093158392931a9U,
  0x529b796601cf81e7U, 0x4fd4feede4eead48U, 0xcb38d6a350477fd5U, 0x2e4fc3c0160d39fcU,
  0x16814a7daa25dfe8U, 0xfb59e720ee63c50fU, 0xf206fe7f161689e4U, 0x72311d56ed7ac5d9U,
  0x9c13fc5c1d5edf81U, 0xc3ea0c0a1229a3c1U, 0xb7304cd6eefd8176U, 0x1e28f056f2521f21U,
  0xf718aa6ac709f47fU, 0xb0cb285a482265d8U, 0x151cd2962fa6d281U, 0xa1c415f6982b1702U,
  0x4a061889dd39a352U, 0x257fba9507498129U, 0xed1f38bd32fe6de4U, 0xc14d53075bc1a20aU,
  0xf6298a2c7fd38fd3U, 0x3b2a3ad34be991f9U, 0xc4f0505bceb881cfU, 0x5f4681485178ce4bU,
  0xa8fda25cbba2c167U, 0xb8092a92b49c088cU, 0xb55b57e0e3644735U, 0xe20e441af5637fb4U,
  0x7f57f9f400d1d38U, 0x86486ae8d5021009U, 0x57ef04819b7240efU, 0xf57f360f6b27c311U,
  0x6d3d1d783408ee2eU, 0x97c2e761e8facb12U, 0x8e811ccc9c7f13d4U, 0x15bef40eaa36d4a4U,
  0x498139b587dd384cU, 0xe5b6c8111bcc13abU, 0xe1a21111c8d0a12fU, 0x2a1c735227fbd75U,
  0xa385e81fff75036U, 0xb611e4f07675b4fU, 0x7f465e71b4b19342U, 0x3706a8d4340fb0faU,
  0x86d3ae81bab7639eU, 0xab6531a1eb23c01eU, 0x5cf2317fa134b53fU, 0xe0472d22827e5e7U,
  0xe0819eaabbdd5b94U, 0x9929540eee898b95U, 0xf07f23085d21d06bU, 0x2e55b412f2f7b316U,
  0x1628a1a614e118a6U, 0x9814136781e50168U, 0x4e7f492962d8aae9U, 0xf2cecd4fabd5c955U,
  0x7fdc1429f154ec2fU, 0xb7213c491efabe0fU, 0xc949d1dfc7405f7fU, 0x4841564a4eb824baU,
  0x452d7f1bb859e617U, 0x7fef170ce5d02fb6U, 0xec7d3e7c55f611dU, 0xfbee23f76f7a94d4U,
  0xf87fe839c0e69d49U, 0xa4f0e44ae85cc9e4U, 0xe3fae2e70cd1e408U, 0xe48fa6a2bd81830fU,
  0xe5501847fcbd0e27U, 0x1c811473aa81159bU, 0xdf4aeed8342961U, 0xfe2dc8f68dc57b87U,
  0xeb7ff5ee1922e00fU, 0xbe90b9a3dde2d500U, 0x2f2b6af991e8252fU, 0xf9143df91681b9d1U,
  0xfad04de658e97f3fU, 0xf313cb299025593cU, 0xc1f3a719dfc86081U, 0x3672f573f2b11343U,
  0xdaa89138ae4632e4U, 0x28b9cdd1268dcf7fU, 0xa6af81525a2f39f1U, 0xbcb28eca281cdb4fU,
  0x815057c9d49b1056U, 0xcd27990b40a1b810U, 0xe696af0ba6ee062dU, 0x2190e8622f81b6c7U,
  0x2a811cafd62c3561U, 0x2c29d2fd8fc6f7fdU, 0x2e7f423ad6104decU, 0x81bd2824cf5ed92cU,
  0xebf3f738c54d0d26U, 0xe1cba84904c2cdf9U, 0x8102d1a153160d06U, 0xc25b13cea13c1b4U,
  0xc4814be92d261294U, 0xefc9d09afde2a40eU, 0xe0f48133835f7fd0U, 0xd4874237d787386dU,
  0x8bebed81cbf81328U, 0x619b04ada328f115U, 0x2f81c44a0cf6432fU, 0xc181b523a419U,
  0xd8c7000076f0U, 0x7112000111b3U, 0x7c91000091c4U, 0x8a2b00009b9cU,
  0xdece0000b3beU, 0x89430000944cU, 0x7d64000082faU, 0xa11200008025U,
  0xbf9800006709U, 0x9eb10000aeebU, 0xc7560000aab2U, 0xd7dd0000d34dU,
  0x9e250000bc57U, 0x6c6b0000c932U, 0xc0c90000c76cU, 0xa5940000abe5U,
  0x97ce00009a09U, 0x9f930000ad55U, 0xba240000ad79U, 0x835f0000bba4U,
  0xa85c0000a1aeU, 0x6c0c0000ae23U, 0x99840000971eU, 0x6fb00000be13U,
  0x95d30000c8cdU, 0xb781000078d6U, 0xbfb30000a651U, 0xa54a0000be63U,
  0xaf920000701bU, 0xa63a000091f2U, 0x83f70000aedcU, 0xf5e9f3190000a45cU,
  0xf093e81045f8ff4cU, 0xf1e747cf5fb0dcf2U, 0x6fee202aa926124aU, 0xcf0355bff033f434U,
  0xd7ef42e7f7d57fbbU, 0x19e72dc701aac879U, 0xe81b572614ce9c35U, 0xcc36aafc00095a08U,
  0x15cef916c3492f42U, 0x5d07f9be9d9ff57fU, 0x1cfab706dbca49f4U, 0x62a06212b5a304eaU,
  0x94c117f1b2e97b0aU, 0x53da5d0f4316e8d8U, 0xe0aa1617dbd8de46U, 0x121a2de4f0cf0bU,
  0x6af2335fdea39060U, 0xb1447be119e41938U, 0x3eb1969d4353d40bU, 0xf9928ba213682d54U,
  0x15e53e7f3db73de0U, 0x9e1de015d151a02dU, 0xcc3207a4dbef39beU, 0xe1b6525fb09aa8a4U,
  0xa79460c3473d3ed6U, 0x44153ab327db12e8U, 0xcf93ff6596abb914U, 0x37b9e9dc1a8ceb71U,
  0x81c9730a45d9ea4cU, 0x7c30f8f2002a42daU, 0xc490f8ecd9fd1958U, 0xed34cee78460f066U,
  0x4658a281be7eab45U, 0x5aa85f2e8c43dddbU, 0xfcf88791080e58baU, 0xe72b92bac6a93a72U,
  0xe7d6feb7f90563a9U, 0xf968af45bcb8f733U, 0xe8fd08c9c6ac5099U, 0xd9fb6436f061f3b5U,
  0x4603faf4fd03e0f5U, 0xd018b4e2930bfeaeU, 0x4af9adf3e29921f2U, 0x2de0f6bb1948ed7fU,
  0xb7bef5547a0509f1U, 0xfa260a062c09cdbbU, 0xf938c3540b36b96fU, 0x33bfbb8e5d31ef0bU,
  0x1d100619fa0f5fb8U, 0xbb55ce3a78e0ed9dU, 0x68e7becb1ac4090cU, 0x81f0383e17183a2fU,
  0xd740a5ecec01e735U, 0x14e6fdce2e3ade48U, 0xc0072cfaa78b0ce0U, 0x2b13b2d80c0ce2eeU,
  0xd8efc0dcf3fd4ea3U, 0x2345ff5dbe0c26e7U, 0xf22af0d334e5d4d8U, 0xbf21d2d1ffb2da7fU,
  0xb2253144f0f2f716U, 0x2a1927414fe7ddeeU, 0xc8e2ea502eebbe28U, 0xe3e7d9372d2cc2e9U,
  0xe93f0dc0e41e81d6U, 0xd513d4f226f3b333U, 0xd7ccc5ecf52ebd2eU, 0xda1408131dce0c17U,
  0xd1d00cc1ce3cbef4U, 0x17e7f0e440fceadcU, 0x16fef6c23fe72cf7U, 0xb4e9c855e5bec11fU,
  0xccddbc2aee2243e3U, 0xd3c720e33b1cf70bU, 0xe9b3c9f5dbffbc31U, 0x3d79636cdb90bd5U,
  0xacbbe5a95cf30defU, 0xbad3b2e8c23d9d7fU, 0x2fbe64b117add3f3U, 0x8caae9ee392aa5fbU,
  0xe89429f0bbfc07a0U, 0xe6ab33da9cc5cdc9U, 0xff18ed46c398704cU, 0xcd103120e43cc4a1U,
  0x22ef814a44e636cfU, 0xa7a557df0fb60229U, 0xd9a029c082d41e10U, 0xb90691cdcc04f5a7U,
  0xa68dea4efeec2d98U, 0x9af1032d596dfb1bU, 0xdfd882ba4d02b25U, 0x4213d3abe47fd8b9U,
  0x37af290b57d61316U, 0xc38d42ff43e2e549U, 0xee1cabf99ce0b3a1U, 0xfc22d4a34e78f045U,
  0x95e7dcb3225eacd1U, 0xed9ca43704814efdU, 0xb9c2d7520d053e9bU, 0xcfd1b4bb09b8a517U,
  0x37b711024c3f2550U, 0x1b63b6bc5c2d4d43U, 0xa9ab6c3bd9e519beU, 0x89ddaf5b73959a8U,
  0xb15b6b16d2ede805U, 0x3716e3131cd877beU, 0x129d41e6dd29e908U, 0x1aa6af7fd84911beU,
  0x445da6163a42d4c4U, 0xf92554476de5aeafU, 0xe3252f913e115a8U, 0x5c5444af15432deeU,
  0x19f85b1f6b87f5dU, 0x53d7b9443f381b44U, 0xf02ecba7e09d1dacU, 0x75e058a1c36edd32U,
  0xf221ee26f90a2a6cU, 0xdbcec3bf07ceb6cfU, 0x9ed56f0932adca5dU, 0xf8327f33b6f30059U,
  0x28c6d1f90cfd19U, 0xf6faad639df112f7U, 0xd9b539ffd8280b2eU, 0xdb6c2f3aa8163de6U,
  0x22d748c31fef0c2cU, 0xdeeaf4b6d441126fU, 0xee4ad35613d12df1U, 0xfffff2dbfc1b304eU,
  0xfffffac30000058fU, 0x112200000473U, 0xfffffbc5fffff6f9U, 0x19d8000000ccU,
  0x1e0700001878U, 0x12c8000010d5U, 0xfffff484fffff934U, 0x55d31922fffff3afU,
  0xeedf5547390de5bbU, 0x6c18adb4a7014c7fU, 0xe9ec7f28d825b7f5U, 0xfe732416bc0529fdU,
  0xadac13c6bb084840U, 0x46c0ba480f2da381U, 0x81ceedd7c8d76122U, 0xe008e37f0323c9efU,
  0xe9285ab4001eec8fU, 0x2ff94bc7e224fce1U, 0x7faf52dcc1ebdadaU, 0xe54814cb007034fbU,
  0x4b10fd4dceb0c6cU, 0xe0c0600ac581168aU, 0x103c5aeacf271c0eU, 0x5d0f611603d581f7U,
  0x160965819e60bfdeU, 0x151f81dc2f57e3b6U, 0xda8e51d39b19b119U, 0xb7e7400bc375bc3bU,
  0x7f0cdf600edc210fU, 0x75c85a64563a35d8U, 0x7f145392e856d4ddU, 0xe7490d1d0840363eU,
  0x31f381b1e037f60bU, 0x1fb6dec286fad9d0U, 0xead9fa81d070fe88U, 0x564c27efe0cb612dU,
  0x8c81a0fbccb9abb2U, 0xccdd81c3c9645ac7U, 0x92d5412e2cb57e3U, 0x1990e51c65180f64U,
  0xfa50f00783649a30U, 0xaac4431d0733810eU, 0xbe7fdee3ed73c2cdU, 0x2385adc2e20dc8fbU,
  0x458110f95271ef97U, 0x18db7f0db3a32fd4U, 0x985ae3f6da528bf9U, 0x930e913b9feccd2U,
  0x3021ee0281f6d900U, 0x1a45b720c14c092cU, 0x823dbd4e38482d56U, 0x60b8707f7081fd3dU,
  0x6555d7aa66dba401U, 0x7ed5f4fdcfd36294U, 0x26d963fdfabd3724U, 0xfa99577f81e8d8e4U,
  0xa626cbf6dd3e57cbU, 0xc77fb7f1e1b89b1cU, 0xb9a30f633623b80aU, 0x29dd0e0fc451eb71U,
  0x12d9d9814228d5f7U, 0xae0d16a3d9c33123U, 0xf1fde2e2d0ae4cdcU, 0x810b0f1a1e357881U,
  0x105502eac5158b7aU, 0xce443e81b6d2a7bbU, 0x42fbdbb0d62fa7f2U, 0xc05dc992b72e8fdaU,
  0x9550f2d01165fd5U, 0x27f0dafe35c87f39U, 0x60e97ffde81bb918U, 0xd4cef7d51cd3282aU,
  0x4aef811bdb56550aU, 0x2b082a2d948633ceU, 0x2ae2de09d3e5190bU, 0xc2067db07fdcf5ccU,
  0x124f1d04ff6a5351U, 0xc804e5c623d07ffcU, 0xcf1138cd4a2de5dfU, 0xd345c14981cefdf3U,
  0x743c551d3ad4ca1eU, 0xf8465ce3b8c98147U, 0xb07f0633d01507ddU, 0xd4a7f90bc0fa3cc5U,
  0xc05f4a040ae1be56U, 0x84ca792dd1b7027fU, 0xb1354d6b217f734eU, 0xe14bfa0539d7df54U,
  0x2b282714d6f64305U, 0x307fd1e90a39819fU, 0x16e5c1eed59b402eU, 0x2cb9112f0b13d4eaU,
  0xd72c7f20efd1db61U, 0x5eccba09f700c7a9U, 0x5ead07098e7f8122U, 0x841f960edff96b7aU,
  0xfa38f4811aef97f9U, 0xe0d53316b4e84826U, 0x7dfec8147f91cadU, 0xa2c92d2d932b6b26U,
  0xaae609fbdc7f25d5U, 0x16b51533ed35ddb4U, 0x4751d1ad03fa1f81U, 0xc15ad022b24011dU,
  0xb3656ed5e406c011U, 0xc424627f0681cfbfU, 0x8d4f9bdffd65fc0cU, 0xfec4a77fd909373bU,
  0xb0032343c841eac6U, 0xe3e67fe73130c132U, 0x6829afd958fce5cdU, 0xa4e52def263da5cbU,
  0x1d9fd517e8a2119eU, 0xe489e64b38287f61U, 0x7f9d6c0df328d896U, 0xfa3f0610f9ed184dU,
  0xa212679ec27fcbc3U, 0x317f372f1625699fU, 0x6f9621c622f6dbaeU, 0xc9262b0d85dadbd9U,
  0x7fdbf35a1fbef938U, 0xb74b1ec7b9ba51a4U, 0x7fdf4fa3311e3689U, 0xb78148a9303b6f5eU,
  0xcb8629c062d599f5U, 0x35d8fddc1035c02cU, 0x3e71e51f83de4c0U, 0x3ccf00f781d3d849U,
  0x32f77f0f32d8d115U, 0x1ad90605bec9fb10U, 0xcee7d7ed244cbe9aU, 0x34e0cc49117f98d4U,
  0x300821b02a27b4efU, 0xa9212311c34d7ffcU, 0x7f173b42f29c708aU, 0x39e03c7f1516466bU,
  0xb94609d521ef1db9U, 0xcb811415020ad832U, 0xba2e4742e44637ceU, 0xc6b5cfc339a12849U,
  0x3844900da10f7f00U, 0xeab704ce6918fbe0U, 0xdf7f1a3eec4eacffU, 0xe69d3e0cd008ead5U,
  0x2feed90330561cfU, 0x43ea7fc00a7fc4acU, 0x3c252e249fb7a249U, 0xa6d3f438c4f0db1eU,
  0x6e5de1cfaaba9af7U, 0x6055cfd20fc8ae81U, 0x9b4fe346fbf5a47U, 0x2705dee74a298105U,
  0x8819c0417462dfcU, 0xe19b682d3f9bb4e0U, 0x424761813ce6cf17U, 0x1e1228ed0641b720U,
  0x2176bc0ec7597ff4U, 0x4f2d752ced427fc7U, 0xc6c710f927fac755U, 0x1691e7b319d4517fU,
  0xe6d8ae8f75810accU, 0x4216d037f47ce8d5U, 0xc3555efee57f4ef1U, 0x497f1b0c749ee17dU,
  0x1545dc1ad18f2fe0U, 0xb206c7f3e20ece5aU, 0x5fbb7f36eadb4f41U, 0x1acabd811121eacfU,
  0x3ec541fac50cf5deU, 0x7f126905d7af1be9U, 0x2c1caed117d32805U, 0xbc6d14c21d9b2e1U,
  0x5d81101617e5d7e8U, 0xdba4dcbd3bcf0b29U, 0x66d203df0ceacd81U, 0x1c2fd3f50a32b4d9U,
  0x6158ede381c88fd1U, 0x220cf62647ac75feU, 0x54fcf7387ff30822U, 0x150639febbcdb629U,
  0x33ba7f57f9ccbbf8U, 0x71ec245503d6a751U, 0x70c57b81f64288feU, 0x56f00cdfdf64ce82U,
  0xff7f634048c7501eU, 0x1802d930cd3b16deU, 0x3ec60a274a50d69aU, 0x13270264c58101f4U,
  0xc9ce1cfa38f98104U, 0xbe28092534eb34e3U, 0xd5e181055898d0ecU, 0xb2dcf51e0b42aa43U,
  0xcf4eb515f0c9661dU, 0xe6c8d3c82cf20381U, 0xb13af7ed0f7fa9eaU, 0xd1caf2eac1f0ccf2U,
  0xbd14da812d45edecU, 0x402c6fc3f1aa4a26U, 0x81d597f264a9f813U, 0xca61b9a30bfd610fU,
  0xde0bc5bd4cad7f32U, 0x6e2933a2663b1329U, 0x191c37f95cd7f281U, 0x7f0ee40087f1b4ccU,
  0xf8e834d7d2c9c7d9U, 0xb3e1ba8fca31412aU, 0x280e23816c73ada2U, 0xdf7f50d4d6df24ceU,
  0xc62e57cc172be771U, 0x6e3b968144dd93aaU, 0xb263a6f3b6dcc4b7U, 0xb74d162ec667921eU,
  0x7f654918f1438ab9U, 0x41827f68c492ba46U, 0x17b827f5f87a1bb5U, 0x18212cb23ae71463U,
  0x557fdd1018f53997U, 0x27216b5cc000bda7U, 0x84a77f12567f4535U, 0xd2073ef41ec3e3fcU,
  0x7fe23ffed20750c4U, 0xe0d2b72a3fef343fU, 0x8211048814df53eU, 0x60b2c60ccee5be10U,
  0xf9e39c3288f2715dU, 0x5f7d2a43477ffaf1U, 0xbda9c298d6bdefe9U, 0x997321eb81893534U,
  0x28059bd27ffc2655U, 0xad6055d9ebb753f5U, 0x4542413c03130312U, 0xe77fd9d8e28124d2U,
  0xb08eb320aa411565U, 0x7322d52038aebcadU, 0xe4e947814f440ec5U, 0xdf215ce0a3c261c0U,
  0x607fc546ffc9559cU, 0xfad42dec414425d4U, 0xd0385cfac9e6bc2aU, 0xefd07f52dbcdf181U,
  0x8c63ed8eab5d797fU, 0x4a8c1ce0e1b48301U, 0xf5b0adee1e7f9dccU, 0xda9fcfe409435b10U,
  0x5de47094fbe90e1cU, 0xc311b9d4e127fdeU, 0xf333983cb6317fe0U, 0x176bf9b2ceU,
  0x5fffffdfaU, 0xfffff889ffffffd1U, 0xfffffeb7fffffed2U, 0xfffffe7700000256U,
  0xffffffb5ffffff27U, 0xffffff58fffff976U, 0xfffffe7cfffffe9bU, 0xfffffee6fffffba0U,
  0x16000001f7U, 0xfffffe8b00000172U, 0x4cffffff53U, 0x2d6fffffe46U,
  0x1ffffffd34U, 0xa1ffffff9dU, 0xfffffe0f0000024bU, 0xfffffff6fffffe99U,
  0x3da00000234U, 0xfffffd4effffff3dU, 0xfffffcb7000000e1U, 0x3acfffff9f8U,
  0xfffffe29ffffff96U, 0xffffff9ffffffec3U, 0x1e8ffffff99U, 0xfffffecd000000a8U,
  0xfffffda8fffffed3U, 0xfffffc2dffffff85U, 0x1c9ffffffceU, 0xfffffe11ffffff04U,
  0xfffffe3ffffffee8U, 0xfffffedd00000009U, 0xfffffc43000000c4U, 0xfffffe2ffffffc89U,
  0x13700000093U, 0xa8ffffffc4U, 0x33ffffffa7U, 0xd00000009U,
  0x136fffff784U, 0xfffffe84fffffd47U, 0xfffffe800000012bU, 0xfffffe60fffffeddU,
  0xfffffd780000017dU, 0xfffffec0ffffff73U, 0xfffffe9dfffffd15U, 0xffffff81fffffe89U,
  0xffffff44fffffdf5U, 0x1d1000000f4U, 0x10900000007U, 0x109ffffff04U,
  0xfffffe370000001aU, 0x2c4ffffff9eU, 0xffffffb9fffffe67U, 0x122fffffcb0U,
  0xfffffec300000244U, 0xffffff23fffffbc0U, 0x1700000001U, 0x12dfffffff5U,
  0x33ffffffb7U, 0x5510000007aU, 0xa3fffffee4U, 0x5428c9150000020bU,
  0x2cc768830ec4c47eU, 0x5ee1235045fa50dU, 0xb1e8f6ad8b7fc1c9U, 0xa3b5e52dd2ce275fU,
  0x18f9e23b06af10faU, 0xd91d18e0448f1016U, 0xe6abcb3b32dffd2aU, 0xe7f9fd4aa1b7de27U,
  0xef3263da0a3d9e2U, 0x80b55c8d0ec0601U, 0xbbde9ca017e70ec7U, 0x2a53f80019d64fbbU,
  0xc354be4110461640U, 0xdfe891a4fac381dbU, 0x10470b282fe812acU, 0x2c9233a965d04945U,
  0xe0494a28fc3e1838U, 0x97a63a99c940d7c5U, 0xda88e7c6ee002e5cU, 0x3a1597075986cf2fU,
  0x5d68d9f0faf5e4f0U, 0x30c86edb20ab493fU, 0x1302815dff1cee7cU, 0x5ac5e840a218a5d8U,
  0x11430c04b4a1027fU, 0xd3dca4ad13a60b97U, 0x397f00e308de47e1U, 0xfc3db5640d46740dU,
  0xcf1ed5be30c300ceU, 0xdc31e722d72d1cfeU, 0x4ce14af865131425U, 0x1555322d264de81dU,
  0x99103e15d35a94abU, 0xf0c41825d00f1039U, 0x2916af2054e9142dU, 0x4f56ad00318e2dceU,
  0xe70d33fa310848f6U, 0xe4eba20408f61d54U, 0xeca363cffeb8cdaU, 0xfb34f4d9add241U,
  0xfde1e38eec9b20c5U, 0xfe4a1dc9f6cd1fa0U, 0xc670e45e073d54e7U, 0xeb1f979525bcd39fU,
  0xbe26dbf7bb553af1U, 0x33ea276139d7cd0bU, 0xf2c81308e92ac23eU, 0xa940d03ee58cdf8U,
  0xbfe109c3d6d12d1dU, 0xd7f9cb44fb12a75dU, 0x7f5ce8f809cd07e4U, 0x3142e01e408e8e4U,
  0xf9eeba2fcf9b7715U, 0x24f82ff581f681cdU, 0xe8e8290608c4f37fU, 0xd12794e15fbf02d4U,
  0x5346198acebb06ebU, 0xef2fd22dcd2e43e6U, 0x1decd0b4f2d9d781U, 0xf45e05f8c5147fa5U,
  0xd3dd054252a9d1cfU, 0xdb0d40df151ccbdeU, 0x221bf5f007b1cfedU, 0xaed920b4d2e9eae6U,
  0x27d9cb2222e3ec0aU, 0x29c604dc194931dfU, 0x992813002313eefdU, 0xdfe0dfd0aec6da01U,
  0xf110e63ac418c52cU, 0xecd6412dc3de8120U, 0xe2322ad2e095f42dU, 0x36e19cef20511efU,
  0xb806cb0bdd46e4b3U, 0xe1f0370ba1b8c5c0U, 0x114e273ad52777caU, 0x79d246ab1d04244cU,
  0xb3351a14387fd64dU, 0xb28144d1d56ec82eU, 0xfacd8ea101efc35U, 0xfa09c4af0229d403U,
  0xd1ffd8c0d18381f3U, 0xb9efde4458ee317fU, 0x1fe5ca3423b586b5U, 0x2e0d614aed0c3d06U,
  0x720d0e8049db53fU, 0xcdce81aba4a4084bU, 0x3c1a4d1347c41caeU, 0x126113471d310ce7U,
  0x81398181feecbe01U, 0xe7362879ea0bf7f4U, 0x77cd4cd17a6b5421U, 0x36e7f7f0177f17fU,
  0x81cb7fa86bfdc944U, 0xb2afef224637dd3bU, 0x7f66a1d53f03e170U, 0x94b81c610b7c8d8U,
  0x4df16f657fcc6f45U, 0xe0bea457fc3037fU, 0x7f824d62dad042d5U, 0xc779f5b228b1fb53U,
  0x9de3d181b88751e0U, 0x290d7faf09297fe4U, 0x245eaf50592d7fa6U, 0x9b7fc9bf7f81e0feU,
  0xc4531e7ff76f60b8U, 0x19e436af7f7f7f42U, 0xd07f51436f36c73dU, 0xc8ae62e92c3cb039U,
  0xf8c40cb82b7ff724U, 0x575081e900dde071U, 0xd6031a7daa7d111U, 0x2b501122130a35feU,
  0x20181c1e38c99f1eU, 0x32d5451dd4e45cd7U, 0xd83800e50cefc938U, 0x1e1a4b6f9897ff6U,
  0x2af211ae3dbafae7U, 0xd55c3653e373e84U, 0xe766e3ca5eaba406U, 0xd03ff01a9f680740U,
  0xf0ac26975e34567fU, 0x51f51452f322234U, 0xf2bf12a46b45977fU, 0x13a1f7b03e02d0f9U,
  0xd53e2043f1aff54U, 0x107dbd906f3d7beU, 0xc7a2a0534372037U, 0xac2a5264f9f5d10U,
  0x200e2518972274e7U, 0xe00c4003ffe3e578U, 0xc41a3ed331811967U, 0x5a1cecf163c258e4U,
  0x145ccef3291226f2U, 0xb34ede923ac2cdefU, 0xff2b2123b77f2fc9U, 0x97e92be71d36396dU,
  0xd9234a17192c93f5U, 0xfbb20bc6e7b8ef5fU, 0x4e090b811dffda10U, 0x1b46c301ca05d9fdU,
  0xbeddf3979c38df81U, 0x1a1b163d1e1426fcU, 0xeae5bf0e43d2d911U, 0xe42f0c01203a48bcU,
  0xe2f8fe2909dba366U, 0xcc6469de56b4fbdeU, 0xf90621b87fd0f9d9U, 0xf2c9901a13fee91dU,
  0xac57be9eb9aea2c2U, 0x2b7f4c1d8126d90dU, 0xe4815f4ed103fe03U, 0x10f7051e243bbb66U,
  0xfb051e23439dd530U, 0x81eba82c1dfdaf42U, 0xe01fb6b368e0b331U, 0xc546c5182588251fU,
  0x1ee7e95146ed376aU, 0x17edc0052fd4cd06U, 0x18ed2a3910d60fd8U, 0xcd63b3e6a6cdeaa1U,
  0xbefad9e6be940125U, 0xfce2fd1bf7f145cdU, 0xfd7daf125e41e33cU, 0x10ee1908e80de984U,
  0x24086a58c0dd00c8U, 0xd0fa6c7fe26362f9U, 0xf037466564ebf877U, 0xaa0a402f36bf913cU,
  0x292c8d37f46a548U, 0x5651fd917f819f28U, 0x202dd80237cef03dU, 0x7f166e0b38f26823U,
  0x7ffde93b27a66b76U, 0x49ab5041e7810ed0U, 0xb27f8be7afdee646U, 0xe5db8db490c623e1U,
  0x19ee0c2018ef46e7U, 0x2c7ecf233f1e44f3U, 0xd048d8204ee8ead8U, 0xad1b7f5b1a4524aaU,
  0x604564cd17c230fU, 0x27d42747f1a1230U, 0xfd1648037ff0cf60U, 0xfa810ff85b5ec3feU,
  0x617fdd814b87fa7fU, 0x1c790b0e2caffe1cU, 0x406031d8f61b1928U, 0x33100af250137f3cU,
  0x4e81b417accf3dd6U, 0xa130f8dcdbede6d3U, 0x14c6e9ce96da0f55U, 0x2f0738d34f0f1dd1U,
  0x1d7f817f420336deU, 0x1a2c10d213c3f010U, 0xce202029971c12faU, 0xd81d62e7ed35ec08U,
  0xf30835241bf2eb5cU, 0x11aa1ed22047b050U, 0xeebdf6d21a04ab1dU, 0x93ff2812ae3b869U,
  0xfe2cc929cfeaf35cU, 0x647f3e0c17ffd412U, 0x64f1a9232808022cU, 0x33d5ced0231110feU,
  0x96458104b0bfe967U, 0xdc1e0b87861c07U, 0x5d20e18132d9c8f4U, 0xfd491a383d22228aU,
  0xc00df6b5d4f5f915U, 0xba3e4d40c2ef40a5U, 0x973b26eeee320572U, 0x2cfa07064216f422U,
  0x2c17f61443118157U, 0xcce5d4954a27dfbbU, 0x281bdd952307ecfeU, 0x9dc6e539d3261edaU,
  0xfe365210152a0e07U, 0x34d7eb2701dbfe1eU, 0x1d10d5380f2912f3U, 0x813bbdfc96e5b9e2U,
  0xf11866d0929ee67cU, 0xe442f8845fd41be9U, 0xd4ebaf1b2426edb9U, 0xfe130ba497d4f3d4U,
  0x36090dd8acff04e5U, 0x81da094604e0e6d5U, 0x1af6e4f70d41ab46U, 0x12b60e22f909ef66U,
  0xb7278139de01f836U, 0xfd473fe807fbda03U, 0xd41cf7f1ae819a2cU, 0xd625c37ff3e60a05U,
  0x3cfad5f9df818ad4U, 0xd3295debc6fa0db6U, 0xafd3e0cae6e0ebedU, 0xef0acecc7fce02b5U,
  0x336052cf3a70cd6U, 0x31048ff2227fc239U, 0xa4049e0b07f4ceb7U, 0x20b591ef1d7a4a4U,
  0xb30f386eab152fbaU, 0x1627212a0500ec63U, 0xf5b4f10934ede2c7U, 0x35edb0551824e016U,
  0x225306b45a2dc0ffU, 0xce7fdf810ab9b540U, 0x55f84a43ffdb78f9U, 0x6d07ab7f1e99400fU,
  0x53ef7f0088defab5U, 0xc70efa91f4caf7faU, 0x8139e29b61ab0be5U, 0x3f504b486fe2f0d0U,
  0x2d3cc71f7f4f2100U, 0xa214fbe476d9e4e7U, 0xde1a4c37fd3fbcd5U, 0xbe2a3622b861e5d6U,
  0xc7833241a14e41dU, 0xf8c6520400b7c1a8U, 0x2eb30edcd01ccee0U, 0x34653bee21fdff25U,
  0xf13e0ec5ad32c757U, 0x66442413d9b633e1U, 0x21ba1d3af51a7431U, 0xa770ffc4fe43d7U,
  0xf0efa7ce12f987f8U, 0xdfd134bc2ba90daaU, 0x1b0a524633a3c381U, 0x25d3cf352b2a2d25U,
  0xf3f0e3643cfce7efU, 0x99441df79ff1fdd7U, 0xec08b5aef9ce90U, 0x5d1e3d38ee1ccd61U,
  0xbd128c727a33f1aU, 0x8c9e5c4fbf5e0aeU, 0xc13e24a953ffa607U, 0x9d49f5df81e3e57fU,
  0x5777264001c31507U, 0x57ddd310f3835b0eU, 0xe5f1fd22f07cf4f4U, 0xeb24a71927bbef31U,
  0xb90950c000d616f1U, 0x7fec2fd1f9a42ae2U, 0xbd6ea0f626bf918U, 0x91f2fc08a700e2f9U,
  0x815f150cd008cae8U, 0xe81944bcbaf4ddf6U, 0x2321242ac612813dU, 0xf3f5d6ca2e1d2421U,
  0x3c4f511e5f9e482U, 0xdc2a399cfc6106feU, 0xffe9f6d9c311d042U, 0x3221f54be2e446edU,
  0x2681c510c2e6f1fcU, 0xe83ac7f4c507e3e2U, 0xb9e1f7f2dd81be1aU, 0xe57f42f95acbf8afU,
  0x72d2df61281f821U, 0xced0b9260d62d3faU, 0xdcf5d2329f27e522U, 0x532200fdcbf2349fU,
  0x850fd9d3cee6fe91U, 0x7ffa0509f9e7d254U, 0x32d9ecd4dfaa1efcU, 0xa0268a38f5ec9b3aU,
  0xeb370f1ef730ddfeU, 0xc169fd02b1cc0dccU, 0xfb069905fc812129U, 0x2eb6e404d7cb9afeU,
  0xe71237411eebc381U, 0xc340d2dde5e30203U, 0xe3da8c073ac7f7f6U, 0xf7dceb16331f0af8U,
  0x2a4aec055d7ece5eU, 0xebd3b1fffa5513bcU, 0x2b14f1170321d481U, 0xce102632bf1839bdU,
  0x60f9390f08ddc425U, 0xe7ddc60347dd1924U, 0xb52ddf3f1d1581edU, 0x343c1aaa20d481f4U,
  0xf07aa40daf9ddbe7U, 0x733631a10e9e7ffaU, 0x63e3c657f0bcff26U, 0x1801593593daf7aaU,
  0xa8d9e08181d00b07U, 0xb9f9c2d03b8cddc1U, 0x120733593ce5dce8U, 0x7f72b2fa2b27347fU,
  0xb4babff5e75410daU, 0xd024f62802748aeaU, 0x672e7f55861238bdU, 0x2d2d31e813c8c20dU,
  0x35dbe2c0e4ad4050U, 0xc0fb06060e3ac10eU, 0x533f2df150a6c525U, 0xbe67bbd49cf5fd4bU,
  0x58677ff1fbf456eaU, 0x52c6e32ba5cfd252U, 0x3dfe6f7fec1d2fddU, 0xb225e996bc1eebf3U,
  0x18a3aa035c12ecbeU, 0x1f0212f752e9ccceU, 0x3778b80a384df217U, 0xc9b2c0d9ef2605a6U,
  0xe40f0de7f021d6aaU, 0x6d236813cbdbe8a9U, 0x71cd0938ee38d22eU, 0x1fadf68142dfe3ccU,
  0xe510f4e403eeb49aU, 0x1c113cc01ea8bb22U, 0xca66b3b1ac36d120U, 0x5b3132ac101b07ddU,
  0x46f2c74cafaf1c2eU, 0x2bff2e5beb7607b3U, 0xc3d4e01087acd904U, 0xeaf49ddf6627f681U,
  0x54f6def87cbde9ecU, 0x806f4cd15711816U, 0xaaa2d0d1b1202a01U, 0xd01e13f1b6efcbbdU,
  0x655a5ec3bdfddfaeU, 0x42fee229da2be02dU, 0x42cec60a01d73d52U, 0xd838f300fde5ba81U,
  0xfb1419fff62b0018U, 0xf02ff703b62df6fbU, 0x2a24d61916cd20e1U, 0x52d79be6a7d63008U,
  0xec1dc4312058bb08U, 0xbf01d8edd2f6b304U, 0xab2ff5e93723e1abU, 0xfedd09d73cd7ce20U,
  0x25e5c0ec211ebc3aU, 0x35c7d6ceae29f6b2U, 0xffffdc9facd9c7a5U, 0xffffcc1bffffe009U,
  0xfffffb6f00000e63U, 0xffffe4b3ffffec49U, 0xffffff1c0000046bU, 0x1011ffffb748U,
  0xffffc89effffff54U, 0xffffd22400002c4cU, 0xffffd3f7ffffe2adU, 0xffffd82affffc623U,
  0xffffe213ffffed1dU, 0xfffffab700001a09U, 0x1b87ffffe355U, 0x4008ffffe493U,
  0xfffff51e00001cb4U, 0xffffe9b7000031dfU, 0xd29ffffef39U, 0x3fbf00001f83U,
  0xffffd2ce00001abbU, 0x14ae00003e39U, 0x3d4fffffe709U, 0xffffc99400001b13U,
  0xffffe7c9ffffe38fU, 0x29e8000021aeU, 0x110e00000f8fU, 0xffffc73700001d47U,
  0xffffe9b60000054fU, 0x1936ffffd457U, 0xffffeaf3ffffe5a3U, 0xffffd5d0ffffdd82U,
  0xffffdd55ffffd066U, 0x2c4dfffff035U, 0xffffe487fffff677U, 0x203b00003a22U,
  0x2509ffffcd42U, 0xfffffd08fffff344U, 0xffffc37600003229U, 0x28e8fffff637U,
  0xffffd59cffffe4bbU, 0x35c200002800U, 0x177800003257U, 0xffffe2d400001271U,
  0xebb00004466U, 0x66d4fffff544U, 0x59ddfffffb8bU, 0xfffffb5c00000b43U,
  0x2f2f00003919U, 0x4e5effffe585U, 0x1536ffffbdffU, 0xffffe371ffffde1aU,
  0x3a1ffffd062U, 0xffffbe03ffffe1bbU, 0xffffc85affffe540U, 0xffffc468000050d3U,
  0x3174fffff63dU, 0x1e1e00002e46U, 0x3319fffff5abU, 0xffffeed900003271U,
  0x3cae000041a0U, 0xffffd9b3fffff823U, 0x36483cf30000309aU, 0xd90c09950a1cb7f8U,
  0xf31af5dd1742370bU, 0xe21624fbe5961723U, 0x94b44eae00218faU, 0x2610e20e7e55061dU,
  0x3cc46e830ee3d12U, 0xc7e62efcfd2f20feU, 0xfe30f6dd1c330de4U, 0x5646bb0c28332536U,
  0x4afa49e1b9bce141U, 0x2ed52321a0dd041cU, 0x3438b708cc53b619U, 0xb3020ecbf7f42e9U,
  0x3bf962367d2255d9U, 0xef2b0e292a22bff0U, 0xe5dfbcb9d01dc3e5U, 0xfdee36c81806d4d0U,
  0x53bc39a43e810e8U, 0xaece083201811b39U, 0xb81ebaf1f2f74608U, 0xebeefc0febe3b430U,
  0x15afcbfc56ca02f9U, 0xf120ea25c4cfbe27U, 0x2110bbd143fd1349U, 0xddcf183200e1f8acU,
  0x49c4bae3c734a0e7U, 0x3e19bdc2d5121f3eU, 0x96efa4d4afde23a4U, 0xf0b3abdfd98c97eaU,
  0x312a9dc02ea015ccU, 0x41e499d2e34b0bf9U, 0x1fe35c2619183cd7U, 0x4fcd422b0fad6eaU,
  0xcaf9f5cfb03ec6e4U, 0xfc26c123353bf9d0U, 0x5702af0b25f9d20dU, 0xaa1167ec2303ded9U,
  0x241eef4e5523199dU, 0xd2f0feebd439e55bU, 0x1e0c0ee3e62410c4U, 0x3ac348472a20baecU,
  0xf3c9ddbb4ea345f4U, 0xf750f111f019d12dU, 0x127ffe2453a8e800U, 0x12c6f2fad42a20f6U,
  0x2cbabf1a1e21111dU, 0xcdfd29d4e51521faU, 0xf1d6a71d0a23e111U, 0x1bd2fd6cb16c920U,
  0xed01accfa33fd5faU, 0xfd2926cbd21fdb17U, 0xaf31722f009f0e2U, 0x32f8d9d745082dd2U,
  0x596d3bce407ea04U, 0x29e4c22c0fdeedf8U, 0xd9c9efd62a4081ecU, 0x3291ceac33a2ab2U,
  0xeaf439fd34d854d7U, 0x83cf043eed324f0U, 0xaf77d8d20532dcf9U, 0x17343ccdd22ebb39U,
  0xf412ff08d30ae221U, 0x1816dcfbe7110d1bU, 0xcd6b8dbd942efd7U, 0xcd3ab99cd8331c1cU,
  0xc3d0ea290f1c0147U, 0x453e293de51b51f2U, 0xe5a3a622befc14eeU, 0x1a41d675b2d7f1a1U,
  0xb425f0bbf920ff5aU, 0xf7eeef3b2ac1f8e1U, 0x5127ec14f527d422U, 0xc9b906303e052fbaU,
  0xf1810b949df2fdf2U, 0xc5f5a336f03540e9U, 0x5728f853212e3e6aU, 0x55e92a37812c2c24U,
  0x95bdc2e311d8c1c6U, 0x444d0d0039ddb49U, 0xe5bd91a41f51604U, 0x1132bf132eba08eaU,
  0x2c29b900b2abc707U, 0x7c14cd6d8937bf39U, 0x674c7028da31dd3aU, 0x3eafbadbfe0d2bdfU,
  0xeb06ca22075942dfU, 0xe4deefdf2f3dd5cbU, 0xbdd927f5f425fa27U, 0x7204036ef0d4fe0U,
  0xc9670ecb25e34a0dU, 0xf70a27342de6b9f3U, 0x3d0c327fdbc95464U, 0x1d1339c8dfef3346U,
  0xe38042c29221eaeU, 0xe025262829aef7f5U, 0xc57ecbcdf621d3c0U, 0x37c84429d415e73eU,
  0x9c5f8530d2658fcU, 0xd515bcc1d002591U, 0xe12fe233e251f9b1U, 0x33d341a9341b98c3U,
  0x152f24a9e60d3bc2U, 0x43f6f4acf8b4daa9U, 0x1c0f4d03c251e197U, 0x267f2f378e06e2e4U,
  0xca3f43c21ff13bebU, 0x1adc37e2bd2c4e54U, 0xd522eb1936ad42e4U, 0x2c311ce6ece1dc3dU,
  0x4da61835f03feebfU, 0xbee6c5ebf11514efU, 0x3fcc36f63144f323U, 0x9d2755c4145e1427U,
  0x51f0a39532bfe2cU, 0x32cab72a42eaafc6U, 0xad7da3c19c7f736U, 0x2aec2d0fc948e2d5U,
  0x524d7cfdb293dc2U, 0xcbacf9bf08c93705U, 0xfe3a81a4b311eaf6U, 0x3409ca36036fbe5eU,
  0x18a116d4e12cdf34U, 0xdbe0132809380913U, 0xfba615cf3d99e6dU, 0xfbd066f9980a4a2bU,
  0x50481a4a43aca82bU, 0x509ded72aadb11bU, 0xd80754bfc1d2000bU, 0x48c0d0ee39c3b7c7U,
  0x2601550312afbdfdU, 0x2106ab526133fad4U, 0xdccd00cd34dad311U, 0x65dbb4a3b0b6a007U,
  0xc136b6cb6ef6bf5bU, 0x18adba5e3f52cb9aU, 0x24e6f8b2ca0bb2b7U, 0xa55381e295eea14cU,
  0x8b4aeb2967068925U, 0x67d813f25ba2359eU, 0x3a314dc0f2262eb7U, 0x5d07b0c44cd59045U,
  0xaeeed0a915d8df9eU, 0x1bea33ae37a1c4a3U, 0xc8bf61a91030a0adU, 0x3d9e3fbed20b0817U,
  0xc61dc2a19df29de5U, 0xf3250fbcd7594b17U, 0xc9fcdfe2ee07cc17U, 0x319826fbd91b3ff6U,
  0x4ba918e157e58fe3U, 0x130a1c0193c509c0U, 0xe1f19131cf00811eU, 0x5a8cb997b1af28a0U,
  0xd7938eb3e30fb3ccU, 0xc9e34f5ddc19bd9bU, 0xe49ceab6c4a0f60cU, 0x5c102d97972007acU,
  0x490decb34300e63dU, 0x20fdf07c927a0a1U, 0xde2548ba04f532cfU, 0x56938b34d721cbfbU,
  0x3419af9fc8d7434bU, 0xde4fb0b5ada8f699U, 0xded956bce8ecb54dU, 0xea1fff032d4e21deU,
  0xcf0629ddc8242ce8U, 0x9c0aaae35a403b22U, 0x542fcd12cdd0157U, 0x440e26d83f120821U,
  0x61a411f19361ef6U, 0xc4cccad2080ac20bU, 0xd7ed7e484cd84147U, 0x2deebd334e1f9f0U,
  0xb3eba30b23db3524U, 0xf7f7f0e8e8e548f0U, 0xafc05e0053df949U, 0x4d4f152f0734d631U,
  0x1d7ff50ec40effefU, 0x516d6f430232c1eU, 0xcef2e81e10471514U, 0x2214fc0020aef2d0U,
  0x813eb39024b9c59fU, 0x393d23fef354e5fdU, 0xe73bf010bf131cc5U, 0x2ae3e71d0b153417U,
  0x33bb1b3f0b45c203U, 0xc8f6befd2f412df0U, 0xa535bbd61812dbb9U, 0xf30211f30e07f241U,
  0xcaff452cf2c20ab9U, 0x1f06eccf2329d53aU, 0x12012dc6ccc9ff31U, 0x2a40393a44430322U,
  0x2246edca07f802cfU, 0x19ecc40652d5170dU, 0x2c1e21dcf13cca00U, 0x3f2f0dad318f4cbU,
  0x3f10fbfcc70313e4U, 0x2f002719e7dc101fU, 0xede70b3a0317ee42U, 0x113cc807161139e6U,
  0xcb16cb1adfeee5f6U, 0xa1ee0e31d103cce1U, 0x544e281510da2946U, 0xf515f0f3fc3fe1e5U,
  0x17431302f0faf2f7U, 0x61ef6f9e6fa232eU, 0xf615ecc90ae6f4d8U, 0x2b8134db3e0ff341U,
  0xb3d0b3ba3406dbcdU, 0x8fd52ddd2ed3e9fU, 0xcce7a9db00c198c5U, 0xabc1bfa9da29b769U,
  0x8106c7e38d83f6deU, 0x30f4fb0e1eb7279aU, 0x223a308d5417c030U, 0x12568df9af9eb18bU,
  0x8e1840ce8e2c873cU, 0xdff7f1204c47bff1U, 0xf2a3cbcdc21fee1fU, 0x13cee4ab02f61bfdU,
  0x5188b88a1d221587U, 0xa48a3f9a06f705ceU, 0x1f42f8a2ac5bd654U, 0xf854bd53f8a72626U,
  0xcbcbd3aff336c70eU, 0x84e58814ba249bf0U, 0x934cb8b93055f749U, 0xd85ba83719ac1381U,
  0xd4d9cec61dfdcdc9U, 0x2d4252a4f032e99fU, 0x9f982210ad3630d3U, 0x90b22ee915fafae4U,
  0xceacd897f73a2217U, 0xce05d7aa4a91d66dU, 0xc7202e1ce136cae6U, 0xd02d9f37a529c644U,
  0x3141522ed3e22036U, 0x32d103f93232d491U, 0x1dbbe0ba94ca582fU, 0xebca1fca112b04f9U,
  0xbdf8dcffe3c4e3d7U, 0x8e1bc218f719ee1fU, 0xaba2401d52ac69aU, 0xf1f5e025d33627b9U,
  0xfd1be8de231c29U, 0xde17390aefd2cae1U, 0xf7e62a0a3b2ce7abU, 0xf7aec3c9e2bef10eU,
  0x1a2b170eeee2f0d8U, 0x8e315f50404812fU, 0x2be606d72b1bf611U, 0xb2001d02c1e7ee02U,
  0x1d1ad331deb205f8U, 0x4422015bd810d930U, 0xd23467c742545c32U, 0xe5f8a4b7f1165f24U,
  0x1f27441f264223d1U, 0xd1ecc53fe7f0962bU, 0x47c01cf0b5dd492dU, 0xc40806e62218b83eU,
  0x2c20dca650414564U, 0x1f1f78818606d3ebU, 0xb760e660d8001ad0U, 0x29dfece41edd445cU,
  0x124bfd6dcff0b9f1U, 0x4ac4423851d14cc6U, 0xdad8bdf81ec947bfU, 0xa68e1bcf5957cdecU,
  0x26c1ebe34be54d3dU, 0x35cdf44828e5f35dU, 0x582613c6ba5530e5U, 0xb23cbeda1ddff1a6U,
  0xad9be8284811af15U, 0x2af7e0d1d036b7c3U, 0x2529fef51af30f0cU, 0xadb1da424ba4c1aU,
  0x4a144327e7af10f1U, 0xed94e1b7c7e015d8U, 0xdc46e90c51262fdfU, 0xfc35ded3cf5881e5U,
  0xf64540cb20d317ddU, 0xbee5eb514f9f57ccU, 0xd753e1040a43f7e6U, 0xae02b2ccc44014bcU,
  0x4ef1d28cb6e4f1d0U, 0x3e642f9c1ee05b1aU, 0x44f7da1b1cc9edd5U, 0x938dc9e9f4f74630U,
  0xe6ff97e7c38402d0U, 0xf2bdef9934a449eaU, 0x50b151525a3e18bdU, 0x35a8c54d98ab591U,
  0x90408c54fdcbb29dU, 0x26c845c91f8be841U, 0x959f4320008e04b4U, 0x31813e54c5a2ea99U,
  0xe254e41604231a98U, 0xf62433a3b7410a3cU, 0x2df09ccd378c0b0fU, 0xfa22e3dadf2d07ffU,
  0xcd9ceb07d1f846e7U, 0x441020e60bca2bebU, 0xde27111800ac2cddU, 0xd3db39075f4064deU,
  0xee47482419fd13d8U, 0xf7e2b11e2749e8dfU, 0x8139e622ad0913ffU, 0x3c0a1bf2d1152727U,
  0x924391bcf3f04f8U, 0xcd9073acafd251dU, 0xdf03c107f618f30eU, 0x45c6edcfddf8d111U,
  0x51861bfbf8ec29f6U, 0xdef29fe502fafe1bU, 0xc1203a1409529cdbU, 0x9fdaa74b9ea4a407U,
  0xc4ff4eeda5e629U, 0x3e1f8f2759ffe0feU, 0x53f3a9b1f4e6fbc3U, 0x9ea450740020112U,
  0x9c2f38b83bfc2b28U, 0xf0a92bed4c9bd236U, 0xc2af96315859f9a7U, 0x4d5248e00c09597U,
  0x81fb17a9e0e35338U, 0x588816263eedf419U, 0x9d9cc2a145ab3d09U, 0x3ab41c031a43f19cU,
  0xcb7f0f2f28acb799U, 0x1ecee5135814d24bU, 0x2f3328f8ec16105dU, 0x25c0f2b6060cc21fU,
  0xff35dc3924159663U, 0x308e2c9f3ee1233U, 0xe838cc0811ace616U, 0xf0252cdd3ac222dcU,
  0xf3c11ee218f643d3U, 0x42f16ce5134aeeaeU, 0xe02dd05650c83739U, 0xfce73d45e301e1d2U,
  0x2fe8f8ec252b1ea5U, 0xec331000fd4733e9U, 0x1ba635d3f9483126U, 0xc26e9e2ea50c9deU,
  0x23ad8a4f77ce917fU, 0x592172459c39af3dU, 0x37e21eb1f2e199a2U, 0x1eb1c3e9113ab5f9U,
  0x2c5d6817b7d94cU, 0xd62e93d415b5fae8U, 0xf8fdd8612822ab02U, 0x5116e36bf0ad1fc3U,
  0xe81b630c5023a33aU, 0xabd23db3e2dd5f3U, 0x432cdf3eef2e04ceU, 0xc4b31517d6a75becU,
  0xe5ad1fc53e328512U, 0x3024aecc0798b1c0U, 0xd7cf46c3d7b15602U, 0x4b1110dead2f4f3U,
  0xb10a12f96840232fU, 0xb41bfc2300dc41dfU, 0xfc0edcc139401fa8U, 0x35358102caf72bedU,
  0x3647e206efe0c4b6U, 0x240324dd052bd518U, 0x5cbc12e51739fdabU, 0x16a4e7b30424bef4U,
  0x9517bebbfa85e6fbU, 0x320e23aaeb0b01efU, 0x13e00deb9bff28f1U, 0x2ff43fe26bb73001U,
  0x1b65435530c6c704U, 0x313e80be8d40131U, 0xc72e0eebf015ccb5U, 0xd4d3ee33061214b8U,
  0x3e9fddaaa005ecU, 0xe6abdaeeba11273cU, 0x9624efa12ab8093fU, 0xe0efe323d43616e9U,
  0x1eece8428104d60bU, 0x25f8e5a22a2bc5faU, 0xef6ce0f42150120U, 0x39b3283dfdbb1f04U,
  0x28dfc1ea0719f6edU, 0xa10eddc1db1bf1feU, 0x3b3227459f65e0ccU, 0xec312710eec7ede4U,
  0xd3c199320f14b8d6U, 0x2405c15d4951ca2bU, 0x43b63c5b2617a8ddU, 0xfcffe40ad60221dbU,
  0xc2ac2aeeb1aeba63U, 0xe21d3663f8b5fa16U, 0x4cc200f7ffd4b05eU, 0xa83ce7d100cb21a0U,
  0x5f1b431abbc25aafU, 0x38ca651d4914dae1U, 0xeb0ffc39faf1211bU, 0xdd1f14ff54c6fbdaU,
  0xcb9f311d06bd7ff0U, 0xcc7fad714d9d22bU, 0xa41e3dedeec42b17U, 0xeeabc92be434f1f6U,
  0x62bbee6fe928e778U, 0x4b165a2e02f63cbcU, 0xe4f60ba5da2f4302U, 0x843cae5e7abb70fU,
  0xcd9c0ccacc9de47U, 0x3dc22f1a9fda396U, 0xb63799a591a32dbaU, 0x28d22423cbea7b07U,
  0x8e0c307088caaa93U, 0xb4e183d239fb122U, 0xe1d46810b623038U, 0x91d24f3ae1c56ecbU,
  0xbef5d42e73345dc5U, 0x3251f140865165a0U, 0xbfd9c001c0fd2f0fU, 0x48fec5e18af917deU,
  0x2c90306300f75a16U, 0x4d2c45e8c99534deU, 0xbe5218bb2dccce92U, 0xdd8b81b298930bb1U,
  0xb0d3be523d9195bdU, 0xcd14c95fb3432eb7U, 0x38dd16d4d536b6ccU, 0x47f499ce5edde91aU,
  0x55f65a53bad29a5dU, 0x2b442e2620c2f363U, 0xccaf58f1c44c331U, 0x4ed7b0ee3619ef87U,
  0x8f9bd5fee7cf89cfU, 0xf2f73e531063c609U, 0xd11231db89c22701U, 0xbc1b956e47f6b645U,
  0x31f0ef2005b3dec8U, 0xf5515a9319b6f946U, 0xca00b91624a3025eU, 0xcdfa012afcaaadadU,
  0x1245f79995dcab0cU, 0xf904552593c6b7e7U, 0x14142095ff382e6U, 0x9e22d618edf3a3ccU,
  0xfbe39abcffab481U, 0x180b3315e818f9f7U, 0x98453f3693bacba7U, 0x38f74dcae0260e99U,
  0xd9fbbdf2U, 0x0U, 0x0U, 0x0U,
  0x0U, 0x0U, 0x0U, 0x0U,
  0x0U, 0x0U, 0x0U, 0x0U,
  0x0U, 0x0U, 0x0U, 0xa7ab5c1400000000U,
  0x42199d145edd3462U, 0x427f0e8f69713fbaU, 0x2f1130ecfb7b15f0U, 0x1b07fa42612709c2U,
  0xe3dde242e5362e16U, 0xeccebb32e841b723U, 0xf32039fcdd15fe7fU, 0xf48920c78142c7b4U,
  0xef64eaafa2251886U, 0x5fcea72dc1fe1b1bU, 0xf6d78dd230d81c22U, 0xf173432de09f0d0fU,
  0x44a6dfbedae5e0beU, 0x810c199fc0ee2fc0U, 0x3ee91067e7c830e6U, 0x30d1cbe1609cd1bU,
  0xb2efa43dd08323fU, 0xd7a914e4d305f57fU, 0xf672fc2949f4fdd7U, 0xc8d4f7b00d28617fU,
  0x51269baa3ecfca32U, 0xdba7b89654033577U, 0xfeb9b41af0c3b2daU, 0xfce2ff75a00d1fdU,
  0x213113d2f9d7d848U, 0x73d1681013bf0U, 0x2d380e10e33a3cfeU, 0x111ab935d07f2939U,
  0x1cfbbbc3dbfb1d10U, 0x1f38194ae63ce9a4U, 0xf9e1fec3ecd5c7dcU, 0xb87f3e3af00c56efU,
  0xc8bc4f53b808ca34U, 0x22e6011f11490bc0U, 0xdb117f140626262bU, 0xc3d5d10913e544c8U,
  0xc6b9c2f3d7b7f318U, 0xd7010d92f281d2dcU, 0x49be9c47f3102b45U, 0xedb33899dfcc369aU,
  0xf45231091ff0a808U, 0xfc0e300b37ec3218U, 0x334640d8e8ef51fcU, 0x7fe4ddf82c4affe6U,
  0xc9d19bfe11e50df9U, 0x18d0ccf8181c4f81U, 0xcc400cdbd9352bU, 0x1571960bca0315fbU,
  0xcd1381c34209dadeU, 0x278cdcfabee24cf7U, 0x73eebc9a6ceec0feU, 0xc300514b4345b90eU,
  0x62a37689fb11200U, 0x97ac6481fc15e930U, 0x76c36b9fcdd3d9d8U, 0xdbf3bb5eec1cb922U,
  0xd33df7d01630f60aU, 0xc281ceccf403a058U, 0x2df80f3346f41d66U, 0xea34b2d0f51f47c5U,
  0x7f070ff61a2fd3f0U, 0x39f253fea92bb52cU, 0x5dd5283fde173e94U, 0xa930600e09d9b200U,
  0xdddf73ed4def31e6U, 0xdd95fe0825fde649U, 0x36b708811c4eced6U, 0x3edc7163b0bf2af3U,
  0x523b19a13b2f67acU, 0x8c4d27230c137f2dU, 0xeb32a0ad34a53738U, 0x3b421681a3cc58e6U,
  0x660122f7111259c3U, 0x19f6d2a3eb15d9d5U, 0x2e21323d102deed0U, 0x44b8d7dcbbaddb32U,
  0x182954632336e25fU, 0xe98148a700d32cb4U, 0xeaf2ea019c221223U, 0x1538a0f047818ed9U,
  0x3228d9309fa12c24U, 0xf10b41fdadbe420fU, 0x2b34210f10c6fb7fU, 0x400605f801f82819U,
  0xaf30d542b5fd1065U, 0x25bdca23ba8b1b00U, 0xdcd42a37b9d1fd1fU, 0x2876f44a342f9a4bU,
  0xb91d7132c4cff781U, 0xd2ad1eebf1afa467U, 0xec3f68110fb39deU, 0xf1ccbeb14c41999fU,
  0xef23a941d826faU, 0xd6579d4e01faf747U, 0xbc24572c69cf16faU, 0x2d98e31ad7a1a499U,
  0xaf2881d17deb12eeU, 0x31170e1381e53d49U, 0xf832b9b844300adbU, 0x65b250bd7c3e5b9U,
  0x1ebbc1d3e40a21d9U, 0x2855ed1d81264706U, 0x4827cbc6a960e9e8U, 0xf3f09fbdc882ae6U,
  0x9a1e09da42d9b5f3U, 0xd63315fae30eb9fbU, 0x17e0297fb5f1d33aU, 0xdef82c0cb8fd15e2U,
  0xf47f101b1628cdbbU, 0x1cd13902befdf2b3U, 0xe2cd3cc6f300e1b4U, 0xac7c4d602e9ea09U,
  0xdebc1f1b029139c8U, 0x3f9e65ea4daa2481U, 0xbab2230723d59beeU, 0x70afeebbf85747e2U,
  0xe4a015c6b7189ba7U, 0xc781a2b822a7abe7U, 0x1f10a0084133398fU, 0x81f773d9fa6ad388U,
  0x974b31f0f3bf9a32U, 0xc0ac7410f393fe04U, 0xeca9ead6ca2678b2U, 0xb799e10f51f6f0f1U,
  0x4c0de3143b1922baU, 0x7f5cc0ee157ba64U, 0xb7621be1811c1ee5U, 0x3afcacd6667ecc1eU,
  0x38cec70af010f56fU, 0x12ede10ba7dc7fd6U, 0x5915ffb70c1e392aU, 0x181d422f39ac4f4U,
  0xacf7b8e22c1bbe0bU, 0x9c03340830ebec26U, 0xc6f80bd425efd794U, 0x2f5f6f347ba11f0U,
  0xe905346d16d9dc3dU, 0xe47f31ca0000cfbaU, 0xbae8e31cec2be54dU, 0x26e96201d50cf0edU,
  0x1b0d2c1d7f4c1e43U, 0x4c4b0dd505e0e4f4U, 0x81f28cfad3bc82bU, 0x7598bd1cac2e722U,
  0xb588f4004c8153d2U, 0xf81cfde80219d325U, 0x357f38c01740331cU, 0x45f7ea0672c781d6U,
  0xcac222424f61d4dbU, 0xac5aa455dcdb39e9U, 0x9a0a79ffdc651aa0U, 0x81e16c92ac49d5ffU,
  0x983bad2112a71b79U, 0xe4460f0afe193356U, 0xb92d4c13fee2481eU, 0xb7811eeaf03bd2c7U,
  0xacdd716051b13e5U, 0xdb10e3291002f7d4U, 0xf22e810e0b3becfaU, 0xbefd0bbbffbfd253U,
  0x201ee60f040a2b28U, 0x4f2dbb3edb3031aeU, 0xe7af07953551ca29U, 0x582c303622bf12ccU,
  0xb9be36f6dcafb181U, 0x855fc63d278f8d81U, 0xf0b8722d3641dfbaU, 0xf5c3f398fee419adU,
  0x4b63fbf4f663f32cU, 0x8109130af6f8392dU, 0x25b34cbed25649feU, 0x43b3a5e2ce962c4dU,
  0x49603831bf1497cbU, 0xf40d818d57e71bcdU, 0xac929ff6fa034adeU, 0x1418af31fb2532abU,
  0xc7a5adb20beecdabU, 0x29aa9d826d190d3U, 0xe14c99b8be03d57fU, 0xc500f8d83faacafbU,
  0xdcd2f74bbd92f6fdU, 0xf5dc2adc3912c8fcU, 0xf081fa200e98ece0U, 0xbb267f22c7c8e411U,
  0x192114e8c014cd8dU, 0x3d12d74f3e2db500U, 0x31cfd2e0c93b0fefU, 0x15c6de8b7f41ca06U,
  0xb71acaee3228e1c1U, 0xc1f714f0db79e01cU, 0xee2d3ad520b5eb56U, 0xb912b90c9803acc5U,
  0xd51f2ff7408f4affU, 0x2ca8233b75b8cd81U, 0xfacc18c418abb9afU, 0xddc13908132b2421U,
  0xb7fb012d1f01e41U, 0x24ef76acea110b3fU, 0xc30fadc96ac1055dU, 0x9cdf30d208ea166bU,
  0xea4be87f16fd205dU, 0x17d746c6fde72739U, 0x33f5b2dcab96ee81U, 0x63a91bbe381729c7U,
  0x9fb931c607fa40afU, 0x6592a0c23213c286U, 0x3d53acaf31e81d3U, 0xf2ae4e33a5a9ba67U,
  0xb75db8205138b8d2U, 0xede9d7d949fcb43cU, 0x962cd1af25ec0edcU, 0xc781dacf0918081fU,
  0xb60cd4e61a94fc0bU, 0x70c520fc1681ed33U, 0x3609b9ab2b2a369aU, 0x341cb5b2f9d8cb3aU,
  0xa32b965068d92105U, 0x617fb12cf5baaef2U, 0xb03e2c8533b3675dU, 0x924ca1421a1e5837U,
  0x572a151203c4e079U, 0x256a4efe28c7ce0aU, 0xb83c3d3f6ae10533U, 0x32a7f1edf0d3add7U,
  0xf2fe39d8f14f1c7fU, 0x48af14d0214252f0U, 0xb4eaf9fddedd23b5U, 0xe250ebf2e97f1b27U,
  0xe09bd3b39c37db1fU, 0x4aecf5dde57bb11dU, 0xf517bdde0c54c1b4U, 0xeb5ba68151f7e29cU,
  0xeb5db9ab9601223aU, 0x24e4452c3dde0c0aU, 0x85ef31814cf01ebfU, 0x2028d696b2551c06U,
  0xd951ccef5a06d3e4U, 0xa38135b447e4c034U, 0x8cc8f5bdc208f335U, 0x14a1e5e1ad4dcd41U,
  0x45b4d1e6059c81efU, 0xbc2cbce1ee243cbaU, 0xddd9a63485cae703U, 0x3a176ed1afa5ad09U,
  0xe3e0a69dce88cc2cU, 0xd0e1c67f2304c6d6U, 0xe41858f98b1210fbU, 0xfaf3a62ab50f4ec6U,
  0xefe353dcf503447fU, 0x35a5bdde38b426dbU, 0xf53fc400f4ed9d01U, 0x1a0fced1c513818cU,
  0x4a2ab5fade3ae814U, 0xd29583feab9fc59dU, 0x569cecead73eb1b3U, 0xc4e303fd93cca1aeU,
  0xfe7faf1c0e5bdf9dU, 0xf722a13e0ac459feU, 0xa21ed8a64e45b513U, 0x202981cc39b46cb2U,
  0x4fc6f1d41fd7adb4U, 0x4601efa0ca5e5750U, 0x8fc42a86b18704a8U, 0xb3e0bee93d3a9e55U,
  0xbc1a6dcae7d4aef5U, 0x1ae09c1cf581fe12U, 0x4527af4512982a15U, 0xf79d5678683af2d3U,
  0x42e83d4595197fdbU, 0xcee5e5ea62d79a09U, 0xe472f50615c907a9U, 0x68cc8a2d3741eed8U,
  0x22a8d4303281cfd1U, 0xf2fefee5cb7f92ddU, 0xe4f6363beafa63c0U, 0xfa4d1ce3fb1b0414U,
  0x1deef69fd445aad1U, 0xddad059731439f1U, 0xc606bc237f14cf8aU, 0x2a3912a7c8dc3d18U,
  0x762dbd24ef373023U, 0x5fb8cc6d1c4df693U, 0xf9b60fef81d1109aU, 0xe73c27db3c244b17U,
  0xc61cc5d6bafd2b05U, 0xc526477d6c711ae8U, 0xf20c14b7a6aef6b9U, 0x5125c73df67faddfU,
  0x81cdf7ea9841d5f3U, 0xe74e15e9bade64ceU, 0xddba24db5f3ea6e8U, 0xfbd8ecde3b61dc65U,
  0xb6eed93748f2d600U, 0xcbdfc90dd2cf1618U, 0xfdcdbf3c87f3899U, 0xbee2c704210b7ff0U,
  0x3f003604be2c1503U, 0x45631cdf7fef060fU, 0x8e8fad6cc3deb0fU, 0xe8db1e2633d2c30eU,
