/**
  ******************************************************************************
  * @file    network_data_params.c
  * @author  AST Embedded Analytics Research Platform
  * @date    Sun Jan  5 15:15:36 2025
  * @brief   AI Tool Automatic Code Generator for Embedded NN computing
  ******************************************************************************
  * Copyright (c) 2025 STMicroelectronics.
  * All rights reserved.
  *
  * This software is licensed under terms that can be found in the LICENSE file
  * in the root directory of this software component.
  * If no LICENSE file comes with this software, it is provided AS-IS.
  ******************************************************************************
  */

#include "network_data_params.h"


/**  Activations Section  ****************************************************/
ai_handle g_network_activations_table[1 + 2] = {
  AI_HANDLE_PTR(AI_MAGIC_MARKER),
  AI_HANDLE_PTR(NULL),
  AI_HANDLE_PTR(AI_MAGIC_MARKER),
};




/**  Weights Section  ********************************************************/
AI_ALIGNED(32)
const ai_u64 s_network_weights_array_u64[31899] = {
  0x3bac82430cdb2791U, 0xd18127721453be55U, 0x2719b9bd263a9735U, 0xec3528bf168539f0U,
  0xae946e8c165813eeU, 0xff4fe09a22ba515aU, 0xdbf0f26742427f24U, 0xdab3f3e2811b5ae0U,
  0x85e2d13d891f37bbU, 0xd3522bf3c92d1cd4U, 0x817c4de610c4f60dU, 0xb59ec62408fc72d0U,
  0x1dfdf50d0d8f71eU, 0xf336b121572ad077U, 0x9500b96b7f560241U, 0xd2a70bc865394fdfU,
  0x382f75e762c79c2bU, 0x9a16a0c45630e0U, 0x9826c4e655e10dfeU, 0xc91c3c7f0833642eU,
  0xb18bb146ab1dcb0U, 0xd50f3c6524fe649dU, 0x96224081c2eeac96U, 0xf7ea194e3a9cc1f4U,
  0x2e4404522860247fU, 0x53f9f6b3553368e9U, 0xbba24d3ebc1970c1U, 0xffffae980000131dU,
  0x7320000574dU, 0xffffeed8ffffd046U, 0xffff8b6400002fecU, 0x254b81241e1aa563U,
  0xdc5f717ff6461c82U, 0xcf2fc573c77e5daU, 0x21bd1f96d05d7658U, 0xa56b2129bd937f7bU,
  0x888169d07955ca8bU, 0x7f5ecd9f8181d000U, 0x4b83fa6964c3067fU, 0x51b160bb2b2ad5a4U,
  0xfffffeaafffff9acU, 0xfffff9e2fffff8c8U, 0xfffff465fffff9bbU, 0xfffff8c40000014bU,
  0xa039cb9f81080704U, 0x15b513812a9f1115U, 0xcb81bd8bacae2adeU, 0x8d7c33530b7f0d3eU,
  0xf6953d181f7d6d7fU, 0xbc7f62c9cd9011a6U, 0xf1032ed881cdbd2dU, 0xa615e62eea7ff8bbU,
  0xae100001397U, 0xfffff05700001cd1U, 0xe50ffffeb7eU, 0xfffffff700000b31U,
  0x87f8f5d3e3202f6U, 0x7f27c79b69a8191cU, 0x7dd6721917f1eb5U, 0x38dea933f97fb616U,
  0x4b6bf90a81419715U, 0x1c4118acfe7ffe20U, 0x12818cd19913fa8fU, 0xecc122e6013d981U,
  0xd3307fcbe07bebc0U, 0xdfca58bb4d7f8c22U, 0xc876964f01608171U, 0x40dd26677fc8c812U,
  0xcf4f81ac9e25bb4eU, 0x7f67d02f6377249dU, 0x810c4eb2a2cd7b08U, 0x28103fdb1c87374U,
  0x5da5d1ec0581934eU, 0x81123f416d8eebb0U, 0xd8086536537f756bU, 0xbb4e4b1e810c43e7U,
  0xaa1d650f502781e7U, 0x981cca81d7be1d5bU, 0xfa7ff5e75918d9bfU, 0xd01bf268ac2d2281U,
  0xc39cc5a09381cd30U, 0x594ebc81dfb9be9dU, 0x6d35ce15eeeb81cfU, 0xfdcd5381262477bfU,
  0x19f5aec81a43063U, 0xb07ff0b613efcf0eU, 0xf21eeb067f432a28U, 0x18813d29e1088a37U,
  0xc17f2a81ccc3963bU, 0x2e88c93f5b7f2673U, 0x9d652e7f0ea4a54dU, 0x2223c8d30f6d181U,
  0xd62e539ede81d5b7U, 0x71557ff2cfbac96eU, 0x816349611bb45762U, 0xdab83181fce9ff0dU,
  0x7c81a3bee3dfc14cU, 0x63fa4d5fb5a37fedU, 0xb1c3ba917f970c57U, 0xcdb04ab18b35813aU,
  0xd3b6919153811f3dU, 0x811bd10fc891e07fU, 0x681f92dbf221271U, 0xa5524ba07fa29bd5U,
  0xfffffebefffffb78U, 0xfffffe9dfffffec2U, 0xfffffd8effffff76U, 0xc2000005fbU,
  0x2efffffeafU, 0xfffffd40fffffd5cU, 0xfffffa5500000265U, 0x7600000224U,
  0x159000002b5U, 0xffffff4cfffff8b9U, 0x3c8ffffffb4U, 0x108fffffe56U,
  0x3a7000007e9U, 0x78U, 0x17b000001bbU, 0x298fffffc00U,
  0xfffffa9000000359U, 0x2fdfffffe87U, 0xfffffd1b0000046cU, 0x37cfffffbb2U,
  0xfffffd37000003e6U, 0x40a000002e3U, 0x31a00000411U, 0x252ffffff67U,
  0xf95fc40881f6d263U, 0xe7eafd07decbf822U, 0x4db9a08141811ddbU, 0xe2fb33c6008a7fe6U,
  0x30dd1d27814a7d07U, 0x25a4c9af097fd6ecU, 0xb2368109b079995fU, 0x2b81217f95ac4652U,
  0xa4caff321821ea9dU, 0x6561228c7fe430baU, 0xc08c97fc191dcaafU, 0x6e6281b72540cd4bU,
  0x64950ee6367fd253U, 0x331ecd6481470ab0U, 0x43f656fb64dcd081U, 0x2c1b1e10217dc543U,
  0xa2ac929216474330U, 0x134c9881813b5a4eU, 0x579ed12336617b5U, 0xf0214b5334c0538fU,
  0x97f815052b7cd716U, 0xc30fcdebbd81ffd6U, 0xcdc176d447d3f80aU, 0xefb0cf2472e80b1bU,
  0x5c16e243ef8d8132U, 0xfbfa7f66b9b5506cU, 0x24c462244cb428d9U, 0x81f22bc810be7594U,
  0xfa5747397329153fU, 0x242451f70849dc31U, 0x1912f0ce5a151e7fU, 0x18a75f26ec81dc1fU,
  0x5c047f28365d7f65U, 0xf45c0389707d96eeU, 0x81a5feb85b1a2df4U, 0x8181dab2f1f4487fU,
  0xc3812f7ec4198c94U, 0x8120c8dacf45f4c5U, 0xd28115abca74321fU, 0x237f81ea08bdfcf2U,
  0x9881b881b4e75344U, 0x28642f04e212d3aeU, 0x7fd8437f9923c00eU, 0x3301dcd53fd342e0U,
  0xd9baf62d7f1c7f9dU, 0xf2125fa18a8e5e16U, 0xd13c7fb3101d7f81U, 0xb76d2ac342a7982dU,
  0xe4c59be722a6c9fbU, 0xc7f9fdd1f4ab7f7fU, 0x7fd5ae1941616996U, 0x400910810167f981U,
  0x4d1922ed157f4110U, 0xd99b6639c09e7f3dU, 0x1de7ffffed46U, 0x870fffff4cdU,
  0xdb8fffff26dU, 0xfffff465fffffd0fU, 0xffffe990fffff890U, 0x13ac00001a38U,
  0xfffff582ffffeff9U, 0x14900000893U, 0xffffeae800000fa5U, 0xffffe1f4fffff221U,
  0xfffff640ffffff84U, 0xfffff99500001ebaU, 0xfffff68400000fa9U, 0xfffff8a100000426U,
  0xfffffada00002438U, 0x195ffffead8U, 0xffffe397ffffff47U, 0xfffff505ffffee2cU,
  0xfffff8dd000014c4U, 0x16cb0000138eU, 0xfffffdbfffffeec1U, 0xfffffe9ffffffbc2U,
  0x49200000f0cU, 0xfffffdd8fffffea2U, 0x751c131b4c1a7faU, 0xda94d681c460d5abU,
  0x10b3a9a772b6c3baU, 0xdeb104b513673bc2U, 0xae47fe9c05a0e125U, 0x154ecc4be0fa1727U,
  0xb47fedbdc034733fU, 0x623c10afa77c049U, 0xf31e5e1079110ab3U, 0x180f21fb3bc76ee8U,
  0xb4329afac5f04ac4U, 0x6a641b0be1142eaU, 0xc7b7e1e0eb66c39eU, 0x7546a297a602ce02U,
  0x28520f5bd874cc24U, 0x1a20ab0b40aafc22U, 0x15acb6f3db277f4bU, 0x293817eb07d0e7d1U,
  0x50df0c5ab95e291dU, 0x11a7f55d5a802U, 0x32f50f46cabc265fU, 0xf397d8f83944f3f5U,
  0x1a06bbdeb63e1bf9U, 0xdc113b5b28a7efddU, 0xeb1beacabe2fb1feU, 0xab4a74c0a3b76968U,
  0x99ff7b696de7627fU, 0xb7275b58fec57c5U, 0x3e9404942d3df5ddU, 0x103649e3138ab313U,
  0xcbfe3e4dc695ae81U, 0x9bd202c35042766dU, 0x1fa8302a51d2b8f9U, 0x10f6e7b24e48950aU,
  0xc44109dd65835731U, 0x5a1dbbb1e155b029U, 0x3bfde1659d1cc33bU, 0xda79c253900de44U,
  0xe8bd4d11c2498804U, 0x55d77fcb5bd51f1cU, 0xbc27f0e383dbc835U, 0xd52151eed3d2a492U,
  0xe79015c400719ac7U, 0xb039eafb1b3ce2beU, 0x4ac6412424e5d703U, 0x12d0f9939c37c1aaU,
  0xe3a0a61a7f4b455U, 0x663b543d7f62497bU, 0xffffe63400003e16U, 0xffffea6000000618U,
  0x53bfffff616U, 0xffffffef0000123aU, 0xbe81979a152eae7dU, 0xe281e124d41c9a53U,
  0x8f810bfc3e523099U, 0xc296815a23e34b52U, 0x661484810044299eU, 0x38697feb21e86806U,
  0x81d12b631bd81f0fU, 0x287f0dc54103f3f5U, 0x7f30d606d4f6fb6bU, 0xdd50b223e681e33eU,
  0x8160dad6ac72d1c6U, 0xa23381c95bb3ab3eU, 0x9cc9dcffdc1e81dfU, 0xfc5952bf429aa181U,
  0xcd41e3dc1d7ea87fU, 0x4b72690fad7f5fcbU, 0x40d7f64f8101f3c3U, 0xa5a27fd1643bfac6U,
  0x7ffff7725612770fU, 0x66817df21732da0fU, 0xdfad13b381cff96bU, 0x59eabc47f44afb0U,
  0x696ddb5b81418b84U, 0xe46063026030381U, 0x310d475af381f967U, 0x332d7fca61594b26U,
  0xd132203bdaddc581U, 0xc41613811ffd2449U, 0xf4e09fe69f81f9f8U, 0x21a27f0ed40111f8U,
  0x6284fe7581cb3a60U, 0x3129f47fcea509edU, 0xf97fb2926edea1f0U, 0x33f13cd80fb2497fU,
  0xca28edc1c47fef49U, 0xb3b08e7fba60959eU, 0x16cd970aad5a1081U, 0xad71c87d65815498U,
  0x137f8a4163268b70U, 0xa76cd2ea3be7977fU, 0x6b717f77abb1cdb5U, 0xccec815d3774ea21U,
  0xe8fff721e581e934U, 0x823755a0814e45b3U, 0xae9dcb0b5c0fbc81U, 0x81fa264024e2bef7U,
  0xe1777f25c2bfb20dU, 0x1707ea1ca8815618U, 0xb40000004aU, 0xffffffe9000000bbU,
  0x2b00000011U, 0xffffffb7ffffff8dU, 0x26000000a0U, 0xffffffb4ffffffccU,
  0x86000000c2U, 0x7bffffffb1U, 0xffffffd0ffffffa4U, 0xffffffa0ffffff99U,
  0x19ffffff76U, 0xfffffe7800000024U, 0xffffff730000007fU, 0x11fffffff1U,
  0xfffffefc00000054U, 0xffffff78ffffffb9U, 0x14300000131U, 0xffffffefffffffd3U,
  0xfffffe9e00000020U, 0xd0000007dU, 0x24fffffe4dU, 0xffffff63ffffff72U,
  0x6effffff4eU, 0x2000000059U, 0x1dd804dc8224c960U, 0x167b27fdf80b322fU,
  0x15ea704a6c7da45U, 0x15ea81ee32d02607U, 0x122bd2b1f7121325U, 0x2972fb06ba9b1c27U,
  0x600122317296c7fU, 0x273b4725816cda81U, 0x64b5843da134f97fU, 0x39c1eedd8137fe0U,
  0x78f3d681675b3c08U, 0x7f7fedac7f810bd5U, 0x7ff74a4b4bd5c14cU, 0x2029faa969f47f36U,
  0x4cc960fef5122a50U, 0xed1d36aaf71a7b32U, 0x862d2a127f7fc42dU, 0x7537f18822a15f7aU,
  0xb1f0312e7f2000f8U, 0xaaed4a1eb3fb91e2U, 0x3c9fa440ad318110U, 0xc0d9d21f489b1f87U,
  0xf2def9a0de77987fU, 0xe96d1ff6253d9357U, 0xf8efcd0802e581ceU, 0x8220e721888123acU,
  0x7fe0237f81ffcf32U, 0xb30406747fe212d1U, 0xcbfc014bf6263e55U, 0xb4077f25af3f06ddU,
  0xd9e66ff326dc6b6bU, 0x8181ad81f6214416U, 0x17fd574fe0812156U, 0xf981ee89dc84d58cU,
  0xd2517ff6441b8144U, 0xcab46339daa9d635U, 0xe17f810eb57c423cU, 0xfe4c133f3aa0e236U,
  0xf68181c9eed61330U, 0xbf320e50defa042cU, 0x2da92d36dd095ef5U, 0x20c0e8b446ddfd5aU,
  0x404b857ffd4630adU, 0x62057f7a71c7b8ecU, 0x33dc9b6cf29f9032U, 0x810758cb0a81e6ddU,
  0xe081078be2d3b549U, 0x3428dc8131475b81U, 0xe257a052fd7f11d2U, 0x1b6735036039495aU,
  0x333ee9f9489fe796U, 0x6bef147f22e5ab81U, 0x7f612ce6380d7a58U, 0xc0f9dbaa2e6681b5U,
  0xfffff981ffffef19U, 0xfffff97fffffec03U, 0x9bcffffee8aU, 0xfffffd64fffff65eU,
  0xfffffbc9fffffd61U, 0xfffffede00000498U, 0xffffef8bfffffc82U, 0x7adfffff0e1U,
  0xbf8ffffecc2U, 0x141200000f63U, 0x13b2ffffee3fU, 0xffffe93c00000e06U,
  0xfffff42a00001258U, 0xfffff52000001887U, 0xfffffcdbfffffc3cU, 0xbaa00000a60U,
  0xfffffea6ffffdef8U, 0xfffff0c1ffffea36U, 0xfffff6ed00000edfU, 0xfffffe69ffffffd0U,
  0x365fffffb9aU, 0xfffff73e0000082cU, 0xfffff882000016c3U, 0xfffff8efffffefa4U,
  0xd02ef0efebf2fd41U, 0x2de5e3ef228b31acU, 0x81a3b56b9bc634bdU, 0x28390ad432663b0eU,
  0x9ed2c847c50ad42fU, 0x5e40aff21413a353U, 0x9b55d76a06313871U, 0x983d91e3d6131ec7U,
  0xc85ddb1258aeff5fU, 0x7f1a79b4e869aedfU, 0x6068a84c757625e3U, 0xefd7e08400449caU,
  0x37b354c6153573beU, 0x5b02b2b47f9cd40U, 0xbfa7f78fce1ec518U, 0x139df8c3eceedf9dU,
  0x1c49cc520d3a92f9U, 0xea7ff80728be1eefU, 0xd63f2ae9d5e33314U, 0xace33181ca38ab34U,
  0x1edfafce14e16693U, 0x3f8c48c223a50107U, 0x96df5844c34d0d21U, 0xb3d0e855b38104efU,
  0x7f4a0d43ef02bcd3U, 0xe12f060fdc3ff53eU, 0x9ad6053ceb3e32faU, 0x1f122f56abdf5eb2U,
  0xe110533fbb3d39f3U, 0x270a632dbe0d5910U, 0x52f80c9ed95b41dcU, 0x420d4e50da093926U,
  0xc2c9cf2f5910bc5aU, 0xb64442e021a4c604U, 0x112f8dcf99ca81faU, 0xf96d3a5209939ec2U,
  0xc967a981dda93834U, 0xd978653611d327aeU, 0x4c92ef38af367169U, 0xf73618d823e203c4U,
  0xc86e556c490e7f43U, 0x1e5ccb30d68e559bU, 0x22499b3c58e81f1fU, 0x6ee5dd942ad41f1aU,
  0xddd36aceabffc17fU, 0x501f31e12e018f2U, 0x203d2d5609323f95U, 0x2051500f6bd4cc28U,
  0xffffc70c0000140cU, 0x215b00000f00U, 0x98ffffde74U, 0xffffe26dffffdeeeU,
  0xf21781adf7afa513U, 0x1cfb7f32dbb14261U, 0x1715cf64506b4a7fU, 0x2162112badc7f7eU,
  0x4349e0d281f5b0d0U, 0xf67f0f7ef0f0068bU, 0x7f5007c112a7f084U, 0xbf81db19ca439d63U,
  0xba070046a07f2015U, 0xd8361a63f33a7f57U, 0x815cddb3385607b0U, 0x3b24c800427fe1fcU,
  0xcf01bbf86c6813bU, 0xfdaeea3e814a0646U, 0x81e872014f3cdf74U, 0xe1be814f1a1cbf71U,
  0x7f0c003dfc7b0f16U, 0xc34d5292737b4c7fU, 0x44c5ad811d1f4b66U, 0x2a7ffff6ea2bf4acU,
  0xb9b15b0964c42181U, 0x35c1e61481634309U, 0x9698062be4637781U, 0xf97f5785c550ad24U,
  0x5d4381bbbe8ddfbdU, 0x42e5e2b27f8c21e4U, 0xe95e7fe06a525733U, 0xe0dcd5f35a4c4b81U,
  0x41305c813f62eb03U, 0x4381633d71b69c03U, 0x2a817d43ac787a9dU, 0x7d9f382072758129U,
  0x23812218d1efce32U, 0x55de2d58e6538d81U, 0x3122e1c127c1c27fU, 0x19468c0eeb947faeU,
  0xf4e1d9b6217fcc39U, 0x8d223ccf41c181caU, 0x20f230f7f6adf88U, 0x4b8b05d723c67fc2U,
  0x4881d13dbedc40abU, 0x1395dcc507f240fU, 0xf628a9cdf5b17ff0U, 0xc57481716c26af35U,
  0xd8d481ffcd5f4d89U, 0xfb81e99369cb6e6fU, 0x7fd543795e23abb6U, 0x2f497a3e814c1fceU,
  0xffffff9d00000101U, 0xffffff78000000e2U, 0x40ffffff31U, 0x50fffffe37U,
  0xb5ffffffc0U, 0xab00000000U, 0xffffffedffffffaeU, 0x1b00000175U,
  0x6fffffff66U, 0xffffffec0000005aU, 0xb80000000eU, 0xc200000037U,
  0x7dffffffaaU, 0x5a00000011U, 0xfffffffcffffffcdU, 0x41000000eeU,
  0x9b0000001fU, 0xffffffc0000001c6U, 0x260000004dU, 0x17fffffff1U,
  0xffffff990000002dU, 0xffffff40ffffff4cU, 0x29fffffffeU, 0x41ffffff9dU,
  0xa8440398e3023b14U, 0x6bc910b6d4112d5eU, 0xd8817fbdddc83c21U, 0x8506293cb9db4156U,
  0xb7a813598a83032fU, 0x8c3ed9b40195eb3bU, 0x811881cde34c6a69U, 0xedaf8f7f09817f2fU,
  0x746de4468181c101U, 0xfdef7f811e818163U, 0x8b9a0df444d601a5U, 0xb1109fa3e86fbf5U,
  0x334e06178134e4f2U, 0xec042e975cb73681U, 0x40c24e48dbabd3ecU, 0xdd0d291e00ebd11fU,
  0x7981f8be50a2d8a6U, 0x25d7e8032cd3e28dU, 0xda61af013b0e3e3dU, 0x561b9c840d1142e8U,
  0x7fbe10e38513bd7fU, 0x3ff86e6cf0c652f8U, 0xd16310818197fedcU, 0x81bb89bf3fe02bb1U,
  0xad7fbf4805587fecU, 0x203287483113635fU, 0x4d10fd79c390702cU, 0x35841d377f81ee52U,
  0x7f287fff96148199U, 0x4b3f09a47fcb9681U, 0x1b461010c22d4612U, 0xd381811781f6ec29U,
  0x5d9de7fb4a67fd5U, 0x7e814ab921930f81U, 0x77413945b6aa9381U, 0x767f81812331e025U,
  0xaef3b681331e55f2U, 0x7fb7b44909ab18faU, 0xfa20561af2acf6dfU, 0xf5110d052e1dfaf1U,
  0xbdb1f80dc48199e0U, 0xf95baa46425a00a5U, 0xfd432e0d5b7ffc7fU, 0x7fa6a5bc21ec4a11U,
  0xece06a38b8dcbd63U, 0xe9f1d70d3dfa1393U, 0xf908454850d17ba7U, 0x5633c7062a7f7f69U,
  0xa30954d5433dedfaU, 0x61c910d1df016a1U, 0x5ace593ccf3bcc16U, 0x8120dcbf2a0beda9U,
  0x65d3e0d9ffcb95a9U, 0xd70c1fd2f51b26c8U, 0xffffec7effffef63U, 0xfffffd8effffe546U,
  0xaf8000004c3U, 0x1cc4ffffeb66U, 0xffffe2b8fffffb37U, 0xfffffbe800000faeU,
  0x25ca00000084U, 0xffffe504000015bbU, 0xfffffed3fffff3ddU, 0x20cd000024a5U,
  0xffffead3ffffe862U, 0xffffe97a00000a7fU, 0xffffff9fffffffc6U, 0xfffff517000018b8U,
  0xffffeecbfffffe4bU, 0x3d300000c6aU, 0x10850000219eU, 0xdcb00002d56U,
  0xfffff12dfffffe70U, 0xfffff3be00000cebU, 0xffffffbf00000d40U, 0xffffeab50000029eU,
  0x1e3a0000173cU, 0xfffffacffffff01cU, 0xebd82bf2d66a81fcU, 0xc116bede33b291bbU,
  0x29f1d61854bb7b1dU, 0xffd104bf18ae13ebU, 0x63407327e8b54bffU, 0xcbadc31e4af07e1dU,
  0x244a154acbe0bb17U, 0x977faa2d50d19b3cU, 0x1f132b5ebd9e141U, 0x4eeeff206eaecc6U,
  0xbc08dd38e276fd36U, 0x234e4ca3f7cc3405U, 0xf56860ee04a61fceU, 0xe9261cac23f3abeU,
  0x4927c5f457a1b026U, 0xc36029a6e5fbb7fbU, 0xd420029444a86519U, 0xba7fad55aff7ed65U,
  0x89421938eceea9fdU, 0xc7b952eaaeaef79aU, 0xb9e3157f0a118107U, 0x2d5b65ac327ba200U,
  0xaa3c540bd911bc4bU, 0x29c03bdd16c5b5bfU, 0x5d0732bf0db6767fU, 0xfd12f0a602da8709U,
  0x9c54ca0f110ce11aU, 0xef2fcbafcdb798e8U, 0xeeea5d29c12701c2U, 0x376a53025ae3583dU,
  0x9d18f8fa0c16aee2U, 0xe6dff356fc325a1fU, 0x581317ef2c1e3342U, 0xfd137c409a22dbfdU,
  0xdd593d4021122581U, 0x475e6230cbb45349U, 0xa561343a2fe1175cU, 0x580e82b4ddbcb7abU,
  0x4e03144f42ea2900U, 0x372a4202703feb1eU, 0x43b9c00702d3c90dU, 0x327fdf8a443d0313U,
  0xe37fa62dffa6ac2aU, 0xb01a4a3d2f9efe1eU, 0x4843d4bd0c5bd3b1U, 0x305abc3e4706054cU,
  0xcd1601f52ac8fda8U, 0xf74a2af1a74e3bcdU, 0xffffff9800000cceU, 0xc21ffffff68U,
  0xffffce56fffff302U, 0xfffff8b6ffffebe3U, 0xea15db0a3781d1b3U, 0x7f73e574507d1672U,
  0x431684e97f2bd3c1U, 0x8397aed1bcd7b87fU, 0x81055d25e8e3d7eeU, 0x5d0e52318199b450U,
  0x818a672418f99c43U, 0x18156096fa6d7fabU, 0xa3434687f3737a5U, 0xc17ffb538a08f4bdU,
  0x7f314a08d8f9da9cU, 0x8137fba9d782f6e4U, 0x8164a659efcc1dabU, 0xa254efd5ca28197U,
  0xaabf7f07f3e1c05bU, 0x430b7f4c5f21e5c6U, 0x12fcc1227fdda162U, 0x397f1a31e5d525a1U,
  0x7fd8d7674f82d2e6U, 0x5d627fa7e8f17a69U, 0xecfdcf077fa42aa0U, 0x23fd4681d7c13ebeU,
  0x277f53b2fd877607U, 0xed38f9c9cf11aa81U, 0x5f7f64b995add0c2U, 0x7f4abf65d6079f92U,
  0xb372a21c14df7fabU, 0x40ad7f52d101b0adU, 0x41437a1094109e81U, 0xadd82d7f54e3acc8U,
  0xa34c1be981b7f03dU, 0xcaea6151c181f3e9U, 0x66377f8cf32223e5U, 0x7f1ed15be21ad603U,
  0xbef03945e58131fbU, 0x7fd4d9c0bd196edeU, 0x790c592333477fe7U, 0x7f678d12cbe64bf9U,
  0x7f3127dcbe2ffcfdU, 0x3abc677f06632a69U, 0x7f7490633635e045U, 0x81cd10e7d2a345c1U,
  0x21f9dccef8816ee3U, 0xc4a4c1574e7fb0daU, 0x276f5d117fe0ee9cU, 0x5528101eb822249U,
  0x60f8e3b988da81abU, 0xd9a047331c387f00U, 0x13e00000002U, 0x6f0000009fU,
  0xfffffffb00000105U, 0xfffffedffffffd6dU, 0xffffff2effffff7aU, 0xffffff2300000071U,
  0xffffffb9ffffff2cU, 0xffffff97ffffffcbU, 0xbcffffffc0U, 0xfffffefeffffffe1U,
  0xfffffe7d0000008eU, 0xffffff6f000000fbU, 0x1efffffe7bU, 0xffffffbb00000116U,
  0x4dffffffaaU, 0xffffff0700000044U, 0xb6fffffe64U, 0xffffff4d000000bfU,
  0xffffff1affffffc0U, 0x27ffffffdaU, 0x9500000017U, 0xffffff69ffffff6dU,
  0xb40000006fU, 0xffffffd6ffffff6cU, 0xfa247f027dff8159U, 0x3dd7fe3dae77fbfU,
  0xb594811707014381U, 0x1d0bc4bb275509edU, 0xd0d7aee0d6e1eb0fU, 0x2fd703a94d4faefcU,
  0xccb6657f06e597f7U, 0xc8aae50ceeb50cfeU, 0x378fced6957f3765U, 0x995f5c45438f2f4U,
  0x6e81a2818110cb1bU, 0x5fd2c68446e52bd7U, 0xf84574e490e431cU, 0x9144d6f237c7161aU,
  0x4a5d1810d4233a2U, 0xb5454b590711cc98U, 0xc9da7b39e8583081U, 0xd1dee8817f3356feU,
  0xdd2e2f097f81a807U, 0xae8823318dea3363U, 0x36feb406f823819fU, 0xfb1d0371eb362c81U,
  0x93e69686e1bb7f47U, 0xbc7fd0320233081dU, 0x7415173b246ddd58U, 0x41d91481ecdbad7fU,
  0x7f98f8d87f3d9650U, 0xb6bd81ad414e7fdfU, 0x7fc32c88e7812114U, 0x154321bc0f7fda7fU,
  0x25ed79146a2c097fU, 0x8560b307fd8a8ffU, 0xfa8202fc48d2eeb9U, 0x818a21fc7f054394U,
  0x11db7ff24a8612ceU, 0x3a0eed875053e00aU, 0xb8e2f4f49048b302U, 0x60844d04cd3dfb1fU,
  0xe40acf2a44ffa9d6U, 0x3d2bbb7f3fa81936U, 0x63da910d2488f0b5U, 0x145bb692d0881f1U,
  0x1814cacfce4e6efU, 0x7f7f0cf9e97fdf51U, 0xe6d2f3fc6774c920U, 0xe62ff66d7f9f4ecbU,
  0x211b6b664c55316U, 0x812b8136494abb2bU, 0x7f9cbe0194a22432U, 0xbde11af63f5555e1U,
  0xe581db0f17246caeU, 0xae7f0e3a348100d4U, 0x15c5395871081512U, 0x20108b2e4355f9d1U,
  0x1501ffffec5bU, 0xffffefe500000182U, 0xffffe0dcfffff351U, 0xfffff7c700000cf0U,
  0xfffffb07ffffef54U, 0xffffff40fffffcc3U, 0xfffff1eb00000248U, 0xffffff3f000007d8U,
  0x49200000898U, 0xfffff1b5ffffe918U, 0x12fc00000251U, 0xfffffa27000030d8U,
  0xfffff1790000133cU, 0xffffe221fffffec5U, 0xc1ffffff32fU, 0x13b3fffffdabU,
  0xfffff2c70000027bU, 0xfffffb2f000019beU, 0x667000012e5U, 0xfffff47e00001605U,
  0x9cafffffbcbU, 0xffffde9effffe320U, 0x18c9000010c8U, 0xfffffe8dfffff66fU,
  0x3cc6941ad3b7ce4dU, 0x7f3b0cda37f0b858U, 0x972c463828365bd1U, 0x1df052d5f457a9f4U,
  0xc1ad64daeb742ec6U, 0xa0ecb765effb456cU, 0xddd16a3a5129b50U, 0x8c1acb4af52dbed6U,
  0x18c0d4db7ef4f722U, 0xefb4504146943b26U, 0xa8f3b2d67f1e41e2U, 0x1e0f3e33337a2abfU,
  0x4f62ed21b2cb0aebU, 0x81c25d52a7f61cbfU, 0xbb30cf9644391214U, 0x5fc3b307c6a0a1b6U,
  0xdbfc51e625225258U, 0xb43255e27d86f098U, 0x7ff4e05ba71006fcU, 0xedb61b0a32ce095aU,
  0x23d10b2cf419c2a1U, 0x53a9a6d75e3279d7U, 0xb34a52b4f0bd3c45U, 0xe8136b0127d4612aU,
  0xa6312eefc77b31e7U, 0x5d74c5decb21ed23U, 0x4d6599f5f279b518U, 0xabdee9ca81074439U,
  0xcb8ad661143d26e5U, 0x2153cb118f04d648U, 0x14ca305d35b40a4cU, 0x1fd2320cbbebb15aU,
  0xdcd0ec216e12c1fcU, 0x8d15dd353b8197a7U, 0x42fff8f7c6f1ef29U, 0xf3b1d2a45a0917a3U,
  0x7a08f0cb8a5b8805U, 0x6b11ca320b7d30beU, 0xc9eea1d7ec60133U, 0xb8d54ffce6a82ce6U,
  0x1dea4727349eaa69U, 0x7f2201e719e02f71U, 0xc5e1e0b11e67bc0cU, 0x14e0e1dca6afccafU,
  0xbe7ffe4ea2653147U, 0x5fe8e0fee93a9d46U, 0xfc0ec427eebed803U, 0x389eef5d002fc922U,
  0xfffff695ffffedc7U, 0xffffe7c3000007b7U, 0xfc1fffffd62U, 0xc4efffff98eU,
  0x33b59a7f26cbd03eU, 0xa6388146d1d713feU, 0x60fe7f273c6a3ae0U, 0xbfa37f1ea443e80cU,
  0x61c2947f57663068U, 0x7fd3a64f4a1963f0U, 0x7f1ee071ab2ceb23U, 0xedd5d9a542767f45U,
  0xbc4370ea4c2a7281U, 0xd1cbb0e20081516cU, 0x1f7fa9c062638995U, 0x1ce91e7feff5596dU,
  0x7fdbcb569586b6afU, 0x8c13180e3935815aU, 0x251c7f08f999e9d7U, 0xd22881c483a7c15dU,
  0x813c286910bf57f5U, 0xfc00e47f3d1e472eU, 0x26bb4a06cd027fe9U, 0x9b2f602ae4e68142U,
  0x97327721dcb67f4aU, 0x48b97fdd9dbdee8bU, 0x1c5681a4ba75938eU, 0x1181f3ea1088f855U,
  0xe0e75c7702f7e97fU, 0x1c810b509d18e9c2U, 0x7fa13da5be67e67cU, 0x3171cfd4ec287b7fU,
  0xb8ad327f3cbca53bU, 0xd198eed0328e7f90U, 0x925cc5e5d606a77fU, 0xa7081ca841e3727fU,
  0x5826816ec23aab6aU, 0xa21533c5c27b7f3bU, 0xabea2ef0b79def7fU, 0x986d3b4d8d7f1559U,
  0x7f62336ba124ea2aU, 0xbfe4f2ffec340781U, 0xe38587577f77675fU, 0xe37fc74806196b0eU,
  0xd2234844842e7f3bU, 0x587f36f525d8e3beU, 0x747fca920a5f14cfU, 0xbf8109577696a9e3U,
  0x1a6303d381d0ae76U, 0x36a7b53784337f04U, 0x3a4f117fb5ee2713U, 0x5cde81e5c1a8f20cU,
  0x1a00000065U, 0x19300000100U, 0x1bffffff8bU, 0x3000000073U,
  0x2cffffffdaU, 0x8affffff04U, 0xffffff8b00000037U, 0xffffff4fffffff38U,
  0xfffffeb3000000e7U, 0xffffff08ffffff00U, 0xffffffb6fffffeecU, 0x93000000c3U,
  0xc1ffffffc9U, 0x1340000001aU, 0xffffff64ffffff6dU, 0x50ffffff2cU,
  0x1cffffff4aU, 0xfffffff5ffffff28U, 0xffffff910000002aU, 0xfffffec800000065U,
  0x82ffffffeaU, 0xffffff83000000baU, 0x21ffffff8fU, 0xffffffa100000003U,
  0x812356221d7fae5dU, 0x31a01381902425b8U, 0x8dc80acfc6f981a7U, 0xa1d1fef3ec2d0c81U,
  0xd75629e2ec7f0138U, 0x10e7442f2ab9c7d7U, 0xb27fc290ced519baU, 0x8e43ad4e8f421c2bU,
  0x81b1e2813b690486U, 0x2fb87f92dbddbaf5U, 0x8165edaf082ec375U, 0x544beea01891b77fU,
  0xa112c7817fc50d37U, 0x967dbcf73a4f1f0aU, 0xb4335ab6810913c2U, 0xa360eee8d55f2a82U,
  0x660dea9e0be71649U, 0x4af2f9ceb27f34c9U, 0x823ad7d4eb1ca4d7U, 0x8c163033ada9b4dfU,
  0x2dba9ff7c9a93b9cU, 0xcdad0a22bd7f0f29U, 0x2b7fedf57f0bcd7fU, 0x1f0dfd78e58e2320U,
  0x9eb0ed0e111c9182U, 0x28fb0fc9f27fac81U, 0xe781bdf4c848dfd2U, 0xa7f28c981c45021U,
  0xe4c5a94a681ee323U, 0x15a54c612492a01U, 0xd5bb818a5082297fU, 0x8138d14c7fa336ecU,
  0x38656a9b625a781U, 0x877f19da9e132edbU, 0x6f11b0240f27f3aU, 0x21cc07b1afe2b548U,
  0xf408c7612c3ab824U, 0xe443d41b9af081e3U, 0xbfe29cc728812bf7U, 0x9405107f24f97f1aU,
  0x56395b8143f0e42bU, 0x1b818191816b36f9U, 0x87c20ef0f5d19078U, 0xdd7f21b03741efa4U,
  0xaa1cc51c25daa69cU, 0x81c97622f7fe4fd5U, 0x6ae57f1071b94597U, 0xc7ef8b087ba97ffcU,
  0xeef6c1e8c31d7f65U, 0x913e8111e9a5f6d8U, 0xb1c7fb8433222b3U, 0xa27a5d220c1335f0U,
  0x543510ed0314f417U, 0x7ff19f815b26fbafU, 0xdc3fffff0bdU, 0xfffff97000000003U,
  0x164f00000e78U, 0x2f8bfffffe9aU, 0x7ab000015a0U, 0xf5efffffbc8U,
  0xc9dffffffd1U, 0x1acbffffe818U, 0x613000034f4U, 0x64bfffffd10U,
  0x200001b13U, 0x175700001b98U, 0xffffe86500000afcU, 0x16cffffff287U,
  0xffffe83400000596U, 0x2bcffffff5d5U, 0xfffffd6effffe8eeU, 0xffffeaf5fffff988U,
  0xfffff93f00000c3bU, 0xfffff4b3ffffed14U, 0xfffffc57fffffc0fU, 0xfffffe9afffffd7eU,
  0xc1100001612U, 0xffffef0e00000217U, 0x1cdfe92d5e2e6895U, 0x537faedc64f773bbU,
  0xd2e4e7040eafb5c7U, 0xa621b69cabf3963bU, 0x2e3a7ae51ba30c6U, 0x3a36c540f1e07db7U,
  0xb9f0bfba79fe154eU, 0x6d49150ddce9adb7U, 0xe73667b012241aa7U, 0x1506f939934e48a6U,
  0xd6c0be4328032daaU, 0x81f9c41c2a46bc53U, 0x8ff02b4fb767119aU, 0xb851a0fcebfd31b3U,
  0xe9a795d80d431b4eU, 0x1bb09c3539b8fb09U, 0x37211ec17fcb6bc2U, 0xb9b05a02adddd2c3U,
  0xc92b9ce08390a2eU, 0x68200302e484748U, 0xb947c4c5b423b774U, 0x7e05609c0605cfd4U,
  0xa030b9fbbf188139U, 0xc8c4ca3998be8d07U, 0x4b32c5b7f10712f5U, 0x580945f24bede621U,
  0x7f965b41d5462c64U, 0x5ea3e630d126bad4U, 0x29d4bee2fa261c4dU, 0xe6b438cbf0c9b5adU,
  0x7f08277c4098b2d2U, 0x43fff1ed2a85229fU, 0x19b7554cd2d89361U, 0xe7c7469a58ddfd41U,
  0xb4e15cd4d0a10e18U, 0xb9be16706f95ac3dU, 0x4c2faa5b05dddd04U, 0xbe66a649025003adU,
  0xf61459b2d57f00deU, 0x14fd2e21972d1b4cU, 0x3fb4c0134a9c83eU, 0xfbde2d2264eb473eU,
  0x16a2450c08c6ffb4U, 0x4052d3b8b7b4a6edU, 0x9517d479e748236fU, 0xa515119c071dcU,
  0x4f615ec4498176abU, 0x66fede95d3f19ae5U, 0x91f000014c2U, 0x155b00001962U,
  0xfffffe3fffffefb0U, 0xfffff5d4ffffe4c7U, 0xd840f6a681f2cad5U, 0xad7fa06f15fb5475U,
  0x37117ffd03b222caU, 0x7faa309c08b23afaU, 0x5181588839e6e773U, 0x6709222129297fa4U,
  0x819537250a648ccdU, 0x873ff3bea07ff6fcU, 0xfd79c5f84d960a7fU, 0xdc91812439fc9b68U,
  0x1d4c3109fbda7fa4U, 0xf04ecdfdc3c97f8eU, 0x999b6aced77f648cU, 0xe6794b8186455ee2U,
  0xaef1ddd3be397f9aU, 0xd5c31df5a7fff281U, 0xaaa462f87f2cc749U, 0x81eda2e7239ef633U,
  0x9832a260047f332bU, 0x7fdf8359e419dd1fU, 0x58811dc807d7e8b3U, 0x7f7dd39c247d316fU,
  0x7f0ebd90446ca907U, 0x7d18f63039627fc0U, 0xd0daba81c3e40864U, 0xeb8981148d72b3bcU,
  0xc763bb8381b47013U, 0x601881dc70bc635dU, 0xa415523681d2dc77U, 0x9d1681bc71b9ec77U,
  0xa4c37be3c01e7ff4U, 0xb6137f05ce210a2dU, 0x2c7f041e37fc72bU, 0xee3a35c45c7fe141U,
  0xbb514d35816e766bU, 0x34e3fb269a8b813cU, 0xdd3ff7e64781fe57U, 0xa725d1671fc35c7fU,
  0xa081155f3132855aU, 0xdf9ccc810724f9fbU, 0x33bb2efd7fab8721U, 0xf3051548fe10ac81U,
  0xc87f029cbc281621U, 0xa43127759ee37f15U, 0xb4442f9d81b90bd1U, 0x1ee1ecc17f993c48U,
  0xe851f2617f14d547U, 0xca4881a119a73d9bU, 0xffffff5affffff7fU, 0x90ffffffcdU,
  0x4500000199U, 0x131fffffed7U, 0x40ffffffcf3U, 0x16ffffff38U,
  0x18affffffafU, 0x83000000bfU, 0xffffffee000001b0U, 0x21200000098U,
  0xc8000000b5U, 0xb200000173U, 0x1c5ffffff71U, 0x43fffffe50U,
  0xffffffc2ffffff22U, 0xc00000222U, 0xffffff4effffff6bU, 0x20ffffff92U,
  0xfffffdc900000072U, 0xfffffff1000000b7U, 0xfffffec9000000ccU, 0xf2ffffff36U,
  0xc0000001f5U, 0xac00000297U, 0xe1a5836d8ae067fU, 0x320348140f3a20dU,
  0x14d6abe232d4f9dbU, 0xb238457451a49fb8U, 0x28e57fc3ac3b5727U, 0x6a9875eccb7f813dU,
  0xb3817f1c29d0c407U, 0x5881d3b76cc8d3f6U, 0x81d2fe42d0818100U, 0x3c7f794bb581f7eaU,
  0x67f57c81d67ff94eU, 0x5df56a47df4eb152U, 0xb4d40f25988fe439U, 0x61bc58b9fa047fc9U,
  0xc49e81f1b8ebc50cU, 0xc62bb67f96938310U, 0x55abd7bacf017fd8U, 0x1f81012ec72f84fcU,
  0x81d006db7ffe200bU, 0x39ca3486f77f96c6U, 0xb1efc36a819616ffU, 0xc0151954d3008181U,
  0x28637f9305786172U, 0x70df7f3eeff23a43U, 0xc18f39bc367fe6a5U, 0x75bbfc0a3334f581U,
  0xb6da95458ebcbb8aU, 0xcefb7f68a7c4fcccU, 0x727d5791215f2f7fU, 0x7f004d7f81428d7fU,
  0xadc1dd08fbf7ffeU, 0x27c2935e3ca5fdedU, 0xc2b1bda01301f30fU, 0x5343c5efb6f383d4U,
  0x7f7f2cb8bc2e59f6U, 0xf3eb34f9c4e5b11cU, 0xc946ef815e5ad997U, 0x81fb3ddbbc1a9d34U,
  0x127143fc9202881U, 0x81ea2ea413b6b5e4U, 0x5d230fbc2c05f4e1U, 0x3fb2c4cdec9cd1fU,
  0xbfe6ba0e9549089bU, 0x18c4db588131c8feU, 0xba81847f8f253ebeU, 0x13e55d06efdcbae0U,
  0x75f70806c8fa53d6U, 0xbd00e2ffd800d6U, 0x1944ee09409047b9U, 0xfe88139e6101fbdU,
  0x31a0f41ade02beb5U, 0x2716bc1e81f818eaU, 0xa3c6f419810dde02U, 0x1ae609c2ac03a9b7U,
  0xfffff991000003d1U, 0xfffffd020000072cU, 0xfffff38800000bd3U, 0x1aa300000e3fU,
  0x119a00000ae9U, 0xfffff8a0fffff6faU, 0x1e000000a75U, 0xffffee5a00001bbeU,
  0xd2f00001c6dU, 0x22ae00001828U, 0x237fffffee3fU, 0x1b6c00002348U,
  0x2f2a00001a20U, 0x226b0000218aU, 0xfffff085ffffe776U, 0x9cffffff126U,
  0xffffe2d6fffff223U, 0x1164ffffeafcU, 0xffffeb74000020f1U, 0xffffddb5fffff13bU,
  0x13c8ffffed65U, 0x2132fffff1d3U, 0xffffe4befffff2b8U, 0xffffdf7e00001919U,
  0x25e0ade04799f92cU, 0xc1e648f6bd4fffU, 0x3e56edbffbeea66fU, 0xcc23cb1bfee06f9dU,
  0xc9ba819ea108de08U, 0xfd31c935b9f96eceU, 0x4c9c7aebadbe9122U, 0xb5eea181332b100aU,
  0xc824a8353c974095U, 0x2049bdac23cc7604U, 0xae3d173ef25ee3e1U, 0x99d5a4c0e54ff504U,
  0x3894b35b46e4c83fU, 0xa101e92718d810faU, 0xdcf40c7d1982b4eU, 0x41aa3c0d05faa9a9U,
  0xa6f57f5dbf549950U, 0xda142d01e09f52c1U, 0x18e41cc930b4bdc2U, 0xd2a8c5433ad4d5f6U,
  0x3713fdcdaadd53b3U, 0xe0563d625dce8115U, 0x57d130cfe73fd61dU, 0x3acd07d4d654e305U,
  0x28d2a5ba22d8c5f5U, 0x2362ac33cad00ddfU, 0xc25314c81200bdbcU, 0x21213bf6005501e8U,
  0xe13ad6b7ae810af5U, 0x17104defb500d956U, 0x102161bba4aa3148U, 0x34023e5a032801d3U,
  0xd4a7a524fbc1d8a7U, 0x11fe04d7ecd1f8aeU, 0xfb5d45151e3ee934U, 0x7f4270ba4befedc6U,
  0x3f122903e845a2d6U, 0xaf3fc7b7cface4beU, 0x23812c52bfedb13bU, 0xed2dfed6b90f1fa1U,
  0x67cf98294a49cdf8U, 0x4a644abe33392120U, 0xc2c64ffcfc1516b8U, 0xb36ac4cda8e406edU,
  0xc624b14cdb646746U, 0x24b5c8a8287fddd0U, 0xe305d043e12fa7b0U, 0xd2d302be6aed4d18U,
  0xbea1abec1808451aU, 0x476b24d12425edf3U, 0x4ac6f8a42328baf4U, 0xc8100923f6cc9082U,
  0x347f25c73dcffa11U, 0xcf19ca283818f33dU, 0x16c646d021f0c921U, 0xc4da6ea1dcb643cbU,
  0xfdc8647cc663620eU, 0xadc5bfc55a632db5U, 0x7ffc1c3baf2700beU, 0xdb53585e2060ccbaU,
  0xd111c95eb958d60cU, 0x4e1f4bcfd33459b8U, 0xda22f5dce58118faU, 0xeec354043f2a8dfbU,
  0xdd1643ee524a2930U, 0xa3fcf437a1e128baU, 0x8e15a6cbeab7fa69U, 0x583c5158b0d86a69U,
  0x74baee2cd6cdb513U, 0xc6bc5de0e555501fU, 0x2d4777be81aaf117U, 0xd70eb692414cae40U,
  0xc9c243c0321144e6U, 0x26cf698ff6e2f1feU, 0xad1b81e8dc321c28U, 0xef555c22f9a405faU,
  0x60ecd132ff13c609U, 0xf86fe81716d6eaa2U, 0x2c1927352d0b09cfU, 0x9ff714dc3806cf1dU,
  0xd9cdd60381f9c651U, 0xd6fee327d32007f8U, 0xe2f74f3c0ce318deU, 0xe2f7dbdf342731b5U,
  0x7f22382a4832903bU, 0xc746e75cc07e6846U, 0xb220470d5b28d15cU, 0xafd4e5c94f310c42U,
  0xb73b2bc7e239d7a0U, 0xf95e2efbdd43e8a3U, 0x3a59f93d343534e5U, 0xfdfa08cb1d415bf4U,
  0xc41713034338401cU, 0x57122cda942c69f5U, 0xcd3c611c412ae727U, 0xcc3658eb81f8530dU,
  0x226700001f5cU, 0xf0300001604U, 0xfffffc48000016bbU, 0x8ba0000031eU,
  0xffffe4cb00000b40U, 0xfffff8aa00000429U, 0xe290000082fU, 0xffffc728ffffce92U,
  0x60a30c8c6b02921U, 0xa4cb81cf0cced361U, 0xcba9adce25b74a49U, 0x24fd7fc91973a895U,
  0xf16b59302cde9457U, 0x81b62cd781c1b9f1U, 0x45a1c624fd810bd7U, 0x4a014778d7d05bb8U,
  0x3ec481583ac61139U, 0xc2fc24dde310e7fdU, 0x81de45d2e6a51da9U, 0x563c570e35cbb3a6U,
  0xfd003f46b316ac7fU, 0xf4c7d6f1b8e82f3dU, 0x5429fcfe0d552a31U, 0x9b4647816727e31cU,
  0xc2c19817999b570eU, 0xa51d1027b19c7f8fU, 0x52ad82ddcaa47f7eU, 0x2a51a7fefaeee0dbU,
  0xce1d9d56a8d1bcb9U, 0xe4a8c5ec7ff83e0fU, 0x38888daa88d005deU, 0xee7e128bb67f3bafU,
  0xa4a33f26cc52ab0aU, 0x7ff71b330905c0caU, 0xeb3df081279bd3d7U, 0x30ce257b1aec452fU,
  0xe3762930a534ce53U, 0x2a7fe675b589e7d1U, 0x4bc72a3f362732faU, 0x812d0e09a0d96996U,
  0x4ba3cdc2a05481e6U, 0x9168aee7c2fa406dU, 0xe8a5f23112a41e81U, 0x644a8a22b359f5bU,
  0x95cb20943467d14U, 0x814dceeb4b82329eU, 0xca6ef85fece54a22U, 0xf5b5f3c958b1307fU,
  0xa615b2fa19dc3a7fU, 0x5c6fb8552a5ab28eU, 0x7f3191f6c6e94210U, 0x3e43e8f55c2060a1U,
  0xb5dbb469c9030e04U, 0x515e50ae4ae22081U, 0x29c8b4a746e2d812U, 0xb2a8f6e17ff97524U,
  0xf8646aa68acb07fU, 0x487cbb7e5112088aU, 0xc3db42c838811a08U, 0xa0af9caf010027bfU,
  0xbccce5b47f50e136U, 0xa719592553aeac32U, 0xafb725fee3fb29e0U, 0x41b24bcf7f2ae30dU,
  0x81e899eb4fa6e1efU, 0xab28b62707b1ca5dU, 0x4e092714137fa637U, 0xff1b0926b41bfb45U,
  0xab3f8781448b3c63U, 0x3bf5565b58c8ed65U, 0x10d8dd5c38f8f001U, 0xc81f75a6357e5efU,
  0xb612813dbbe70b2dU, 0xe415d3c9ef00de74U, 0x28485059eede407fU, 0x11e8d59fec9de907U,
  0xbeb44cd6e5e34838U, 0xbf20e24b819dcb8cU, 0xe5bb8a741fdbbf5bU, 0xb1b19de82a81f3deU,
  0x516c141c9edd563U, 0x2b1151558163e19fU, 0x43f8fa96a61fc81fU, 0x2c55330547547f28U,
  0xec2b4012177fc0a7U, 0xbc1efc112a658adbU, 0xbbd0547a6108c71cU, 0x2e51810ecc01810cU,
  0xc31cee7f3354bb0dU, 0xd58be2e72ad3cc60U, 0xb4fc056249086281U, 0x9bd26c00f24bd31bU,
  0xd2030ce893adb122U, 0xa36f81495f740ed4U, 0x8392cb96a2ddfe6U, 0x7faf111d352c10ffU,
  0xf6dcc0bdcb6ef2faU, 0xd28145c9a6fdcb65U, 0x7a567fc411d2fb53U, 0x2bc77f7003960c5aU,
  0x74016ad9421b7549U, 0x7956200d4881451bU, 0xff792142dd6257fU, 0x8eee5cb411ac9e3eU,
  0x8781b27294d3acb6U, 0xf127b60cd1e6891dU, 0xa42b8e504c8bdf6fU, 0x1f810b1bc6ff429fU,
  0x75571ef2ab433215U, 0x7f303117a6cfffecU, 0xee35beab54130e7fU, 0xff193f632e1c905fU,
  0x8117ceef7d2094f7U, 0x6f87efb24000d234U, 0x6af003d2f854c30cU, 0x816044666ee0425aU,
  0xfb9454b163c1e0a7U, 0xd47fe0ced4263c99U, 0xaef27fd62f02fcbcU, 0xe000e60a55d7c0ffU,
  0xb735d91bc276d655U, 0xccbac67fdf7ef1eaU, 0x4f02132a61fcc32fU, 0x3481046002c0d6d3U,
  0x6e270b42814ef6f5U, 0xbec42b500f2148aeU, 0xc2810ca18e0cc796U, 0xd465cb681168b07fU,
  0x542aa0814e48f52bU, 0x83147205e570448aU, 0xe75c47c6c6810e1dU, 0x4748becd93c33dc1U,
  0xd803bf6fca668157U, 0xb15ede22229b3dffU, 0x4750e47f2912f690U, 0x37473e9e21b10bb5U,
  0x63251b9ebef3bfdU, 0x43f4ba360e7ffa41U, 0xd92968edbb7dfe18U, 0xb00a4d0a7f54b2beU,
  0xc098dc4ecb5ed232U, 0x14ca4981beddedddU, 0xae5c02811a22e474U, 0xf7ef12cba512e0bfU,
  0xdfca7f2d544145a0U, 0xf951eec8b8cc510aU, 0x7b3e821038e45129U, 0xdc38bdc8478d7f7dU,
  0xabbc217f8311ddf6U, 0x2907e8bcbafd0182U, 0xcb3af9c2ac3d431eU, 0x22c60af081149edfU,
  0xe287f9c69f2e8f5U, 0xf133f30b028c44aU, 0x81be3acda3b15536U, 0x7058c245fb3b0fa7U,
  0xd69c07f735cd897fU, 0xa4eab81d302fd9e3U, 0x9f0f0154d6815c5aU, 0x50f2a21ce41639e1U,
  0xe7b635f3ff2ddeccU, 0x138b51e8812badcaU, 0x69ec568ce5809feU, 0x79f9f31f047f306fU,
  0x542ea4b246a41cf1U, 0xe53f267f1af9c7ecU, 0x81fe54c52c060f3fU, 0xde072b5e5cd21b12U,
  0xba00ac812e294e63U, 0x4f5a3b49f78e168dU, 0x3207d431aa366f23U, 0x7adb7fd446f4bc1bU,
  0x31e87f2403d9acbfU, 0x6464817e8fffdf7U, 0x36a653c07fce0df1U, 0x3c3de764cb32fc49U,
  0x99cea4485947cd2dU, 0x46319d497f44a5dcU, 0x7ff7a0458dee75dcU, 0x9b8dbdef02fb6b29U,
  0x1621b9e371d42e55U, 0xf0e554ce6bc481e2U, 0x7f7afce1689ac145U, 0x9bf22ca9cfdf3001U,
  0xbc34218bf14fb8fU, 0x2631a6531c81f228U, 0xb2088a251accf17fU, 0xad0bef64fc3a5fdU,
  0x6a18bcd80fbe230dU, 0x175f24b2c693a681U, 0xb295f6289d603c43U, 0xa90950dd7ff69344U,
  0xd019d0fb2fcb9e7fU, 0xafa0ed3403d70c3fU, 0xf1640ded24c66051U, 0x1bf319b38167c0a3U,
  0xb824bedb45014381U, 0x8a1b9e6a2ac9d5d9U, 0x6f5770b8e75a041fU, 0xfb917f72055b06a3U,
  0xffffffe2fffffeeaU, 0xffffff5d000000a1U, 0x2a7000000fdU, 0xfffffeb500000054U,
  0xffffffe300000083U, 0x11300000258U, 0xffffff6900000029U, 0x150fffffef9U,
  0x3fffffff93U, 0x2620000012fU, 0xffffffd000000686U, 0x42ffffff4bU,
  0x4300000014U, 0xffffffd1ffffff34U, 0x10e00000120U, 0xffffffb200000095U,
  0xffffffb20000005bU, 0x1360000018eU, 0xfffffeb900000268U, 0xffffff47fffffecbU,
  0x28900000064U, 0x6000000d5U, 0x1ef00000039U, 0x1cc000000edU,
  0x1affffff9aU, 0x45000001c3U, 0xcd000000f0U, 0xffffffe2ffffff28U,
  0xffffff83ffffffc1U, 0xfffffb860000011dU, 0xfffffdff0000009cU, 0x16e0000017dU,
  0x1e9ffffff4dU, 0xffffff52ffffff4eU, 0xfffffd63000000a0U, 0xffffff10ffffffcdU,
  0xfffffffdfffffea1U, 0xfffffea5fffffee4U, 0xfffffe0effffffb3U, 0xffffffc4000000d3U,
  0x47fffffeb0U, 0xfffffdf8ffffffcdU, 0xffffff78fffffeebU, 0x192000000b8U,
  0x94ffffff8eU, 0x19b000000d1U, 0x2efffffe2bU, 0xffffffc7ffffffcaU,
  0xfa6f7f24c8aa2173U, 0xdf816e57e98111c0U, 0x811513c0023cf988U, 0xc939cc04817f5aacU,
  0xdeabe1ea2aeaf633U, 0xadf0f84d97cc0c3aU, 0x1d9f2855ab2e3511U, 0x817f53d21b81810cU,
  0x129dc70bbadcf0a2U, 0xe40edae51baafbbdU, 0x5db6e143e5d39222U, 0x990ee6d2f518bedeU,
  0x266031cef2107f7fU, 0xdfb10b7fddd00c49U, 0x9512b0f5f8cd2f12U, 0x1e26a07fc6e5381eU,
  0xfaf83eca8dff6c89U, 0xdf0681e9c5da4af2U, 0x1a28c2d8eadfd4e2U, 0xc9f7a14da5dbec35U,
  0x87e77fee12e7b883U, 0x1510c6a97f367f36U, 0x5e453581501bf0a4U, 0xe5012c725a481abU,
  0x1b04b2b9de3f3d1aU, 0x19cf8100c2ecbdf5U, 0xc2dd4ad788b189dbU, 0x1f24f5f6d4e87f0eU,
  0x81d77f33dee06331U, 0xb0211bd2c8e76e18U, 0x17f3f7f18e60006U, 0x40381f4d7e79eeeU,
  0x2b8e5481aff833fdU, 0x997f813d7fd64c6bU, 0xb1fda700b1a990e1U, 0xaa81f2ae2284bac9U,
  0xf87f5a198181c70aU, 0x830ee5147fc80688U, 0xf9199b1fde0ff081U, 0x96f74a2abd745eb8U,
  0xc5dfb87f81e30f81U, 0xaf8193818128d718U, 0x24e8e74ef9240e81U, 0x1c09a3e67fb3d87eU,
  0x3ac5ef6b1a3c1712U, 0xe3ec24f0cfd813d5U, 0x81cfefe0a67ff27fU, 0xd21e0e67f06fcef0U,
  0x208dbbe13f91df3U, 0x814a085b0720e681U, 0x4cfd7f7fd5fae3U, 0xe9453c5fd5a85981U,
  0x1781cd39b47f7f1aU, 0xad83d3e3277f4343U, 0xb106299e810c1700U, 0xcaf3cebed8f00f49U,
  0x9aea5889a4490c24U, 0x81c5c18f4e7f7c31U, 0x91d5980781e8e304U, 0xbda37f7f7f38e781U,
  0x7ff0afa7591f9d3dU, 0x2726da3802ffa162U, 0xdf0a641304bcb615U, 0x11e3ee591c8cc1f6U,
  0x19d21bcbd4ee3da6U, 0x81cb2c13112f993eU, 0x814d541b037f07d2U, 0xb0cabcae1fe1e8adU,
  0x37815ecd25417fb0U, 0xb5d73a0f651fd716U, 0xd77f9dfb95918146U, 0xb0a54eda417f12b0U,
  0x1cf3f6d2e4c949c3U, 0xd499064964867fbbU, 0xd66eeedf2d81814dU, 0x815355e7e4f6d4ecU,
  0xc6eaa6fda303a0cbU, 0xe5c9eea4a40903d8U, 0x3e0f78018320f7f9U, 0xedfd0581d41eef7fU,
  0x140b08077f060981U, 0x10fc6b2afce1dfe8U, 0xc6e981e4d5a515f8U, 0xda5904ea920bad30U,
  0xffc12481471e60daU, 0xed73474404ae437fU, 0xfd7f7ff02e42c3b8U, 0xd81eed43f32323b0U,
  0x7cfa84d495e29fd7U, 0xb5cdd6cf211f8e81U, 0x2c097f3228087aa5U, 0xc962e99a01d14162U,
  0x8105d3f1567fb123U, 0xf4c02d81d7fdd2e3U, 0xfab4cdf1414141c8U, 0x81db2b25e3e11717U,
  0x3e0ba1e1eb1e1f45U, 0x824e1d2361bd493cU, 0xf22d65d4c0110b27U, 0xcd818129c0ce7319U,
  0x1aeedde1fef4e4edU, 0xae0502e53304819bU, 0xf0e5d81d12287f47U, 0xf73a1e8865d538e6U,
  0x340d04a2325f739U, 0x9ad460502724e081U, 0xe47f9497f5fce7b5U, 0xe888464e86e5d33dU,
  0xffffedc6fffff272U, 0x4360000069eU, 0xfffffb4e00001821U, 0xfffff156fffff45cU,
  0xfffffaddffffff67U, 0xfffff3a400001ad5U, 0xfffffe16ffffe5d6U, 0x1d4cffffff40U,
  0xee300000904U, 0x38500000b82U, 0xfffff58dffffffa5U, 0x14e1ffffe9f3U,
  0xffffdf0300001568U, 0x1704fffffdb9U, 0x5aaffffe298U, 0x11a5fffff9f8U,
  0xfffff5960000120dU, 0x274cffffff53U, 0xbb7fffffe57U, 0x61e000013fbU,
  0x72200000289U, 0x14a2fffff67cU, 0x13f000000f9cU, 0x2d0a0000130dU,
  0xfffff2e500000d08U, 0xe9bffffefe1U, 0xffffecacfffff159U, 0xffffffb0fffffa87U,
  0xb35ffffed67U, 0xfffffd450000187dU, 0x13c800001fc7U, 0x14ddfffff46cU,
  0xfffffa8600000b63U, 0xfffff955ffffee4eU, 0xfffff4bb00000578U, 0x6cb0000170eU,
  0xfffff592000001bcU, 0xffffe64bfffffa86U, 0xfffffc6100000708U, 0x195f00000436U,
  0x16f4ffffff71U, 0xf93000002c4U, 0x2249000008c6U, 0x150c000000d7U,
  0x12f200000e3cU, 0xffffffd7fffffb10U, 0xffffef39fffffc0cU, 0x1cf700000dcbU,
  0xdac3f4cebb38148bU, 0x81eacfd15ce459c5U, 0xb52a3347ebc42e12U, 0x31cdbdd5453823b6U,
  0xd7bf43dab939e851U, 0xa5d53dfc0500160bU, 0x2bb7dc2b4ddab0e3U, 0xf80c9ec5f1c5edU,
  0xf19c521d216e6e4U, 0xd10f2f1b213c6f6U, 0xd021fae8fbc217f3U, 0xf5f6c319ab51f128U,
  0x7f06bf8cb52fcd28U, 0xdbc9c0d026f72205U, 0xe9618f72bc51c1acU, 0xfb4e7a5fbfae5938U,
  0x47d836254863fab8U, 0x8b175655358bd4afU, 0xbab9d68ddcd7ec4fU, 0x415da433e7392985U,
  0x30410d9e343ade63U, 0xa9e629ff70b85c70U, 0x360c68fc3a653317U, 0xd5fcfa5bdff74448U,
  0x1b4b4d09e1bc36dcU, 0xed3146303464ea0fU, 0xf6eebdeccbad4116U, 0xe2e28d22704d80bU,
  0xd52ace477fcd4a49U, 0x501708daaadd182bU, 0x23f1b997fadeed62U, 0x5025edb347fdb43eU,
  0x72dc9b17fb11fdf4U, 0xbb2c4906c3dd6d0bU, 0xf3fd4645cf292a7fU, 0xd7672a3f68354215U,
  0x4307ed2c4fd052daU, 0xe581050adcdcba34U, 0xa51336e3e28324aeU, 0xdbbb0bffebeca6faU,
  0xf3bc38a607d8e31eU, 0x5d2eec06beb43fbaU, 0xd2506edfd90528c1U, 0xd03532d12608ebeeU,
  0xf1eb61f5305eef08U, 0x16110ed2eccfd3feU, 0xb2c5b9f9e5121af1U, 0xe5d75fc5f0d23811U,
  0xfe292da2e4ccc466U, 0xe7c3b7ba35494c01U, 0x2db3f9a2f8cc3ee7U, 0x22d111db4503baeeU,
  0x224706e9d4e20624U, 0x8122190c07a3f805U, 0xdeba22c430dc2e2dU, 0x29f9231fa1de33c8U,
  0x2a52ec1fe7de00U, 0x2bf10005dd3b1b1cU, 0x1458d512bd0212f2U, 0xf1423120dd11e8d7U,
  0x86dde53f36201d27U, 0x23e710b8a8d3dfdfU, 0xd99aa20c9026bc34U, 0xc5010c625ae41c5eU,
  0xfd1168d06072093bU, 0xb5b7c4b8e9b38f44U, 0xc92dbc456343dbe4U, 0x3e17c30509f2051fU,
  0xc9467fc2b227a15cU, 0xad2e499a17fcd93bU, 0xe5fed023f7b50e98U, 0xd60fe7289e1f3db9U,
  0x8173a08d827c3d6U, 0xd7f82c01282516caU, 0xe9c3da950fbebe16U, 0xf7470ab225d7f53cU,
  0xf948b4aceea9272fU, 0xa7d08f301ec9e4a7U, 0x4c0b480ec3b7de2dU, 0xb7ecbc485d0849d3U,
  0x3225553bdef0062cU, 0xe31d4c682bd2ca12U, 0xc1098127e73b56bfU, 0xfa04cfeec7bec634U,
  0xe1ac5b3ac2580f9bU, 0xc9d5a74af452f828U, 0xd1379196cb1ee2d8U, 0x3e1c3002eebb42c6U,
  0x39c040908cada3aU, 0x1f0323ea36efeeadU, 0x2333dd3d2a1fa9f5U, 0xa534115e12f338ddU,
  0xd2c0f1513d7f2c18U, 0x2f4d4be30ef1452aU, 0x1198430b15ff933eU, 0xd3d3dbdff41de607U,
  0xc09d0cdeff3717e3U, 0x1e2234122ecfe20cU, 0xdd302a575b5d50e3U, 0x58032522c121b3ddU,
  0x6bcfede6bd81e7c2U, 0x871bcfabc361e24dU, 0x4f41c455f9dbe8aeU, 0x2a3326062e2d5fcdU,
  0x3e5ae8004d2c054cU, 0xde5ca1e4d3fe9355U, 0x59c6c10529f9ef43U, 0x28368e036ba93ecdU,
  0xe22115d29db54c30U, 0x14412b3102d2edb1U, 0xea08c4eaf217f7c1U, 0x3c4cd20f5aed0914U,
  0x1b040026d3b681cfU, 0xf7e63026fbeae5d2U, 0x9aee0bdde82319c0U, 0x1d2a420825790602U,
  0xe155e811055d0c12U, 0x19fa35d30fd46502U, 0x23d8aa2203c6d643U, 0xfc13ffb7ec172ca8U,
  0xdd0517412e3bea08U, 0x46a62516c7e202d7U, 0xcad6070bdcf231d7U, 0xe63e10c905fa1812U,
  0xd9d8ad13d0d4e3d7U, 0x2b25f23614022246U, 0xfcc01d21fcd0a3f2U, 0xf7d83bc9e9b7fdf0U,
  0xff4752cf08da4411U, 0xdd2c2bff81e4cdebU, 0x2b2ac8332dd02506U, 0xf7bbf00d1ef4b1dfU,
  0x5125d31bd6ef27dfU, 0x5a033735c6cab7c6U, 0xdd0343816201e93cU, 0xbabb0815e1ebab34U,
  0x26d4920286a115ecU, 0x813829b2c5c0b5baU, 0x240721ac236cbf9eU, 0xb0d6e73124c0d226U,
  0x4a06fdc5a9dfaa1fU, 0x20d70b2927ea8700U, 0xcc20d50b44e8fef5U, 0xa1ceaf9e9039ec1U,
  0x24bd990d1f021fefU, 0xbf710ab43b803eaU, 0xf4a9142415fe4126U, 0x1e4741c239f248cbU,
  0x5ccf0e2c3b10c3ffU, 0x39f8d1021bdc1a81U, 0xf9a608f4bcdf3739U, 0xb6fbecd8fde34006U,
  0x19611be03ae8d70fU, 0xc508d8ea01ebe0d0U, 0x338d40b1b047032U, 0xe7fe2c4dadd1b251U,
  0x4c8a48ceb0094d46U, 0x161c2527352bac97U, 0xe1acc9f504de38f0U, 0x4581ced4bfc9f65bU,
  0xc617f2fd74170453U, 0x3031b7f33095af29U, 0xa7d92e0e3109a455U, 0xfb163a350cf729a1U,
  0xdbd4b4ef003641d2U, 0x249fea1235a3cf47U, 0xea304b4f3ce0c754U, 0xd902e58bbf3b1216U,
  0x434dc3676bdab81fU, 0x1a20ee0dd4a5812fU, 0xc059673bbcf7f63fU, 0x84b9be2048ce2c00U,
  0x2f4ed821c72929c1U, 0x7cecfe36de2ea7f4U, 0xcc9ded26f453cbf3U, 0xd950292fa938a9d9U,
  0x638ad8e3bcbff969U, 0x54a5160fd53a159bU, 0xb9b109cb47c3fb5dU, 0x551bd63295b6fadbU,
  0xc95db10cda0aea06U, 0xe5c903bffc39ef16U, 0xf2e5b04ab338f403U, 0x51b28f252de56daU,
  0xb950033cbe49574bU, 0xef50a8fd11f2d8faU, 0xe8fe3c1234d661c8U, 0xbd54b631e21922e5U,
  0x4d8fbad1b27bfbfU, 0xf1531eca7f0b20f2U, 0x648d5236acc450f3U, 0xaea61a38da2fc227U,
  0xffffccc5000041feU, 0x27f2ffffbf7bU, 0x19d10000075aU, 0xfffffe9700002247U,
  0xfffffdbffffff39dU, 0x513300001981U, 0x36ffffffe9fU, 0xfffff0f900000d2cU,
  0xa7ae24e2819e3379U, 0xf674031de36dabd8U, 0xa4e41899b6d8b326U, 0x7fd8a1019e110945U,
  0x5c0bfac55af5719fU, 0x4805cb7081c6bf1fU, 0xb2ec3a7904cfb981U, 0xe8c30997f127a938U,
  0x4eb879b333489b42U, 0x969b04e20e8177fU, 0x4a0661030181e5deU, 0x27026bd997fdc42dU,
  0xd0b71a6ed00f3edcU, 0x129a81d306ba736bU, 0x150be4134f51c206U, 0x7f76ec9575da1faeU,
  0xabb46116f11ddd3bU, 0xa60d3956b78a8106U, 0xaec40f316045a8beU, 0x920ee18164b39804U,
  0xc5590902340df167U, 0x1d2f211d810933faU, 0x420f38d70bd07fcdU, 0x165eddd8b63828efU,
  0x1b87e819a55e0ebU, 0x1ca40c06c41117e1U, 0x320881292ea15c72U, 0x3bcfd8d3f8b2c106U,
  0x7f01945a925d19ecU, 0x8f49d03ca4abb959U, 0x810feef08d283ba1U, 0xdf73405920546b64U,
  0x336fa93fcf5a7fe3U, 0x4ca20cdbc0a860bbU, 0x80225c70d81c421U, 0xc3dce15c5cc971eaU,
  0x11bb90e111e62439U, 0xe4f7f3054481113aU, 0x643981f9eb3915eeU, 0xfb4ad44df1bdeec0U,
  0x7feae5efb0010052U, 0x99c17f2f7aadacaaU, 0x8b2be8f9c699287fU, 0x2330a15da98f24f4U,
  0xe3bb4ca77ffdf2d1U, 0x51246fc8e6aee367U, 0x5964adcdb98d5501U, 0xfe8178070dbbb3dfU,
  0x3532ba66b38c1143U, 0x22ab81acf710e247U, 0x4500cd08d77faef0U, 0x30a107dec9d0232bU,
  0x625dcfad11f47fa9U, 0xcb26a3cc084cb2a2U, 0x9facc133c10eab1aU, 0x120cb57fe31c420aU,
  0x362d044dfb2f4ebU, 0x6faf5b579c81a6e8U, 0xa68144bf8617eee8U, 0x3024f84e823df8d8U,
  0x626de80db35b6bb8U, 0xb37f7aac3a9e6cfeU, 0xc2cf0249d6e50e81U, 0x613ad587de2a1e4dU,
  0x8581a43a5d4c13feU, 0xf17bbcfe6050f1dbU, 0x133164810db9b3b6U, 0x4702bf2bd4e32e9bU,
  0xf72ade0a2bf07f24U, 0x8ccec76bcfd1c16U, 0x3e24aa1a4d52f60bU, 0xc389c0d9ffea7f26U,
  0x30c4a81ca5093113U, 0x41c09528813ae8a8U, 0xf000c4038938f0f8U, 0x515f52812ac1cf13U,
  0xe8bdd9f84983e4d9U, 0xa8e98147bfd444f3U, 0xbb0222ad15843d0cU, 0xceb081dae1330b4cU,
  0xf73234c9f09814f5U, 0x81fdc7e45c30290cU, 0xde12cf26a381134dU, 0x9661251ef92a31U,
  0x690be2befa7f1fdcU, 0x4b0eed2d3730fc61U, 0xde9dd51d1df4f4ceU, 0x9488d1815c119e4eU,
  0x52b8c188e0487830U, 0x297f3268b5cc81f9U, 0xcdb34d22769fe3fbU, 0x76d8242381a365d7U,
  0x9e3058040d2a077bU, 0xf763307fbcf0a29eU, 0xe02e38811ae79833U, 0x5070cb4298eedd07U,
  0xc2e7aee21a6a5ed7U, 0x2170fc4d0e7f2c88U, 0x42b625ee8192c6c1U, 0x1e28e3f140bbaa18U,
  0x40fc20087f46b7afU, 0xd125153c8c97c5baU, 0xeec5b854ead33835U, 0x8104dc0b5ff3ff17U,
  0xd4dc7f2e161a18cfU, 0xf2332947a927c03dU, 0xdf811ba1e80170d6U, 0xf9c1080befe9465dU,
  0xf7fed7990daa54dbU, 0x22561f348135f8ffU, 0x105c5c587fa2a07bU, 0x5f0bd42014fe03b2U,
  0x4324ff1a0e344360U, 0x28e1034c4281411aU, 0x18f0e9242816623fU, 0xa88159cdb269a00bU,
  0x5b1eb472908137fU, 0x4d6f924faf13eU, 0x458325b3cbf7142fU, 0x8169e91767e8a149U,
  0xe7060df2775316bdU, 0xb181c918722702ffU, 0xfdbd7f0b263921eU, 0x5ee32391b3c69381U,
  0xbf2043143af5d6a2U, 0x7f480ccf1800deddU, 0x812463221a362cd4U, 0xc5dbfdcf9728f248U,
  0xed481acaea401d25U, 0x1a3e03d82117df81U, 0x82048ac25fb7f58U, 0xff98e477651539b0U,
  0x1f1381cae998f753U, 0xaf06bcc012c0ee39U, 0x303bf7ed20263213U, 0x2deb40c67f1665c9U,
  0x720681438552bc37U, 0x2fa84c44ed9dc94cU, 0x81caac74db4c0079U, 0xf0002c4ae9d66db9U,
  0x599e3827fd5ae930U, 0xf450ee3a07bcc781U, 0x6e97fcb16d22ae3U, 0x6071fe0d2a973c2eU,
  0xf0dd355b81bf0328U, 0xc0ebeacee9eae532U, 0x1327facfdaed81c8U, 0xaae2d3f2ec169cc8U,
  0xe9adb56a219fe7U, 0xee0bbbf6ac095a7fU, 0xbeb3f8c7b206675cU, 0x4cd6a024da7fc335U,
  0x5c7f1d29b92df21fU, 0x26ba344764e8e3e5U, 0x2d241d2e4fedb5aeU, 0x2b9c7df3553e67fU,
  0x122ef906090af71bU, 0x69afae81d8f52333U, 0xffd4eeeda7e891e8U, 0x2a59e4a805a281fdU,
  0x8160423734d1bdc1U, 0x28c28d429744f204U, 0x958107eb19c2230cU, 0x3f6c140fd873e4dfU,
  0x77eff439b381aa13U, 0x1ab7882aa8baab10U, 0x1ddc55c60d33ba13U, 0x7feafb9d4403e0beU,
  0xad209cf43deed0fU, 0xfc0081394363ad4fU, 0xf334990d9b587f02U, 0x54cfcc3a8e8eebbfU,
  0x2fb4d1ac072cb4ecU, 0xb6f181e733b0c203U, 0xa3009097fe747fb4U, 0xc39f17cc756db9e8U,
  0xfd0ad3d80e4f5950U, 0xbd3e7fd05e4c3aebU, 0xd381b9a85e3cf337U, 0x3206060c1260e23cU,
  0xc8f1ff2881fcae33U, 0x24471abe1f799bc9U, 0xcfcb1f516375e2a6U, 0x4361cca7fa6ba1bU,
  0xc9810ed5259e0550U, 0xcce0843cbb36afd0U, 0x2949d5818d44abd2U, 0x607636989e779468U,
  0x40c61936fccb237bU, 0x51557fea9432f926U, 0xb4951be2be0f816fU, 0xb11540071c26c73fU,
  0xffffff0dffffff1eU, 0x190000007fU, 0xfffffee0ffffff03U, 0xffffff170000045fU,
  0xfffffea6ffffff91U, 0x520000014cU, 0x31fffffdcbU, 0xffffffe5ffffff5dU,
  0xfffffeed0000003aU, 0xffffffad0000001eU, 0xfffffe1400000071U, 0x1dcffffff88U,
  0xffffffa40000002dU, 0xee000000c3U, 0x339fffffe20U, 0xfffffef6000001d8U,
  0x20000000029U, 0xffffff0400000331U, 0x403fffffd07U, 0xfffffd1b000001c8U,
  0xffffffad000001f1U, 0x1d2fffffe75U, 0x5b000000f9U, 0x262ffffffb4U,
  0xfffffea3000000c5U, 0xffffffc800000146U, 0xffffffdeffffff5eU, 0xfffffe3effffff0aU,
  0xffffff1d0000001aU, 0x90fffffe38U, 0x1ce000001d0U, 0xfffffead000000c3U,
  0x137ffffffdcU, 0x70000006fU, 0xffffff050000009cU, 0xffffff080000009dU,
  0xeffffff97U, 0xffffff47fffffe53U, 0x8bfffffff7U, 0x1a8ffffff47U,
  0xffffff39fffffff6U, 0xfffffe140000000dU, 0xfffffeebffffff06U, 0xfffffedefffffebcU,
  0xffffffa00000012eU, 0xffffff4ffffffdf4U, 0x3fffffe75U, 0xfffffe7c00000235U,
  0x7f8f3b7f118f3db6U, 0x2726f6d8e88181fbU, 0x81770c4ae8e925d2U, 0x1d51e2fee79c387cU,
  0x2aeac9539d5def38U, 0x8172cbd53ddae9f8U, 0x7f9093baec12f6d1U, 0xff95b39b7f907ffbU,
  0x817ffc818491f315U, 0xc3d9e8901515f407U, 0xe8ebbfdcd540d2ebU, 0xaeb9363bca7f235aU,
  0xe6d5e6ad4347c02fU, 0x7f4eae002b3b06dbU, 0x6db747f44e24c22U, 0x11fb4c5d81c97f73U,
  0x355e94139d34cb1eU, 0xa07aa9df118d367fU, 0x12d1cdc7a6eebcd4U, 0xa8c7edb6eca70fa8U,
  0xf91ce2a710ba7f81U, 0xa32a2f01dfd004e5U, 0xc9ebcf818d2f8102U, 0xd5c5434dcb1b2308U,
  0xf428cf6282ddbbcU, 0xc001f0a91602ffd7U, 0xba61d2137fe33bfaU, 0x25fda1b79b842fabU,
  0x400ae181394fa5d7U, 0xdf73e2be18c78131U, 0xcdab21c23a22a581U, 0x8117c29e3c7f0df9U,
  0x5f001bebb046720fU, 0x9d8106d19581c781U, 0xeae9d9d8e01a97f4U, 0x13e97f10987d0228U,
  0x9ccabb6ca717fd4U, 0xe20fcecb38f72b3bU, 0xdd2c2e1cad81c681U, 0xe8a440a9bb81dd58U,
  0x3f8e14461adf1fd1U, 0x577f9e0e196d63d3U, 0x538dc47ff97f433aU, 0xf4d9faa1f1d24e09U,
  0xd45dced4aef2ddb5U, 0xec15088154b50d56U, 0x5f913e7e2f41417U, 0x30d0f05915dcde48U,
  0xe37f7f9d82c545bcU, 0x267fd67f240e5cadU, 0xd2c07509b1c60d43U, 0x81ee7f7fda282c7fU,
  0x18603c6400865c40U, 0x2031217fee071512U, 0xe08126c5b7078166U, 0x4023f2e8bc55259fU,
  0xa5e8f218326212e4U, 0x81e37fd41124814eU, 0x24b40d61e281907fU, 0x19e7dff420c3027fU,
  0x22f9058b53f95b7U, 0x9e07ad88fa492dbfU, 0xc1b47f0e01ce1405U, 0xf0d2ceabc2bce9adU,
  0x517f27cefd3ceec7U, 0xab65452e817fe74fU, 0xc95b7f0581a821fcU, 0x57ff381f11ee34cU,
  0x4024feeefebd9f9dU, 0xcce36b43acf6ee46U, 0xef2bd2db3c01cf26U, 0x8163487f7f032e07U,
  0x530cdbe60a7f6695U, 0x23cd7fe43bd6136cU, 0x987fd5e0de1912afU, 0xe933a7764138a92dU,
  0x1d06bf7081d22d06U, 0x3d19ceac02173eb8U, 0x1ea2c700ca4c88a2U, 0xb0cc81e613305863U,
  0x330facb67f6ead67U, 0x94baafac7f3237a7U, 0xd67f813b281ce8f8U, 0x1cc728f420c623f8U,
  0x6d3435f722f0ddU, 0xc3f95790e3f9cbdfU, 0xacd944d188b6295aU, 0x3fdd0fbca23b096aU,
  0x7fb7b906ed817f7fU, 0x5d03c2d5c30ef1ecU, 0x162a5be1bc4cc11eU, 0x750c1ae8b62712d6U,
  0x120c3937637fef23U, 0xbbac1efee1ef00f6U, 0x7f0088f721aea941U, 0xd97fcf3cd3d255f2U,
  0x1667062f816afb7fU, 0xc1e6274e81388681U, 0xc53ef6ebbce87f01U, 0x337fae100fd2b628U,
  0x2b2481d8b03f328bU, 0x10dd7fcda3e90bbdU, 0xd283ddef20384eaU, 0x53ed92e2e458217fU,
  0x41d8125a49116a7U, 0x9c0a1d8a66afcf04U, 0x7fbf1b47f6cc310U, 0xc12524de5e147f6fU,
  0xfffff9ee00000c12U, 0x979ffffe90aU, 0x406fffffd0fU, 0xfffff55cfffff356U,
  0x2a800000ab4U, 0xffffff17fffffe52U, 0xffffff8d00000889U, 0x270fffff5fdU,
  0xffffebcb00000160U, 0xd63000015afU, 0xffffe8edfffff3b2U, 0x27eaffffefe9U,
  0xfffffb11ffffe5eaU, 0x190b000016aeU, 0xffffffa5fffffc06U, 0xfffffefbfffff9acU,
  0xfffff538fffffcebU, 0x110d00000020U, 0x1416fffff95eU, 0xffffe57bfffff6f3U,
  0xfffffe90fffff8ddU, 0x790fffffb74U, 0x4df0000041eU, 0x245ffffddbeU,
  0x1703000007ccU, 0x13dffffff344U, 0xfffff67f00000579U, 0xfffff53800001635U,
  0xffffeb07fffffe37U, 0x1bafffff7daU, 0x188e00002daeU, 0xffffff80000001b5U,
  0xfffffe1100000a8bU, 0x9dafffffe64U, 0xa6d00000f1dU, 0x22fffffeae9U,
  0x870fffffde1U, 0xfffffc7b000009bcU, 0xffffef8300001e23U, 0x325e000010cbU,
  0x20f9fffff182U, 0xfffffceefffffe33U, 0x16cb00000950U, 0xfffffe85ffffff61U,
  0xffffed46ffffe592U, 0xfffffe6bfffffdefU, 0xfffff443ffffebd4U, 0x9840000007bU,
  0xb3571b1b7228f706U, 0x41de0e39f6476ba2U, 0xa12943a2eea2c2e4U, 0x67ef79b38a823c0fU,
  0x8be27b67f27f9d5cU, 0xb801b0675b9547ddU, 0xfadc6ee5fcf49ceU, 0x1152afcd23dbe70U,
  0x389b2a9e4658610aU, 0xae5084e0c8a4e9afU, 0xcba70e19a13e9523U, 0x1f27aace05064eceU,
  0x605aded787b38128U, 0xa203f609199d12deU, 0x128d58227414327U, 0xe41ee841edeeb3abU,
  0x292c9a82d7baa5fbU, 0xe2cefe7a9f213142U, 0x4ba4e71c9944e4b9U, 0x9da164f0b73ad12eU,
  0x4b60b30337bc63e4U, 0x699c2430a522418eU, 0x4eb2ead3bffc45U, 0xa3b12aaf077e9e26U,
  0xabd3f1e413e826ccU, 0xf820bcd2120fea51U, 0x423445b3d93344a1U, 0x9fe24cbe09e9569cU,
  0x9e7e4f1c370fcd7U, 0x71bc5af83439d603U, 0x4eafd92801cbf137U, 0xee3d44ca81d6e24cU,
  0x49d39cd46a855c54U, 0x2419dde11eeef716U, 0x300f9325e61d365cU, 0x1055a954fbd5d9b0U,
  0x660040c7e3d2a727U, 0xb91ca5cd033125c0U, 0x2602f533ab27c0eaU, 0x5226b7fa41d22f0dU,
  0xeeea24d9ac2c0f07U, 0x813ef152ccdfc8c3U, 0x234ae3f9f03258d8U, 0x2806d706af29e6f5U,
  0xba59f81afe35c5c2U, 0x5ab5fa35a1e12c06U, 0x431539fba5a2f814U, 0x430e2d12e444255aU,
  0x98229dc5ea4ee353U, 0xe76c0235cf2fe3ceU, 0xa8e9fd5307dbf536U, 0xa5f0aa05360a2ff0U,
  0x3d02745fc2ad3ffU, 0xe63522dee8a5d107U, 0xf8dbe2c8e0f84415U, 0xf63af97f360ca707U,
  0x9fee81531f6e7dfU, 0x7500f1376b45052aU, 0x30cacbbfd5d959cfU, 0x200aa2ae2092b1eU,
  0x3ce7190505d79d5fU, 0xc85f8110ee46e3d0U, 0x10c506aa393b28d6U, 0x3611f3ebd0d85d4aU,
  0xc4e11dedc02329b3U, 0xd0be801cd4efb4cU, 0x35f040d3dc59edc6U, 0xfb0822241fcff5c4U,
  0x522248ba43b521c7U, 0xd8f51bb1bab60f06U, 0x6bd129c9f0a125cbU, 0xc3be3cbc5aecdfc1U,
  0xa4d1edec93355fdU, 0xd43fc6fff1041b5cU, 0x31b9d1cc484fa2eaU, 0x4827b8032a3c1806U,
  0x811793d8e847d4c0U, 0x3e0bc99b9072d44cU, 0x1a0368e1eeda629fU, 0xbb5bbe14b9b5b32fU,
  0x3eeb177eb5ce5c46U, 0xf8e043f46a3e223eU, 0x24e0415a369d7ab7U, 0x45a4950e2e95500eU,
  0x633945d3a03e1f1U, 0xf5e20cbd5a81a9f5U, 0x3435c4edd2240728U, 0xe0b1fb3e43c5f102U,
  0x8cb4e229ced5a077U, 0xbdb9a5f22b2e0022U, 0x53dfccdf1bcfb906U, 0x2bf5020d0ad43a12U,
  0x1c922ec809894dceU, 0xc4ba49030aa130f1U, 0x68262df84dd204deU, 0x9e89c8a0f8390a56U,
  0x1213a0115d4aaae1U, 0xc64aca454d80a34U, 0x9720c6c7fc293dedU, 0x20d7fe11ac19817bU,
  0x604a163b50d4f253U, 0x2b25b118262f2839U, 0x70a6e060c05162f1U, 0x67da33c4f88f6419U,
  0xf217521d0a45da1cU, 0x595adc31d75deafcU, 0x17bde33e18a32962U, 0xa689eadfb7e3b25cU,
  0xdb6fdb0217d1481dU, 0x2013c7ba7107ff4aU, 0x2f311be5c72407adU, 0xdd0e752f1fce21c2U,
  0xda1c0e364cdae0eeU, 0x7f5ee6b9dabf916fU, 0x21a2f0ea0047b04aU, 0xa8e113149c19dc28U,
  0xf50418f5facf0aadU, 0x48b0656a131b00a0U, 0x95b043e6e5c4d344U, 0xca22fe462251c8e3U,
  0xd2eadcc83194e10fU, 0xfa09d4eda8d6f1caU, 0xfab39d5468d0458fU, 0xf61c1ea3a91d4e7U,
  0x3d16724fea19b3f7U, 0x2591d0aa8febed53U, 0xe323aacfccb32edbU, 0xaf4a7fcda7324319U,
  0xe34104aefd3427e4U, 0x68372e3c501bdebbU, 0xeb2836cb2d28d6a5U, 0x350baa19223903afU,
  0x1f07dc5953211ff8U, 0x33dcc8ead21e34c0U, 0x10f979d826c3a06fU, 0xd4e20239d2cb1fdeU,
  0x39438cda67ec1a03U, 0x154064c67f341049U, 0xb44418fc54f8bfe2U, 0x1758c977d835c210U,
  0x5ede20330b4338d1U, 0xc6c0dfbdd6ed1134U, 0x9a36ef21e871e31dU, 0x1d2c40d9cc079a9bU,
  0xf41b084126ff0ce2U, 0x44f7bd4d3ef7aedbU, 0xe3181fcdd3446648U, 0xecdb5303c1a9eedbU,
  0x5024ae13e8294ce3U, 0x26f61d304c13fef8U, 0xa1c168f6d4d535U, 0xe41a0bcc04cd28d4U,
  0x249a0be12f88470bU, 0x1b0f8dd4a20f581U, 0x5eac0fa8351f0e14U, 0x5ba364cbc57162dU,
  0xf4b5b3bd272311f4U, 0x56459041e043f0baU, 0x45e044f3aafea63aU, 0x12443b48192f06d6U,
  0x1fbca81f342c7ffaU, 0x5bce1fffe724d1f1U, 0xe8d125084d3d2547U, 0xa3d53741b4dbe9d7U,
  0xecf40838f128fb13U, 0x15dea16fd62a25c4U, 0x412befee221d34ceU, 0xbf715b39254e1bd6U,
  0xa3a1fcb4a39f209U, 0xccbad9e3db2bc244U, 0x26fc51ea2436ca50U, 0xe4f711373f4fe025U,
  0x5a31a525d9ddff14U, 0x37cffa0e04d7faf2U, 0x4cdeddaed8e9e121U, 0x188d33cf012ce121U,
  0xb9c111d51af1c5d4U, 0x15cbac13f63e2fd2U, 0xaf54458d4ee3322U, 0x4448c02981cde04eU,
  0x20341df206d72819U, 0x33a22b3cadbbc3cfU, 0x79371dd1fe6cdd1U, 0x3be13a39bc049727U,
  0x4570af3e0571ce3U, 0xab494636bafa1e22U, 0x532f4809c8c2c4c5U, 0x1421d13aef534935U,
  0xeb65cf677e3b5704U, 0x88e6394f91121246U, 0xc714bedad3e0c81fU, 0x2310ee7e3c47818aU,
  0x348300002096U, 0xfffff46900000738U, 0x14aefffff39bU, 0x3860fffff0f8U,
  0xfffff3e3ffffcfd8U, 0xffffe60500001885U, 0xffffd56900000023U, 0xffffeb41fffff7a9U,
  0x7fd2431e917491aU, 0x7c7fe5efa6ef0c38U, 0x25545c4d7149e1bfU, 0xd17fd2a787b4eef4U,
  0xfc8284d93f3b8182U, 0x3d20d9e1b91418b8U, 0xd28109ae42debbe4U, 0xec113e34e2d81326U,
  0x3fae7107ff81739U, 0x93f7fdb526ad9c97U, 0xbf3d47b63b49f84fU, 0xf17f5f1dbba039fdU,
  0xee024cc565d9cdaaU, 0x4a0360227ff9dd50U, 0xd1331cece5e33f1fU, 0x2b418132d347e01eU,
  0xa0bde52afc2ab981U, 0x69949c66ece56fbfU, 0x137a3381ab8b3a2bU, 0xb9039518dc6343ebU,
  0x82f4d971900a4e27U, 0x41c381b6f10c9bbfU, 0x31ab9bc018f4f403U, 0x6626f83b81ec513bU,
  0xea730906b61feac8U, 0xa1a6f47fe4d8641fU, 0xd05bcc0560be1bd4U, 0x70c4d11764581b0U,
  0xec5ad7e2a3059198U, 0x701110283f7fc1e3U, 0x1ecd3fb1fe1ec23fU, 0xea6515bfbf7fda54U,
  0x818d34e7f11235d6U, 0xf82c39f5bed54046U, 0x101a5108c87f0a7fU, 0xcfed404d8da06ca8U,
  0xb0a87f14d4b84753U, 0x4dabdfe8f04d98c3U, 0xba18fe8145afe247U, 0x25593d32f8fdb851U,
  0xd0f6ba81430ed709U, 0x355224c35bdad90bU, 0x1afee61c7f22c33dU, 0xd63dcc5451fcb627U,
  0x8136c7c49d47d376U, 0x42b940c85ad1ddd4U, 0x8caec3181a2c05deU, 0xee16cd8100d13e9bU,
  0x454ebb4c90657d81U, 0x1c5368e1ac001f58U, 0x25aef848e8e91a7fU, 0xe21fee332459e4bdU,
  0x2a39a56c0708f85bU, 0x282681040fabf514U, 0xaddb7fe2cdd36da2U, 0xe29ce0ca9b1d6222U,
  0x58ead47a814c3ae2U, 0x48c66ceafb962ba3U, 0x972ffb3e7f4cca46U, 0x3ee2a4d0bdedcedfU,
  0x74b4a5fa7b26ade8U, 0x83264de75034a17fU, 0xcaaaa9b57fe04929U, 0xe614f0b9d2ce91dcU,
  0xa4b3cd212fedc07fU, 0xd80fc0f729676a01U, 0xdc17a055a9404913U, 0x7f619af8cb37c78fU,
  0xd51a7f8ca92f5798U, 0xb4d5352fb2a0cc1eU, 0xd741fecd7b81b779U, 0x955aa7ab7d62ad1eU,
  0x7f52265f4edd73e3U, 0x6184f900db52f40fU, 0xfc81deb4f7fb4a2aU, 0xf6fa41a7f00e4535U,
  0x50381c24dc34cceU, 0xf15638df3797ae13U, 0xebc37fa2c8d7e8e9U, 0xfeb00ffe53502bd6U,
  0x1aca09ab1a7fac09U, 0x6709ac3317c622e9U, 0x9588e5e3db25bbbfU, 0xd2411b58537f8152U,
  0xe37f431914ece554U, 0xd8d7ba2e380441f2U, 0x205f570cff811520U, 0xd711e80eb0ab14bdU,
  0x8b35a2171cc59745U, 0x20fd26206357d67fU, 0x813090075c23b844U, 0x314ce8f9125ff091U,
  0xde5e300bf3fc81ceU, 0x3afa982d9a201530U, 0xada1bb49ef8c25cdU, 0x4c97500d7fcc1bceU,
  0x4d287fb113b6ed1dU, 0x7002c0c3b908fcd2U, 0xb7d5b8f8c6ba2ce1U, 0xc8a8967fd3d009f3U,
  0x7f983a9e1349c8d3U, 0x34ea04e05128ae87U, 0xbb385dea15f6ee2eU, 0x6f7fa4a3caa71644U,
  0xe3d63feb3120d55aU, 0x81131c172e48d6d2U, 0x3ec74fcf5a258130U, 0x99571952a7568c56U,
  0x1fa1f3cd09e0f0baU, 0x3ab6a46f0a53657fU, 0x1d281f1d153d8c69U, 0x813cacc76d6da81fU,
  0x3f9405b79424ca7aU, 0x7f1aeb3e86e706f6U, 0x36f5d8bffae69584U, 0xbf7f943b63024d9eU,
  0x963812f82f3c56a5U, 0x12149a8127b2dfabU, 0x572f876db5fe2ad7U, 0x17c9c999e5f781d5U,
  0x8966d61e0941eea4U, 0x4ccaaddc10b7997fU, 0xeba5743665f2f766U, 0x9fca04827f430cbcU,
  0xa43944df661c4ba0U, 0x47620d15c3818c05U, 0x7f1a432b612d6628U, 0xd4afb8bf29eb0cc9U,
  0x762000ad8117ea88U, 0xbc44bbd3b111e00eU, 0x3cf742edcad3fd0bU, 0xd909d0ecc38133aeU,
  0x4911dbdad805d74bU, 0x8125d9d21ae8d81eU, 0x6ebf4f9eb0fd905U, 0x4030fc1ef4a72881U,
  0xadde51bf6d217f3eU, 0xc3f21a7e05466c97U, 0x7f4eb9bec5a7b0c2U, 0x18be18f451adbf4bU,
  0x48e432ba55301d40U, 0x7ff846d752133fb3U, 0x48f8beb9b6622c29U, 0x5862214981701337U,
  0x6955417f648ee598U, 0xf69861e7caecfc9fU, 0x35b873c9e6068147U, 0x412beeca20be558fU,
  0xa82bd24e38f0bd7fU, 0x91c61434face9ef8U, 0x7f222785cd45d739U, 0xdc7a29afcc64656aU,
  0xff94d4f8fa4d37e7U, 0x15452ad6b87f35e8U, 0xe85a284581193148U, 0xcc45f395e10d293eU,
  0xc781caaa1621b4a8U, 0xdf04366ae3223529U, 0x2f81e6f9b33815ddU, 0x33f08732070de63cU,
  0xff40da7f9b60fed8U, 0x4dfe1ac037d50eb6U, 0x2a1648ee7fe51eeeU, 0x23b90120b3f749d9U,
  0x4039277fedd12943U, 0x483e0e23d7839df7U, 0x419a0ca59fa976c0U, 0x25126a49f3f98165U,
  0x6f604a7f97436d81U, 0xebd9e0f5aa52007aU, 0xb4a43071c8e0771aU, 0xd3c966ffa07fba51U,
  0xf99c1eea3cd7ec81U, 0x77616323cca6e150U, 0x57f261c075b991bU, 0xbdb35f3d2cc716ffU,
  0x127ff201defc10cbU, 0x93bad85533ebde0bU, 0x886527eedf7281c0U, 0xf9e64aadcabc22c2U,
  0xdd00ff81af41c3eeU, 0x12eaf4340b0cf131U, 0x46b853a3ce9c0681U, 0x154d4a2eabc3a15eU,
  0x7781c817e8a94c4dU, 0x11e431ebadaaceeaU, 0x3681d7d3496c5727U, 0x221e11b124ee823bU,
  0x1de98104ed3a21dbU, 0xee594efc61d7a1b3U, 0x122f86ce207fcaffU, 0xa2d960740a9d400aU,
  0xcfffffff6bU, 0xffffffd4ffffff29U, 0x3e0ffffff3fU, 0x70fffffff8U,
  0xffffff74fffffe8fU, 0xfffffe0effffff12U, 0x5afffffea0U, 0x17ffffffe5U,
  0xffffff81fffffe67U, 0xffffff6c0000006bU, 0x11000000039U, 0xfffffdeeffffffedU,
  0xffffff4cffffff35U, 0xd40000011fU, 0xffffffdb00000008U, 0xfffffff7fffffffaU,
  0x4cfffffe85U, 0x228fffffc7eU, 0xffffff4300000190U, 0xffffff450000004dU,
  0x179000000b2U, 0x8bffffffecU, 0xffffffa7fffffebcU, 0xfffffff9fffffef1U,
  0x20f00000021U, 0x130ffffff2bU, 0x11c00000020U, 0x28900000070U,
  0xb5fffffdddU, 0xffffff97fffffdefU, 0xfffffff4ffffff84U, 0xfffffef7000000efU,
  0xfffffeddfffffed8U, 0xfffffec0fffffffeU, 0xa8fffffee7U, 0xffffff0b0000006aU,
  0xe00000206U, 0xfffffe5cffffff34U, 0x8e000000b2U, 0xfffffe09fffffeffU,
  0xfffffee6ffffff07U, 0xe2ffffff88U, 0xffffffcc00000036U, 0xffffffa10000004bU,
  0xffffff9affffff8dU, 0xffffffb600000001U, 0xffffff1300000120U, 0xffffff3600000083U,
  0x89d16dbe7ff8d15eU, 0x57fcb2429b85019U, 0xcec006fb67d67f17U, 0xa0dae10b686824c1U,
  0xc5f5d3fed108dde1U, 0x7fbbe4818c65f61fU, 0x6f81bf7fc1298bfaU, 0x102311be14b1bbb2U,
  0xd95b6ea822d7dfe9U, 0xa045678142f74616U, 0x815fe7e8ab0aebcdU, 0xcf8e9d561bf79213U,
  0x61c04d0640b18181U, 0x25c4ea0e77e03d33U, 0xe27f277f7f810e40U, 0x41bb1a8157b57f7dU,
  0x3f1fb142d03f132U, 0xb41ce81a6c398d9fU, 0x21b8812dbe58aab3U, 0x5e96ace26fad8b9eU,
  0x3b6b910ac73f7f18U, 0x5436b2c324b8ca2fU, 0xaa7fe9fd81e3b323U, 0x81b5a1bc06d8f2d3U,
  0xc4d224f00d09bbffU, 0xe1afa91a539f7f66U, 0x6e210030c1c0285bU, 0xcc8104a2e1cf19c7U,
  0x17f82f810c273c50U, 0xc84521e598d1ff9aU, 0x52a1207bc3cc1f7U, 0x905b81097f09cabcU,
  0xf68120d27f8129bcU, 0x367f1abc7f0a8109U, 0x1a51c20ed91d0aafU, 0xfd19c9c22397e2feU,
  0xe21b373cf381c316U, 0x7f6a387f1369ed11U, 0xe411fd2420af75f7U, 0xf6c9aa9cf3d802dfU,
  0x1c8199cd257c25b4U, 0x47ef25168aa0c6eaU, 0x8ad052e9ae491523U, 0x7fdafeaa3ba581abU,
  0xbed3a9c6d9b6f67fU, 0xe2d8718c05bf6c45U, 0xed2323a48d624c32U, 0xb881192c30ecb524U,
  0x4fabd5b438ae088cU, 0x9dc51a5012701b07U, 0xf4f67250c8196824U, 0x7f24f60ac0e336f9U,
  0x3fc6f1eb81447fedU, 0x2bd0a45e7f3c1c81U, 0xe1afaadad77f7f01U, 0xdf09acace74bb097U,
  0xd4cc8192dae8b461U, 0xaf0f619ac8d0c4a3U, 0x171a6111dc5b817fU, 0xec97c53a7f98e07fU,
  0x5af281df16233406U, 0x82fa4f2d29b41d7fU, 0x7f01c138e0febef8U, 0x11363922aacc07d0U,
  0x81cc81b7ad7f227fU, 0x22bfcee98e0430c5U, 0x81f342f5c6b8b981U, 0x4326e938e98df281U,
  0x81df4d816a161df1U, 0x5801e8184921a781U, 0xc4a86618557f8d47U, 0xcd136ed608ebfdd4U,
  0x81f8812912df282cU, 0x1feb3bfef8d8ec62U, 0x18dcec47fec647c8U, 0xf687c0a8c1d96181U,
  0xbe1bfeddcf77bee7U, 0x5b81e11814810905U, 0xc4efd00a24f9fe51U, 0x398132241ff4e2fcU,
  0xe6c6ff0f27d6c9faU, 0xf72381b637815414U, 0x960efda3d7303717U, 0xd3df7f36f649fa45U,
  0xd1b8e6812b014e3fU, 0x1111dd1bc37f26ccU, 0x75f27f0bc5badae2U, 0xc12ef7df0816621U,
  0xe909a1c551d116d9U, 0x70a56077eb13efeU, 0xa92228a2810b0ceaU, 0x12b451ab9794f6c6U,
  0x8221be0d2adbe26aU, 0xb19cab9d74e8aaeaU, 0x98567ff22959d0e6U, 0x62110b7f3adfd426U,
  0x6481cdcabc40a564U, 0xe62e7f5e7f51d4b9U, 0x2ffc3bdc1117c87fU, 0x16d97f6681c5155dU,
  0xda39de1b50271049U, 0x17ca7f268ca07fffU, 0x3127228fd62f25d3U, 0x3ff2581df81953aU,
  0xaa9433322cced228U, 0x8101f50d2f3c160eU, 0xee4e4c7f4721b5f9U, 0x2701d620028181e6U,
  0xdc0fffffdf1U, 0xfffff25f000008b5U, 0x23600000adaU, 0xfffffe8900001fd3U,
  0xffffefb8ffffeb87U, 0xffffec7dfffff803U, 0xfffff6d1ffffe5f9U, 0x71afffffb83U,
  0xffffed9cfffff407U, 0xfffffa7000001b42U, 0xffffec44ffffe68cU, 0xffffeedffffffb1eU,
  0xffffe785ffffff2eU, 0x7970000153aU, 0xffffffb700000526U, 0xfffff9a200000e17U,
  0xfffff455fffff8d3U, 0x21cffffea06U, 0x12ca000012eeU, 0x83c00000b70U,
  0xfffff75800001a96U, 0xc4900000b62U, 0xfffffdc1fffffa60U, 0xffffede200000d94U,
  0x9f5000006fdU, 0x2045ffffe9ffU, 0x2cf000000ceU, 0xe6600000e93U,
  0x285e00001a3cU, 0xfffff600000014e9U, 0xaec00001301U, 0xfffff28e00000543U,
  0x27dfffff27fU, 0xffffef2e00000ef5U, 0x4b30000112bU, 0x160900000676U,
  0x64700000403U, 0xffffed6c00000f4bU, 0xfffffff700001ff5U, 0x603fffff904U,
  0xd48fffff8f2U, 0x755ffffe700U, 0xffffeb6000000538U, 0x1ceaffffe362U,
  0x1a65fffff487U, 0xffffedb100001772U, 0x20dfffff0a7U, 0xbbe00001ed9U,
  0x9ed4342e39ccf25bU, 0xf2a5394c5ee9bdd2U, 0xbf52fa501c96422U, 0xd8f55525ad2d2ee0U,
  0xdafd1c336b703231U, 0xae2740b24d81beb0U, 0x5ac1a70899fcf2adU, 0x42b7be2d1bb20d5U,
  0x7bbf939f8bb57caU, 0xc4190e5bd49cd043U, 0xde4babf146a3a22cU, 0xab1277030a92943U,
  0xeed9e13b0df8eff1U, 0xd0ded31ef68106dfU, 0xb300383cfdbfbcecU, 0xd8249321f849e5c0U,
  0x18ca17c828e4a84aU, 0xb928eb4024fb2420U, 0xa7e5dc5a4915d0e7U, 0x1d16ed300adb4526U,
  0xe8e244ff0b472f00U, 0x8f6061d0a47e15bU, 0x23ef46e4c6a938ffU, 0x41cc16fdfc2741f9U,
  0x448104ef7cec461cU, 0xe58611cb63cb1ebcU, 0x2d22003822ba3a54U, 0xb34ebee3755e0cccU,
  0x143ff0be13c6e465U, 0xfc0e0449d1a155aaU, 0xc54276dad5dfd3e1U, 0x4c36f92aaa106039U,
  0x43f01c7e066422aU, 0xed4fdd3259c5b2dbU, 0xa44d514eb9dde7a1U, 0xf7094c0911a5d22dU,
  0x9a3915c35c40d857U, 0x30d8c1083faf07e0U, 0x466eb674f5603816U, 0x7f51dcbe122504d0U,
  0xcd35c8d5fae3fffdU, 0xc5aa1ecbca1ee3f3U, 0xa622dc9ca2291232U, 0xeb36bfe5c3bb224bU,
  0x1ed9b911f5f9d2c7U, 0xf13bfd3734eb01e2U, 0xcce9f28611a9c5f9U, 0xebf8b5a4e351bc60U,
  0xb1daf9d74250dc16U, 0xb20e6035f7141ed7U, 0xe7a72731b56149e1U, 0x6441d40fe11e860bU,
  0xd3eaa66ab766f86aU, 0x81f543b7aa4a743aU, 0xd54a591b27e8403bU, 0xacd5b506ee0632d9U,
  0x24f2b403a99ec933U, 0xcdd5f41f07233ac0U, 0x57b2b755add245b4U, 0x2b07f98b0067ba2dU,
  0x6cf5cc9ede72dceU, 0xac54fb5efe2e4b3aU, 0x3a4adbfeb464d1cbU, 0x671219c4327c1fe2U,
  0xd5a0d54b280adbedU, 0x1e0cc81751277fddU, 0x64b3afc7f246a70aU, 0xd84053b8b1aaa3c0U,
  0xdff707122307491dU, 0x5c2446320e1b0425U, 0xb7d3e9e52317093eU, 0xe0a543c5e01f01ceU,
  0xdef656a8f7701fbfU, 0x327e0d4c2042cceU, 0x1b13a58fdcc06edcU, 0xd93a5d49402181e1U,
  0x9b4f6de6f08dd8e4U, 0xc9bbc0c2002bbf4cU, 0xb0ef353a4ca0d033U, 0x465809f7dde44240U,
  0xdb4e607f6fe3cb6U, 0xc501155515ddfb2eU, 0xe49d1b703bbabd39U, 0xc8a8121604cf29a5U,
  0xf3a029d948fb812cU, 0xc51b366549ccf861U, 0xeaeb5f3d591d6145U, 0xcbfcbea7e44489fbU,
  0xf30b2a12d24a92c6U, 0x6bcbbe2fb7ed5b36U, 0x6a5eeb359b10fff9U, 0xebcedd44cff9911cU,
  0xc03e1305265ae655U, 0xc0e0d26322b63f0bU, 0xf8f230d538d958ecU, 0xfbbddc4fe980d16U,
  0xf61e1ed5daf41e49U, 0x3622b56c2a54b8cbU, 0x33edead115814a3fU, 0x1237413256055a0aU,
  0xe52fd94906ead22cU, 0xc8c3520a2b202b58U, 0x30a813f6aab45c23U, 0xfb19fd1a39d73734U,
  0xaded19fd3b3ce7d7U, 0x36182919a354a7e8U, 0x4ef633fc021dfe04U, 0x3343b321ea22ed36U,
  0xde7f3326eb04bc27U, 0x1fda1febb33cc8d9U, 0xceb718c69737deabU, 0xcf39d815c4f129f2U,
  0x1fc2efb7d0efd015U, 0xb1dc19d50a1c0907U, 0x32ef2e1aff44ebf3U, 0xc0cfb8311846b00fU,
  0xc7fccac6bddb0c36U, 0xfad2c1b6d3e8f2fcU, 0xceb2108c44cd831U, 0xbab7ef45143221f9U,
  0xd6c30434af172ee9U, 0xad0f572eadfc56efU, 0x5e97f111c1428192U, 0xdd3041e438eff8f5U,
  0xd1833510ab6d509U, 0x114a6a40d040d43fU, 0xf0ecc8a15321bec9U, 0x312cd716cf5c2f23U,
  0x62cce71101aaaf2cU, 0x30b739b713b80f4cU, 0x4eb542d1d0a3bed2U, 0x2039301fbc4621d1U,
  0x5e36aa2bfb65bf1eU, 0x6904fba5436cacccU, 0xd811301a984d033eU, 0xd40dc91b3a2ec4e4U,
  0xd274d03abca480bU, 0xdfc4f504b6d33d0dU, 0xcba7e3cf17c331b5U, 0x3a3b2cebb634aa7fU,
  0xc3c5005e3c4b6e2aU, 0xe6e54135ffbc4629U, 0xafad35364d43c670U, 0x5e7671afcf37a931U,
  0x52316f40a0c60f36U, 0x53446e405e81fdd1U, 0xe02bf2b4f74dc615U, 0x3ce16e0a5cf02496U,
  0x2ee3573065d986e2U, 0xd09329d21ebfe691U, 0x93a182ec1021428U, 0xff6ce09fbba5cc03U,
  0x1b9cf7d4e828cdbdU, 0xc9b7d04bf3e049f0U, 0xa591acb31b98cbe0U, 0xe0aa383c85f08f40U,
  0x9d5e43a7decb2b19U, 0x381015f8098198f8U, 0xc0be9733ef2bf9aaU, 0xaf06f23e47e9dd3fU,
  0xc10e0cf117f32ec7U, 0xce3b14ca091ca550U, 0xd2935e3fd0e053aU, 0x362cbc59cf37ade4U,
  0x1220b4e0fe9202cU, 0xbb08333c0d2ceddbU, 0xf5b849bc10b72329U, 0xeedf51dc4c6119eaU,
  0xf13b5ffb79b9a636U, 0x3b7eb7def87fafedU, 0xecf9043346011b51U, 0x792b07164aa1d52eU,
  0xda17b74858d5b076U, 0x71b1265dd6985512U, 0xc62fc250ed595ed9U, 0x36bfff3ce1eb0715U,
  0xc52640d5ed31b1b4U, 0x40510e127189ce5eU, 0xe02fc7e807efa7ccU, 0x28b2b451571c720fU,
  0x7f2a64d508cfc5f0U, 0xc8a538e93c6c2e54U, 0xfe8ea6924f66de31U, 0xdcd04b42a4e73425U,
  0xdb700daaf0ad6b74U, 0x32f42aea5952f60cU, 0x230084cfda6bee1U, 0x2904c1bd8bd61622U,
  0xc4aea83a52cd1238U, 0x3cd84a1854601102U, 0x3081de60abe0a1cU, 0xf56713edf05d6b14U,
  0xffffff9d00000f88U, 0x1cb7ffffec6bU, 0xffffecbfffffff15U, 0xfffff8c100002328U,
  0x35f2ffffbdb5U, 0xffffd5e3fffff8faU, 0xffffffa9000039dfU, 0xffffca33ffffc5f9U,
  0xf0285dd0cbfe0081U, 0x451ac3a4d8471941U, 0x96cf8a27ddc6a8cfU, 0x74f60f2cf58144dfU,
  0x7fc04e45bbb61ad3U, 0xa8650e0241ca75cfU, 0x1e33d71459eefc2cU, 0x81fe140c3cffd82aU,
  0xe6f8d5b79a15c706U, 0xb375d7f21c7f28feU, 0xa6e77fa92d6abdcfU, 0xdee32bbbf4de11d1U,
  0xf033cc138114df09U, 0xc538d3eab84475U, 0x5131c690c2ea3760U, 0x1a9a836a31f48136U,
  0xdf4f0381d9e2efffU, 0xe04b2fd5981beebbU, 0x2e18a001638b655fU, 0xdad372300b417f79U,
  0xa94cc5c4a1df8154U, 0xe3fb83d46ad6e958U, 0x2c6b7f2ceb27c1faU, 0xe90911cf462743d4U,
  0x2a441f243d90e029U, 0x7f463fe7fee25fc3U, 0xab1c7e08381845f8U, 0x7af8a53281d8ed1cU,
  0x8ea807c1014981d8U, 0x6cc0c99b43b650baU, 0x7fa9a5d09d0d140eU, 0x4261beb513da3da7U,
  0xb4ee552acddae3fbU, 0xc04ab98178b4baa7U, 0x9533ed26e682ba8cU, 0x3147f18446d9948U,
  0xdd5e58e2a1287f20U, 0x2cc733e51f66e12aU, 0xc0793e6e16e0efa8U, 0x4741e57f6f0d1c3fU,
  0x9fdaa55c7f554d49U, 0xc497e9f4a1dd947U, 0xfe017f56db20c2dbU, 0x60b5fb4a0abaec2aU,
  0xbbc057c22bcc75f4U, 0xce35e05b81c83bd0U, 0x9cdb87b47ceb2240U, 0x10dfccbf81e42fe0U,
  0xa5bbf6081fe126ccU, 0xea0a137fb8a60403U, 0xb9c1a5cde24b0d2bU, 0xdef37f65a3f86593U,
  0x457f002c3c1d34d2U, 0x1ed29e2e55cafef6U, 0xe440812d0b25b656U, 0x33d1ba0132ef65aU,
  0xc74ac9fbe22abae3U, 0x5f25098110fcd6ceU, 0xd5045aa6a9275101U, 0x683664814e0b1483U,
  0x8120fb371ca8c33cU, 0x4f59e32651b9e9c7U, 0x48b456d2e29ee481U, 0x454c280600863d37U,
  0xba1a98dbdef11d81U, 0xbf03421f63b654e0U, 0xf4f7d2b600ea7f15U, 0xbbf06319c44e1b0U,
  0xb13f944b75174c13U, 0x7fc3dbf02b026a6bU, 0xedb5504757757ef3U, 0x739c7f9bf87bd8e3U,
  0xf41b98ddaa56543cU, 0x3eb5af680b317ffcU, 0xdcde3a2466cc8120U, 0xc106edb841eeaf59U,
  0xce5c4e5c9fb1d7fU, 0x1c65d0f2c20402c1U, 0x25fdeaeea12381faU, 0xedc0e9139f482024U,
  0x35bd0bed36d1f76bU, 0xf837e87f12dd36cfU, 0x281de25e7af2e8edU, 0x81dadeaa14ed28d0U,
  0x378f313b06052b7fU, 0x36f9b5e917e8dde8U, 0x5e82d1e9ba03eeadU, 0x6a027f6f813c6816U,
  0xfa36012e819bd756U, 0x295b3b2bcce117d6U, 0x25e0fa9f4744f0ccU, 0x5ff92900528110dfU,
  0x1c273a1ed02e8e30U, 0xa0f77fac4599b584U, 0x76717b2c42e3ff6U, 0x2b7f8940e3335a7fU,
  0x91f98154742f8759U, 0x8b6d8c37faa18343U, 0xe8c4bede7f41e2f1U, 0xf9b1e4accd89e353U,
  0x7f50b894dc7358c8U, 0xf58d7531c07923b5U, 0xbb042ab40f907f24U, 0xd0fa4372c0f7b6a6U,
  0x271f81daafb8cbdeU, 0xc60c8af55b3d3c1fU, 0x81d8d702e41dc3e1U, 0x334989fd043b21d5U,
  0x15fc40da267fb262U, 0x93a1fcda1e36f100U, 0x34ddde84cf1a7f40U, 0x590b54c31da442ceU,
  0x934816e3229eb19U, 0xa943ed59b0f03f11U, 0x334c5be52229194fU, 0xe31f65935ce81aeU,
  0xcb5de5f9fbb2e158U, 0x7fd3198b2756b543U, 0x5304d648ac7fd96aU, 0xc487242dccbab935U,
  0x508144a3e4e27467U, 0x6dfae8d7d4ef1a0eU, 0x242bf49c0255e2a8U, 0x7f7d620ff3d469f8U,
  0x9e389cf9db75011dU, 0xa0575f12da7fba1eU, 0xd2013c6311db21bfU, 0xd0acbc38b461647fU,
  0x875aabe68730b9fcU, 0x5bdebe162ca51d7fU, 0x5e7faf405370e38bU, 0x54f23d25275e35b5U,
  0x81a6cb91600e1b2eU, 0x1051981559db4c30U, 0xeaf7525f7f6f30d7U, 0x9a1214d8c7cd2aadU,
  0x4ca841f9133d81f6U, 0x73678a9dbdcb2003U, 0xc02e40cc4b683781U, 0xa0cd3fe93a4ac0b7U,
  0xdd600c0f13c53e36U, 0x34cfbb0c429bce7fU, 0x51147f1744c0e238U, 0x2a25efb143f82159U,
  0xaf2f0b64c6c051b8U, 0xbf0517a954e1027fU, 0x673aed1aaf288717U, 0x8104470a0a18daccU,
  0x57e17f3f65ca3309U, 0x6fc45f53e123aaccU, 0xe635f2013edab4deU, 0xde3b1281f061c4ceU,
  0x13362cd0816018afU, 0x10b8dccb127831d6U, 0xb0fb2426f6ddbe1eU, 0x273e811f5eafda4eU,
  0xa03c5e3e1a51c12dU, 0xa111ba7df27f1922U, 0x90b5d9d8ca91427fU, 0x445ee44501d051cfU,
  0x85455fcad0eadb52U, 0x4adcc8a7fa81a0efU, 0xc65747f99ca9e38U, 0x3ebc9f2471d259f4U,
  0x7fdb2f32de980fd5U, 0xcb256ed803c7e8b2U, 0x7a6393ff1c17f6caU, 0x347d99397ff569a2U,
  0x8c11207fd1af09b3U, 0x3defdaa825c52562U, 0x250662f43d1ddcdbU, 0x357a48de81bc1d16U,
  0xf9d3458115c144f3U, 0xe43f2b0011c90b56U, 0x81c7fab106fbc29fU, 0x59dcd4285120cbd1U,
  0x9e4400fef1f120dfU, 0xd13c7f64e622ec55U, 0x16ef1764cc0d1badU, 0x52a15006a3337ff4U,
  0x4ce0ccd0f1a6b681U, 0xd7eba29b402ce2c4U, 0x97d7cec71944033bU, 0xc37fc5a95a601f2cU,
  0xf15e77f196698531U, 0x518136ddfe4ae207U, 0xcd74d710c2379e31U, 0xdb4ef8e57e813599U,
  0x5f5bbd7f9247fd75U, 0xba2cd66deea8b03bU, 0xdebd23b6cb53401cU, 0x7f01465873010862U,
  0x131ffffff10U, 0x1a70000000aU, 0xffffff63fffffefaU, 0x70ffffff90U,
  0x3900000021U, 0xb8fffffe99U, 0x71000000e6U, 0xfffffded000002d4U,
  0xffffff80ffffff4aU, 0xffffff17fffffff2U, 0xffffffdd00000136U, 0x27b000000ddU,
  0x1ff000000f8U, 0xffffffcbffffff33U, 0xfffffd7bffffff80U, 0xffffffb2ffffffe3U,
  0x45000000a7U, 0x1c6fffffe17U, 0xfffffe230000009aU, 0xffffff5900000271U,
  0x460ffffff65U, 0xfffffed8ffffff5bU, 0xffffff3dffffffb5U, 0x8700000178U,
  0x3ffffffe36U, 0xfffffedffffffe9aU, 0xfffffe4e00000046U, 0xc400000157U,
  0x80000001b8U, 0xfffffdbbfffffdb4U, 0xfffffe89ffffffa9U, 0xfffffe9dffffff14U,
  0xd800000071U, 0x31ffffffb0U, 0x27bfffffc9eU, 0xffffff81ffffffbeU,
  0xf8fffffeb7U, 0x1ef00000132U, 0x44fffffef0U, 0x17a000001b0U,
  0x14a0000020fU, 0x3e0000010fU, 0x100ffffffdaU, 0x13a00000027U,
  0xffffffd80000002fU, 0xffffff32000000deU, 0xfffffef3fffffe0cU, 0x62ffffff9aU,
  0xb5cb9888e4a4f818U, 0xedd241dfaa908ac6U, 0xb4d2b7e0819579efU, 0xd9548131ab3b8249U,
  0xdaee617a424e95c3U, 0x7f36814accff0481U, 0x37a838815a81f2b6U, 0x7f9ab08138ee40dcU,
  0xde815d8109a23737U, 0xe04594fe25108142U, 0x81423abc153cfe77U, 0x8fdcfd7ff02b8132U,
  0x85d5f3baa0467fd3U, 0xf5810d68b3818164U, 0x2f14fbddd6c128d9U, 0x17fb2ea4052487bU,
  0x59a32b81236ed73eU, 0x502ce27f81811c94U, 0xfa81819b58d3fcb2U, 0x7bb29ad85db106e5U,
  0xb8c508a6d0aca0e5U, 0x24c7adebaa389515U, 0x1a504b05a25a8109U, 0xca06747f147d6a7fU,
  0xdf638153c3a6ea9fU, 0x4a9feb51ecedb4afU, 0xdecfe081f517ca49U, 0x29b918a0815e81bdU,
  0xc15d8eac68222ddU, 0xc7f961231f401d7U, 0xdc00d0f8fda81deU, 0xeeaa3d401df4eb4U,
  0xace8816a16f0c6feU, 0x31fe3b906226e0f0U, 0xd1bf553cba7fe06bU, 0xee8538d8f514cae3U,
  0x1a81e17fc6e0eaa5U, 0x4ffa7cc8819fc1dbU, 0x1f70e7e3bc2c2b81U, 0x6c121e9c54d4d54U,
  0xe8fc3bffbf082b96U, 0xdf17cd28a0cf5da0U, 0x7f1844edc4c1b711U, 0x229a02005f7f7fc7U,
  0xbfa6b4d8df81e843U, 0x1bf6544905980a7fU, 0xd7e93306fbf828f5U, 0xbf601b21b9221444U,
  0x7fafe25c14816d9dU, 0xe09487defdf2d37fU, 0x717f15b9f5ed8398U, 0x2c7ea377287f1a56U,
  0x7f81fa9c2fee3a81U, 0xed56bcf6d56a7f9eU, 0x30252eb4eee7fedfU, 0x61f8dba937f50b83U,
  0x17bef7ca360ffc2eU, 0x7636d9457f81084fU, 0x56e87f7fffd5fe93U, 0x81097fe8947ffc33U,
  0xffdb7f3d32a53e8U, 0x46d39323f3e93bbeU, 0xfae0b707a07fd508U, 0xf7fcfc841d59f981U,
  0x31c35a422e19f06dU, 0xfc4aa2f54c8401c7U, 0xe36272a98b89356U, 0x588181ce7f832fa4U,
  0x81fac105f0eacb7fU, 0x7f236a5b31e21b35U, 0xff81b501c7fa8d8eU, 0xc74062d132232eafU,
  0x99faca53fc386581U, 0xc69cf9b10fac2bc9U, 0x7fec81bc9deb7fa9U, 0x7f89279d4d2fdc0bU,
  0xfc098150fa1f172aU, 0xcf2dc7c5d049fb05U, 0x32e9c4f7a47db2f8U, 0x3535e0b204e3300dU,
  0x45b820428134eee6U, 0x1d4a9781d46fd70dU, 0x71ce25de21df1504U, 0x5a92e5db811ef2acU,
  0x6ffaf68d81281984U, 0x8187a981f6a9de3cU, 0x2bea40f5c1c4cdcdU, 0x2d932b7f36c144d5U,
  0x8bec49c7f7f7f44U, 0xad17e404e84c52b6U, 0x2c7c98c17f57b72fU, 0x16a7d5ab6c7a5981U,
  0x2fba7915fa3bc94bU, 0x107f479a0f0eb0e1U, 0x1e353ef400e6f98bU, 0xeca0ff20af0424d6U,
  0x2dac54f811a241cU, 0x4d00810a17ce36b7U, 0xf0de5f0d55fe908U, 0x16f98a45ea162ef2U,
  0xaa32b1f3bc3110aU, 0xd22b4a11bfaefd7U, 0xf22f52342a60cf7fU, 0x3494eec9ff1418d6U,
  0x40afa304368810cU, 0x6a4e7faeb7e0b136U, 0x38b717b7812abe81U, 0x447fffd08a0dec1aU,
  0xffffe47700001e8eU, 0x2202000003f8U, 0x22e7fffff936U, 0x20f00000abaU,
  0xe2300000077U, 0x184d00001f0cU, 0xf550000032eU, 0xfffffb080000265dU,
  0xffffff47000017c0U, 0x20f7fffffe25U, 0xe82000019fcU, 0xfffff02efffffc05U,
  0xfffffe36fffffa03U, 0x1cffffe238U, 0x6d5fffffdc8U, 0xfffff286fffffebbU,
  0xfffff78a000001f1U, 0xffffefe5fffff940U, 0xfffff7a000000271U, 0xfffff52700001e0eU,
  0xffffea0a00002341U, 0xa89fffffed8U, 0x3490fffff9efU, 0xffffffbeffffe090U,
  0x1c0c000000c2U, 0xfffffe53ffffff71U, 0x9600000a5fU, 0xffffee19ffffff78U,
  0xffffe48c0000256eU, 0xffffe7d8ffffff46U, 0x225700001fa3U, 0xffffe038000020afU,
  0x170affffebdbU, 0x11100000908U, 0xffffff2000000080U, 0xe3b00001f0eU,
  0x16cffffff264U, 0xfffff98100000056U, 0xfffffe4500000884U, 0xffffe5b0ffffe8feU,
  0x11fa00001aefU, 0x13fafffff110U, 0xffffe710fffffe75U, 0xfffff8ac00000655U,
  0xfffffe06fffff9aeU, 0x1613ffffe4fdU, 0xffffe8bbfffff924U, 0x1584ffffff78U,
  0x4322ba10b12fadebU, 0x815727da16e2dbacU, 0x193214fa56e6d141U, 0xc40b1cca2d3b9243U,
  0x1e79fca8c9f28bf7U, 0xe42f22a83ee83d2bU, 0xd69d0aaac5c1d61dU, 0x5c27164849082431U,
  0xd7a7b0d40fe0e2d6U, 0x3acd425d0d310444U, 0xaa9fb9c63cce04f0U, 0x331fb94e181dac19U,
  0x314fe1a3d1b2822U, 0x30ebfb44a94bfbf4U, 0x180049211e1bb10aU, 0x3ffb30182704c523U,
  0xfefcf535d004ebddU, 0x130a873334f1f99cU, 0xd9f91bead848e8c3U, 0x2e3a8114e1da3b29U,
  0xfc1408d7bf1af6U, 0xd8bec32fc52e18cfU, 0xd6f634eb00c6eef3U, 0xd0e32fcb41fc1e2eU,
  0x4efc81bfc2bf3fcaU, 0x4a0725d2bef00fc8U, 0xfdf10f1325efdb09U, 0x26b81df7453ca3c9U,
  0x1751071b6bff1ccbU, 0xc808b6aa3be13e12U, 0xc83625ea03e9a927U, 0xec4bf60843220f5fU,
  0x80c1d1fc53559afU, 0x20eadccb04d327b9U, 0x6001184f34aedec3U, 0xd8cb11df293f22e6U,
  0xfcd23228b0bf4ec4U, 0x246ecd38b900c7f6U, 0x4281d5c918dd0a33U, 0xebe2b1d6bc5bab9fU,
  0xd65ccb49d52d240aU, 0xd2d1f210d9ad2f2eU, 0xe4a6ad2fe0c7e4f0U, 0x515935f3dd0ef842U,
  0xc50fdf01f051cfbeU, 0x18cc111df41615edU, 0xf1b4324ecf650f3bU, 0x2337e448c334e72fU,
  0xe3bc5fea441b453cU, 0x2a4942faeb25c639U, 0xf5dac63a6d0e0cb5U, 0xf7a32914eacdbe0fU,
  0x1bceab3e2d45d315U, 0xf3a7f1f01a2d4cc0U, 0x721ee70e50c5b326U, 0x16dd29f5083f0ab9U,
  0xe5f723a8d0e7dec3U, 0xab03af89e3d3eab8U, 0x3b0e30cab6ff0363U, 0x28078ed581e62decU,
  0xcbdf5c1746bba7a6U, 0x19d351edf742480eU, 0xca6e42c42ae9153cU, 0x36b301ffbc0f4655U,
  0xd821f19fbdb1bd10U, 0x9f7f05ba1ad87c23U, 0x4d100be72ae4edebU, 0x49e7eab6d4e2e321U,
  0xff6604fad7120428U, 0x8fd5b31f37eed635U, 0x11f61efa464205aU, 0x40d1c4a6c36d05c9U,
  0x1af7c62a3d05cd06U, 0xfebb321ac1bad2b7U, 0x93823c5ede1616c8U, 0x3b17eb31c039848dU,
  0xd4653e071bc1bd99U, 0x54ededde07f3cf1bU, 0xe442ab19d0c9e518U, 0xa4fdcf20bc55be1eU,
  0x5508eaf93d2e3accU, 0xc3c257d74681f245U, 0xcd2bbf3835063e4bU, 0xc3f2d0b7354f0ed9U,
  0xf9374c91321437baU, 0x13cbc38bf361bd7fU, 0x455aacfbe4aa6f76U, 0x8dffeb11415365dU,
  0x79e4ef2fdedc30e9U, 0x975b2bc5ffca0cc1U, 0x2692a4403eed4dc8U, 0xc818c0313dce5dbfU,
  0x1626c8bbf60dff4bU, 0xfe1d03e1f207fcc5U, 0xfbca21dc06f18734U, 0xed27eab52aae3706U,
  0x23082a0f18b8e8edU, 0x23092dcb0c0de9a7U, 0xfb812fe6c82035bfU, 0xf9b1d53fb919d8caU,
  0xa953dd24b014b25aU, 0xc44b1abbce90261aU, 0xd510c018a64bdcb4U, 0x574439d6cdc6edU,
  0xdf92390edf261c09U, 0xf43e2fa7bdebb46dU, 0x61f8036b4fc8f6deU, 0x5d331cf91cd35edaU,
  0x18dd60afdc1c1a31U, 0xce3b50d39972d1c3U, 0xaa2303603c20045dU, 0x3be95c2aa3b3f5a0U,
  0x5167cc014601a9e3U, 0xbfb26060f82f1b0fU, 0xb373ba3b995db51U, 0xcfb02e621bf3ccedU,
  0x3fe7310943be02f1U, 0xe307c6423ae8e600U, 0x22039f81284ea631U, 0x35df91fa3400462fU,
  0xffbdd9dc735ad41U, 0x261abceee1532fb1U, 0xadaebf52e6bf1a45U, 0xe34b3ef92956c9f2U,
  0xb964f9272b141033U, 0xfa4cbc483e184812U, 0xe6aac5a4fcc5c903U, 0x10d006760ce216c3U,
  0xf9300a1821e8f3f2U, 0xe016dc533714fa2aU, 0xce18e2380645ca7fU, 0x2cfe5b4a02b0b245U,
  0x5f251c403cf745d7U, 0xbb5a85194b56d61dU, 0x4f270455e94a3dfbU, 0x231f24befe20fb96U,
  0x11199dcd55b14934U, 0xb04a54e1634fe122U, 0x31f2eabe2bd43b12U, 0x3e31db4819a4d910U,
  0x247f3aeaa4335214U, 0x5edafc5dd6ddebeeU, 0xed02e000ec6b0998U, 0x33e53aa655af2c2cU,
  0x827cc9bda57225eU, 0x15302cda0c300348U, 0x4b04d59332ac2ac7U, 0xc207ae346d16523fU,
  0xef14fd23fdfcb0cU, 0x553e98abdad75f4bU, 0xe94e32467ad7e8eeU, 0xc70457c44e2246adU,
  0x14c3e23981d2bdU, 0x3ecb01c1b4138f5U, 0xca0f1783cbfb5d07U, 0xf10108a5b23ac11bU,
  0xe41b31442bc14ca8U, 0x2bb753a25a21eae6U, 0x966b0f9cf24dda2U, 0xf5fdf309ab2ad70bU,
  0xe8b10c4ad551fb03U, 0x19363152671c0fd7U, 0x5bb1cddf40e0d9dbU, 0xf82fe208d7f5f00bU,
  0x11b1ebab3f1b652eU, 0x7f3301183dc22560U, 0xaae115eb1dc3b315U, 0x1e210d1debe029d3U,
  0x38c7ff3e173d7faaU, 0x78b94b20c015fee9U, 0xab783d4043a736a6U, 0xbad50f2713aaf319U,
  0x2bd216a447b7c53aU, 0x5764d4c2d53d1e94U, 0x8b246affc981a25U, 0x393327a4920fdb3dU,
  0x4702b702d0e533d3U, 0x6bc8192bdce53425U, 0x69285fb940203ba8U, 0x9cd135a3ff2cbb28U,
  0xfb27173c5009da2aU, 0xd546bed46441371fU, 0x152f45813edde5fbU, 0x1fbfdeca1605e23aU,
  0xba7e425421edab7U, 0xc32549ccf1f0d3fbU, 0xf1408e5c6c3ba22U, 0xb61916c7401cc2c8U,
  0x370e1626feb146d8U, 0x48f509e3be12e9bfU, 0x36b5281e39fa0328U, 0x13b60714b5141bU,
  0x3813a042dbe7d52bU, 0x1faf1a1910c61d81U, 0xfb32dd50c16fa415U, 0xc8b116de12e4d53fU,
  0x660a0de001e03d2bU, 0xee9143e316dc0209U, 0x410904d2c8e613feU, 0xc1c108f269bdf1f6U,
  0x3e0c1f30134eecb6U, 0xdd42f40ca9ca0eacU, 0xe0aeea9ae921284eU, 0x1451135d01553af3U,
  0x69504753bff116cfU, 0xce9ba6310eb2eebeU, 0xede9b513a3d715ecU, 0xc40f57052220c597U,
  0xb8f8eb3ba614d83cU, 0xc1d7d58a7f32fb2cU, 0x36c45ffb15dca479U, 0x98f7ccc4c154ddb1U,
  0x79e3b1336092703U, 0x30266d5c4cf1c6f4U, 0x6a2fe9f5c4234131U, 0xd313d2deda06e523U,
  0xe9d5783d2cc5c933U, 0x5bff1ecc40b7038cU, 0x16db33df0cd3ac22U, 0x370544c035af27c9U,
  0x4eff0b3b011afd23U, 0x26f07fe3f8e3e350U, 0x47f446db19ffeb06U, 0x36db240625e2e44bU,
  0xd84bd304d5022fe6U, 0xf2450511372b50fbU, 0x29ea0f28db3c00bfU, 0xcbeaefcdb33b0df9U,
  0xdbda14b1626b250dU, 0xcbc1df9547b7f389U, 0x1ceddcbd18f467fdU, 0x55070c6852431927U,
  0xd1abfcee1912cafeU, 0x1acb22b299283bf5U, 0x2ab566e1e49957ceU, 0x5fc22714e01b997fU,
  0xed81508ad9de422aU, 0x1e025390bfefd660U, 0xbc03c26c27fbc5cdU, 0xeabc3496cbed18d2U,
  0x35e7d8bc3b1ac3c0U, 0xdbe92b685341620bU, 0xc55fc407eb99ffcaU, 0x3a6f16eaf8b5482fU,
  0xfeb75addeb08ba5bU, 0x11cdb8242c0e20bcU, 0x58dcbd4b1ececb10U, 0xa721a1d8e8c8fb22U,
  0x424c0809bbf72a14U, 0xfbf1b514646102a5U, 0xda70ee35f6dc5af0U, 0xcbd0d907e9810ed5U,
  0x36f6ca33bdcbeef3U, 0x38fe5f58a9022d65U, 0xb1b2f0d7b11605f5U, 0xcbeae7b95546cb4aU,
  0x23d9fc7f9316c853U, 0x70323c13e6c3c9b6U, 0xdaa65dc7bd4fa5cU, 0x3dcfdddafb47b4c3U,
  0xb538352cf922f60aU, 0x1558171d4311c0c3U, 0x21e09616fb22a2fdU, 0x9a1edabf45c21b16U,
  0xdcc4c978b50ad9b0U, 0xbab72ac6e2c3dd44U, 0x3f481ccb3f2c3032U, 0x20a0db7f232d42dfU,
  0x6a244a2d20b94d4eU, 0xf0df44afcc4500cdU, 0xf84df52626bc2617U, 0xf1b20b292cdbd612U,
  0xaa2a57fc0061a34cU, 0xa6b44bd0d95181c0U, 0x36365156d0d11bb3U, 0xfb4d4825bdff566bU,
  0xbb0b0f2c4d3c37eaU, 0xdeddfe17a4cc3529U, 0xeb011e2efd31f7e5U, 0xc7c616f716f2e8e1U,
  0xd20717cacb23ea19U, 0x205d164c21192024U, 0xdac23e6e1cfab30U, 0x49470116dc25fdd7U,
  0xb435b94efed6cf21U, 0xae21b430124f4ceU, 0x1aacc008d33bdc1aU, 0x28f67f1f04350ad6U,
  0x98900000420U, 0x3e9fffffdd6U, 0xffffe48f000016bcU, 0xfffffbc900002633U,
  0xffffe37700000e3cU, 0xffffa49effffe1adU, 0xffffe9b0fffffa87U, 0xfffff5b5ffffedbfU,
  0x237700000319U, 0x1a0bffffce1dU, 0x167800000ad3U, 0xffffeca2ffffea89U,
  0x36b41a4aa0264357U, 0x2d7f6044cc95b708U, 0xd00b583f1d421944U, 0xd87fabf9045dcb51U,
  0xb07ac2ca333f0e3U, 0xde2432bfd9bb3935U, 0x781fdc23c5c358ebU, 0x4f18001bb2c2fd81U,
  0xc062074ae1c91700U, 0x64db812f6c373995U, 0x300e7fd900b1593eU, 0xf1eb1d3837537c00U,
  0x1fd068fe29fcbfccU, 0x145c3ec11499d31fU, 0x5522f694537f365cU, 0x59302421695e0e81U,
  0x3d53442339a0ebf7U, 0x2aed0136ec12bedeU, 0x26a90de307d47fb6U, 0x494af2e72ee80dccU,
  0x1fefdebd614e1945U, 0x3b48447e5cc76b98U, 0x60473a65b808fd1cU, 0x9c2bc146172d7f0cU,
  0xe7d228e747485d81U, 0x236622df0febddedU, 0xe2b941dd66e7b4edU, 0xf92255f60c10f508U,
  0x5637340c5137febeU, 0xbfd981ea4447cfb2U, 0x28eb502c8133dbedU, 0x8f5484724ddfac0U,
  0x4c5e5c10f7cdd34aU, 0x418ef1031ed7f5fU, 0x34bdefbc653a1ad2U, 0x1f9e5afcf2c467f4U,
  0xd9e2b0b7292aebebU, 0xb491213154eeed9U, 0x28260356257f1f10U, 0x4263db29ad6bd1bcU,
  0x60218291b6bfad9U, 0x6e7fc6f6b39846e5U, 0xe62be47989b921b9U, 0xb12a0862b00a3d07U,
  0xb0c47f0bef0c56edU, 0xc5ab29b2928ccb53U, 0x50ed10f9efd2cd74U, 0xbf467fe2b8240701U,
  0x6683dd2b6a24e134U, 0xb10f81e7324e13f2U, 0x70071d7aedafff54U, 0x1a167fb00c31c097U,
  0x41453326e3f9a2d9U, 0xb93dc3e0e23c4592U, 0x68ccccb91c34c81fU, 0xb6a3e1bd1f81f4d9U,
  0x184cd8ee435ca01aU, 0x9c5c6c672ea23674U, 0x1a357ff165a9e6e3U, 0x4afcd715fdc93f76U,
  0xc47fc6f7d9235ea2U, 0x18bfad4bd836d7c2U, 0x328b2f5e02362306U, 0x5fff32e153e8599eU,
  0xd9596272e69b8123U, 0xf7291a5ddeb9b3c9U, 0xc5f0ffd8c1b1efceU, 0xb3b1432baf1127d8U,
  0x2f504f3850127fe5U, 0xe72ef918bf8a548U, 0xf7cb2281fa08ac23U, 0x44f02cb0247e2a14U,
  0x32e325b7ca42e2f1U, 0x131cfad040bfe6f6U, 0xdfb933447f602dd3U, 0xfbc461472f33f1dfU,
  0xd7fcfb7fed4f2ef5U, 0xfe1f1de5111f0428U, 0x2efd4048d1c8a4daU, 0x41dab9132048c7f7U,
  0xb8d4652efa2a5181U, 0x5f10f4bd32f22881U, 0xbae83ac42060b096U, 0x35823dd817a848ffU,
  0xf7f14db6eadd821U, 0x5467d66598cdccdfU, 0xa7dd6aa1607c5a57U, 0xdb4fa1d975e0d70fU,
  0x3009d87f8cb623adU, 0xca78db2581385427U, 0xcafbfaeb1f0d2712U, 0x12e03cb2e7008ec7U,
  0x38fc74a3f97fba9bU, 0xca2f315b3cd296d7U, 0xee23d01bf6fde022U, 0xfc07bfc9bfec7f50U,
  0x23becfc044f5fe9dU, 0x14617f22ca7a86d2U, 0x55a4f9f4d586fd60U, 0xb006e92d662abc4cU,
  0xf8d531ca81d23fffU, 0x5f8a2c66fb41e494U, 0xad99dda8e7b4a4bbU, 0xbe6881ebb271a776U,
  0xc6b2ec5d25e968d5U, 0x2bd1b17f6c04e10U, 0x31dabc6553e343edU, 0xf881aa4cc148a030U,
  0x4423d14056d857a4U, 0x25340d8fded6714cU, 0x58447f40734c6f5fU, 0x67a8a6cf1cd1efc4U,
  0xf7ecd05dffcf1ec2U, 0xbf3a182925c94c81U, 0x61cf091fb4bbee81U, 0x6d66dffa4232a7a0U,
  0x5346c1d62d6c88U, 0xb4b328d79881dd08U, 0xc5f2e9fce693d8ccU, 0x103fdb3b1adb12b8U,
  0x19aa87ed4598e4b4U, 0xa365f8bd8f2236ccU, 0x7fd7cfa1c00694f4U, 0x649f5f6608185c0U,
  0xc5eb2afdedf15a5bU, 0xe9f122c2de2d1119U, 0x3ef75816ef2952abU, 0x361463e92347520fU,
  0xf5e5b27f2356af3cU, 0xf83a10c7d50581e2U, 0xa89cb8d2cbdbeeb0U, 0xfc20292612efae15U,
  0xbd8108303e37ae61U, 0xd9a97cb60ec8072eU, 0xc6ad41ba370bf3d8U, 0x1ab03923d83d7ffeU,
  0xd3dd7910641a25ccU, 0x61b51f461acaea07U, 0xa17f6b4b5156371eU, 0xa40df3cc26c936e8U,
  0x4f9400dfafcec17U, 0x10983d08bcecda2dU, 0x7f0ae5f42886a74bU, 0xe2f29803d3fcb20fU,
  0x314053375bc7e281U, 0x6cdae28642d75fcU, 0xd945004fedec2b2bU, 0x2fd8da1741e95adcU,
  0xcacac5152c780cafU, 0x45b3f1c19a811f2cU, 0xf4150ebbb3dc3501U, 0x45f91e0f3524f3U,
  0xdbce2cf2d2811b12U, 0xa8d16803f8d9fa19U, 0xc13ee15f1db115bdU, 0x9e81b472ed6718c2U,
  0x72703b6d19cdfafU, 0x12c6e8b9798120bbU, 0x912cf9d0ebab3602U, 0x79df9568153ffd30U,
  0x293ed8d6bd68aeaaU, 0xaf70f9b281dc28bcU, 0x28e449f04511310fU, 0x3d3e526a0ef2fcbbU,
  0xb3b1e1f593812283U, 0x3f47c6c6683a9cecU, 0x750c81d838b07801U, 0xcb2b3bb712e8bd97U,
  0x768f42028114e3e3U, 0x3cd63a1213baf4c5U, 0x166b36b91eb16019U, 0x6dc581ad62e4ae2bU,
  0x445e8b71e0a9af96U, 0x81f3b31afa5fde0U, 0x2c334603d6b02bcdU, 0x10bdee59f81433dU,
  0xd038ca1a13c318b1U, 0xe6119d29814939adU, 0xe7e584dda2a636adU, 0x172890b2245b163eU,
  0x1f10f0e9db81d426U, 0xeec803dcd5c72d13U, 0xd12103aff2173776U, 0xc1ebcc05eb24f905U,
  0xee36e701f83afdf4U, 0x2a81ff28be48372cU, 0xe555e34ed6fbf8f7U, 0x652781e924255de8U,
  0x960ea63b2a52e534U, 0x7fbef73c9d89d43cU, 0xfbc8ac6d1ea3f786U, 0xe5531d19d756af0aU,
  0x8d6cbc143e7f6cc0U, 0xd802bab8d363d4cbU, 0x1a53d66e1d1890b1U, 0x13d53f359800aa29U,
  0x4fb44ef8bc5abb99U, 0xb37ff631afca5eadU, 0x811e02deff3cf4c9U, 0x2d94af6c4f8d4cbU,
  0x54ac49ca0ef0b968U, 0xfbfc1c8a632fcf2eU, 0x50b01dbe7f3e11e3U, 0xe26ae2ec1e341eU,
  0x47544e58f2e6981aU, 0xc8113059e66bb19U, 0x969b1304c73fb95bU, 0x4237c83dfac15a14U,
  0xe3df3819133b5912U, 0xe981ef6dc2012cc5U, 0xcc155ea820122400U, 0xd07febf2c9ce8450U,
  0x3f511347000e42e4U, 0x904d81220d9cf840U, 0x5762523e3c5b1baU, 0xca0a9acf611d6591U,
  0x941b692e0607e600U, 0x2a191a2225371846U, 0x182901d536b90281U, 0xbd32cf68d2154901U,
  0x38448cde4e9f6b7fU, 0xf31ece52b697464fU, 0x98dac2be06f910c7U, 0x6d137b19dcef3f73U,
  0xb7dc3fdd1d7f2cd3U, 0x3ec2b3ce1730c9c7U, 0xeffb2ac1f118f006U, 0xa6157fbb0f0d4c05U,
  0xa53806c5f6074f14U, 0xed6f9bfa5b495a0fU, 0xeab1fcbeda168120U, 0x3c4237318a4b41beU,
  0xaec8db49ea075481U, 0x5554b0901feaebbU, 0xfad67f740e2573c1U, 0xa9acbf27f93dca2aU,
  0x5c31fea7d49db62aU, 0x8f507f5dbc465f50U, 0xab5ab4bf97fa5815U, 0xff334ac55ae6c104U,
  0x35ccffe4be090be3U, 0xe428fb2d0dc4d4bcU, 0x115220e8bcef281U, 0x9e7f06bea626eecfU,
  0x139d13474734fd3cU, 0x22a6b7ec3c240dcfU, 0x4acc1d6095c5d7dbU, 0x10f93d27f0223081U,
  0xe16f96a6118c33dU, 0xa2e2321162ac4a28U, 0xd90a8cd0bec82e37U, 0x6c36245b813c2436U,
  0x6a50c30abecf822U, 0xc0362f0318b4300fU, 0x7022fdcf802bd7fU, 0x81f3eefeefa92219U,
  0xe4d3f7d41fe00eebU, 0x4d34e663ff395ad9U, 0xd7a73b0b81b40955U, 0x3956f6f0f8b1f13fU,
  0x3daad5ec07bee2ddU, 0x8d21b5b732fa312aU, 0xc5f23da0810cf93eU, 0x6e1a2e23b5060a27U,
  0x7341fbb8089a95f6U, 0x1fa152ff0dbef7b1U, 0xd47fc54743f91636U, 0xb21e1453d24b17feU,
  0x56db18f43ae41b44U, 0x81c339122282abd9U, 0x315bee10ec4823e0U, 0x6e3b3b10b4d1eebaU,
  0x9dd4db816fa4eea1U, 0xcba58af9dcd240a2U, 0xc4dd99dada375c7fU, 0xac2f64b7001961b4U,
  0x9e7f24a9f7ff24e0U, 0xbec7d9d105fb3825U, 0x10bdef3a0922bcbbU, 0x36d2790fb3ede98fU,
  0x707f35f9319b615fU, 0xdc2e16bf4320ccbdU, 0xe18a24eafbacf330U, 0x417eeff7afb29396U,
  0x45d303dee8cf3081U, 0xd7defba434ad387bU, 0xaea0211cbe455f62U, 0x7f4fcb03008a4718U,
  0xc89e6f109abc2c06U, 0x913aee2e43815ebeU, 0xf0c8c8ba95248616U, 0xd2dfe567bb1ef7e4U,
  0x74fe6627e68157e9U, 0x16c5ccc5dfcce9afU, 0xceda59cde5040f7U, 0xbfeb8123d334a0fbU,
  0xd920f9c881dd0eaeU, 0x5bce8e4695aaa2f5U, 0x9c0c5ba79315cf81U, 0x9f87a332b5a8a764U,
  0xd3c281ccc62dff3bU, 0xa3bc4c42cf0103eeU, 0xa982eb66d900f650U, 0xc8b90bdb4234c0b2U,
  0x22de361e548593b2U, 0x1a4dcaa37f944feeU, 0xd1f17aaa6641100cU, 0xc44813eebe7c9dd7U,
  0x37e07f1af36a43e8U, 0xf0f0e3f5900f27aaU, 0x19c1e82e01e0aa19U, 0x814a34f6ab150026U,
  0x24e924910bc255f5U, 0x8b7f4f02c1186c4U, 0xd3d22334c081ea0bU, 0xe215b4f9e8381e81U,
  0xb6d802d7ff051f19U, 0x5023541f1d9a99cU, 0x2b154e93492a45ebU, 0xf7ed26c451103f15U,
  0x281528ec46335fcU, 0x10fa60fb08452b03U, 0x1ffb102526212032U, 0x1019b502e57fd689U,
  0xf4cae5aa25d74cebU, 0x81014ecfc12ed7eeU, 0x199c1a291b094547U, 0xee5081e89f1dcee4U,
  0x102524c973a529a5U, 0xe72b578944672a65U, 0x76b181c7ecb4daa8U, 0x2a67ef2eea034eefU,
  0xc700c7564de6ec3eU, 0x2831e8a98e9b1e41U, 0x4410565581aace8bU, 0x8f86413f38c7d709U,
  0xf74c2bfa01b02dd4U, 0xf3d8e3e4fb3755eaU, 0x9607fc8c34ebd32U, 0x7fbd395b5ecc0928U,
  0x170b3402e0ebf1bcU, 0x1832e23e28c4bdcfU, 0xd1d02b728642c7bU, 0xdbc1ea9d9060fcb3U,
  0x6963f922e8087fe6U, 0xbc5bbe3ab17f0222U, 0xdaed12fd0a36c262U, 0x2422e3b6dbbe816U,
  0xf16ce326eaacd0f5U, 0xf191cf811d2f0b4bU, 0xf2c7e735fd52b6cfU, 0xd6aeb934cf1a3551U,
  0x11b4e274f8de8188U, 0x343b5d7984f8aea4U, 0x1224f7011d8104a7U, 0xda4901432918dcd7U,
  0xecfa4a5321cd439bU, 0x8e577bd021415afdU, 0x44faed8e5753ec9bU, 0xc0419bee7fc2f7e0U,
  0x197fa5e0dd654c0cU, 0xbafffff7870949e8U, 0xf5fbd5c0d3e84350U, 0xee34dd5556cebe3cU,
  0xf6bc4e1d101c01faU, 0xf1133381313150feU, 0xfbd0325cd811f14U, 0x232fb530da2fdf43U,
  0x3a5e4023f389b8b0U, 0x44abbe8f0ec47d9U, 0x360f198118ef4147U, 0x1e011b4aea3d5915U,
  0xc2e20bbe03d5f731U, 0xea6e15e8e8e1313bU, 0xf1ed044a1d677fe4U, 0xf237ec1fe97464d1U,
  0x2345b652af527809U, 0xc1fbe2c58118003eU, 0xc30e4ae4cffa56f8U, 0x2752fc023fb0c4e9U,
  0xeaed8de98141f4fbU, 0xc3f3af63c081a4e0U, 0xf31f48cb0aa414adU, 0xb7ab6b62af26c830U,
  0xbd12c5066cffe114U, 0xb22150ec4a27cafbU, 0x6a3f3c1cac667f0dU, 0x566d6c41eb9ecc4aU,
  0x81e2183425da7557U, 0x1333e2bf3ab977c6U, 0x2f0cf7b64e7fe638U, 0xa6ad521398cca93cU,
  0x237923026a123c1U, 0x50d8c951edf07ff5U, 0x30ff26b5403ed9ccU, 0xab8ad5314d564412U,
  0x48dff7a6cfe9f0d2U, 0xcc08ef197ff49f02U, 0x1d3bc5f5f6062104U, 0x4f4fc5ca9e39ea54U,
  0x6d0e8106523e2f1cU, 0xb8f7f4dd0d1895d2U, 0x373eb7e9c1fdce06U, 0x98cea8525c582e3aU,
  0x12a3981bb3811afaU, 0xf0234c0f270230deU, 0xbcaee559bb7f301fU, 0x4fa0dd9e1efb1bf4U,
  0xa4b5082b81271a89U, 0x92551aba0741ba07U, 0xb5d383d9350af737U, 0x2d0b24814e4ccf77U,
  0x29b8599938934129U, 0x3a477ed6227cf3efU, 0xad318cc8b468c881U, 0x64e14a924fdfd37fU,
  0x182e551b036d29d5U, 0x435250289ce2241bU, 0x9347d0a21be34aaeU, 0xbb0156f8ba81342cU,
  0x3251a2dcc274945U, 0x68e3160a2c81f6a4U, 0x53f5fdfdf1b6260fU, 0xc4fa81bca2e0d503U,
  0x7e9ccfcfbf0f5eeU, 0x3fd14327f3b4490eU, 0x70c59ae0d8167c85U, 0xfee5812a5bb21333U,
  0xb58fe302827c255fU, 0xb77fca5e34e984f7U, 0xadb929c326b472e7U, 0x5694adfd4a6acb60U,
  0xffffff28fffffaccU, 0xb900000133U, 0xfffffff7ffffff11U, 0xfffffe6a0000002eU,
  0xa0fffffe71U, 0xfffffefbfffffe11U, 0xffffff93ffffff79U, 0xffffff8bffffff49U,
  0xa200000111U, 0xdffffffc5U, 0xfffffd2700000084U, 0xfffffcd0fffffe10U,
  0x128ffffff6bU, 0xffffff75ffffff96U, 0x4c00000009U, 0xfffffeeafffffe16U,
  0xffffffe5fffffffdU, 0x32700000033U, 0xfffffe1bfffffe4aU, 0xfffffe05fffffea0U,
  0x1c000000155U, 0x95ffffffe0U, 0xfffffebdfffffd88U, 0x16e0000020bU,
  0xffffff8e00000074U, 0x4dffffffbbU, 0x1c2ffffff9eU, 0xa80000000dU,
  0x12ffffffe0eU, 0xc500000085U, 0xfffffff50000001eU, 0xfffffd6000000266U,
  0xfffffe90fffffc96U, 0x8bffffff9eU, 0xffffff910000004fU, 0xffffffe1fffffe8bU,
  0xbb0000026eU, 0xffffffe2ffffffeaU, 0xffffff1400000124U, 0xffffff8e00000101U,
  0xffffffce0000024bU, 0xfffffee9fffffd5fU, 0x3fffffffceU, 0x142ffffff4fU,
  0x1700000001eU, 0x8ffffffd9U, 0xfffffff8000000f4U, 0x19500000008U,
  0xffffffe50000008fU, 0xfffffe2600000042U, 0xfffffe15fffffde2U, 0xfffffd7d000000bcU,
  0xcf00000112U, 0xffffff6e0000006dU, 0xfffffe17fffffea6U, 0x29cfffffe9aU,
  0xfffffff200000040U, 0xf1fffffdccU, 0xb9000000e5U, 0xffffff62ffffff53U,
  0xa7fffffe24U, 0xffffff72ffffff1eU, 0xffffff69fffffea6U, 0xffffff9700000034U,
  0x4fffffe18U, 0xfffffee2000000ccU, 0x92ffffff38U, 0x139ffffff7bU,
  0xfffffec40000014bU, 0xfffffdca000000ddU, 0xffffff68fffffdc0U, 0xfffffef40000017eU,
  0x6ec97f5d2779f6edU, 0x9efeffe99098be7U, 0x9a818c0b4ceb7e60U, 0xcd813862dada0626U,
  0x8ff983fcb58f192U, 0x8c20c94deaf3327fU, 0xb96ed84e503a15d7U, 0x1066f3366840819aU,
  0xe00681a5dbd24b06U, 0x81c5030b02bf22c7U, 0xd0113b7fc7deeb70U, 0x68a05816ae54800U,
  0x1f46e72fff441810U, 0xda8115636d41d881U, 0x1481e6d0dcd6140fU, 0x2f7fabff14a9f856U,
  0xa44f51d37ffad97fU, 0x17f85579fd04881cU, 0x13e63554f14d42d0U, 0xa1cc873d070ec7d5U,
  0xf2b98fece021d73aU, 0x5dff1d0fb9be12afU, 0x86ea921de01af8e7U, 0xaf62f37941c80c40U,
  0xf746816fd2bee6c6U, 0x6345296b32813aafU, 0x84004faf5881ffb4U, 0xc2832da611816607U,
  0xe7ce765e38cf940bU, 0xf404bdd17f157f5cU, 0x6ac7172b030b7f32U, 0xc5cb0d38151b1f98U,
  0xa3387fe0f3092213U, 0xd13ce6da08a4ce56U, 0x892e4d1c52f0810bU, 0xfd8141e792fc84edU,
  0xe738547fd9542d1eU, 0xa5ed1aa2d8de04c5U, 0x7f961d1cda2c03bdU, 0x1fccfa0005c8650eU,
  0xb3d552b80bf5ec1eU, 0xde3c553edc300bcdU, 0x7898fd00c0cbc693U, 0x45f4f93b814a0df0U,
  0xcabd6a5c06bc5acU, 0xf5a91e37f3901c81U, 0x7feb1eab7fcb81a7U, 0xde41128e2303fe51U,
  0xb81fb407f02ef99U, 0xd2f25957d0daf1aaU, 0xcf1642818143c04eU, 0x73f2f5d6fb8a4019U,
  0xc4cffe181544e0fbU, 0x43f1739481cf81b6U, 0x2f04380f7f1d6dc1U, 0xf3dcc157c9fdfa30U,
  0xf6dcde85b5fd4fe5U, 0xd2e24b9c3743c10dU, 0xa619a023813fe1dcU, 0x4957427f222dacf3U,
  0xf712223a7a811e81U, 0x6e4c9418fc32d781U, 0xb481d87f6ef4527fU, 0xebf9eec27fd018acU,
  0xbb7f9002e78f277fU, 0x81f9323775fb3a15U, 0xdbe1167f300df77fU, 0xcf2535ab7f7ff302U,
  0x209a102f5f1211f6U, 0x6c5111067fcf583fU, 0xbb842ed60a0a142dU, 0xc8c5c69b9b7f3430U,
  0xed7fc21876537fc7U, 0xafb285fd31dc0700U, 0xb908d6dd400cae15U, 0x7f147f0cee7f2ae6U,
  0xf6af1fdfd7643bf7U, 0x7f1219451cdedb2bU, 0x1018f5b8e5947f0cU, 0x6230e67f13d56de6U,
  0xd7b613d97abf6592U, 0x3a817f81354247eeU, 0xb79e8148bcfa277bU, 0xa0de1f4fd4e05413U,
  0x45b0fa02147f3275U, 0x1e1b7f08b60c222dU, 0x6a2712771e07f3bU, 0x66cf7f421cdfdf7fU,
  0xcf766b36500fe1dfU, 0x13a2e3900cd2fedaU, 0x814e36de624923f1U, 0x58b781b23213ce12U,
  0xbed5bc81767f8a83U, 0x74fa068d26de7fd3U, 0x82c281e03626f61eU, 0x31fd7f2fcc7fbb97U,
  0x272a4b9d81c33808U, 0x7fed9ceadc0f43bbU, 0x99f523ed3b3cb3cdU, 0x5dd0552649e11dc4U,
  0x38c6c1a856b629a2U, 0x35aaa31e40b7ddcdU, 0x15c512571a1f1ddeU, 0x26a27206b5fcd65fU,
  0x3c4010d3a4b317fU, 0x173f09f5fedc4c13U, 0x104e716ee542a2e5U, 0x4d68661448d8fee7U,
  0xfa0766a011201bc4U, 0x8153cb332cf78110U, 0xb3f6a4f00506760aU, 0xd820333c402b031bU,
  0xf7daca7fa3fa35daU, 0xc2814b30fbeb81bfU, 0x528133a24dc0ef30U, 0x24b0fcc1d0500c29U,
  0xdd9afc3881da5b72U, 0xb4023e195ce081f5U, 0xb8b09fe5ed7fec9aU, 0xb3813a02487fbb21U,
  0x150a29131a43dbe6U, 0xe923a49e5a352e19U, 0x81edead1467febf9U, 0x4c1fd9dfffa0dec3U,
  0xe4e8290117371c1cU, 0xb4825186077157fU, 0x282cbe45ef1d4219U, 0xb57f182e7fec07bcU,
  0xa5ce89458d04fd93U, 0xba3225817f9fe4ccU, 0x958cc20ee7b07f45U, 0xde8afd4f815ee5d7U,
  0x7f54fe81db154810U, 0x66c67ff8faacc59aU, 0xc4a7da5a1134786dU, 0x27643b3eb5cd886U,
  0xe527dc20eee1180fU, 0xa0c33a27101a967fU, 0x7fa87fe82c514a20U, 0x7fe3ff81330d7f63U,
  0x84bbffc6fb1160e2U, 0x7fd56576128b460aU, 0x8145081725270cfaU, 0x7f9f817f4e292ad7U,
  0xf0423ece667f0081U, 0x3a5ceb814a7faa81U, 0xa5cf812281ec8181U, 0x1b37e8d85dfee081U,
  0x8181a8220181367fU, 0xc3b0ef07cc63a0a3U, 0x48ed0bfb04db2aecU, 0xfc817e06f32d04d3U,
  0x810c6140d025811cU, 0x42f4192aed482accU, 0x261ca2e10aabe39dU, 0xffd9816315e88b06U,
  0x19e0431f7827a3dbU, 0xd710516667f3162dU, 0xecba0ec988235c1dU, 0x3c183b7fff817fc2U,
  0x477f7f7fc57fdaecU, 0x5b94ee1f3c4805e6U, 0xffffe5a600000d70U, 0xffffe5f3ffffdf4bU,
  0xffffe5b2ffffef47U, 0xfffffaf0ffffeecaU, 0x15bb00000ae9U, 0xfffff809fffffb40U,
  0x195b00000695U, 0xe3dfffffddaU, 0xb900001314U, 0x431fffff728U,
  0x2750000009c9U, 0xd2c000014ceU, 0xfffff61800000d0cU, 0xffffef81fffffcb7U,
  0xffffea2800000fabU, 0xfffff1ccffffff10U, 0xfffff509fffffd9fU, 0x1505fffffac5U,
  0x194ffffff81aU, 0x1e8b00001510U, 0x13dc000007c1U, 0x6efffffedf5U,
  0xffffef55ffffdf3eU, 0x5740000025bU, 0xfffff1f20000137bU, 0x27c00001737U,
  0xfffffcf700000276U, 0xffffe89ffffff9bdU, 0xfffff99400001cf9U, 0x393000000c6U,
  0x475ffffef55U, 0xffffe087fffffd89U, 0xfffff6b1fffffb15U, 0xfffff5eeffffffecU,
  0x12ffffffc1bU, 0x1ddd00001b11U, 0xfffff54a00001ea3U, 0xffffee7800000842U,
  0xffffeb10000011a8U, 0x5a000001849U, 0x558fffffcafU, 0xfffffc700000102aU,
  0x13c9fffffc2eU, 0x51bffffffa5U, 0xffffff5effffee6eU, 0xffffe54700000040U,
  0x468fffffecbU, 0x191000001598U, 0xfffff7abfffff944U, 0xffffeb35ffffe70bU,
  0xfffff16cffffed3aU, 0xffffec1900001735U, 0xfffff856fffffedcU, 0xffffecfafffff1f6U,
  0xffffe819fffffb05U, 0x75000008d4U, 0xffffec73fffff248U, 0xfffffb82fffff0a1U,
  0xffffef4000000ddfU, 0x104c00001785U, 0xffffeae5ffffee48U, 0xfffff61f00002cc2U,
  0xfffff6dbfffff30dU, 0xffffdf67fffff094U, 0x11e4fffffc09U, 0xffffeec7ffffece4U,
  0xffffdc3efffff028U, 0x1abdffffeba6U, 0x8fc00000371U, 0xfffffd51fffff587U,
  0xfffffa79fffffea9U, 0xffffee7b0000122eU, 0x1a66074660c44fe9U, 0x5f0f495cc21d9ebU,
  0xd4250defdce8e759U, 0x11d0f4d9d32bd497U, 0xeed6c2c9235c5c21U, 0xe4aece5ee5d9cb1eU,
  0xd52123ebb00ed85aU, 0x2d5eef4719b7b60bU, 0xe5c80426bea80eb8U, 0xc9529c1f61e34209U,
  0x1bbbf5bff6f10495U, 0xb4a92b133d540e6U, 0x32205334fab852b4U, 0xf426fd232418fbd4U,
  0xcdb2d3a1dd4f610U, 0xf5e8db05567f16d2U, 0x39423e030cec6456U, 0x40fb50a8b162dfb3U,
  0xb20dc2aeb62edae0U, 0xcbb3ce204f61062dU, 0xf0eb4249b5edbaeU, 0x8ffff51f1ec9e51eU,
  0x3d15cea140ff230cU, 0x3c39be3fda16f52dU, 0x9a0f39110cf4ee43U, 0x5eb418d095d218eeU,
  0xf9d61944c9191cd9U, 0x1cc10135ba409e5dU, 0xc92366cab8f24547U, 0xfef9faee0bdff8ebU,
  0x28f9f4064224cccbU, 0xb2e7d994c9c74036U, 0x24e657e3381be9c1U, 0x2dd538a4ea81a4c4U,
  0x6be037123743bdU, 0x5444a4f66dc8bff2U, 0xddc813f92f015312U, 0x22fba5d847f3b011U,
  0xe22843c02cecd041U, 0x3ce428c1e6cafbdfU, 0x200c2fa7cbd11528U, 0x5e808a0f80208aeU,
  0x22fde65dfdcae6c4U, 0xe3e01c1090dfe22U, 0xc3291edce515c252U, 0x9c264104185d1b13U,
  0xae92af3ff1dd9a7U, 0xf4f4c9b4fdebed25U, 0xc3f23edb3c23e0bfU, 0x4de9d3e2cfcda1cfU,
  0xef44fe04491fd8afU, 0xdcdc5a2e0f7fbd6aU, 0x681a63490d33023dU, 0xa2fdfff5b302dad8U,
  0x49fae349f1fd45c4U, 0x36e546fc58e6b831U, 0xb228e23a3cd420f4U, 0xe433fd1aa9f0abd7U,
  0x3b40527215166e56U, 0xac2e263a3ebffaaeU, 0x5dfd01c9defc2536U, 0xbb49f9211127eb58U,
  0x240fc50d34320926U, 0xa0c6e1170dd02619U, 0xcfb7c51de13127a3U, 0xd45335c9dad63dc0U,
  0xec4d005237b664ffU, 0xe100cb25387f0df4U, 0x112710d1fa2201f5U, 0xe400112e3c660fc5U,
  0xf0e3f1db5cfdc836U, 0xf8d02ef6e71aedf4U, 0xf402c3033fd52308U, 0xfc0feec6440c170cU,
  0x3f4c1df5a7011df9U, 0x56dd17aba451b218U, 0xe1ecc10ec22fd8eaU, 0xd7ebc3d5eae407e5U,
  0xd0afcb29574197f7U, 0x77ff20aca08f40cU, 0xb440509625209bcU, 0xe5063b4af7e80bdbU,
  0x572e2ea812c2b9e7U, 0x24243bc191f2641U, 0x30b862e6ecb2da50U, 0xd7d05d0cc0d13ab2U,
  0xe3d8f0d9f8cdf03aU, 0xc7c40fcebc2058caU, 0x1eb2bbced0c2b9f7U, 0x3b3cfdd61023275dU,
  0x50c708ddfd4421eaU, 0x52220e0ff6530bc3U, 0x3615e6dd33111fedU, 0x38f161dadaf548f6U,
  0xed214eb7beb8cc09U, 0xf5612ffffa5be20eU, 0xbb4ad4fd6838ffa2U, 0xbab318b2c2e5d604U,
  0x5bc1d82b65dd5244U, 0xfb9a7fa233fc0fb3U, 0x3b41a302fcec1950U, 0x470bd519b5fe29bbU,
  0xcbc3389d4d3d0016U, 0x4c3f2b600c1509d5U, 0xdce5202908b9280cU, 0x103271f41d31b2fbU,
  0xca4dbe5a34ba3df6U, 0xaebcbd3d08f7d7b5U, 0xde26b14f1609ad44U, 0xeaa3e33367fb3eeaU,
