<<<<<<< HEAD
/**
  ******************************************************************************
  * @file    network_data_params.c
  * @author  AST Embedded Analytics Research Platform
  * @date    Tue Jul 22 14:01:15 2025
  * @brief   AI Tool Automatic Code Generator for Embedded NN computing
  ******************************************************************************
  * Copyright (c) 2025 STMicroelectronics.
  * All rights reserved.
  *
  * This software is licensed under terms that can be found in the LICENSE file
  * in the root directory of this software component.
  * If no LICENSE file comes with this software, it is provided AS-IS.
  ******************************************************************************
  */

#include "network_data_params.h"


/**  Activations Section  ****************************************************/
ai_handle g_network_activations_table[1 + 2] = {
  AI_HANDLE_PTR(AI_MAGIC_MARKER),
  AI_HANDLE_PTR(NULL),
  AI_HANDLE_PTR(AI_MAGIC_MARKER),
};




/**  Weights Section  ********************************************************/
AI_ALIGNED(32)
const ai_u64 s_network_weights_array_u64[37356] = {
  0x52d49746ecac2781U, 0x91ac454eff73e420U, 0x525b3de4d1b820eU, 0x2a42f8f1dfae5703U,
  0xf6a03493f75642e9U, 0xcc05e196fdb90f3cU, 0xc481de63561d7b7fU, 0x9eebf0f3dafbe0fcU,
  0xea02d746c4a74eddU, 0xee1f3df3b23d06cbU, 0x816843df6413172fU, 0x4010ea6f402303c8U,
  0xef4e834f4ccf6f6U, 0xdc41dd2eef09eb3fU, 0xde0bb70bfcf31c17U, 0xeca643db305b31c4U,
  0x3d3f3abb61da813dU, 0x12bb30afb13841eeU, 0xa32de1d43df0e3e5U, 0xbb33256631244626U,
  0x19def72f000ed181U, 0xc0f04b063a2607eeU, 0x2cedfcb78188ddU, 0xf48fdc2ae4e20ae5U,
  0xe81b54282f7fed4fU, 0x4129d3cd58ed3305U, 0xdd932f2f940d56a3U, 0x3580000005a0U,
  0x84ee00002b23U, 0x5a3000078e2U, 0xf6400000dffU, 0xb93281f0c7e1af56U,
  0xc77f3359027d2081U, 0x11031e7f4c7fecdbU, 0x44cb06b9cf3c7d10U, 0xbe6a0d23f8b27f5aU,
  0xbdc73cf07f4d8e9dU, 0x1720e9ba9c93d0feU, 0x7f9fea213ab40343U, 0x7dbd06b1d90821d5U,
  0xfffffab500000691U, 0x992fffff6d2U, 0x48200000088U, 0xfffffe84fffffdd1U,
  0xcf17ddd1810f07eaU, 0xbaf2c81269c1523U, 0x9981badac29a5bffU, 0xa77f18761e160af3U,
  0x168145f94b6c6517U, 0xd16e6098810f23c4U, 0x63dc0b0a78153U, 0xb515ce1ef27f15e4U,
  0x23d000019e9U, 0xfffff5ce00001e49U, 0xd21ffffe652U, 0x52300001337U,
  0xe0168175472d23e3U, 0x1a981a17bd01adbU, 0xacca4104e77f50fbU, 0x2f5ca2afa7fce3dU,
  0x2f1be8fbed018122U, 0xc24733ddac7fe3f1U, 0xd9ce8101d61befbaU, 0x8e01bf6e7f461f9cU,
  0x2b177ff1c049e6abU, 0xcdd03e816c2e96edU, 0xc07d812b1cf39245U, 0xf0b3205b56b2837fU,
  0xb72feac4b87ff31cU, 0x7f4f0b032d5301b5U, 0x81fc77d522be61e5U, 0x18df610dbe17f08U,
  0xeeb961581fdf22fU, 0x4ffa2027e1bffb81U, 0x26bc145bc37f0323U, 0xbe72620781ff03a9U,
  0x831a7e1e78e681acU, 0x91fdc0dae5ab577fU, 0xa7b100b2b20810eU, 0xd527e72ecfee0581U,
  0xd8d318bf81ca2b00U, 0x2804cc81ade8dd87U, 0x772db13d1de081bfU, 0xe6e17fcf05103904U,
  0x47bc3c07a785cf7fU, 0xf97fe5c92008cd0aU, 0x237fe8b963fc62f3U, 0x17ac3e3be381c1f3U,
  0xe619ce8110e8f324U, 0x29c5ca207f45ed30U, 0xd4510b6be081d901U, 0x3b6915ac2015aa81U,
  0x4f254960481c9b9U, 0x7f4550ebd5fdd521U, 0x81401c4a27b02c38U, 0xe7be569181d8da6cU,
  0x7fc0ad0b0084d9fcU, 0x17f8347fd6bf40fcU, 0xc5c0a4e47fdb0431U, 0x91e57fd8db0dd138U,
  0xf80abe8139950f34U, 0x810694f99484c275U, 0x30becc3a813bf232U, 0xac73f8cc528105d9U,
  0x77dffffffb1U, 0x159000001caU, 0x3cb00000374U, 0x24a0000091bU,
  0x2b8fffffec7U, 0xfffffc74000004d5U, 0xfffff9cf00000390U, 0x352fffffdb9U,
  0x409000009caU, 0xaa5fffffe8aU, 0x76cfffffda7U, 0x4e600000058U,
  0x98b000009ecU, 0xfffffb9a000003cdU, 0xffffff9d00000153U, 0x466fffffc3bU,
  0xfffffcf50000070dU, 0x33c0000007fU, 0xfffffdd10000046fU, 0x61cfffffd42U,
  0xfffffb5b0000061eU, 0x9100000489U, 0xe02000003e2U, 0x87b00000461U,
  0xc60097f281e05209U, 0x5aed6dfb09c0beeaU, 0x83a3dcd9ffad3518U, 0xbf007f0fea98160cU,
  0x49c61707ca2c2f14U, 0x44bee5ce057f8130U, 0x84058146b07ffe0fU, 0x3f192675b7bc0d00U,
  0xbafb2be9274d5aecU, 0xe3534623213028f9U, 0x4e81d9fdf91f19a2U, 0x41fbb181427fd07fU,
  0xa232de512f6c96e8U, 0x3655817cfa9713f9U, 0x1a812c2204191d02U, 0x81e11541e73fea09U,
  0x12f7af9f1f461d0eU, 0xdd43beb73cf5bc44U, 0xf4c01ddb07057f39U, 0x7f7a0df46bd37fafU,
  0x8104154a277f56f7U, 0xceb917e8c88c2f0dU, 0x5a329191581a5fbU, 0xdf96bdd611449ef1U,
  0x58c61e6d10241b7fU, 0x2a1953282897d323U, 0xd6f07f307f8f7f81U, 0xf9811994401853b5U,
  0x2a47fd37f2f207fU, 0x7f7c81857f4a941bU, 0x5f06097f4f27a727U, 0x181163f1081a76bU,
  0x200005102df44a6fU, 0x1360d8947f7f81feU, 0x121001816f6e7f14U, 0x9781a90133d282e4U,
  0x33816cdbfaec26f2U, 0xfdf12a1814327c3U, 0xda002f5f0b20f934U, 0x2368ecc01bba0307U,
  0xc09b0f021bb7f418U, 0xb8440b00fe0d96d0U, 0x7eae7933f3cb060dU, 0x21f12f814fb32528U,
  0xeea4217f3daff04eU, 0x4713028144d01c00U, 0x81b949823abd3ca5U, 0xc033e1fa0bcb9dcbU,
  0x7feaee1647e1d41fU, 0x5eb2cd08f90107fU, 0x4214edeb281deca2U, 0x57cfefb94238a381U,
  0xe7fd51ec13e9fff5U, 0x9dce43513c79cbdU, 0xfffffa29ffffeb19U, 0xffffffe0fffffd21U,
  0xfffffdd4ffffe12fU, 0xfffffbd400001760U, 0xfffffcc2fffff9a9U, 0xffffff3300002d55U,
  0xfffff119fffffb59U, 0xffffe5bffffffe1cU, 0xffffe8dffffffebfU, 0xffffe4fbfffffe40U,
  0xfffff132fffff757U, 0x1b80000012f6U, 0xfffffed600000cafU, 0xffffec61ffffff4eU,
  0xffffefa600001000U, 0x4fcfffffd17U, 0xfffff2a3fffffe8cU, 0xffffebddfffffdf8U,
  0xfffff1b5000014efU, 0x2c00001fc3U, 0x30defffffc3aU, 0xffffe87bfffffbf3U,
  0x1a3a00001968U, 0x152fffffff3U, 0x9d7fcd69f6bab9bdU, 0xd4ede9dbe740daecU,
  0x47deb6d246f9e3e8U, 0x1e503b31d44d9d7U, 0xba4a57e009dcf3feU, 0xdae7033718cc291dU,
  0x856142ad8b305c07U, 0x19e9c0c0c97fce66U, 0xe44427eb57b5fea5U, 0xe6cdf81553b502d6U,
  0x9e24a407c5b229a9U, 0xd1857dd3d32710feU, 0xf1f105e42734cbdeU, 0x313edfef100422f8U,
  0x14301424d67fc06eU, 0xa78d5f820f5f112U, 0xf0cee8ffd4252362U, 0x4279fcd4faebebddU,
  0x43052a36f63b2616U, 0x1bf50d7fdd04d21bU, 0x31e9363dfaf8effeU, 0x2bb7b50247410de8U,
  0x370bcef1ebdc3decU, 0xc7fd294c5ef510e2U, 0xeff027e4d237efd8U, 0xe4414903c125315dU,
  0xca0c2a337f1d2b29U, 0xde2630f4e7ed30c6U, 0x34a304a9231bef13U, 0x1b1df7ea0495cdf2U,
  0xd6233f2df1a127eaU, 0x81d5f62b2c113028U, 0x21b203311426b514U, 0x23191ed811251e1aU,
  0xcef0f6da2c152d26U, 0x1a0bb6dffa48bc29U, 0x5921be59cde1a43bU, 0x10bdb72508e5fd01U,
  0x15ed7fd5f0e4a9d2U, 0x45e153b908a50b16U, 0x9f3dc059ec6f3e0U, 0xdccc09e9e0bfd784U,
  0xbae92af7f849ead0U, 0xc715ed33072133d5U, 0x4de6451e09f28115U, 0xd6f21a0dd3f1bee6U,
  0x1f7fe28eaedd3f9U, 0x50b38215a525115U, 0x148100001d05U, 0xffffd48effffe705U,
  0xffffff65ffffe308U, 0xfffff38800001de9U, 0xfd81ddb40625f97dU, 0x3e9e37099b7fc8ffU,
  0x39b87cc30387fe4U, 0xb481adf82cf813cfU, 0x481fe3810f10e2cfU, 0xbd6f7ff2f9aa60e7U,
  0xc981051602f12d57U, 0x4b7148bf7f25c1eaU, 0x3c371aced8c7027fU, 0xd96cbafedd81114dU,
  0xa17ff3cfb35fd338U, 0xb058819c0bbdd246U, 0xdaf7faf6f21181e5U, 0xf940580823d981ccU,
  0xabfbe7ee45178160U, 0x2c517c79816e7a8fU, 0x2ce7471201cb81cbU, 0x81d638b85029d39cU,
  0x7f48144718e87f48U, 0x33cd7fcf271ff4eeU, 0xf8c710b8ba81de62U, 0x2f319d817e43d3acU,
  0x1a2fc74f0107de81U, 0xfd20fc07ffece681U, 0x312d4625bfa7bf7fU, 0xf2ff37d47f141d3eU,
  0xf94f377f20bacdafU, 0xfd032781190ee86fU, 0xd4e5c1c081adc8feU, 0x4c9230dce3da7feeU,
  0x7fa80945e12a2542U, 0x24f5417fe3c76045U, 0xc662bd0462c581e5U, 0x41ee4ee41f813b69U,
  0xed221781ad1ce479U, 0xdbde382e0b2381dcU, 0xed068136ee34e9b4U, 0x813bb41139a015eeU,
  0x2e7fdd537836a827U, 0xaf3f9c107dde81f8U, 0x2e3e7f60a3eaaddaU, 0x43e3813bf418fc2eU,
  0xd514d2c0da811053U, 0x9b7f2aa3aa1838dbU, 0x81dad8cf2ff6e5bdU, 0x81f1515c49f9d5bcU,
  0x57f5d1dd9e4861fU, 0xf929fc07048137eeU, 0x3bfffffffe1U, 0xffffff4500000176U,
  0x18a0000011eU, 0xffffff490000020cU, 0xffffffa90000044cU, 0xfffffdf800000178U,
  0xffffffbd000000b1U, 0xffffffc5fffffdf2U, 0x38fffffcefU, 0xffffffbe00000147U,
  0xfffffe52fffffea2U, 0x15100000195U, 0xb7fffffe77U, 0x4bffffffc2U,
  0xffffff66000001a4U, 0xcf000001ddU, 0xfffffc23ffffffa1U, 0x2ed000001e2U,
  0x2d00000297U, 0xfffffedeffffff6aU, 0x3900000276U, 0xfffffff900000098U,
  0x3fe0000028dU, 0xffffff1effffff88U, 0xd881e881d1ecd5e2U, 0xe001fcdbff1fe519U,
  0x136ac7069d81fb9dU, 0x3e36d1ff170e19b6U, 0x220bc181025073f0U, 0xfffe0274f7b114ebU,
  0xbeb20195e61eff32U, 0xf4e9c604d07ff103U, 0x7f5ee52181edd3dfU, 0x78fbcbe6f88135caU,
  0x7f81baba0a7a7f04U, 0x47f055357fb1ea02U, 0x20b320f2f0e4a033U, 0x1ef5e0bb0602e552U,
  0xf8010ffc0ddff01eU, 0x810a5efbcbbae02fU, 0xbedec7da547fd80aU, 0xfcfffbae09dad77fU,
  0x89d77fc72fd700eaU, 0x815fe325eafbe7f3U, 0x21bc173bd22ab018U, 0x721aaf1426dd4496U,
  0x15f6d2b6e5004a81U, 0xfe1e366915fced28U, 0x48e48dba25a2cdefU, 0xe348147fea867f81U,
  0x3a3fb7fec568105U, 0xfec5d97f7fe80f9cU, 0xe0b87fd181b02a56U, 0x817f7f69c553054aU,
  0xada10db81d7dc7fU, 0x12c6f5d623fc3800U, 0xf312061925edfcf7U, 0xb2b656cabe938beaU,
  0xc5141dd52619ea6dU, 0xe5effac8f5531765U, 0xee6af0419d1d321cU, 0xe57f08292700e844U,
  0xdd8181fe4198107fU, 0xf3157f28ea2d191aU, 0xdf04344af8522ccbU, 0x16ef868105df0c0eU,
  0x7f74e14eb41b7fe4U, 0xa097f587ffd190bU, 0xe181c0450e90200cU, 0xde816e040db3d5e3U,
  0xd6ed6428d3da0425U, 0x1911999a297544a4U, 0x8652f8709e7f0007U, 0xeeed1fb23ec1050U,
  0xf43aefc80aff149bU, 0xedeba6edd6a98181U, 0xcb37161070213c25U, 0x501ade0157f81f5U,
  0xffffff29fffff96fU, 0x1acbfffffd2dU, 0xffffff4300000a64U, 0x21ffffffe8fU,
  0xfffff8edfffff60fU, 0xfffff68afffffe29U, 0xfffffea2fffff840U, 0xbbffffff583U,
  0x1079fffffde6U, 0xc110000146cU, 0xdb1ffffef4eU, 0xfffffca100000af5U,
  0xcf500001095U, 0x3890000134fU, 0xfffffb17fffff7a1U, 0xffffff7800000bf1U,
  0xfffff3f8fffffb5aU, 0xfffff9deffffeac1U, 0xfffff9cd00001352U, 0x8c600000b11U,
  0x1f3fffff1ddU, 0xfffff517ffffeb88U, 0x54dffffffd7U, 0x415fffff708U,
  0xf84b1efbf746141fU, 0x214023104ece408eU, 0x97e29b41f9eb47e6U, 0x3e5eddbf133b3ce9U,
  0xadef033d2be9f040U, 0x317fb68941180051U, 0x20ee43ffe92564U, 0xd63adae1d5ff20f5U,
  0xe60e282758bffa51U, 0x2b0d7fd4f61fe9c9U, 0x3f4792377e5240f7U, 0xe80a263e0807fbd7U,
  0x189e7fe3fc244cfeU, 0xd5d6fa450b31c12fU, 0xb398ec9fc711dbd2U, 0xabae09aeb0302e1U,
  0x114d023ce5dd9f9U, 0x615006b23ea53f16U, 0x91fe6b2cc081021U, 0xa3f413b0d1068622U,
  0xdedecdc1d753aaU, 0x468152c94bbf74f0U, 0xcec75254ad26d445U, 0xf7b7c82ec287d6ddU,
  0xd180b3b1fcfe606U, 0xd33ef30521ebf75eU, 0xc0c50a4ca43e47e4U, 0x56ed0826b20139e7U,
  0xcf114550d5457f0aU, 0xf9381fe2c00e2ff9U, 0x3f0ef6ebd85b2ee8U, 0x3f265d42bc032614U,
  0xfc0cf1515200b24fU, 0xff0b6feb6c950cebU, 0x1542c7dcd5fcc611U, 0xf34d7f7cfcc4e2d5U,
  0x2fc7c7dea8f30546U, 0x6735a4efdd47f94U, 0xaaafb5be54c474aU, 0xfe3f24c41c052caaU,
  0x9f5559645d3b5053U, 0xaf3e8202aafb26faU, 0xdcb2cb0a4de1ecf1U, 0x5e3bedb3feb2024aU,
  0xb22643f2d62acc38U, 0xc509bef614fa11e8U, 0x3a340d4626757f9fU, 0x216ffdd72cccef31U,
  0xffffd83cffffe1b4U, 0x2cdc00001630U, 0xffffd6f0ffffdd23U, 0xffffde4effffd8ebU,
  0x9be2818efbfdb4f4U, 0x4a25315bd8cc6c7fU, 0x7f1dce1c6231e978U, 0x8dc92a3cc18c7f36U,
  0x2b10a981b4e9f2b6U, 0xf266ec7fda080794U, 0x7fe23cb90a8eda91U, 0xa581e322832fa7f8U,
  0xeb56a87ff86b053aU, 0xfa294f30d4cc797fU, 0x8d7fd9d72c3304a0U, 0x7236a7cefb7fc627U,
  0xdcee7ffba5e09366U, 0x5a6e129af7fe111U, 0x912d1ace6e7fe17eU, 0x8e818d6c0319d670U,
  0x2ae0017fe571ca0cU, 0xb06076f1417f1833U, 0x1eb0b1af35347f31U, 0x657f2fdaa91c40e5U,
  0xe2a633fc7fc256a6U, 0x2901ed1a5432881U, 0xb5ba47efd00f0c81U, 0xe83c69c481e4a74fU,
  0x607681a09c96ecdfU, 0xe8812ac56aad14a7U, 0xc4227fc4323d334eU, 0xf4c0a9f751787fcdU,
  0x404a54812b1de6feU, 0x7fb87b597ca49e5aU, 0xc9814d2504f6deecU, 0x2cc60405397fc2e4U,
  0x12ac4ff0b3de8142U, 0x35e74d18bafd81eaU, 0xe1efe9cc0b81c820U, 0x702c499f6e54681U,
  0x12e3ecd5267fc0b1U, 0xa8b45481cda0b7a4U, 0x3ffa5d1a7f4bb8beU, 0xfb72e0cf7e10681U,
  0xe5811015fcd400d0U, 0xd50a121b7f542604U, 0xec209fa3d1c97f00U, 0xbf7f882a7c20894cU,
  0xfac7811528685dceU, 0x58122dc08ef13dcU, 0x7ffa14556dfb19edU, 0xf1ef1b20c445e681U,
  0xfffffc78000004efU, 0x2f40000044dU, 0xfffffcd7000001b2U, 0x1a3fffffd8cU,
  0x5c50000006aU, 0x27d000000efU, 0x385fffffe1fU, 0x5740000049aU,
  0x17c000001fdU, 0x250000015dU, 0xb770000025cU, 0xfffffca5000009feU,
  0xfffffcce00000035U, 0x7e00000050U, 0x4c100000016U, 0x27c000003f7U,
  0x32a00000256U, 0x283fffffe2fU, 0x100000001c2U, 0x46d0000025cU,
  0x181000002dcU, 0xffffffb300000155U, 0x2a60000043fU, 0x4e700000192U,
  0xfcf337810f107f7fU, 0x38a4ddf433cff9f9U, 0x28e2c5f4beff1a46U, 0xbbfb2c1226a1ef56U,
  0xa7fa35369de87ee6U, 0xec180fd9f213497fU, 0x981818b34254c76U, 0x7abcb77f7b8159f8U,
  0x172acc5481a67175U, 0x8100614b51a08d7fU, 0x35e0387fe7087f96U, 0x44f209c97f4325eeU,
  0x3fe2ba4b2e08bb08U, 0x1ff3c20378ed03e4U, 0x19cb5d6ca9a37f27U, 0xd7fe533214ccb818U,
  0x79f64e1df1de05ecU, 0x7fbcdff17721ee98U, 0x49563dad346e525aU, 0x457fbcdd4fba30aeU,
  0x7f3683effe56a872U, 0xb87f344c78b1d82eU, 0x947f4f4c81e071b2U, 0x6bc4190537af494U,
  0x7f5826a07f57ff51U, 0x7f6d81657f907f92U, 0x7d13817f9381417fU, 0xaf687f7f7f81b235U,
  0xc467f6889bff781U, 0x6fb26881687f81d0U, 0x3b121d1a3eff8919U, 0x59f9901850e543b9U,
  0xad4ef74cc977222U, 0xfbdc53493ec681eeU, 0x7fde6e31eb1ceabbU, 0x7fd081cc21fcee42U,
  0x390cec17fb7f2ff1U, 0xfa09de2411f571aaU, 0x487f274a200c0316U, 0xc658122615fbdcd9U,
  0xa03d1b05de81ddcbU, 0xfce1c4f92a46b8bcU, 0x546b20304955d2d8U, 0xcdbb413f7116681U,
  0x3f206e3915e18721U, 0xe768082437d595d9U, 0xa05d661feaa6cfe6U, 0x1881d4b4d73b2f6aU,
  0x34a00f0d1e109701U, 0x14110111e8fb2d18U, 0x16f24dda30d59d33U, 0xe10f260b3c17cad9U,
  0x10192a0a29e6cf0fU, 0x1cde8ecd9f61a27U, 0xfffffab9ffffe94bU, 0xffffee75ffffddeaU,
  0xfffffeb60000121fU, 0xffffe46bfffff938U, 0xffffde6600002000U, 0xffffda2400002f53U,
  0x366affffebceU, 0xffffe489fffffadeU, 0x157ffffd9e3U, 0x3c2c00001ee7U,
  0x382fffff4acU, 0xffffea1cfffffb7aU, 0x164dfffff654U, 0xffffdc7600002410U,
  0xffffe6fffffff2f8U, 0x2a48000000ebU, 0xfffff3f100002478U, 0x2347000011d7U,
  0xfffff593ffffee32U, 0x151ffffedc1U, 0xfffffefbffffff55U, 0xfffff44bffffe8cfU,
  0xffffff2700002d50U, 0xfffff82d00001e93U, 0xdef53cf6063ce3d8U, 0xca39e0f329e7d0acU,
  0xf20a2d150feb3a23U, 0xdbee0de61281d7e5U, 0x474e1d16fce817f6U, 0xe29214f942d82121U,
  0x1bfa1526d8fcc80dU, 0xfc0281fd31e4c4e3U, 0xf605f2a4f6fbf067U, 0xed11dfc823e446b3U,
  0xa41fc44d154afc16U, 0x1334f2c6c6c31aeaU, 0xeef41b0b50eeffc7U, 0x15e638e7c41f3ddaU,
  0x2cf9fe084ec2ba19U, 0xf037f381f3f3bf08U, 0xe10604852a012105U, 0xa41c0e21d701f012U,
  0xaa312c23e516cc11U, 0xaad179f00ccbd6e1U, 0x81edf46be4c2d50bU, 0x20fe4ff95c129ddbU,
  0x2f4231de2ebf4eU, 0xbcc2cc430e8eeeeU, 0x560218b408a53f7fU, 0xf70aa8fad9cfa111U,
  0xb463281d24f00b0aU, 0xaa2e83dae8acb3faU, 0x2d067b4fdd2918f6U, 0x5945290419090c28U,
  0xfb4e0f26fbe1d7c3U, 0xd0f8e16ada14380cU, 0x6c33140a0b380622U, 0xb57f5c46a2e3b310U,
  0xa303a1e33e34583U, 0x4b014460e489291eU, 0xfc200f2b4002fc32U, 0x7f24cf0ebcdaf6e1U,
  0x32111d3244130f12U, 0x1b3529bd4eece7f9U, 0x17f9f5f21ae5c5fbU, 0x15010fc828070904U,
  0xc70a06f0e1c3a368U, 0xab1d2f1834a10005U, 0x631bf9b917ecdab9U, 0xde4082452e14e97fU,
  0xbd2023000abcf5efU, 0xd563d7e7be3c02e5U, 0x204b000012d4U, 0xfffffb4c0000137fU,
  0xffffd51cfffff84fU, 0x5e6ffffd5aaU, 0xd70ce8e8fdcbec81U, 0x4d7f896d34ee4703U,
  0x7f129050423eb499U, 0xdad1c7f68ae08160U, 0xaa057fd325d7c30eU, 0x58fe270d9381f02cU,
  0xdc816e36e00292fdU, 0x2e4a7fd365667f96U, 0x1f7f193635350285U, 0x8119265198b11d0dU,
  0x1b1b2834151a81e1U, 0xb60f4681f3b4ece0U, 0xd07db37fdba633acU, 0xfb3a65c51d8e81d5U,
  0xdc8366a481bde37dU, 0xe3567f501999c6U, 0xf221cb1a56358147U, 0xd79e02fab8a7fccU,
  0x5fe60f3c1d8103e4U, 0xff252a81cd1b3012U, 0xde293dc528122baU, 0xd8d44c8125d423d4U,
  0x6e7f62ccd7f4371eU, 0xee44ffd89b2081a5U, 0x40394a8481c2b2e3U, 0x7e6281701ebdbb00U,
  0xbb36fa28d9cb7fc9U, 0x26d15f7fe507d08eU, 0x4f1b68fa8118efbcU, 0xb6020e4156d281d3U,
  0x8158e81704c8eb44U, 0xeca27f6002835c4dU, 0xf9557f97dd15fa16U, 0x7f2a3f639f139508U,
  0xb717157ff4a1f8d4U, 0x4ecfdd81b516fae0U, 0x55db18c37f166d20U, 0x7f0edcfdd0f728faU,
  0x554a41ef157f0911U, 0x51daf856057f155dU, 0x3b52e47f4a028b3cU, 0x860fe11cb2b66e81U,
  0x5181f2b1c1a178c9U, 0x4f91957f51fecff5U, 0xf47f28472bb4e1c2U, 0x242a81eef4c00d11U,
  0x3d13f0bf81c4c9c3U, 0xf0813149213633d7U, 0xbde00000001U, 0xffffff2f00000649U,
  0xffffffd0fffff95fU, 0xfffffe4e000000c6U, 0xffffffb9ffffff78U, 0xfffffdfe000000f2U,
  0xfffffc060000027dU, 0xb4cfffffb35U, 0x45afffffec7U, 0xfffffec10000016eU,
  0x347fffffd7bU, 0xfffff74200000256U, 0xfffffdf400000043U, 0xdf00000111U,
  0xfffffe1bfffffe48U, 0x9590000004eU, 0xfffff8e900000404U, 0xfffffbad0000089aU,
  0xfffffe940000055dU, 0x62fffffebbU, 0xffffffd20000076eU, 0x8dffffffc7U,
  0xffffffed000000e8U, 0x718fffffdbdU, 0xdc36f3ed5302d4abU, 0xec361601e12512U,
  0xfb05d82bfdf7c781U, 0x3e2f81f434e5efe4U, 0xe91f1d10eedcd6e8U, 0x7f8100a52e7fc2f1U,
  0xa51279141c0ce681U, 0xbcc0b07ff5b90bc6U, 0x11a6081c0729d9d6U, 0x2fa6a9033df00b9eU,
  0xfbc5e025c926851fU, 0x1889058a2530fcbbU, 0x2e1cf6fe39eb710eU, 0xf2a581e91aea247fU,
  0xf903f70ae3d1f2e2U, 0xe75529f7f7bbf208U, 0xc8f40a642c7f7fb5U, 0x11b4f2c3785306deU,
  0xe40e56f90bff81d1U, 0xf0d7023081f6f30bU, 0x1028e8e6317f81d1U, 0x67886944943d1295U,
  0xf40d8198a99ce67fU, 0x43ff0475a3aed06cU, 0x4a817f7f137fd90cU, 0x7fb5e236020e819cU,
  0x7f817f817f63bee9U, 0x8181dd7f81637f81U, 0x3fcfdc8181df905fU, 0xcf1c7f3d81f2237fU,
  0x7fd323e2ecfa4d4dU, 0xd602d3086df9fe12U, 0xfc1ef50ffdf3f6f9U, 0x852101f41505f7ddU,
  0xe081305a03fe78b1U, 0xfa111c81e5e5c4aaU, 0xf010c30fbe05d728U, 0x2f8158e3ee4dcffaU,
  0xd21107281fcaf7e1U, 0x4930fd16eb81f5abU, 0x7f1c0408fab9bdb3U, 0x7558dd30c1d2810aU,
  0x9eb30a0cd2ddf4e4U, 0x3ae55f10047fb0deU, 0xc37f7ef0f0ffc03U, 0x341d052a26b3f6caU,
  0xfdf495db0b04f3edU, 0xbd68034b1bcdfe18U, 0xc4fdda0981ce3b1eU, 0xe2db14c81324443dU,
  0xf32dca23ffc83ce6U, 0xb4ec9f8f5b1ed07U, 0x2bcd572d2b4e57faU, 0x7406da9958e5a5c2U,
  0x267000005c3U, 0xfffffceefffffdc7U, 0xffffed50fffffc23U, 0x6100000d64U,
  0x81ffffffee8U, 0xfffffe2bfffff3a6U, 0xfffffd93ffffefddU, 0x1e000021f2U,
  0x13c300001315U, 0xffffefa6fffff8e0U, 0xffffff17ffffffc3U, 0xfffffc16000002a2U,
  0xfffffa3a00002f3cU, 0x6ed00000b42U, 0x73bfffff23fU, 0xfffff5af00000130U,
  0x17ffffffdf3U, 0x79000000219U, 0x7affffffcf4U, 0xfffff9e900000ae8U,
  0x1527ffffff57U, 0xfffffe1efffffd25U, 0xfffffb3200000c73U, 0xffffe93e000004beU,
  0x25dcb24a0497ef2cU, 0x2e3422c41e0adb06U, 0x950e4a16221827cfU, 0xfbd343be1a428101U,
  0xb7bd3f01fb262a0fU, 0xe4f1aa6afe0e1037U, 0xe1effab7b9d7e419U, 0x81219655dad7cdccU,
  0xe3d9bade4106f847U, 0x8bd3a1b1e05086cU, 0xc02de5c43df80e91U, 0x19cc510ff910fabeU,
  0x1650d513f7e0292fU, 0x93bc3d2de3e1f50dU, 0x2e52ee0f3719f213U, 0x47dbe23ad9d8bfb0U,
  0xdf230bfc19232e7fU, 0x12e381523ddc5c0U, 0x1afa0c69e92003f7U, 0xf1c4101f21030b50U,
  0xcf04f8ce1c44befaU, 0xbbdcd8119de6fdbU, 0xfd2828abffd82522U, 0x8e675d416c52734U,
  0x3c1a20f3e6160bf9U, 0x7f530d150340fd1eU, 0x200bc5e8d85eb3ebU, 0xe20bfa10cb224244U,
  0xe9d3c928331b2ec4U, 0xe831fc08bec6e724U, 0x18b64f74f2a80809U, 0x1dd51f04acbdcc35U,
  0xd6b529495105abb5U, 0x18eff85d12fc98cbU, 0xfaf4201ce0a1ef7fU, 0xe3edb7db44f70395U,
  0x10dcebf2d92b8107U, 0x6beedd142651f0c7U, 0x33c0f52c39bc0dfeU, 0xddc52a07140e311cU,
  0x8021e121ca6c025U, 0x4bd509391e252067U, 0xdfd61fab1f249747U, 0x29eef90103b3edc6U,
  0x9627150681581535U, 0x5e2a2aefb4c09038U, 0x12bf2060792cd16U, 0x48bdea6ed73fad29U,
  0xce0000008ebU, 0xfffff55dfffffd2eU, 0x1fa5ffffd744U, 0x1484ffffec6eU,
  0x14c204757fbee776U, 0xb830f07fc0c1c01bU, 0x7f09370716694304U, 0xb3bb527fd5c804f6U,
  0x67a6bb7f58fc472dU, 0x58cf9900167f2c1bU, 0x7f30ea24a268eb31U, 0xf109bc8116475bf1U,
  0x86394c082f25e381U, 0xd0e0aa81ebe54870U, 0x380bdbb04f1981c4U, 0x831297f0c09d564U,
  0x2740824406f181fdU, 0x8102f62f220eb221U, 0x2e025f21ecb98182U, 0xe607bade81059dfeU,
  0xa9177f461fbfe9e8U, 0xed22e1507f142a15U, 0xefc2e0381ec2aa6U, 0xe1c031fdbc02813aU,
  0x81213c16f5f53c14U, 0x7fec0986ebe0a6abU, 0x3669f981ba69d89eU, 0x19ac0ade08810d3bU,
  0xa00e537fcdd82432U, 0x538515068166e38fU, 0x50caed81fa1e244cU, 0x37120ae9b7157f2cU,
  0x81c55f7006cd8f3bU, 0xec812a83e7d943a3U, 0x957d11befc98126U, 0xd1fa3cc453cf7f58U,
  0x6744c115ccced47fU, 0x5317fa68474d827U, 0x979b3a81ddaa0856U, 0x814b1b5bf056f521U,
  0x447f1149e41dba1eU, 0xa78cd6cbdd7f3ba1U, 0x11c6813964493433U, 0xd91eda7f1304250bU,
  0xd3b31a6a9ed75b7fU, 0x3b7f45e43ce3adceU, 0x764cae81a04a02e1U, 0xa7ce7f3629c7e3d7U,
  0xc37ff8dcd0f8b747U, 0xbf69c819897f17e0U, 0x2532086581fc58ddU, 0x3cb581bf94b6e6c8U,
  0xffffff0100000131U, 0xffffffcf000001f3U, 0x31400000493U, 0xffffff4a000000cfU,
  0x2b700000010U, 0x886fffffdd9U, 0xffffffc3000001ceU, 0x8800000006U,
  0xfffffdbcfffffd8dU, 0xfffffee9ffffff00U, 0x1b0000020dU, 0x4b20000005bU,
  0xfffffe7200000292U, 0x25900000186U, 0xb400000040U, 0x63fffffaadU,
  0xfffffd45ffffff34U, 0xffffff2bfffff8c0U, 0x3edfffffe39U, 0x25100000294U,
  0xa20000038aU, 0x18100000349U, 0xae000001cdU, 0x1c6000000d4U,
  0x150f2844e03cf015U, 0x7f12c9fec50a583cU, 0x8dff52dde47f9a24U, 0x81e9c1fdf208fd81U,
  0x517f9581c84fd0aaU, 0x381255efed81def6U, 0xf17fb49ea5bbd66cU, 0xd078810a81092142U,
  0x81930ed71f69ff0dU, 0x87cc1108d1e003bfU, 0x7f1981bcf97f842dU, 0x43eb7fc3bebfcb0dU,
  0x1a05c334df38014eU, 0x37f9901e6f7e440U, 0xe41c2e01fd41be28U, 0xc241812ff734d5a2U,
  0x7f05bcb1c118a929U, 0x5babd9deeaec23ceU, 0xbdf109fc7f6ac8b7U, 0x11004914a10bf0e5U,
  0x1eed1021f1f209c3U, 0xda0ed21e11282043U, 0x170b95d356f3ce8dU, 0x4120a5ecefdef42U,
  0x81e413813bd09456U, 0xcfcefc7f6e7f819aU, 0xe38a817ffc45cc94U, 0x8d7b8fe581817f65U,
  0xeffa1b27ffc6326U, 0xa2df7f7ffc2f7f7fU, 0x2df2d8d00281fa7fU, 0xa4079208780610f0U,
  0x7be00dae3a23bedbU, 0xc30d157fba240b8dU, 0xdefd20b1e9004e54U, 0xf4c1d6e8e4e4ee2eU,
  0x3edcd87f535d60b1U, 0x532ed9e8cdfee4e5U, 0x4500dec1bdc09a3U, 0xd47f855bf91710d8U,
  0xeff58ebdcbf49ab8U, 0xdd81b7f3be54f609U, 0x1cf7f4e12c72b23U, 0x1b0bf7ee55112b81U,
  0x6c41d7367ff68181U, 0xbbd6db63f8fd4199U, 0x16ef0de75efd70bdU, 0x81e491177f14310dU,
  0x38f0f530b6357fc8U, 0x540486f3d7fae00eU, 0x637f27c94121e518U, 0xefde12750b01efd0U,
  0xcf06b1b690ff817fU, 0x2d2da1d9fb0003dbU, 0xfffffcf7ffffefabU, 0xfffffa62fffffcebU,
  0xfffffe05fffff98dU, 0x11fffffe4fU, 0xbb00000789U, 0x1fffff853U,
  0x102efffff67aU, 0xfffff8d8ffffec70U, 0xfc80000109dU, 0xffffefdaffffe53dU,
  0xfffffbc0fffffcb6U, 0xfffffad7fffffd07U, 0xfffff3f000001ebaU, 0xd40fffffd52U,
  0x2685ffffe6cfU, 0x2b2ffffffa36U, 0x1523fffffe7bU, 0x74fffff868U,
  0x2eec00002276U, 0xffffe955fffff687U, 0xfffffce9ffffef2bU, 0x5b000007d1U,
  0xffffff15fffffb72U, 0xfffffe300000082bU, 0x170b391c2a0864beU, 0x4a5afded7fd925acU,
  0xa6041a4e02d5deabU, 0xd955cef5de0ab50cU, 0x1dd6bfc25be828fbU, 0x62fab843ffee66ceU,
  0xaee1b9b24d9e0f41U, 0x433403edf987bfcfU, 0xf82826f1651611ddU, 0x48e2e47fc5bf56c2U,
  0xeed7b76a1812cdc3U, 0xc0dce8e3e0f3a753U, 0x82fc1c7b9c723497U, 0xeb55d9fae316f012U,
  0xfa98cbf307420f6dU, 0x3dc8cbf51d81340aU, 0x2d3616bf50bd69c4U, 0xd0b35507cef6a0afU,
  0xec7fce3b21cda27U, 0xcf9bf432f3413546U, 0xcdfddc8a9d38ea53U, 0x5ff54babe8daa612U,
  0xd923f52eac47815cU, 0x88c8a3e681bf821bU, 0x371d05b9460522d9U, 0x46f02ada7fb03407U,
  0x2ff2311ecd2f110fU, 0x8dce200e445ccedU, 0xefc9c915fd3bfc1cU, 0x5e528d9e4c0b3e7U,
  0x7f03e0580ea89adeU, 0xeec519d5eb9f36deU, 0xd7d9e075a602a753U, 0xecbe6794fde41262U,
  0xc82d4cebf2c023fcU, 0xa5ebe00ae5cdb356U, 0x634dad442fc0c2e6U, 0xb963295ac52a0381U,
  0xb6db64489b092ff1U, 0x2a66261db322d46eU, 0xf4e05c213d89df59U, 0x6e0a351108876811U,
  0x13d2f00d00ecd4d3U, 0xa7fa3fc8fc0bbdaU, 0x9a0ed91ef92af012U, 0xe0ec382d248c50bdU,
  0x3e3b43df369366b3U, 0x4014d5aded00b10bU, 0xeccfffffa64U, 0x2e0dfffffb74U,
  0x19f300000cf6U, 0x616ffffe769U, 0x1f5a27e98116cff9U, 0x2a7f2e5c0db3356fU,
  0x7a11267f58989ad5U, 0x5cb21fb50e817636U, 0x23b87fd0f8ed1256U, 0x6cd7e13a1ff95781U,
  0xc9bb7fd2043acaecU, 0xc73be6aad77fbef7U, 0xd253e42ae981b266U, 0xd4a28102f91c041eU,
  0x6777f56f9f664f6U, 0x1649247fe6854700U, 0xdda07fd6e5fe0997U, 0x103600c5b87ff0bdU,
  0xed0ac9e5864a7fb2U, 0xdd526dd813dbaa6U, 0x8fc87f4a414cc43bU, 0xddf6810efdd0cfdcU,
  0x8161ef1bfc583d36U, 0x55a9816fe803d8f7U, 0x4e8e01afeceaef81U, 0x9192581f32e3356U,
  0x7f3283e34566cda5U, 0x3a11f2644c197fc7U, 0xfadaf481dd0115faU, 0xd78d89fcb35ebf81U,
  0xfe040efbceaf7f13U, 0x2601bbf25bb45a7fU, 0xd027f22ccfbe018U, 0x81219cef4c8cd376U,
  0xd18168cee0f33a32U, 0xe31f7ff2e3f61838U, 0xdd0a287fcb57977fU, 0x814ffca22c580f3aU,
  0xb6421d18815b4429U, 0x47e1fd78c2af810aU, 0xa52d1281cef3c864U, 0xa219e97f0dd64440U,
  0xb6e0476b7fe6aa6dU, 0x8b1b281211188e2U, 0x1dcb41d1358f8147U, 0xc225f251de7fdea0U,
  0x2470ffe9937f07e3U, 0xfe263a7fc6097231U, 0xae325d81eeca0ad6U, 0x1feed9f17fd62f3fU,
  0xcf7f1a1f7701af55U, 0xeb7f86eb10ebf1afU, 0x613000000e2U, 0x44300000f07U,
  0x30d000003bdU, 0x856000002ceU, 0x1180000031eU, 0x1b300000533U,
  0xfffffe75000007a8U, 0x32e000001e8U, 0xffffff41000002c1U, 0x29500000033U,
  0x2290000006aU, 0x181000001ccU, 0xfffffe9c000002d0U, 0x56f00000226U,
  0xfffffb29fffffb7fU, 0xffffff90000002aaU, 0x18afffffe85U, 0x9bb000001b8U,
  0x31700000187U, 0x59ffffff67U, 0x472000001f6U, 0x18dffffff5eU,
  0x27b0000008bU, 0x26400000259U, 0xa0a54cbb31f63fb6U, 0x42f855c87f2c37c9U,
  0xe5f8e867ea812eb5U, 0xb7547f4ed8c1aa81U, 0x4ea824a35f155444U, 0x4596454cca810252U,
  0x9d8159c57cfe81abU, 0x7fc16090602c78c4U, 0xe96e267d692af81U, 0x81646a7ebad39fb6U,
  0x459a638d72eb5655U, 0x68813f5697dc997fU, 0xddd00a0f2f32b2dfU, 0x2acef9ecf1172407U,
  0xf196f50700d9aed0U, 0xe0180953f20b81fbU, 0x6a522140bf6212aU, 0x17f72106c411d619U,
  0x81ba55814c28629cU, 0x3b9e6a8125546fdcU, 0xb2fea27fa6ed10d5U, 0x9a476558a581aee0U,
  0x6d4240817f407f2eU, 0x52ae527fda9e7f65U, 0xa4ac7f9a7f76e581U, 0x5e817f8abc7f7f81U,
  0x81df817c81d38cbdU, 0x917f337f81aca80dU, 0x7f697f9a7d5e617fU, 0x7f9f7f6881d5c577U,
  0x3b406ee4348e506U, 0x42ea05fec51c4addU, 0xa09bdd1103beacc5U, 0xf92d0347e6ec8f17U,
  0x2f3429fd17331e4eU, 0x25c12bffb6f7b32aU, 0xd40d27dc0e5d24daU, 0x5f51af8c8253efbU,
  0xb0d6d50a821b21feU, 0xc31ae939cbfde337U, 0x1f1a1fb1245f141aU, 0xfe53141f1ce6426U,
  0xecd024c41a7f2687U, 0x7d0150e913442d1U, 0xb281ad1aa7e7c7f1U, 0x10e83ad101df2dU,
  0x237f3cfe277f2816U, 0x25cf2c3fbee3421dU, 0xbd50b09fb2f1ec0U, 0x2edef70dd90d22dbU,
  0xaeabfef7ed07818bU, 0xde2dd030fb02c404U, 0xf86925f21849061fU, 0x20d715f9c7160a0fU,
  0xfffffcd800003dd9U, 0xffffe87affffef3cU, 0xffffe17600003278U, 0x3c720000336fU,
  0xfffffe2c000014edU, 0xfffffc8effffea4cU, 0xfffffba700002efaU, 0xfffff36000002d2bU,
  0xe9f00001eb6U, 0x2f6d000026b8U, 0x2254ffffe5c3U, 0x367f00002df6U,
  0x2fe100000dbaU, 0x30e000001ac1U, 0xfffffa1d000001bdU, 0x27faffffe8e2U,
  0xffffe90500000214U, 0x33ffffd09fU, 0xffffeec100003174U, 0xffffed5cfffff624U,
  0xffffffe700000075U, 0x3ed400001c63U, 0xffffe4fefffff141U, 0xffffec31000034dfU,
  0x6f0ec02269e062aU, 0x5dceb1bdaec3c26U, 0x120e4ef26f5f230U, 0xea1dd821ebfd0ea2U,
  0xf4e4dbcc81251a17U, 0xd628de2be70223e2U, 0x2fcd2afddfd8bf29U, 0x7e7c993d736d24eU,
  0xf538eb2a46c52ce3U, 0x286dcdac21f56ef6U, 0xadf21b36e745f3d0U, 0x8125dfede918bcffU,
  0x1ccdc52d17e12851U, 0x81d5cef42ce350e4U, 0xf40b55bde0d4f909U, 0x26ca1af9c2dbb2f0U,
  0xaa17544a8f23c10dU, 0xe9faf9f1c8e94ac2U, 0x5d3c0fba5d81e01aU, 0xcaedd05444f6e9b4U,
  0x535504f1040025eaU, 0xd64c0f4a35a1d32aU, 0x12e630e6e329dc15U, 0xf8090ec9af0a2803U,
  0x1ffbb3f948d8b7f9U, 0xd05bb01fa717d6f3U, 0xb93fbbb60cdbdfe6U, 0x1d5444f7e23b50adU,
  0xda0be1e183e769ffU, 0xaf17f2ceecc0d2cU, 0x162b76eeb5f70c2fU, 0x70e44f4ede1830f9U,
  0x93a80b3fbcaccbc6U, 0x19fd0902d8b3e4d1U, 0xbe3d5a39f617a312U, 0x7f095bcaca26d4b5U,
  0x50e820f0f127caedU, 0x1528bfe6eba909f4U, 0x24d73243c306db04U, 0xf518ec06fd03e7d4U,
  0x3deac01d7fffc224U, 0xf2210ed9113ffe3cU, 0xca1d3b33f8fdbb93U, 0xa637cb1290c3f3e8U,
  0x57ae16404d023fU, 0x7f92c797134b3fdbU, 0xf113861ee82593c4U, 0x9ebc3c96a9924e9U,
  0xf3cac4c60d2af70eU, 0x27350fdc0320f2e9U, 0x1e411e00b07eecaU, 0x811dd6500df4dee8U,
  0xca400ddd19fffb1bU, 0xbcfac638fb15e92aU, 0x4e31be934d5cb46U, 0xecb91da8f0a95705U,
  0xf6fb372dd3203900U, 0xbfbeaba013107cfU, 0x7fd615099bf2f7a3U, 0xda3a49534018fbc1U,
  0xce080531c521e1a5U, 0x1ce857c6e32626e2U, 0xf51b2bc9f2e1f312U, 0x2eb1b047f17c4efU,
  0xcf0515f330470d41U, 0xf730941bc1c93bbbU, 0x81e7b4f2b2af302eU, 0x4df9601509b96129U,
  0x66c9d1fdf2cdb301U, 0xfddb47e2e955e4ffU, 0x763310d98dea542dU, 0x1101aab15e67cd10U,
  0xf0b83d9c5f0f4ceeU, 0x6304398c14b54d11U, 0xbb1a0540db53121aU, 0xe254193fe3c29903U,
  0x210cd11209d18ec6U, 0x8165df1410d83a1eU, 0x36607d5d56fd02e5U, 0xd5c13106163bb27fU,
  0xacda49f5b137d474U, 0xa09d95b0a060ef3U, 0xddc0306602e4efb9U, 0x1f5bb6c6f5f9f090U,
  0x494e312d2d06cb4eU, 0x9a49ab52e5505a38U, 0x60806ba351b815aU, 0xe6dc02add80e1d1aU,
  0xed3604f8da2634a3U, 0xec5371ec2c0cd9c7U, 0x1232012c123d610cU, 0xc34db0de171743b6U,
  0x4f6f8f9232d0cefU, 0x200258e381230cd2U, 0xdb577717570cde15U, 0xcae861e9c319fe38U,
  0x211d000021c5U, 0xfffff10e00003e13U, 0xfffff5cb000016c2U, 0x399bffffde6fU,
  0x81100000cb7U, 0x9e100000163U, 0xffffec9900000642U, 0xffffd069ffffd1f6U,
  0xf00e2bb5f2a87530U, 0xc5bd8164f4ba0669U, 0x818525040be10606U, 0x490265c53040c9dbU,
  0xfe57140804afa41aU, 0x81bd0094b3e8b911U, 0x58cbd528b8c4cd17U, 0x31fa046038b57fd8U,
  0x1ebdb0487fce5927U, 0xe0f12b2fb20ae035U, 0xd41f6494e78108b0U, 0xfd002e2b1a18e8beU,
  0x29152c0b8123c213U, 0xfac4e7f931434e34U, 0x2afd21162c5319fdU, 0xb0367f913d2f22a3U,
  0xfabc8d1ee5d84b08U, 0xa5e9da1e138e7fa5U, 0x7fd582b0b2f03c77U, 0xdc24bd1143e3fbdaU,
  0xff0dd625a181fcbaU, 0xd4b6ed0a47f53a0bU, 0x4ab3e6c50f28d3cfU, 0x2e4c31bb8136fa93U,
  0xdd027f06e72c98f6U, 0x31e6fc1629eebdc5U, 0xed3c429e2e81c0ccU, 0x56f12d6c09fa1d2bU,
  0x57b0332db48b003U, 0x7f77fa33959ccbefU, 0x3122193b19e20dffU, 0xf3570bebd3813cd6U,
  0x59d7ebb4cc55bff3U, 0x36e8214e0f5437fU, 0xe4b902ea33a6f8d7U, 0xf723280bb33db87fU,
  0x3213b1142c247f31U, 0xac2ef9ed08bb20bfU, 0xd97fe72d049ef1f0U, 0xdd95ddbceef14f72U,
  0x81fdeb165cd54836U, 0x2f3cf0301515dafeU, 0x4d1381b6dda5b6eaU, 0xe084fc3e3f764402U,
  0xc9d5da7391d6e116U, 0xec5526ad7f0c448cU, 0xf31dc5c074f54d35U, 0xe2a9236ae5ef4d7fU,
  0x520700a43ddcd33bU, 0xb30e95a7ff021abU, 0xce0142c11581ffe8U, 0xd7b9b4fd38f15dd9U,
  0xef1819ec2222fc11U, 0x107f14f91fb309e6U, 0xd3813016d3e2f813U, 0xbcf4ece1f5d0f20U,
  0xb6b2e9fc7fee412eU, 0xcf602824dd9101d3U, 0x3f280837037fa960U, 0x200cc328d7f51f51U,
  0xc50dc7d11981021fU, 0x1ae0ec3b56ea055eU, 0xfde2887f6d1faa1aU, 0x3091a90c4b78d5f7U,
  0x8dfcd648818dab0cU, 0xfc15efaa213ae547U, 0x44d3f26e6827c9cU, 0x6defceb5defd8154U,
  0xe4f30bf4dee24df3U, 0xf90b061081c3c6ffU, 0xbafbed2535f29807U, 0xecaa81da1ef5c60eU,
  0xfdaec30fc5e0df43U, 0xcddc6d2cd97fc2dbU, 0xe1f24e9ef04af25U, 0xfa19182849d57ff9U,
  0x173de31f2d11bb9dU, 0xd2efe907020381f4U, 0x190d47243416f2e8U, 0x5e63f0f481e9c2f1U,
  0xe54bee3803e7812dU, 0xc3b7845342cc4a41U, 0xfed4ce23382140d3U, 0xafe9720fc26d816eU,
  0xdf07fff5d581b3f1U, 0xc5eaa71f3e5af509U, 0x28671c81540f1fdbU, 0x71ee3237ccfffcf6U,
  0xaed0950a505038ecU, 0xfcaf08b2aae5907fU, 0x4d290ba8f49f5d3cU, 0xe0aa267fe2fa1e3dU,
  0x7ff1f8ebf75e307cU, 0xc16f10536d7391fU, 0x39feb5474047587fU, 0xc4e43abf21a1eb20U,
  0xa4cae24f819d9ce1U, 0xf015ab2313daf638U, 0xcd2fc07c7febd239U, 0x4ddadf05fece23c7U,
  0x6f7fe801ca47f213U, 0x550403238402d026U, 0x26ab28127df0a0eU, 0xebcd1c5c1938a252U,
  0xc301b6f721c4ea34U, 0x2eb2f4f331ec067fU, 0x73009ee4cf20fdf5U, 0xa26e2a065b810821U,
  0x3aed399a2baa81a3U, 0xaf03c8f8e814288dU, 0xc40c778119df11bbU, 0xe7e6fa5a70d00105U,
  0x541eff8c1230a18U, 0xf307e5500b207fe7U, 0x31e914f263023552U, 0xccb12e7fdc2ddcfeU,
  0x2f300b04fd43c71eU, 0xacc8216e28307fe4U, 0xb9812ee3eb2b01eeU, 0xff3c101cec440a38U,
  0x48e69c8b0269e968U, 0x8e0a40e5067f31b5U, 0x1d7f03e4feb914d8U, 0x201ada1597d41e02U,
  0xed2811acb010112U, 0xbb01f6f1fb15f420U, 0x487233f91e1fc981U, 0x546173d9dfe81da9U,
  0x1a567fcce0fd2ad1U, 0x4ef4d12f17201e26U, 0xe2f67fc6e125ef00U, 0xb5fd4aec3968b6e8U,
  0xe08b0d25c836f254U, 0xec125be0d6ce6281U, 0xaa530e8124f0c048U, 0xca860de8cd3deb3cU,
  0xd2b57f173f4c0799U, 0x152f34c5dde21433U, 0x383e810533eb3012U, 0xce04f2e8f8e42147U,
  0x9c134378edce81beU, 0x4a02c329bce81cdcU, 0x2561dc89d634430dU, 0xf0bb162f8147fcf0U,
  0x5e742c57feb1910U, 0xcaff0e20ec50cf5eU, 0x85be01de81a57c2fU, 0x290aed63f61753e6U,
  0xfbf8dd1242cf8c50U, 0x9781d41a2c461a06U, 0xdbcfc635d7da7f55U, 0x8ead121eb1d39f4U,
  0x32a210d1c9eaccb2U, 0xc2bb7fcdce47e48dU, 0xfabc9063e7f71530U, 0x34de0332e060477fU,
  0x7f759b0d0bbed9fcU, 0xec46f76d6186d5f1U, 0xdf6d72ac074d16ffU, 0x171b7f501ad038e0U,
  0xebf7aabd30564f7fU, 0x66003144cb72ebaU, 0x200cba0605f53be2U, 0x30b838ec15378146U,
  0x6b2c49eadfe68e81U, 0x1a1c33fadc1bd00dU, 0xe9f8400e7fe3e902U, 0x772ac958d013f944U,
  0x8bad1d7f2a38d8f6U, 0x6363f0d82618f4afU, 0x42e0ac17c3387f6fU, 0xc5cbeb07ee166118U,
  0xde2181251b984744U, 0xf0ecf31e4ed0e665U, 0x2f21afeb3781003dU, 0xb2f2f3e3eaf71a15U,
  0xfff92705051b15deU, 0x4c7f0640b9c31b0aU, 0xa159a42e7fd40853U, 0x4cd2dd47d9b2aa4aU,
  0x27f939ee0905f2ddU, 0xc4119d004e1e881U, 0xf881f451d72f0123U, 0xc132258c14fba700U,
  0xbe03c00d3a9fa971U, 0x818c0c51f8cf1b7cU, 0xdf271efd0ffc280eU, 0x2af032c88137e3f4U,
  0xda2089b448fa7fb3U, 0xbc2abd7ceec3ddf6U, 0xe105aa9f711fd14U, 0xcd813166427f0af9U,
  0x479ffffffb4U, 0x53cffffffdaU, 0xfffffc1afffffdecU, 0x6550000031dU,
  0x60200000daeU, 0xee1fffffcc1U, 0xffffefcbffffff5cU, 0x71d00001175U,
  0x3ce00000100U, 0x9af00000360U, 0xfffff60dffffff51U, 0x4300000446U,
  0xffffeb3100000436U, 0xca200000351U, 0xfffffdfcfffffe19U, 0xfffffcb5fffffe87U,
  0xfffffe11fffffed6U, 0x15000002edU, 0x52f00000375U, 0xb1b000000b1U,
  0x22d500000924U, 0x5a8fffff868U, 0xfffffebc00000155U, 0xb3b0000015eU,
  0x36ffffff6bU, 0x50100000503U, 0xd2dffffff7bU, 0xfffff116000001a6U,
  0xfffffbcffffffe57U, 0x1ffffffff4aU, 0xfffffff5000002feU, 0x64800000285U,
  0xffffffee0000023dU, 0xfffff8b9fffffe7eU, 0xfffffe57fffffe17U, 0xabffffffd75U,
  0x1a9ffffff5dU, 0x1affffffa4U, 0x3ae0000026dU, 0x3d30000091aU,
  0x713000009bdU, 0x11900000c5fU, 0x95f00000260U, 0x425000006acU,
  0xfffff99e000003d8U, 0x11d3fffffaaaU, 0x492fffffdf1U, 0xfffffbf700000949U,
  0xfb40f2d053d0fa15U, 0xd5d8007fd30d0be5U, 0xe2d533dc0b41f6b9U, 0xe71df5efb56529b8U,
  0x81d20de536110cc5U, 0x81021deee3f6f52dU, 0xfcf3fbebf9aeedaaU, 0xe527f92117dde901U,
  0x39ef0fddebf6ecdeU, 0xddfbe33d2ef57fecU, 0x2ff3057f03ee06aeU, 0xdad7faf5efcd9fe8U,
  0x1232ea9e7fddb97fU, 0xf7a92d0fc34eaff1U, 0xbde202f4e9cf050aU, 0x4c2e81f3bb0a5c06U,
  0xe3d84efdf2d61381U, 0x98f9c697f70eee37U, 0xfe23c87f1ce8d8a7U, 0xdfc5d0dbe7b717f9U,
  0xeddf7fec3be7f0e8U, 0xa910c43f7f09490eU, 0x6cf3123222116092U, 0x21dfd8f0f1c18110U,
  0x3cd7fcd913c5a8dfU, 0x4ee20725b9f7aa1dU, 0xf1d10bdbf7ccaec3U, 0x75fc98e3c7eb7fe0U,
  0xb0da63d9fdddfd39U, 0xbb222face5ec0127U, 0xf0eebb2ee8fcecd7U, 0xf7c24c1b4bdcf20eU,
  0x20033bf9c6f4ea1cU, 0x8d7fc13705e623e8U, 0xf0b44574f5e7b5d4U, 0x8101f0d8e7f9f2U,
  0xc17ff20ec3f73a30U, 0xcc7ff9574eb931f0U, 0xeb170200cd7f0019U, 0xc821aa0fe56920e5U,
  0xb0e4d528e19b0596U, 0xa291fb17fb01ea81U, 0x26de7f4311813f81U, 0x47fd717e7810e7fU,
  0x3def43ed35f73481U, 0x81ae5e0800dd41dbU, 0xe7dceadefc7f19baU, 0x8f53611ec0fe822U,
  0x81bc7f81b57f2a7fU, 0xb02c7f7ca2968181U, 0x7f7f5d7f7ff87f7fU, 0x137fd77fca811490U,
  0x8e048148817f7f0fU, 0xa28b81817f7f7fc6U, 0x7f7f141da8ac7fdcU, 0xd2b78181c24e7f99U,
  0x818152cd7f7f7f9bU, 0x998be81e87f247fU, 0x1c399d878105411aU, 0x7f4d7f7f7f66097fU,
  0x7b0105fc442c8149U, 0x7fce14faf784c546U, 0xd8fc7ff1f2c6eafdU, 0x7f3ca51741e44548U,
  0x332b42a60d221225U, 0x480717caeee8e846U, 0xf3f9c45cd258e398U, 0xe7ef6b127f95fcceU,
  0xf0111d26eaf4e122U, 0xc13e28fdd00022f9U, 0xfbd22c0b0ee6817fU, 0x2af68ef9e9ea0ccdU,
  0xed2213149a1b5815U, 0xf3151ee97f4c5b0bU, 0xe4ea0309f902d620U, 0x922df3e82c12bd2fU,
  0x2281c2fbf90f1bcfU, 0xc2a23602fb0b05daU, 0xaed13cf810ef312U, 0x192e13bddbf5e93bU,
  0x67fa030a2e0f0dfbU, 0xeb061212fefbbbf1U, 0x81fc81c006e30fabU, 0xf6fa1ffbe23d12f3U,
  0xcad31b081e4d7d44U, 0x10452d305081d33bU, 0xb31a54eeee45e8b4U, 0x907db9267fff007fU,
  0x7d1ad781a7fcf3ccU, 0xd581fedee224bf9eU, 0xf3d81774f15c31b2U, 0x7f5a37f3d4e600fbU,
  0xfbeaf07f3417030fU, 0xb70d7fe5d3e593ecU, 0xb581f4e6eadfd2d9U, 0xe2c8d2e6ee7f1febU,
  0x40c2f905ab07eef4U, 0x24f22513389b8d29U, 0xf1e819f3f5c9efe6U, 0xec05f5fd5be0f829U,
  0x2a230105bfe81857U, 0x36ea35f6eff8f110U, 0xefcccf7c840dde5U, 0x170c5cff2302eee2U,
  0x209155ff608d821U, 0xa4d5b02e605a4ecU, 0xd6db02e9f7f5decbU, 0xf6c2d700d8def9f2U,
  0x3effffd62cU, 0xffffff61fffff644U, 0xfffff59a00000d78U, 0x3a0fffff9cbU,
  0xd060000009dU, 0xffffffa4000018d3U, 0xfffff702ffffdbf7U, 0xfffffcb4ffffff84U,
  0x2edfffffd8cU, 0x1d7fffffd6eU, 0xffffeba30000002bU, 0xafa0000048fU,
  0xfffffb0bfffffb01U, 0xffffffc7000000a2U, 0x1373fffff639U, 0xfffffb21ffffe301U,
  0xfffff24d00000ce0U, 0xcfe00000014U, 0xfffffe6800000730U, 0xaa1fffffe93U,
  0x11600000c93U, 0x1b6fffff997U, 0x37800001844U, 0x249c00001cb9U,
  0xfffff90800002bf3U, 0xa9000000668U, 0x250ffffe251U, 0xfffffb5cffffff9eU,
  0xfffffaccfffffcddU, 0xfffffba800001598U, 0xfffffa3500000a12U, 0xedfffffe63U,
  0xfffffd4300001066U, 0xfffff24cfffffa2aU, 0xffffe9eafffffc99U, 0xfffffc2700000daaU,
  0xfffffa40fffffe36U, 0xfffffefcfffffc99U, 0xfffff59cfffffe2eU, 0x142dffffffcaU,
  0xfffffd4300001450U, 0xaa9ffffff53U, 0x9fbffffff00U, 0x4160000139dU,
  0x9d5fffffd3cU, 0x396fffffd22U, 0x43bfffffc37U, 0xfffff8c000000e11U,
  0x7d113f2153934cdU, 0xdbfbf8046e081cb2U, 0xfa20fc2205010bf4U, 0x36ea08f57f4811acU,
  0xf4e40be7e1011c44U, 0xdcdaf2efdd03db2cU, 0x17ea022716fae706U, 0x4e9f3d92a07c4e3U,
  0x22e3e93ee225f6fcU, 0xea060afaed34e700U, 0x1e31fade15c606ebU, 0x4edd804ed1fee29U,
  0x3eecceeb9de687f2U, 0xf818c6c70b2723a3U, 0x250aa047bc54d9ceU, 0xb90a277fdfcbfd1eU,
  0x1ca7011c38272be9U, 0xaefe014423861ee4U, 0xa8babcebd72a1751U, 0x3c49e91325283a15U,
  0x1cf806caf950bb5cU, 0xe2d93b3c3ea3f125U, 0x1effeaed182118f8U, 0xb520f8132ce5032cU,
  0xb61508ee00c01a8eU, 0x92bf1755b38d247U, 0xdada9cf0df95053bU, 0xfafc39f0d4b0c512U,
  0x2fd2b043122d33d1U, 0x51f22bd0eca60732U, 0x21f2dea031c9a5daU, 0x54d6ffcb1029b82bU,
  0x15cd8134fac75ec2U, 0xb5381b31e2d817bbU, 0xfc371532bc605668U, 0xde6052f338260dd9U,
  0xd7ffbd2815d60bccU, 0xd187c608d707ed07U, 0xe5052102d1e1f5e2U, 0xd6ea3a1513e8e0f6U,
  0xbecd09cc18f4f519U, 0x2c1df510ded8fcf8U, 0xbc0431190906fdcfU, 0x81170ff407020101U,
  0xe4def2cf0a401f0cU, 0x32e120aea9ac8d4U, 0xacf3b4f9fbf60ef5U, 0xe2e614be29baf316U,
  0xe7cc14d0e4c9b61eU, 0xcfdf97da515c0eb4U, 0x4bb6e4e2f19713d3U, 0xd1d465daeec994d3U,
  0xff17baf1fbcb0d26U, 0xe34cfc30d581f4ecU, 0xb98ad0c428bdfe7aU, 0x50b21efba6ca2cbeU,
  0x24ea21cfd325d805U, 0x2d0ac70e11eee8caU, 0x3e72fed3ffef03edU, 0xaa5bf3292b52bdeeU,
  0xaaf42a0426ee0205U, 0x6f115bac2e0f1f4U, 0xb7d8e7e8d949fc01U, 0x503d135ff07032cU,
  0xd2427e61112d6f9U, 0x81c514e3e6dbcc0cU, 0x252bed33281f10b4U, 0xe451201cde30f20U,
  0xef423ca5cc26d849U, 0xf02216a41f19ef07U, 0xfff1a4e4f8cef5c5U, 0x7df1a08e6f3d5e6U,
  0x602341bd30dbcdaU, 0xbddd40de1e2134dcU, 0x2dc06cc19fb99deU, 0x22f811cc53f0b8ddU,
  0xf44481b9f4bf003dU, 0xc0bbce154a91a1f8U, 0x70a5006fdbeb51bU, 0xe30ed509492230caU,
  0x494e5e06c6d5dd12U, 0x4b003221ca5d0e1U, 0xb1fcf35920141fbaU, 0xe63ca4a9c2f0b60cU,
  0xbfec3019b33d2aa5U, 0xdbd2f323ec213627U, 0xc52dbccee612c0d5U, 0x8224f4130d0688bU,
  0xcedea7f100ae2cf9U, 0xf936f4aae40382fdU, 0xf47bf461200fa98U, 0x8b44da62127e3bd6U,
  0xa9ffe85e67785d08U, 0x422851b003f03219U, 0x2a81420e0b2bba2eU, 0xf891c9f9df0fddf2U,
  0x43c70bc81459040fU, 0x1ff5480048cdbdebU, 0x20d4047275264edcU, 0x613be72993f6bd11U,
  0x39e04945bdb512e1U, 0x8c1d99adb03a083cU, 0x7806bb7ff043f9a3U, 0x60085004ea1665cbU,
  0xf023de161913fa60U, 0xe96db5e9ff20f36cU, 0xda4ca4902badf19U, 0x2c27cd6600afeb9aU,
  0xff18e1a9dbe00616U, 0x314132bfada0c81U, 0x1a29c10f0d1edce4U, 0x153f061236bc21cdU,
  0x2e209627edcd96cfU, 0xefe00f2de6fcbf07U, 0xb906201d006331d6U, 0x5b3052015d3c25f0U,
  0xd40ee81f11530925U, 0xffc41ce2320e54e9U, 0x4accd83d0dd1d023U, 0x170abdf8053013b9U,
  0xd60f2220462bff17U, 0x7f991bfbc4ece9e6U, 0xd5bedd1cf2ea3209U, 0xc71e0bde10ea27e8U,
  0x1811f526ecf2eeebU, 0xee21e92b131b3811U, 0xfe22f11e3fad3f3U, 0xf0fe36bcdde62fdbU,
  0xd7e4add48e85444U, 0xe33b34cef02b0f1bU, 0x1cefb73b23d154fbU, 0x16e2254114fabfa7U,
  0x5ccaa319ca0fefb4U, 0x18f8162edb18c0a6U, 0xb2f13c80216bd63U, 0xb8f22e8e5d8a60fU,
  0x3c01b20dff9ce747U, 0xb6110ac6a4a881b5U, 0xa21729d92a3af816U, 0xffef121a32dea7ceU,
  0x382a1495c5dcad27U, 0xf7b601f444c5bdddU, 0xf335e13c41fe140cU, 0xbc07a9c0eac8b3c3U,
  0x7101c9130cee0406U, 0x2e0c0dd026b7fdf7U, 0x2a90f61463fd3522U, 0xe13613e12f001ee0U,
  0x33d437fa0e29cef6U, 0x2003b60032e905d2U, 0x29bced00d00a4803U, 0xcc16e7e5ddd35bd6U,
  0xddfee6f816b8e5e9U, 0xe8c4fe0ecc46edfcU, 0xef14e32f0402201cU, 0x3d071a7f90d3ed0bU,
  0x9bf51eb05f72d1eU, 0xff101a345137e61fU, 0xf8d5e801dcc039deU, 0xeda71e0e1905f50bU,
  0xf904e7fcfd19150eU, 0x2133acee2fb00339U, 0xcd0ee7ee03f5c7eaU, 0x2d01ee17242318e6U,
  0xf8f8e4fcf71f39e6U, 0x35fdfffd47c7f125U, 0x80a59400413ff27U, 0xdcf841c3e57fe42fU,
  0x1135af1419214044U, 0xf02c9d9f5b4b808U, 0xa5355427e0181e2cU, 0x8108ec1325ad791dU,
  0x4df915efe3cd179fU, 0x3cf1403dd94ed224U, 0xcaccd634c728dae6U, 0xa650380b9ef2c6acU,
  0x54eb25b3f0c10e4bU, 0x3352324dc1fd4ca3U, 0x2deade9330f4e54bU, 0x26ccfa22c090131aU,
  0x1149ddfb150f0869U, 0xc9cdeb05df120bdcU, 0xa3ecf159db1f3d13U, 0xef7f19f441c028e8U,
  0xc546f90a9c1c41d7U, 0xda17c5db2afb0e8eU, 0x2ef2455152f072a3U, 0xb166043d141b0ff6U,
  0x10f715fc1cebd3d3U, 0x21e842fa49cb1f1cU, 0x24b047edb0d13424U, 0xb3d91638eb21e126U,
  0xfffffd9dffffeb3eU, 0x57c50000059fU, 0x31210000410cU, 0x6a700004926U,
  0xffffee2effffcd7dU, 0x6e67ffffec89U, 0xffffd8b1000008c3U, 0xfffffc97000007e8U,
  0xb3ce24fcdbb01e4fU, 0xe6d6fb37f77fdefbU, 0x9d65d5c4a58b81eaU, 0x1ddca6f409272c34U,
  0x5704b0b37fad6b87U, 0x2f369247fdebee4fU, 0xae185f49c8c9a9c3U, 0xe4f445eb8131be22U,
  0x7fdc3da6df01dcfaU, 0x2840cb0e0af21544U, 0xe7ae177f3fbddebfU, 0x4bf91bb3a1f79954U,
  0xf2e5de29c1ea0918U, 0x11d3cbf1e4ea7f11U, 0x162742f877e60ab8U, 0x237fe6013b3cfeaeU,
  0xf4812506ea08d311U, 0xaf0c273af3e8b605U, 0xdde7b60cff5eb5b2U, 0xb2c409d533d78110U,
  0xd10c1d0615dbe412U, 0x2711fb7faff87a11U, 0x7fc176acddf11be1U, 0xe265c329c8365901U,
  0xf4ac1cd8a55881c8U, 0xe58ff8f902221dd0U, 0x12f49a487fd33e48U, 0x1d1df7000dd4f900U,
  0x6ef6ad7faa61ca0bU, 0xaa67106ba9e1823bU, 0xd70211dbdc031ed4U, 0xe269eb40382a7f0dU,
  0xb7fa5b9b2786cbfU, 0x7fb03e9cce984aeeU, 0xd9d81ad4e5ee1563U, 0xd7811f211200f412U,
  0xe181f61d2fe6df0bU, 0xe712c81b2fcd4e30U, 0x7f34cff3103fe9d2U, 0x2f34f505e5c6b3ecU,
  0x9bff581eecbe601U, 0x97c5404d45fbecd9U, 0x3328355c4dd012eU, 0x334d579ca997f0dU,
  0x9681fde7f7ed020dU, 0x12f7140ed3af0c49U, 0xfe2ef2e3c5bbc0deU, 0x779537b5dbac811cU,
  0xb8f0bb4dcee6c316U, 0x58b6aeb5e828a27fU, 0x39dbc6fbbc44d5ccU, 0xf18135b2c31837f4U,
  0x327f00ad2ae725dcU, 0xf6f1f119df2bbe07U, 0xcfdac7438116b83aU, 0x3cada5fde015b09U,
  0x54708116e7ccd689U, 0x48fa1ceafcfca6ecU, 0xa9044cfe0c67aac5U, 0xccd037fdd2e10e4U,
  0x361324f6f36253c3U, 0x76a488103e412f7U, 0x8197ff3ec0dcf7d2U, 0x3e23bed2e0ff2854U,
  0x818c8f305e41fbeaU, 0xf132e3dc4f3bcedaU, 0x41a07e77f18de95U, 0x1e06cb36eaf702b7U,
  0xea36bb59f1c6777fU, 0xba39d84b27ac53d6U, 0xec5bc6c337ff8fcU, 0x1204ada901d84b0bU,
  0x28b1f9e0811effecU, 0xde98effbcb532acaU, 0xb087da7c942c0517U, 0x4607f98178c6ed5fU,
  0xe2c3ce759604d8U, 0x81dcbe2ee5ec20b8U, 0xff8049a41a97448U, 0x81dc9c2305664121U,
  0xa3222abce98455ffU, 0x81acfccb2718280bU, 0xc5eedaf2f3d1e811U, 0xc681130e1715f136U,
  0x7f4509ed01f746ecU, 0x3b2f8b1d69212d70U, 0xe4b5eae7de90afe2U, 0xb40081cb7d39af6fU,
  0x3704ab9d0d397f10U, 0x170ef1611bf8db5aU, 0xddb77f2d2dcddf6bU, 0x46d0f4e6c9d34506U,
  0xc2050afd217d0954U, 0xf77f0338321782dcU, 0xd51256c1bd20812bU, 0x17ebbb2edb4b065aU,
  0xec0ca9121a470ee4U, 0x27302205bf73681U, 0x54b737ed81c4a0c1U, 0xbfede0d85cf1e6f0U,
  0xf3d30dc6796147edU, 0x12d272e81c489f3U, 0xf8deb904f4f3e41cU, 0xeb2a8e047fff0affU,
  0x9ae56b17170317f5U, 0xcc544838a11a8142U, 0xf5b4fdaffb2508e0U, 0xf7813800e4fce429U,
  0xae0c269e65a97fdbU, 0x59e51d7b8b2fd64bU, 0x400c2c117ffee61aU, 0x1e06022a1937fbadU,
  0x4aedf107f34a3c7fU, 0x62ac33203eea4c0fU, 0xf6ed81001ef4f416U, 0xc3a9ffe9fd609814U,
  0x5495127f1e6f283bU, 0xaa9f44b11e2a03faU, 0x1fb126b6f00fc71fU, 0xa44d0b0420f18108U,
  0x3cbfd6ee1f59270dU, 0x91c3daba7f40de1eU, 0x24cdf3e8bf03d0d4U, 0x52cd0181efe6d09cU,
  0x11b036dd0704e0e6U, 0x7ffa43c8d51abe20U, 0xf4777f130f1d22dfU, 0xa6052110f4233b27U,
  0x5e4f7fa52df15338U, 0x56a18e930f862b8U, 0xfb4e30ae00b262feU, 0x6481cb2b26af5cddU,
  0x2332ead80c8be67fU, 0xba039a9529a5025aU, 0x5e5605cb0a52340bU, 0x321111bc7ffd45a0U,
  0x7f26f0de073dd53cU, 0x5506131af6b4d916U, 0xbe01a4409b06ce3aU, 0xc2812e66df034009U,
  0x1a8f370d5f17e45dU, 0xcc7fc23f26a8c7ebU, 0xa05732617de30f7U, 0x7a7fcc0404df6423U,
  0xceed2068cdc1c97fU, 0x9488d21defd2e423U, 0xaf44a0fbd7b6b881U, 0xa2a4e023db04a9d5U,
  0xff9f8cb544e78e7fU, 0x121b2d2cf0a4f5bU, 0xd1b7348e81ab4632U, 0xb3c2f72c0164f72eU,
  0x19729e11c544f869U, 0x7da5b6607ff71725U, 0x354d0edfc1c382c1U, 0xa981e82a0e37e123U,
  0xff3adf29d224c156U, 0x7fa3d3930dd41628U, 0xd114ed1af8d7c1b8U, 0x3819e0f0fbd58114U,
  0xac793d105cf0110dU, 0x1de78162fc061a38U, 0xd9ec10353daf4266U, 0x367f4a588deb37cdU,
  0x3a420a35de9ff0edU, 0x2537fa23a681fdbfU, 0x7fd3320e2040e546U, 0x5928f89108e2fdc5U,
  0x18b5e60930f02df4U, 0xbd06d108387fd329U, 0xd329e44e065e7f0fU, 0x1e161341d0b61ceaU,
  0xec81ed0e33fa543bU, 0x95e5af130f9f0a23U, 0xa5fcd881fd024dacU, 0xa8cf0d07255ed101U,
  0xf6d3f39eaf2eec19U, 0x9e40373f3b477ff3U, 0x58194355b79d1eaU, 0x233e30df3a62d04eU,
  0xe905c619bd2f812fU, 0xd3f43099385fcac9U, 0xe2ba43272f5be781U, 0x7176e5bf3d9ab71cU,
  0x10da0fbbd581f514U, 0xa1b4f52cc524dd0fU, 0x3acd59d1d4e7c6efU, 0x7ff2ad01d3a306U,
  0xc1a2386939c34517U, 0x601047d78135c659U, 0x43d73fc3b9ffb544U, 0x81fa7fb21d22d1c1U,
  0xffffe99efffffb80U, 0x32c0000047cU, 0xb32fffffd19U, 0x3dfffffdc0U,
  0x90500000120U, 0xfffff1efffffffceU, 0xbffffffd24U, 0x7700000756U,
  0xffffff41000008a5U, 0x43affffffc4U, 0x432ffffffa0U, 0xfffffdcaffffffc7U,
  0xfffffde7fffff3ceU, 0x39ffffff8dU, 0x26effffffc8U, 0xffffff19000005b9U,
  0x185fffff6baU, 0x5e900000120U, 0x5e800000111U, 0xfffffe0400000516U,
  0x46cfffffe19U, 0xfffffe8500000216U, 0xffffff8d0000068aU, 0xfffff8540000019fU,
  0xfffffebf0000028fU, 0x202000001e2U, 0x1790000048aU, 0x1ccffffff6bU,
  0xfffffc730000025eU, 0x56a0000072eU, 0xffffedb9000004b4U, 0x13900000307U,
  0x201ffffffd0U, 0x4d400000604U, 0xfffffd5300000756U, 0x66fffffeadU,
  0xfffffbb200000288U, 0x32ffffff1fU, 0xc7ffffffa32U, 0x1fd00000104U,
  0xffffffd800000f80U, 0xedfffffd8aU, 0x8e6ffffffc0U, 0xffffffc0fffff9e7U,
  0x38ffffffc14U, 0xfffff618ffffff8fU, 0x15cfffff841U, 0x1db00000046U,
  0x1b23107e3fd0ae5U, 0xfc8ae181f0c6c211U, 0xd334e2e2b5383b1aU, 0xb335f439dadb8c4aU,
  0xba2e8dd01f7d8U, 0xb570b1c3e99ff9f7U, 0xe81a0981e55181edU, 0xa3e67fef3be0108bU,
  0xa31e66da2c97ddeeU, 0xf0badac71e1e11ecU, 0xbf40fc2e814dddcU, 0xba2a00dcf214cd59U,
  0xec79cd6c21b0b9bU, 0x3c4881a8197fa8f8U, 0x11edf4fe81e57f3dU, 0x4ea55e3ed0a5bcedU,
  0xfd78aadff655a6b0U, 0x8dfd818b9ef40c7fU, 0x81e501f7ec7fa1efU, 0xceea65811ca604b2U,
  0xca6c8f81ee9071a2U, 0xe5edece21ef7e955U, 0xed285edccd4e8390U, 0xc23d7f4d0781bd7fU,
  0xfd5881eaf3fc140aU, 0xece910cfed0c91dfU, 0xdc2ddc002c2b22d1U, 0xd69fdafdfda77f27U,
  0xefd1e7041b37e9b8U, 0x97b59ac8e7090f2bU, 0xaf1d2439dc5dba00U, 0xe43012e063dedc26U,
  0x1a4d53c1beb667feU, 0xb881f0fa0ccf24b9U, 0xe10064d30921e6daU, 0xdce7302609e70349U,
  0xee0c915de023c98U, 0xf1ae14d505409c7fU, 0x2a680d27e20b9ccdU, 0x19f61f4e991093bdU,
  0xfbe2bcde810f0d31U, 0x277fa8ee7ff709d4U, 0x24b1e5471648ddf8U, 0x3b13da1b5e8c99bU,
  0x8116d4ea0d19b94aU, 0x45edd9d000d7f92U, 0x240fb2a1ef3541a6U, 0x74cea23cf5e681ffU,
  0x7f7f707fcee37f81U, 0xe57409127f4a7fd6U, 0x137f7f7ff3817258U, 0x3087f778127dd5aU,
  0x7f6e7f7fbbcf7f7fU, 0x81ab1a7f78077f43U, 0x881d8457fed1b7fU, 0xbc323014857f437fU,
  0xfa7f7f7ae528449aU, 0x81627f987fefb07fU, 0x3981815bee81087fU, 0xe281d7297fc53f50U,
  0xf766cb2e1ccf12f4U, 0xc5f292e905df60efU, 0x8144e8ed5d10c2dbU, 0xc0811021e8172dddU,
  0xf8ceff00205ddadeU, 0xb3cecbf5c3f4ee03U, 0x10e718e5bafd03edU, 0x55081ac74ac88132U,
  0x1236f0e4cfad19a1U, 0xd50ef1df1bc3ee1fU, 0x25553a441b1b8188U, 0x8104e27f16cf5926U,
  0x541400425aa52a8cU, 0xc3a339e50311b423U, 0xb9250729de1f1c81U, 0x1432c3471c3ede66U,
  0xedfee213e8eaf734U, 0x2272f7b751e921c3U, 0x5dccb02deb807cbU, 0xf2810feaddab5c1dU,
  0xd2fb05af192b8131U, 0xcbee270a0b73b8U, 0x144ee6ee20ffe9eaU, 0x3b20fef1f640be18U,
  0x16ed31f7f8125c8U, 0xb9e250e20cbbb51bU, 0xc749133ce9fc12a6U, 0x7fa9247fea7f167fU,
  0xfa81f60afd811e31U, 0x3bf8f091e78197ceU, 0x2ba381ec05aa25daU, 0x7f18281781fafb20U,
  0x121fe60c81289b7fU, 0xfe95ea8106c357c6U, 0x7f07bc815fd5f0eaU, 0x4d33de4bfb46f938U,
  0x245d7b12ebccff38U, 0x8181dae2fd94a0e9U, 0xd729fad509165cf1U, 0x8f0a418060177c9U,
  0xefbfd60c300cf7e2U, 0xe5e5ea04c1c4f5d4U, 0x3007e618c7b5f4ceU, 0x60f205fe2fcd1e32U,
  0x816d5e8dc8110d6U, 0xe9cbed170b81ef26U, 0xffcd09c17ff496d9U, 0xfa022f36ec256507U,
  0xfffff9b8000016e7U, 0xfffffd6600001ab2U, 0xffffffdffffff33bU, 0xffffefadffffedcdU,
  0x1473fffffb70U, 0xfffffbe9fffff61eU, 0xeea000017c7U, 0x14f500000e62U,
  0xfffff13c00000a9cU, 0xffb000001feU, 0xfffffd10fffff403U, 0xd0cffffd0fcU,
  0xfffffe64fffffb14U, 0x207cfffffdaeU, 0xfffff008ffffcf69U, 0xfffff6600000142eU,
  0x3cfffffdc0U, 0x867fffffdb2U, 0xd45fffffa64U, 0xfffffadd00000d84U,
  0xfffff9a0fffffbe1U, 0xfffff89700001740U, 0x1fbd0000146fU, 0xc1bfffffc0aU,
  0x15c200000265U, 0x32bfffff892U, 0xf70fffff979U, 0x7800001ac9U,
  0xfffffee0fffff578U, 0xb0a00001168U, 0xfffff95b000019a1U, 0xfffffc9900000679U,
  0xfffffa13000000d7U, 0xb2800001b97U, 0xfffffda900001073U, 0x1026ffffde81U,
  0xfffff1e10000049bU, 0xfffff60a000010a5U, 0x33900001304U, 0x153400000805U,
  0x18e8000018c9U, 0xfffff21afffffefeU, 0x4150000122fU, 0xffffed12fffffd5dU,
  0x9b2ffffe5caU, 0xfffffcae00000321U, 0xffffff00fffff485U, 0x9a9fffffe55U,
  0xee3b121845275b34U, 0x3230ef141b452f15U, 0x84415cbef789eaaeU, 0x4c027125ab8c524dU,
  0xfb605b52fd3dc52bU, 0x292786dd5cf7570fU, 0x1ac9ceed56ed56e5U, 0xd620115b02311d3fU,
  0x3010319adc0440f4U, 0xecfbe4f8dcbd2f0dU, 0xbb812a6a0071b311U, 0x3d0da3d31e2659c3U,
  0xd24e58baff2812bU, 0xd2db46eed9c9e1cfU, 0xe31052dfff3d01fbU, 0xd0f5a33f090219b9U,
  0xed48d9a2fbbad207U, 0x1ed6404fa75fe215U, 0x34080cecd8f6dcbfU, 0xefeb5531fb49dd1fU,
  0x4443c3f40cb02dd4U, 0x2ec6ca13b90a38e1U, 0xb566b618f5f53425U, 0x81a72c880afcef1aU,
  0xd9f82afc52b600d2U, 0xf506c1992decd11fU, 0x2f151b1118f633caU, 0xd34747cea7d412bcU,
  0xf416b324de4a32b0U, 0x3cf3bef0b0f2832U, 0x5db8df3e08d6db49U, 0xfe071ab9de071129U,
  0x24acfb2f4e815e53U, 0x2015e6cc23dc1b5bU, 0xec08d6f59ad8ef1cU, 0x271ae24fd0ebe8f1U,
  0x472e0db5f629a644U, 0xd2f4dfaade1ceb0dU, 0xee1d1211a023cc27U, 0x1951b4ea47e8de07U,
  0xb4a81ae5d92ada04U, 0xea0b0122a01d81aeU, 0xe366fef5fb291dceU, 0x1f231043f252e22fU,
  0x10262a050e08c5ecU, 0x33cadd0ad1dd16bcU, 0x151518e2dad2bdf2U, 0x44f32c32282c0a0dU,
  0x95fca807cd5507ebU, 0x122ec547f037c4d9U, 0xb09ef4315b331e9U, 0xd101b4ec2b0bf1ceU,
  0x29422f47fb0aeb15U, 0xf7073bd6f02ae434U, 0xe4dbfc9df30423f7U, 0x1307053ce525b5d4U,
  0x4f05e01846b9f2cdU, 0x5d0aea7f5f20061dU, 0x44dd02ed1e081eeeU, 0x3ceaf451ee03227aU,
  0x49e8c6f641d781ddU, 0xc5359ceae51921f3U, 0xe3090cbb604a20ceU, 0x251006b8c1d51b4bU,
  0x99c110d1c0103fc7U, 0x7fc16ecd1e5f403U, 0x3df00dd89e2de8aeU, 0xed4135e81bfd17e9U,
  0x203d3be43489fddeU, 0x12b3028bd6ade649U, 0x32f505d7ebaf0fbbU, 0xc4c011972deaede2U,
  0xc825e2f9e14253d0U, 0x2161bcdc22fa4541U, 0x13b9e3093f2e03eaU, 0x246014c0ea1d39d4U,
  0xf30ee710e432ffb0U, 0xc9f8c6ffc5391341U, 0x9140bd3d8ef68dbU, 0xb81c81c9b8a3da1dU,
  0x2bebf576eed927ecU, 0x71e1263428fc1757U, 0x261b2f22338b00f7U, 0x5bf7c832d714f521U,
  0x1246bb4c02f348b9U, 0xefd825f425e3b649U, 0xd537ef1fee140beaU, 0xffec272e12d70f61U,
  0xe5e8c831faebbe29U, 0xdb1ad7c57f0f0629U, 0xf2e6dbdff5d40fcbU, 0x5d51926dbe02c1cU,
  0x22df15d718d41cc0U, 0xe4c029241cd21925U, 0x3eef060c19effe8eU, 0xecd2c40bda30fd1eU,
  0xe13ffc374723d5fcU, 0x550e1ce6be7b464U, 0x11ee3e611043bd0U, 0xff05001ce02cf459U,
  0x6746da230fb0ce26U, 0x2c15c22f28595833U, 0x26d2002cc6203ec9U, 0x5a8dfeb6f2867807U,
  0x5e47f10e50c041eU, 0x28de0c0f193cf23aU, 0xf6bb1c2ae9da3645U, 0xe0c0e316b0f8a94aU,
  0x2367cf141fa56f0cU, 0x70009ca49eab26cU, 0xf10e212914fc3aa2U, 0x252c2e1009e316feU,
  0x1f6cf1372ff3e2e3U, 0x3c260984f8b5c77fU, 0xeab6fd091951ea2cU, 0xc6cf0e06930be118U,
  0x180f11271c1248e2U, 0x27c94655261be6efU, 0xc9ec17d8f8bff809U, 0x151ed04f2347d4f0U,
  0xfa3620f714d51403U, 0xd31fb600df0efccbU, 0xfbe7d73651ed53a6U, 0xce35d71a12ed0bfaU,
  0x6d53177c3c5ea6f2U, 0x26cfd4cde3083125U, 0xe8f39eecfdd73ebeU, 0xdf492ef7c5482ffeU,
  0xde322cd7061732f9U, 0xaea31365b05efe5U, 0x35eb7fd92049cb9dU, 0x4b03be4cec3a51dcU,
  0x9f2f0d72d0deb1bU, 0x38d1cfefaf03f7f6U, 0xd8d555b9c3bfa1eeU, 0xdabbec3303ca13c6U,
  0xf452ccda301113dfU, 0x36323ae2ff3e1e16U, 0xe25b30d053461a2bU, 0x40f41355c227dd4dU,
  0x34d814fcbe491adbU, 0x18e9c3c381363eecU, 0xa72efd760c48ee31U, 0xf32d1e8de139b4afU,
  0xf12b152e26d409e5U, 0x33d921ed4a01910fU, 0xe7f35a22150b3248U, 0xeaed31f9b8ce23f3U,
  0x7f16d626dde909bdU, 0xcdcb02354dff0a1bU, 0xe8ded91a05b1bf10U, 0xf8140fec2bb612e0U,
  0x18c936f0f9e64408U, 0xfbcb0de1330f03ebU, 0x24dae49e22ea3b2dU, 0x4712004ce21610feU,
  0xaa50aa1324ebf22U, 0x3ae6ba4cba5b29c4U, 0x5ea35c8c72b814eU, 0xf4b0b462c2a22f7U,
  0xf1b7c601324e52daU, 0x4de8080acf2ed1e5U, 0xf1dd0212e23b3907U, 0xc91f4446f1e317dfU,
  0xe70fd143df171d11U, 0xfed9954a51ffcb4U, 0xe94bef3206522ab3U, 0x11c4fd73669eeb2U,
  0x1f2708aa722828d1U, 0xcfd0e3a5bffee04aU, 0xd30545f162150859U, 0xf322e32f157fd870U,
  0x373bb44cdcbd2905U, 0x31d2270134f10818U, 0x30d9b2ed19f9006bU, 0x5abf2eb6461b2a3fU,
  0xf1b93d3a2e129ebaU, 0x3213d61f466054fcU, 0x4de81bbde7975528U, 0x31381840cefdbe48U,
  0x261c2afb0dfadc6fU, 0x5df33533c2f5db89U, 0x12cb08bee3ffc0e6U, 0x35f5241122fccf0fU,
  0xb626108cbb314649U, 0xc81d3a24cdbbc1f5U, 0x3c374305f6edbdd2U, 0xd353ebe307f81134U,
  0xe20c9f2c500537fcU, 0xc80cfa20a41ecfb8U, 0xc3ffb29528b6fb41U, 0xe81cfe2c2e01af81U,
  0x2d78ffffb604U, 0xd50000017ecU, 0x55f6ffffbb38U, 0x464ffffdb2eU,
  0xffffd12cffffd276U, 0x924ffffc0abU, 0xfffff6b4fffff1feU, 0x2685ffffb15dU,
  0x4c028e76cf961f25U, 0x6159cbd68d21f37fU, 0x546cf6377fe5eb9bU, 0xcc6dbcab99b83aedU,
  0x3cc9e2e2f1eead81U, 0xfadd0eafefffb9b0U, 0xe2a800e57fc0d8e4U, 0xb10b2a33da152c42U,
  0x306c3d931021222U, 0x819c1afe09988b89U, 0x2e144e817360c8f0U, 0xed54641fd6da10fbU,
  0xda81e2e107e0a7caU, 0xe4159e02a00ac3eU, 0xb32ce3c5dba936fcU, 0x1c1181758353c762U,
  0xb995a74eeabd84fbU, 0xf6819055bb4f5f18U, 0x2a702994aea32a5fU, 0xa3c2bc4252fc7fa0U,
  0x81fcbd36d61a1610U, 0xf6f1b0eb0928f8e7U, 0x31d18111119be906U, 0x41f0c624a804092fU,
  0xfd35f811c544daf1U, 0xbf81e03dc20b1848U, 0xfe73a3290cacf4d1U, 0xe7497f0f3d06efb4U,
  0x8c7f8a3fa51da0bbU, 0x5c14b635573ad962U, 0x51ad2319fa15971cU, 0x185b4a9c815dec44U,
  0x1cc87fb113d00a93U, 0xdd2b09b5ff03f6beU, 0x2c02eb3eae2bd57fU, 0x10dca20cae365faU,
  0x81ea1c3c06d40f0bU, 0x2fb5d918bf2fb1dfU, 0x813848d154d8ca50U, 0x17fb3274cd14b63eU,
  0x812dde094d13f763U, 0x606a52be70d3fcdfU, 0x1a04d72afd70f77fU, 0x8b4504627a372705U,
  0xb97fd8bf8732dd1aU, 0xd6c641df550dbf06U, 0xe7ddc820247ff6e5U, 0x20eb0488e00704e5U,
  0x253f8155e8157784U, 0x3bfa79e4d9d8094dU, 0xfdfed36c0e8367cU, 0x4e4ec7f1941fcd6U,
  0x300c8145d22c2843U, 0xeb75cf22f4ed4f18U, 0xbbe46d28d9df7fc7U, 0xaabfd2fef9472c13U,
  0x4e1a147ff7233b03U, 0xcc906f0bf90803b4U, 0x8106af04253bc3f0U, 0x6e27da05e0d0e8fdU,
  0x6ad9bebee909c419U, 0x812c242b292ef82bU, 0xf287b4fa7fe45859U, 0x542dbc2c8d9e40bU,
  0xf0c4ceea40c6257fU, 0x5e116b710f7050bU, 0xbd16e319dee72fe6U, 0x7ffd8ad30e23acdcU,
  0x9fcd7fb8c6dc6bf9U, 0x8ca9ebf529cac12dU, 0x9f7f3aea54afa65aU, 0xdeb8ce041006b124U,
  0xb16382045f87fd7U, 0x2accfce7da46d70bU, 0x189d3081fa375bdaU, 0x150a66a6ca45f977U,
  0xeeff078d601422d2U, 0xeee874e35381bbd3U, 0xe4a821b816a6021eU, 0xbba90f01497f4bbbU,
  0x22c73bc8467fceeaU, 0x7347f80dfdd001e0U, 0xba8e032c4e0bfac5U, 0xd31edfb376e811eU,
  0x92e7fff49211a2eU, 0xeeeb000512e539d4U, 0x22437f0e0d14f616U, 0x2612ece6de9a2bd9U,
  0xc0de81baf6aaaf35U, 0xef25ff537637e039U, 0x191bd5fb3c51c315U, 0xb0350a04fc1e4c81U,
  0x121005e7bb2981faU, 0xf1c4cc04de2cf029U, 0xeeadc612f281f228U, 0x4235e00f6ea14fb6U,
  0x272a4981dee1cef5U, 0x200bffe4c917e1efU, 0x81f0e323cade4ee2U, 0xd393fa1826bef2eeU,
  0x61e256befd7f1698U, 0xfced11d4fb5fe5ccU, 0x812d6c2728f22620U, 0x4732c3e2b8c40b44U,
  0x13d002be2b08ef03U, 0x81c34a822d05d390U, 0x43ecfe2e63e08f6cU, 0xe828d315ca21a67fU,
  0xdf16d5f55d00c981U, 0x2aa9e53b11411440U, 0xdbf42344fa4c815fU, 0xf64dddab7a33d6c0U,
  0x11c416d7a8a6b47aU, 0x7f04b71601e4352aU, 0xe81220def3f181e6U, 0xdadb96134fcf4599U,
  0xdb2ade1c2e4a4db9U, 0x1708ef87feaead81U, 0x7f1ddc1b0c1c45beU, 0xcc21dfc1cedd9f97U,
  0x8c299f0338f6f0d1U, 0x24d8b6e5f9fe837fU, 0x1fd3275f24acf374U, 0x812501cf270176e2U,
  0xe7593b377b3759c4U, 0x180ef223c7818921U, 0xec42623d1bda735cU, 0xc4f8e61751f97fbfU,
  0x19e917e5811fb214U, 0x94c8be04f9271519U, 0x1dee7fc2c1a01dafU, 0xd018eec0d0b8e996U,
  0x573aedb0de75c428U, 0x815b04e630ebfc2cU, 0x2e12114326bdb047U, 0xe0e71fd340d54781U,
  0xd31721fe14073de8U, 0xcce9035dd67f3debU, 0x20400881d1d3d1cdU, 0xf7ef0a191ddcf525U,
  0x56e153fb7b25164eU, 0x7fbf69a058bb39c0U, 0x2f4485bacba925eeU, 0x432d0b4e811edb3aU,
  0x344f09177e841adfU, 0xcc0b6312e9de0b81U, 0x19f015e808aadc68U, 0x2d18e3f828ca7fe6U,
  0x81119b13fee5b856U, 0xf80dbaf90cccd316U, 0x440906d49f17dd19U, 0xb05206ccfe5e7f36U,
  0xff96f906063432c3U, 0x1e3a7d819bfff1dfU, 0xc17f104786594e33U, 0x91ef12ef9f74205cU,
  0xd1cbe1d54fabb7b3U, 0x1d62a7fc1ef151cU, 0x5381e912f0de2011U, 0xa08c95cf913de76U,
  0x1369171ac4e7fe81U, 0x20c52eb302edfcb4U, 0x503537ff4a03f101U, 0x3bd54932ceb04b81U,
  0x34202f4e30d15b20U, 0xdf631c1fc381dbecU, 0x3d81bdbced9e28c2U, 0xf436641af5ebb94cU,
  0x2c6c12e09dc20a81U, 0x48c50216cc35ec5dU, 0xa2c1306ad3a45f32U, 0xcaf03b5c8155ec50U,
  0x1c2f8f02bec12b8U, 0x1b26740581cbb546U, 0x36781f11715f227U, 0xedb42d4379c832ffU,
  0x4d29e7d7ba0bf5beU, 0x81f4111c111016ecU, 0xef328d42a353beeaU, 0x81aa75a7e61957caU,
  0xdbc797e4b342e537U, 0xf0c4247fdc1900f9U, 0x2d3fbbdc98127a3U, 0x3243dfdacde9161U,
  0x18af4e5b03f317dbU, 0xca0c5dcbc781fce9U, 0x21f109d7497f37daU, 0xe2fedc018c9b215U,
  0x22f3e3039b7f3ecfU, 0xe17c60fcfeafe6ecU, 0x6a19b61e143adaeeU, 0x98811d6234dd6c05U,
  0xfffffe98fffffeb6U, 0xfffffabd000001e4U, 0xfffffc8e00000172U, 0xffffff2efffffed0U,
  0xfffff8fcffffefcaU, 0xffffff13ffffff43U, 0xfffffc88ffffeea1U, 0xc400000071U,
  0xffffff52000001cbU, 0xfffffd19fffffd13U, 0xfffff8baffffffeaU, 0xffffffa2ffffff54U,
  0x7000000191U, 0x472ffffffccU, 0x19900000226U, 0xffffffb8fffffe89U,
  0x335ffffff49U, 0xfffffd4f00000013U, 0xfffffb9e000002baU, 0x2b50000024aU,
  0x1fc000000b1U, 0x2240000038bU, 0xfffffefafffffbf3U, 0xfffffc78fffff11fU,
  0xffffffc1000002a6U, 0x568fffffe5dU, 0xfffff92ffffff818U, 0xffffff04fffffe6fU,
  0x359fffffcc5U, 0xfffffecd000004b0U, 0xfffff9ac000001e2U, 0x23000000dfU,
  0xfffffc9ffffffea8U, 0xfffff8c3fffffb28U, 0xfffffd5f0000016eU, 0xfffffdd4000006b0U,
  0xfffffc1bfffffeceU, 0xfffffc0afffffe64U, 0xfffffb37fffffd53U, 0xfffffefa00000075U,
  0xfffffbfcffffffdeU, 0xfffffea1fffffa33U, 0xfffff4fcffffff90U, 0x38cfffffec8U,
  0xfffffe670000008aU, 0xfffffe6afffffe41U, 0x62f0000023cU, 0xfffffaf100000137U,
  0x81762b37249eef7fU, 0x3f6e33fe23d049f2U, 0xe381f6ffe4323226U, 0xdd36ca3aa6fc07deU,
  0xf2edb77cc41ae1b8U, 0x7f004a8ba2a1810cU, 0xe4eed000c78defb1U, 0x1bef0f0c2dbd4be6U,
  0xaae14e2732cab805U, 0x9f10ec9c09c41f12U, 0xdbf8ffede64e1a04U, 0x8ff5027ff923812dU,
  0xf0777f328d818122U, 0x255517f23ac0b238U, 0x80b1d7f142f007fU, 0xf47f09aef5f526eeU,
  0x18ad8175ddc1e22fU, 0xeb0c31729cdfb50dU, 0xa895cf6181a7b281U, 0x65e811027f81f2a4U,
  0x20bea7fbbfa8110U, 0x1e8a34c546a97f6bU, 0xcbe60c0ee0c8817fU, 0x8381fdf3d06eead3U,
  0xa4033cee268cf12fU, 0xf3cde7fc58d365e5U, 0x6fb0e0dda81fe0eU, 0xc21f1fc09df1c20dU,
  0x8edcfeef584fb1dU, 0xacf70adfc4bdf10cU, 0x882f3d34f3f61316U, 0xe7c0071c1beb04d4U,
  0xf197483614ac83fbU, 0x413a10da0791f634U, 0xee0907fcf30ac71bU, 0xb6d3f7f3eb094cc1U,
  0xc07f7e7f18b3c979U, 0x45b37f0effc14769U, 0x8f0b1a0ce39ad905U, 0xe0e18119d30136e1U,
  0xdb95b17fea670bb5U, 0x47247f6ac085ab11U, 0xcf453110ccbbd307U, 0x7fc622eb55ce11c9U,
  0x81d9bc152c7cb91dU, 0x81cc1fa9fda13d30U, 0x810c1785813de5f8U, 0x81f60b3c417fc143U,
  0x37e4bee4ac71dfd2U, 0x812ebd7f7f7f8171U, 0x3347ff23da21accU, 0x7f2a3be07f7f7f4fU,
  0x7f2cdaef814b7f29U, 0xd27f8567f27fa781U, 0x8181e20ff4147f65U, 0x88e98181efdf81d7U,
  0x447f81dd8f2e7a7fU, 0x2a817f3b06d74781U, 0x6077f355981f511U, 0x31bc81e7f4442705U,
  0xc9ec2ba603bf4e1cU, 0xd6160e064c03e55dU, 0x9fa22ff1e88b8faU, 0xf0da38e00202121cU,
  0xefce8d050881bc34U, 0xbc0cad81f8f00613U, 0xca227f15d148e889U, 0xf1b02c05e9deffc0U,
  0xc8f543dbf766e40fU, 0x231dfe4744cbf814U, 0xc4022f6e24f6bef5U, 0xbb08efd21e265081U,
  0xdff80e359884f23fU, 0x44e86a0528ef017fU, 0x81a411ebc1f907dcU, 0xc5bfe501bc16ed81U,
  0xde0fba609841eab6U, 0x65f9f8efb4d4c023U, 0xe4fab1d310e00305U, 0x4bd114fcf79d35adU,
  0xf19eef127f04bd07U, 0xc7fa0b81452a19ffU, 0x162a0981be66e4e9U, 0x9e1b21fe3e41d84eU,
  0xa4ab3be27f71460dU, 0xe5100e1311071e7bU, 0xf5b120dc05f281eeU, 0xc712e77f071c08dfU,
  0xd37f9c18d53fad81U, 0x5182cab00b6b8f4U, 0x9834de81f23ac301U, 0xe68135fdbeac1381U,
  0x81dcf61457e2d617U, 0xd3db231a7f66eee6U, 0x837ffedcff4bedddU, 0x101ef4df7f56a117U,
  0xdcf105cef6e82e21U, 0xef7f0608445db3f7U, 0xdcc51df17fc4a2e8U, 0xe2ec5046cc18d1d7U,
  0x1211b96413cdaad3U, 0xfffcf12281b9fd16U, 0xa01224b6fe7f23bcU, 0xafcc0403cdcb0bcfU,
  0xb2e638013581a000U, 0x9c4b0d49597f1bfeU, 0xe30306670e5eefccU, 0xd902d1d632d7c2bdU,
  0xfffffdb4ffffe09cU, 0x29800001aa7U, 0xffffec7f00000312U, 0x2116fffff186U,
  0xffffff49ffffea3aU, 0xffffd343fffffb6fU, 0xfffff5fffffffa59U, 0x541ffffecebU,
  0x1282fffffd46U, 0xfffffab200000e6fU, 0xfffff3f8fffffbfdU, 0x8bd00001058U,
  0xfffff5940000088eU, 0xd9ffffff1bfU, 0xfffffa27fffffaa8U, 0xae5fffff917U,
  0xa000000b8eU, 0x109d000002b5U, 0x18b6ffffd706U, 0xfffffd9b00000138U,
  0x247e0000011dU, 0x24c100001b81U, 0xfffffea1fffffc78U, 0xfffffaa2fffff9d8U,
  0x13f00001432U, 0x1846fffffc77U, 0xfffffa0affffff89U, 0x2f9c0000078eU,
  0xfffffecd00001ca3U, 0xfffffe8700002509U, 0xfffffdb100000a67U, 0xfffffd5e00002afdU,
  0x18d7fffff2cdU, 0xfffffcbafffff9bcU, 0xfffffeeffffff0deU, 0x1f6500000e71U,
  0xffffeeedfffffa88U, 0xffffe908fffffd3eU, 0xfffff2da000009ddU, 0xfff00000c86U,
  0xc34fffff9e2U, 0xa95fffff893U, 0xfffff77bfffffa30U, 0x1d24fffff589U,
  0xbc0fffffd1bU, 0xffffeffdffffd41cU, 0xc01fffffcbbU, 0x129b00000dd8U,
  0xf8d44e390be0f0faU, 0xc8c97f1006feb5ceU, 0x5f72ae1f50d28eaU, 0xf3d01d31fe09e211U,
  0x6f2d312154c15fcU, 0xd0ff3bea17edd4f5U, 0x10dcd31cfc230da6U, 0x611fe040dae0e0fU,
  0x2ecfe106fab0eddfU, 0xbdfac549d70e2053U, 0x185799ed2fbfa223U, 0x3d012344cad5407U,
  0x9ead25705ebf9d0U, 0xbe08041e06e71908U, 0xe5c441eef8f8c61bU, 0x292aa21631480c12U,
  0x36f43cb70edcb944U, 0x2d270b2a38124e22U, 0x96fef6457f03be91U, 0xff210c480bf55734U,
  0xe70137025915eafdU, 0xa06360e03f5f702U, 0xf8e52b3bf4e0321cU, 0x14f538eaec261efbU,
  0x3028ecff2d0e2d04U, 0xf3df222f4b9bf6e0U, 0x2902210320e10b1bU, 0xd622cef95c131deaU,
  0x417dd7cb1bf0c153U, 0xc3cf57fc0def4b6U, 0xd73f5c0cf7c2174aU, 0x1c1fe011bb1731ceU,
  0x755f4f2e156ee52U, 0xf00082047d4cee2U, 0x951a4044e3fc01cbU, 0x1f0b2a1b12dbe82bU,
  0xb608fdbc4e2ecd0cU, 0x22d1f9d50ba532f0U, 0x12d2cf3aef4642f8U, 0x4f4837f20c2d1203U,
  0xb7f60690fbd2cefbU, 0xd8b112cf3c5dedc7U, 0x9e4327d50c1bebfbU, 0xd14be127c5e42f38U,
  0x25c620dddeefd9U, 0xe80fec25f2c50bb7U, 0xc8b3e6a63281daebU, 0xd8e6d283b92cbb19U,
  0xa9f8ea1affea01f2U, 0xe71b5814031f292cU, 0x18ca3110d13f29f4U, 0x4540fa12feedfd17U,
  0xf8edc41ed0282757U, 0xc80b0b09277f6c38U, 0xd6350e3b66032406U, 0xd1e1b1220a0220e1U,
  0xde180affd1c0ed4eU, 0xfcd7f6064ec825ffU, 0x3be5de17e8eb22e9U, 0xe60119c20b51c115U,
  0xf9f5efc1c41a1decU, 0xc809f2641f3b1021U, 0x25f81ed1d926bbd4U, 0x3d390ed6372541d4U,
  0xfaf0ea2d30eee4f4U, 0xed3cc27f503932bbU, 0x2488bfbc3516e4e5U, 0xd5018beac08e6a3U,
  0xc3282453f70e4141U, 0x4aff4922241cf3eaU, 0xbebf0c17020c10f1U, 0xd7e607ece7330c00U,
  0xffec0edb155a14e3U, 0xd3f09ec4cdecdc99U, 0x2b20810bf5c729e3U, 0xe91af527f6059416U,
  0xcd412afcf514e12bU, 0xd9a9d204d80fd5e9U, 0xeaea43352bf6e622U, 0x313e2befd50d301bU,
  0x29b1ba0515d72dbfU, 0xf502df16efe3fb0bU, 0x33d9051c1a1fd4e4U, 0x10faf317f58e32d1U,
  0xd9001bc8301a967fU, 0x157e2587707f24bU, 0xecc847492ef547d7U, 0xbce104a6314501a4U,
  0xebef1ef1e610b9d8U, 0x5525a557e60d5132U, 0xf17f3488acdf3f7U, 0xf7d3c064da19bd8aU,
  0xbcfa32fcca43154dU, 0xaff70f49352238ddU, 0x47ec62e5f3032d1cU, 0x7b160df015ce2921U,
  0x19f43611e4de0419U, 0x726fc271e5ceddbU, 0xede8d8e416e5322eU, 0x423304515adffb18U,
  0xdfe1408d5f0ca46U, 0xe3b44603efd63143U, 0xae038f1cfe37feeU, 0xeaf31d081dcd2326U,
  0x4d11cfa2621b2e5U, 0x632a19e6d92ccf2aU, 0x19ea3b0a1c17f1f4U, 0xfbf7db350705c231U,
  0xd565212bdcbefc14U, 0x35c70ffde402ceebU, 0xf0d727ccf631ed0cU, 0xf035e0f6d7ff20e3U,
  0x18f3b5e008fcbe38U, 0xe0ebd6f4376afa09U, 0x290702550035ccf7U, 0x93c1cd063a0d9c18U,
  0xd0fabbc3d9ddfd32U, 0xfffddfa4e903dfe1U, 0x3d1910f581080417U, 0x1eeaf5472b3a0b0bU,
  0xd4264f6ceb555804U, 0xd0ff3444dc2909ebU, 0x3cd61d27104e9590U, 0xe3666314361060d6U,
  0x4dda2133c42d0045U, 0x116b366ba9febd50U, 0xccf0eff02044cdf0U, 0x273adc47944dfdddU,
  0x46a7a6fae3e6c852U, 0x18b365174ec32c35U, 0x18ea7fabd006ccc3U, 0x15605c281e3e440eU,
  0x384ad926f83c0623U, 0x1f161fad743ea400U, 0xf2f07225ae46bf26U, 0xe62dab13487e329bU,
  0x44ddea21e2fc4048U, 0xd1f2c029d8e44a0fU, 0xc3bacec215e234bbU, 0xfd52ece9d8608c55U,
  0xf2bcdd6e48197342U, 0x15c35f155734237fU, 0xac9849efd830f518U, 0x1b6571e5bc36c01aU,
  0x582046fef4c9e910U, 0x332615e627b4d6b7U, 0xe130d505f727f15dU, 0x1be1f810410105fbU,
  0xe2ef240d42bdbbbcU, 0x48113eefcccc2e2U, 0xc02130eef2e03c1U, 0xde25fed9e9c8ed0aU,
  0x56bfe3c4233db7a9U, 0xced0c4edc8d943f0U, 0xe7e8bfddedd9f802U, 0xf8ce1f2cd1c4d3e0U,
  0xbb600ab70322df0bU, 0x6309f64f30d0c319U, 0xebe8c61e0be7f6b4U, 0xe7260d0e28cd3566U,
  0xfd441ce803f81d3cU, 0x250090b0b0ecf34U, 0xde821dd01070550U, 0x314e2634ca7fcfacU,
  0xdc46004b13f35234U, 0xd8f04f57001f01cbU, 0xed253ec13f1161cU, 0x1c4122cd35650919U,
  0xecd820dc0fbccf43U, 0x414ad0c4d324e6c6U, 0xe7bdb4eb35d53923U, 0x26e526dafddaf304U,
  0xb543ad554ab9ad27U, 0x15b9244e2a1c39f4U, 0xf627e761051034f5U, 0x33c6f8d718032034U,
  0xa12d78d3d9e2ba81U, 0x2c4ef207feddd80cU, 0x1a2aee2329cfdbdeU, 0x46ffbf27490717eeU,
  0x241c16bd1ee3dbdeU, 0x3e513383f28e37fU, 0xe8d303a5362cbdf4U, 0xfaf94619cf030708U,
  0xbb1930f7dacf51f5U, 0xfc1c27cb2912e81aU, 0x200f02d81fced8f6U, 0x4182bd5fae40741U,
  0xde0ddc3c1e041629U, 0xe6f33f08282107f3U, 0xd6f01fd625ab0910U, 0xb7e901e7f056fed9U,
  0xffffc3b400000350U, 0x363bffffd58aU, 0xffffef72ffffcb35U, 0xffffeaf000002359U,
  0x152effffd4e3U, 0xffffb6f1ffffaac4U, 0xffffac9300004254U, 0xfffff5cf00000113U,
  0xa91d4b0222df03abU, 0x2fa1f4c7ec498112U, 0xf1c3ca29d21981d3U, 0x34e1fcb4f2eaebd8U,
  0x44dc1f6bbb861f25U, 0x816215e453ef67a3U, 0xb681bc31fa11466eU, 0x89ef009973300511U,
  0xe1e29c2add5d12aU, 0xf635c87ff6444f1fU, 0xdeea2af35a7fc6ebU, 0x44fcdf2e7e039b9U,
  0xcc01f7bfe73482ddU, 0x26117f8aa9dcf9ceU, 0xb73f83c0cbc50552U, 0x1fbaf67f08988442U,
  0x147f09d6d2c0f7d4U, 0xd83638ffc81af0d6U, 0xe9d4c71e6abd5c4eU, 0xe7d22e401f64117fU,
  0xe47fb9f39dd8b10dU, 0xc0b6b0cc3ddccc7aU, 0xd7627f42d9f6acfbU, 0xe62f288462e218c4U,
  0x1c4cf11927c7cefbU, 0x230a7ff0beb044c0U, 0xa27f48ef20f72651U, 0xe4209fda27e9d1dcU,
  0x232d269a2419b281U, 0x3487e1c4fee5daecU, 0x99fe805bde81b19U, 0x6472ab813fa31db1U,
  0xd908ff3ca324fb15U, 0xd248b8b47ff2e9e8U, 0x812609c607f3f2baU, 0x210744400b3dc82aU,
  0x9f6c6cc0e0066c7eU, 0x3d8142d31123f51dU, 0xa00de11f55f31cebU, 0x593ff77f42df1825U,
  0xe9d3073b7f325218U, 0xf2d34c7f9e8d306U, 0xd6df332dc0df9522U, 0xe581bd4814d0e637U,
  0xd0cf1b28434c4b59U, 0xff3f962312817fc1U, 0x93ab15fa7f25fd51U, 0xfb36dde8c991f7dcU,
  0xb9d3e9071ef87fd7U, 0xd0ef226aa5a4051aU, 0xde0deca2fc12da39U, 0xef3667fbb021ed1U,
  0x1d63a9e1273d5ddbU, 0xe1f1cc3e7f9c2aceU, 0xf84dc954477fcf52U, 0xfbfe40b7122d2b4aU,
  0xb16f1ef60548becaU, 0x7f2f41a4cb8787d6U, 0xb2092ff3c37ff7ceU, 0x421b3bb407b321d7U,
  0xbd0f345278f71e28U, 0x2a40c0565e8152f6U, 0x73ca4ecde688a7e8U, 0xf123f52e03e14d7fU,
  0xeb7fc4d6079934c2U, 0xf9e12435bad1de0U, 0xc8b7d3b704fafd7fU, 0x32c639f68f31efe4U,
  0xc301bc704a257f1eU, 0x46fafcd0f8ee384bU, 0x7e64c0a4c357f3cU, 0x2ced61be043fb4aeU,
  0x4b1a81f583022e77U, 0xd9dea9382e2e54ddU, 0xee2a2637379de056U, 0xf4c8178131359f00U,
  0x821070681b40493U, 0x4b27d39dd5e5a284U, 0xec41dbf3a50381fdU, 0xc889f137c803f838U,
  0x2b1c245b2281fe0aU, 0x2b19a066688b2ddbU, 0x47043f4f3505ba05U, 0xa33ad48134d3378eU,
  0x3ca1a33b1ae5f51dU, 0x7fc2c7af12c7a0fbU, 0x3ef42f2120e08e5U, 0x55023b4f81181f1dU,
  0x261d36fde4d41d08U, 0x5852411981c3d6f2U, 0x1ecbcc116c9e4bbU, 0x3f00fedf4381dce4U,
  0x444fa2dbb1781eaU, 0x1dd6ff2e08cbaafU, 0x115fb484f8270901U, 0xb94c9b25127f2949U,
  0xfcfa0e3a20fed632U, 0xfa1681f31df5f410U, 0xdaeae20446271a81U, 0xf1dad49e0dbef246U,
  0x331000b9d52d04d2U, 0xc7db7fd0d15afcb1U, 0x81dd4bde27bf5c9fU, 0xd40af213dfd494a2U,
  0xddfaf2a7c4069639U, 0xb71181f06036fe1aU, 0xa7ff5305ef1698efU, 0x7fcebbd31d34f8dcU,
  0xebde69b05a6fd64aU, 0x81bfba072b3cfb58U, 0x3150d8c1c3283043U, 0x34bfddf67f8820b3U,
  0xd118cb120dd71122U, 0xcfe0de6781eafe2cU, 0x36446322120e2934U, 0x1e34fa46068100c8U,
  0xd425f419f0d20f37U, 0xf4810bcc3a1dfe26U, 0x23dc2ed7b57ff0e6U, 0x8bd61e002acd0ddcU,
  0xffe94dd7fb206c1dU, 0x90147fc81c10604U, 0xfc7ffce52b1044a8U, 0x841437bee1e49f7U,
  0x811bd6e4f613140cU, 0x10000935f3259233U, 0xc618fd7af8e432ddU, 0xb4f2aa64f6297f37U,
  0x8144d788dd04a611U, 0x66b3d94cf7c4ed6eU, 0x6e7fcc1705eea1c7U, 0x17d3291e181836a0U,
  0xd41b810741c04afbU, 0xf6fdbd7659ca1c38U, 0x26fb7f1f47645fe7U, 0xa80d57edd5fc44bfU,
  0x24a8233bf209db1fU, 0x7ffcf5b4cac20b1cU, 0xe03575b6f27807a4U, 0xc37210406fdf881U,
  0xe853f106f61ddd4cU, 0xe9b5d43c1fcfdc7fU, 0x7f611a3541ea1508U, 0x3341ad917e53406U,
  0xd43d012bbc103e0fU, 0x8a0212017ff23f40U, 0x1414d6f31342ed10U, 0x81f1300a2044beb9U,
  0x32ff2d5944ed097fU, 0x28ed0b5541fdf2cbU, 0xddf1aad83a08d2afU, 0xca0f439ecc7fac04U,
  0xc51620cc8b5efab7U, 0x81ead41731326ce8U, 0xbd0df634ff9599e4U, 0xae2cbd3d3dd1bb7fU,
  0xad2dcd7f1e1f0456U, 0xb935d4401c020916U, 0xd4b7bf8203bc5154U, 0xbd4f814359ef68e0U,
  0xb0ee12ba112edc3bU, 0xfd04c30309298119U, 0xe74472edc5958102U, 0x8f90cc573df2482eU,
  0x4bdb3ffcf0bc1a1cU, 0xacf842a30a07fe81U, 0x1b1923d9006e3af0U, 0xef0dd83049dc2981U,
  0xa0ce3f6348d132f5U, 0x7ffddcb2b7d2df7eU, 0xd3141457dc2df9f7U, 0xf62b2ad7bf8105e7U,
  0xfaeb18812713fbc5U, 0xda726b1555be254eU, 0xa10edf023998c6a4U, 0x7fe4d6353115a1e0U,
  0x810c2e06ebf15bf1U, 0x93dd3b0bc40daf6cU, 0xdaf0525ec02d0e81U, 0x48fb1914dd294401U,
  0x2af8dee0f7c081bcU, 0xdce1cbbf5038feccU, 0xdee3edf82fec08dbU, 0x8527eff87f1e1ae1U,
  0x441620fddb5db810U, 0xfe9d1f00e256157fU, 0xeb630cd3ba25b122U, 0xdb200bf35ec77381U,
  0xc846d23ee522ebfdU, 0x37e6410481ce1aU, 0x81af2019da231da8U, 0xf7dcd23b73650f78U,
  0x9900000743U, 0x494fffffe75U, 0xffffff9afffff9e6U, 0xadbffffff1bU,
  0xffffff680000027eU, 0x4cf00000115U, 0xb5300000214U, 0x35ffffffff3U,
  0xfffffee7000001feU, 0x16e0000022dU, 0x15100000116U, 0xfffffd49fffffe8cU,
  0x18e00000427U, 0x9600000706U, 0x99f000009a9U, 0xfffffe8bfffffce5U,
  0xffffffe500000432U, 0x2aa0000022fU, 0x64800000211U, 0x18800000250U,
  0x2380000054bU, 0xfafffffd01U, 0x264000000ecU, 0x2e1ffffff72U,
  0x1cc00000090U, 0x3c7ffffffe9U, 0xfffffd12000004d5U, 0x5e70000044aU,
  0x700000390U, 0x770000002cU, 0x266fffffd5dU, 0xffffff76ffffff6cU,
  0x3c5fffffe1bU, 0x180000095eU, 0xfffffab700000cbcU, 0x2d3ffffff42U,
  0x726000004bbU, 0x12200000162U, 0xfffff914fffffccbU, 0x2c80000085aU,
  0x58d00000166U, 0x469000001f9U, 0xfffffffe000008caU, 0x5eb00000159U,
  0xdf000002b7U, 0x4c70000017aU, 0x355ffffffd5U, 0x4d5000005c8U,
  0x2e2f3a807f9e7c7U, 0xff9e58e6b5820805U, 0x190bebdd2f3fbf1U, 0x8318e005b0b1f40aU,
  0xec920dc3490907e7U, 0xfe810a05e2d50403U, 0xc00510a13df313cU, 0x19e4fbc67ff9ff50U,
  0xd1d7afea29f4d82fU, 0xefd9bd18f9f7d932U, 0xf826c934cf1ee0bcU, 0x20e4f27b0b128f05U,
  0x8bd6e2a1ee1821c7U, 0x6181ec1581a8ff12U, 0x31b8bcbbae147be4U, 0x942b812981210944U,
  0xf7a57ca77f26bbfdU, 0xa6d4af06a2b70c07U, 0x8681cdd10aa7f14fU, 0x4ad1f2df61d1245fU,
  0xa9a9b48129e38147U, 0x7f81b87f65155af1U, 0xd7f674dd03b81bcU, 0x400f7757367f4625U,
  0xf9f5e4f4fbebc814U, 0xf793c90d21ea05ecU, 0x3b6b2dcc4232e12U, 0x40f4f00aa938f9f6U,
  0xe781d2aacfd5eb10U, 0xac63e8fd20dcfb09U, 0xbe8af60826ee8111U, 0xfed42bf7f1ae04b8U,
  0x81e8d915eff9d20eU, 0x13df72f214e8ff02U, 0xfdec250507fa00efU, 0x13e9efc1e5e19be7U,
  0xe1b3815c1707f2a5U, 0xd997fd2b4ca1f0eU, 0xf1b2e0dad1f2ed90U, 0x811e07fa1c8f1d05U,
  0xf18d368106620cfaU, 0xfba71508b1ea14f1U, 0x21fe0dedecaea351U, 0xf06a1e50d29ff7fU,
  0xecddc4071ff2a141U, 0xfe1b4b26e9fdf633U, 0xfcf9ec1a4d28368eU, 0xf8103bff288f30U,
  0x7fd9be637f7f7f81U, 0x7fd8858199815f7fU, 0x7f817f8181133781U, 0xcd7fd27fe17f7f7fU,
  0x7fce6ae92a7fb77fU, 0x815d817f814f7f81U, 0x81787f81ce81e57fU, 0x7f8181814c627f2eU,
  0x2781d6997f7f947fU, 0x46702f497f7f7f7fU, 0x7fd67f7f7f7f638dU, 0x817f7faa0843ed7fU,
  0xe7f3caa9d9fc1e2cU, 0x9debf13244411e6U, 0x5b5271ec77f6dfaU, 0x190507f48e5f03e3U,
  0x6aebdcfe6e6fe07U, 0xc87104f916eef1f3U, 0xc0f4f7172cec04e9U, 0x48e1cdb0481fabfU,
  0xeef1a404ecd30e0cU, 0x15f13cfc06222338U, 0xc6f31be39cf9aac6U, 0xf205f88108011de3U,
  0xf93cf45dfe1e13e6U, 0xf0905dc352a230fbU, 0xd1e9f3d9ebf8aeU, 0xd2f507fe3ced0be3U,
  0x6d8cae0e4032c01U, 0x22e82afd1e45f40eU, 0x31f9d61f5af7a742U, 0xa0aed9fc323f1f3U,
  0xf101b543ec08f3fbU, 0xf334fde2e703d512U, 0xf0aea0a45f329c2U, 0x17f6e9ce8cf381f1U,
  0x2d7fca7ff00cfd1cU, 0xd0ad21ee5cf87fdaU, 0xe7f044edd1f281d4U, 0xaddf3cbb2fb002bcU,
  0xfac181e9c7fa7f1cU, 0xf5dc2f011a77edf1U, 0x3f4bd42e46200433U, 0x26b515e91debd4a1U,
  0xffe7812ae9fcc9f7U, 0xb7437fd6e32eb3f7U, 0xfd0b9ae102c54481U, 0xccb29de781b40defU,
  0x23f764f8faea0cU, 0xfeca031555fa17fcU, 0xea1814fcda19ea05U, 0xb6010f05aeb20901U,
  0xadd07bef0e21b12U, 0x242b19f8fb7ff605U, 0xe70a1c107f151501U, 0xf5a232d9f2bff6e8U,
  0xf1efc11ffc08e9ffU, 0xf6fb24d5f004be36U, 0xedd5c5f0bcfcd9d2U, 0xfcf0acc30acbe4U,
  0xfffffc8000001469U, 0x8afffff5ebU, 0x2187fffff27aU, 0x277ffffff87U,
  0xffffe953fffffe5dU, 0xcb600001f53U, 0xfffffffd000013b4U, 0xfffff57e0000346cU,
  0xfffff69200001e56U, 0x25cafffff56eU, 0xfffffa5500001b92U, 0xfffff931000020b5U,
  0xfffff43b00000119U, 0x1e6e00000376U, 0xca9fffffe18U, 0x210efffff651U,
  0x486fffff60cU, 0xfffffc63fffff534U, 0x10c00002fdeU, 0xfffffc8e00002c10U,
  0xfffffd72000009fbU, 0x1207fffff392U, 0x983fffff694U, 0x1bcefffffa77U,
  0xf7affffda98U, 0xffffeba800002133U, 0xfffffca20000094fU, 0x1530fffffe56U,
  0xfffffb89fffffdd1U, 0xffffef4d00000a1fU, 0xc1b0000150aU, 0xffffebf600001e98U,
  0x22fdfffff0e7U, 0xfffff9effffffdd8U, 0x190b000008f4U, 0x12ce000019d5U,
  0x2bdffffe804U, 0xfffffcbcffffee83U, 0xfffff812fffffcaaU, 0x1690000012aU,
  0xfffffdf900002e60U, 0xfffff913fffff5e1U, 0xf8fffff01dU, 0xfffffc94fffff98fU,
  0xef0fffffad3U, 0x180cfffff706U, 0xfffffe59000008c0U, 0xa20ffffffb0U,
  0x5dc2e249f33bc22bU, 0xc474f4d1ded0e9c6U, 0xe6f70df9fcd0b80eU, 0xc43025811ef8b70bU,
  0x50350dc4c40b9820U, 0xc006109834e127e2U, 0xd2aeceaef1f1e926U, 0x5d42f75d35263b1cU,
  0xd09bbff80610fafeU, 0x43e13066db4edb50U, 0xdf14bccdf3b7000cU, 0x4e24c71d2e3cf2fdU,
  0xc10bf6ffec1615e9U, 0x2df6f118d61fd3a7U, 0xcf133fe7f24bd3cU, 0x24062d6542f2f512U,
  0x1cd9f7fcdc16dff9U, 0x7f1bb32c2ad5c8e6U, 0x1e13f08f13ee3b7U, 0x3f09aee0bfd049e0U,
  0x29244cdbbdbd3611U, 0xda94a2459bf98ec8U, 0xfab2690917cbf0c2U, 0xfefdf8d849f4ed1eU,
  0x305c0d51cb636beU, 0x22d50becabe8efdbU, 0xe00e0cf420e4f6feU, 0x2ae225e50842c5aaU,
  0x5f9402015e341d8U, 0xf1ebe1b43b021401U, 0xe80435e80915e119U, 0xd80118e3f72fe4ffU,
  0x6171803ac1a42e1U, 0xf8dce9d405e026c8U, 0x59ffcd351db9cd81U, 0xf6eb12dd38360dd6U,
  0x25ca231ce0e00fcfU, 0x474edaffe6fac11cU, 0x4dcfeeb72cbbe91fU, 0xe8d8dcdbebf8e4c9U,
  0x406037fd82010cdU, 0x29c7d3f9f6f375f0U, 0xc8eda205ee1ce606U, 0x12b2a08d52cfd33U,
  0xd0f535c406f1ffd3U, 0xaff0d03f1f6d7c2U, 0xc0d0152ac750f62eU, 0x2c13e05fbb42fa19U,
  0xd0c449dc36fb3509U, 0x54e62f33a5f08155U, 0x2f25e119641dfb9fU, 0xf3bfe8361888add7U,
  0xfaf1ef5728109bfdU, 0x30eae2fe2a3347e7U, 0x3afa12214ec2a63cU, 0xb047fd26f511dda1U,
  0xb13dcbcd0f4fbd9U, 0x8d2bf08fd9afaeceU, 0xfd075221ee0adc64U, 0x43feb3f09ff545d8U,
  0xf3b631f12ffbb6a2U, 0xe01a141c00095d39U, 0xd07fc51a27d4331dU, 0x3981fa09f0f1fe29U,
  0xf619efc8c1c1a51cU, 0x852c15d6d6bf4063U, 0x690ecfbc2fe12b9bU, 0x400829140ef6a320U,
  0x434400e1c9fa0414U, 0x8feed3fb670e392fU, 0x7cb24cf012bd42dU, 0x41c7c7f3c81e1a1bU,
  0x11eca82f3a06d6f7U, 0xeafc3606f5b6c1f5U, 0xd5e016e30b05eadaU, 0x49dc0df9f4e5ebc7U,
  0xf9117f394be3ccd2U, 0x3ced10ab10e8d91eU, 0x1407d21605d0e2eeU, 0xd7090be9f22dcec1U,
  0x1dffccd83bf855c9U, 0xad063bdf60df332aU, 0xc806cbff3d062b28U, 0xe3d7afe1153609fbU,
  0xec241ed4af2e24e9U, 0xe6dba8812b29f95cU, 0x272fca10f7c90867U, 0x1c7fcf00ee0255fU,
  0x14f7c448f1fa1b11U, 0xea1e16f5d5d2fbfbU, 0x19c3aa281cce06aaU, 0xed10c20d11da1230U,
  0xf516e110f7f5dbe2U, 0xcb00fdebefe323f7U, 0xecd503faedfbd04dU, 0xfbfbe9c212dc1118U,
  0x441723ff2ad0f3edU, 0xcdb10ea142701f3U, 0xfae24802de2c31d2U, 0x3d0bdd1cdc080019U,
  0xfb15ca11da18f801U, 0xe838cec11fe42be1U, 0xd3350313c43ae525U, 0xf832043bf1d70612U,
  0x17c910fbfd1d0919U, 0x164b19bee313d10bU, 0x240401260df4ee03U, 0x227f0ac4e00053f1U,
  0x10e550d0bafd0f43U, 0x16e4dc9ad34f232U, 0xc34a351f7e452f2aU, 0x351228f9a7a9f58dU,
  0x5e24ee272ef8fee3U, 0xd4d04838312e1c36U, 0xea2f0eccd7b6e21aU, 0xcaeb0a2afda2eee4U,
  0xf8a64a1268811b2cU, 0xe8b7081d5ffb2b28U, 0xcde3b2c30d4b90f0U, 0x3cd7f6ec1af93324U,
  0xe2c517b0f43fbe2eU, 0x261fba020e7c39deU, 0xfbf1a34aeeed2b0bU, 0xa47dc300827cfe7U,
  0xa938fd4af812f64aU, 0x630e612222a72b4U, 0xcdd6f9c011eff411U, 0xd139f7462dd518bcU,
  0x213833eb1dd80bfbU, 0xee04f3043011dc1bU, 0xf010d7485219c17fU, 0xf9c66421eba9c417U,
  0xf81c1400414c1123U, 0xd61ec00b23672870U, 0x1e030565103e18fdU, 0x2afd4f81db36f1bdU,
  0xe94ed1dc231a4914U, 0xa73159ec0c351423U, 0x300905ff2cbf3d20U, 0x142bd71d2ac0befeU,
  0x2d454932dff12af5U, 0x60db0217c5f120ffU, 0xcd1daefcdc56eafcU, 0x25213a9541a9040cU,
  0x35582b3c321140bU, 0xfdfd0810392fcbc3U, 0x63f8fbba0df71ce3U, 0xf2dd9a2fe959561eU,
  0xf90f62de5cc6e0bfU, 0x483ec1a4ceb67030U, 0xf6352e142ea00dceU, 0xa90a36ab4802159bU,
  0xb229bbd92aa5b6ebU, 0xfcc0f042102016c7U, 0xe3ec0ab2682825e5U, 0xecd47fded517da0aU,
  0xf019b921fec12cbdU, 0xfaa315d23513c1c2U, 0xfe21c908d3f0d9acU, 0xe7d1f525a20ddff4U,
  0xf8dbfb31172cd515U, 0x552d412106fcf6f2U, 0x13c120e938c5d3d1U, 0xf43c270731c1d930U,
  0x3fba91c42b4f1e2aU, 0x1842321d13b31d3aU, 0xc538011208d0e12eU, 0x7f35e2770612edf7U,
  0x29f0db220b113cc2U, 0x3ec4570dc0342715U, 0xb63f1f6d14ba0adeU, 0xc6e1fc25e307dfd0U,
  0x29cd2eaff49debfbU, 0x448d7eafbec19dbU, 0x90322a116bb2c06U, 0xe1afc14d327c315U,
  0x2a1fafff81fcbbd3U, 0x1533fd24f5ea3017U, 0x2f312eab210563c9U, 0xda0c57e80f08b1feU,
  0xeb64f10e7f0ffc20U, 0x1742dd1206224da2U, 0x191a33af13eddbdfU, 0xfba631ba25daa522U,
  0x5c721fe5f20f09eU, 0xff3743eddc13f730U, 0xf4aee19c6d5ecfdU, 0xbe1b19001a3eb7d2U,
  0x2cda0807da46b7U, 0x1d0b21decef100caU, 0xcdbc2c17f22edf1fU, 0xeaf2d9064ab9db29U,
  0x1f0ad538e3efe633U, 0x3601d25dcaf319a4U, 0xd8091f39ac41bd05U, 0x9fb3d697f3ebe622U,
  0x37e3f63b15e91040U, 0x8a52fd63de129e8U, 0x704e5b903ccd10fU, 0xc5f0ef244db3c9f2U,
  0x3f0d2b40177d09d9U, 0xd522dd09c4cb7fbeU, 0xc809c3baf02b22f4U, 0xb31c66e11732040dU,
  0x60a5e1eedfb19d5U, 0xeaf7c86434ced1d0U, 0xc505e623ddc10f0bU, 0xcfe658cd0f28e7c9U,
  0xede11348cffae642U, 0xa8bdf5be5924c926U, 0x229f3ebdf90aba38U, 0xd0b211f1d92ca2c0U,
  0xfae6f14f6f22514U, 0x48f4162468e40b16U, 0x4d1281e6bce61c01U, 0xb9f5d91d0c1c0d3bU,
  0xcbc346401e05ddf4U, 0x57045c223ccbfc81U, 0x36e10ad102e3bf21U, 0x86137a541b3fac9U,
  0x4e1830fffb28d8efU, 0x220a28c2fdd01426U, 0x3f1514b5493aece2U, 0x319e0f2e2d1f1627U,
  0xbf0df3cce8f8ffdbU, 0xf634d5342b141a11U, 0xdc70d17e94129aeU, 0xb6e713e6d9211f23U,
  0xc3dc08c57f621614U, 0x11d6e42934d4da8cU, 0x2f13f4ff0fda0ddfU, 0x1b1326432a14011eU,
  0xe0ed3aeafe12b402U, 0x25c3f9f0d52448cbU, 0x28b947fcff051a1fU, 0x33db382deeded21cU,
  0xf5cc239bdcfbf516U, 0x1b0a2abcddfc8e25U, 0xfafed0610a09be13U, 0xd4ebecdadd07e7f2U,
  0xedd5fbdb2ae4b581U, 0xcf2c23395b2425d8U, 0xce53c4e1f1e130e8U, 0x423d4eed179d016dU,
  0x3ec31f80f3fb74eU, 0xfc80b19d0f1f828U, 0x55ffd56117e9c7f9U, 0xe0eae404e9f1dc53U,
  0x3024f606c1cc3502U, 0xe1e7d7054f0c19eaU, 0xe7fbc637e8d62afdU, 0xc7e9a918ef8e4b6dU,
  0x7317c41c8cdf2330U, 0x4b0335fec5f3427fU, 0xc9a95ab7fc00d9feU, 0xe8ecc0f760d4cd43U,
  0x1a98095ae15ed258U, 0x5f1d0354d7e3dfabU, 0xfcb62df553c9c457U, 0x4b9feda1213ed5eaU,
  0x34f007d3e93a03f0U, 0x363d10214befc2cfU, 0xba6e92fc733ee19U, 0xa5fdcbaa3ed6f51dU,
  0x30caf44181ebfe96U, 0xd71604d81abbf34cU, 0x204932de27e12527U, 0xecf2dd36132e34e0U,
  0x6b56283503c40e2eU, 0xd0f426e5c9230eeeU, 0xea1fecfbcdc3fa2cU, 0xbd1e333240ceb0fU,
  0xbbbe3ec6f306bb6bU, 0xabb65308d11ccbb9U, 0x26026040ebea39c1U, 0xe834441dd4cd2140U,
  0x8b1b37084021470eU, 0xb96e2f2c2f1257fU, 0x306dd7a390be9c7U, 0xa90ae11ae8d0edb7U,
  0xebb517fe8230e71aU, 0x2d4c32222833301dU, 0xf4bb2cd1e8f7d61cU, 0x3c632b3a09fff6b6U,
  0xe7421043d3bf9e0cU, 0xf6e7e20b1a1f1606U, 0x32c3bc18cb25e52dU, 0x9dd2f002f58d8cdU,
  0x159f00002d86U, 0x22400002fddU, 0xffffff0400001bbfU, 0x161d000020f4U,
  0xffffea3cffffe110U, 0xffffb24bffffca00U, 0xfffffd500000176cU, 0x5e000014d9U,
  0x22a900001856U, 0x3f1ffffedb2U, 0xfffff6bffffff7baU, 0xffffe22900000a1cU,
  0xe2ecf636d4494b10U, 0x253df6028188e622U, 0xb721053b547149c4U, 0x1047d80a0008fa36U,
  0x1721abfed51ff2e1U, 0xcc0578c3cbe7227fU, 0x330dd9f106fc7f26U, 0x420dbc3396c20aaaU,
  0x8e361437ba23182eU, 0x30e8d52c6a4042d2U, 0x514d700009010578U, 0xefd8e01a7f6e533bU,
  0xf5bf1e06040eedeaU, 0xd7fffc417f29d35U, 0x521022aa4037e920U, 0x7ff5060e754829f4U,
  0x2e1b170c170ec61eU, 0xea1b1f0de9c9ed31U, 0xf7c1f7bee09e7b54U, 0xd0edeee004df2581U,
  0x1900d7c137690a26U, 0x1c331d4d7fe2f2cbU, 0x44170b5af76bffd8U, 0x15eed0eb0dfc2f28U,
  0x8e4e8eb553217b1U, 0x3bd23ebfed05cf0cU, 0x810c78035cb6180fU, 0x182036241f4ddb17U,
  0x171717145f1838f7U, 0x102081e91ce9eeefU, 0x74a3524093ed639U, 0x3017f190aeb3ec1U,
  0x2ffc4ff7f70f1f5bU, 0x661b19062ace5267U, 0x79812bc73d1f33beU, 0xcc8f11311e1420b8U,
  0x20b8c5952ee00929U, 0xfe43441b00558126U, 0xbd3a35e396ccae2U, 0x3c12c2edb70fecdeU,
  0xf2faece8070328f3U, 0x4a3124f7b1812cbbU, 0x8344c353dae6379bU, 0xd231007f8a3a00f0U,
  0xbece7deb5875580fU, 0xf3a04c9d90bc1031U, 0x33f3d18d559c2721U, 0xe7f48feb704deeeU,
  0x718111305d07b904U, 0xa011f1d3242721feU, 0x1821da572eafd4d0U, 0x3507ff4ddd7c0e7U,
  0xf0432d13b6fdf921U, 0xfa3ce71c102310c7U, 0xa41202ed25f5ae7fU, 0xbef8b6d455141a39U,
  0x3fc69acc7c631b56U, 0xd76a4a2b2121813eU, 0x215851fd6fc80edeU, 0x20fabaf5cbc2f971U,
  0xd60bda1208c012f9U, 0x23afc01bbf7ff32bU, 0x148a163be137d42eU, 0x42eb1f2f351060e4U,
  0xdd2be243ee20957fU, 0xf91fdd0b1789e32bU, 0xaccf13b8e8eef8bbU, 0xaaab3bc7181f3625U,
  0xb33274e72117fa8U, 0xe13709a0f12cad36U, 0x2bc7f581240b0319U, 0x5f9fe050d493500U,
  0x30d6319881efbf2aU, 0xfb1ca2e561ba09dcU, 0xcfe6232e11442140U, 0x1ae66dfa4743b0c9U,
  0x8117f50d210c52bdU, 0x4c5f30e1e80a19f6U, 0x7fc5452cc9cdd1c9U, 0x42ed13e01ce9cbb6U,
  0xdeef7c4a0ada31caU, 0x510a2c0863d21c1dU, 0xcfc114cbfc7ff9a6U, 0xda71fd11fcc3929U,
  0x12615cbf8c8b03dU, 0x5d41b828eac7f1cdU, 0x893633e9d87f1f50U, 0xaf67d3d747f0e50bU,
  0xf7ed1a7581b846e1U, 0xea53bd35c74d33b5U, 0xf6ec0efc21352adaU, 0x7fde0df50ee1ddf4U,
  0x70c2e1c3ec08d8ceU, 0xcf6b1e352ce9bcdbU, 0x1cfb001414069152U, 0xee81d80a1ffc205dU,
  0xd9208945025ce81U, 0xe46c20e045b9de0U, 0xfbb04caa95fcba75U, 0x2e5d8196346f127U,
  0xd538cefb0068c2U, 0x3b813730a207fcecU, 0xb402f2f03fef98f6U, 0x2868bdfe2321c845U,
  0xe781d0132d423a08U, 0xf6f5283101cf7f27U, 0x17ded314c9e1e4f2U, 0x26c3d643cf56d020U,
  0x47032f4d12c828bcU, 0xb34cf941a095234U, 0x540d341f21fa7f3fU, 0x7daaf2b654eae30aU,
  0x5beded2d9eb40ccdU, 0xc260174222c07fd9U, 0x6dba41a1f68bc1c1U, 0x4437c0dd7f4a029dU,
  0x1e3f42c5a0281addU, 0xaa15530617ee1210U, 0x42fa991dca810cbfU, 0xd121d930d3fde3e0U,
  0xdc98c5be3fb60411U, 0x9d53aa9d815db416U, 0x17f7eab129499326U, 0xf150cbda09fac9d0U,
  0xf2365d0801d87f2fU, 0xbf731d1fa41d2f4U, 0x50094addabb22ef1U, 0x63123e2f3807f419U,
  0xe7f2b27f4c28ba25U, 0xe91426d532fdb305U, 0xb1e381c3ef07c8c5U, 0x3bce511afa1be60cU,
  0xe29b032b3ef8d63fU, 0xb6db3c81c617e6f3U, 0xdbfbfa03cede09e0U, 0x45cafc434d1a56f5U,
  0x8881ec1c235f6814U, 0x44a56348e8b3ca02U, 0xcb2b1937c1507fcdU, 0x7f5bfb81e8f7c31U,
  0xd1ca4559c4fbced9U, 0x2ce33cfb079c0927U, 0x45e319ef2781a107U, 0xd3d8f903ea3cb1fdU,
  0x3c1a5a7f33dee2e2U, 0xaf1dcae91c5e12f6U, 0xb4c2c3807f2303aU, 0x65cc112f60fe0dc8U,
  0x31c89e4601320f81U, 0x101eb9ab9ac2e62bU, 0x24f628a2930d00fbU, 0x290ef1ce5f2a0905U,
  0xc581f106f1bb593bU, 0x128110e70b91e750U, 0xb24006d10ab0b232U, 0x16f70e364a5128dbU,
  0xda3cfdb7f5a9e9ecU, 0xf5e1b8ac0b993ed9U, 0xa2773befcadf7f0bU, 0x4494e53d0804eb23U,
  0xdd5cee95c134812eU, 0xae6590c3a0cae1d5U, 0x8c901f53cff1b0dU, 0x51f267fecf711daU,
  0xeefcd1cab1d1e0e9U, 0xfcdfe64a5cfad3U, 0x1df481eff8dd2002U, 0x1236e8ae11eddcc1U,
  0x1bfd3105127fa5e5U, 0x4f3c28583f09d1dfU, 0x4f1610bd0cbd271cU, 0xf1183bde0eafb07U,
  0x5b24961fb3d6dbecU, 0xdc0d7f15de9b250eU, 0x92d2d04ffa95b21U, 0x1b0622ae81aad750U,
  0xc115286a2a10290fU, 0xe91de0cfe64114e6U, 0xf21485c9e9be0b81U, 0x2833d3ccab4fff62U,
  0x1f071cc616b37b7fU, 0xe2da21efe394df81U, 0xde0bebb2f04d375cU, 0xa9d881f19c18e7d6U,
  0x143a46e4d913853dU, 0x4193de0e44353f21U, 0xcf48fb20d0690ff8U, 0x612d81e033d23505U,
  0xe60ec82ded75134bU, 0x26061403f7f5023eU, 0xf4ffb24a0dfd2281U, 0xfd3be303da2df871U,
  0xc927e13e7ce86bc4U, 0xf9dbace6ff7fdac6U, 0x47ebf500fc139defU, 0x11c80f1fede6ea20U,
  0xe1d8ecdbcb39c918U, 0xfa7f0f18ced933aeU, 0xe3f310be153b010cU, 0xc8fa7ff6b7318bf0U,
  0x29e007f04dcbf918U, 0x36ba07884c7f400cU, 0x3ef41ec947281587U, 0x14c342bb9afd086aU,
  0x7665914b69a9641U, 0x15c10a2de07fa816U, 0x81c2c317fb2ac43eU, 0x3b3e0d4feaa2f14aU,
  0xb2bff0d6e4560d23U, 0xe3bf467fc3381210U, 0xc61825cf1bffca46U, 0x3f29b8910f17d83bU,
  0x1fd1840327f3f2eU, 0x8743d008c803ca16U, 0xf5703bcaeb97a8d0U, 0xf54beaec24427fbaU,
  0xf72a2f7f07552aa3U, 0x7fd4913f7c9242bU, 0xeb3a0afbe59d06e1U, 0xcb3beb1ab328e12aU,
  0xa7fb3de1cb93069U, 0xa0e0f28bbe44331U, 0x8ed9e4c8c47f5eb0U, 0x5757e45112f2510eU,
  0xdf3333b7e31a4ce0U, 0x7381a9b1fd0ad9c8U, 0xac132cd4d5458204U, 0x893466b4b2e1180cU,
  0xae58decafd20d80cU, 0x2306c76d2c567301U, 0x84f4cacdeef6812cU, 0x2663302d76e09cfU,
  0xa9100e40cf3a3181U, 0x1a3948ef2729dc9fU, 0x51167f79f1c943dcU, 0xc3acbf28cd289417U,
  0xe30d9fdd4bae3c7U, 0xf2145441da38eb27U, 0xda61dccf152d42fdU, 0x122b7ffceac40be4U,
  0xfcd12e5a1c0e802U, 0x9f577f09580701e7U, 0x610f42ffae03f7b0U, 0x982ca89daf1ededeU,
  0xea15026f906c931U, 0x2381fbe052402c0aU, 0xdf22257f9cdf07fcU, 0xe4f22aebfd185f4aU,
  0x2f8005154f9deffU, 0xf01a2e381bf3f80eU, 0xc3c22a98df91752fU, 0xdb04627ff74054ffU,
  0xe1e1e763bb0ed805U, 0xe022d6d424a93435U, 0xcde27fb9d3cce164U, 0xc3ce05efd9ed060bU,
  0xd3fe0adf11ad2bf1U, 0x2660d22127387fd1U, 0xafa822ababaa007fU, 0xeb4307d1eadcc045U,
  0x47c2bbbe1bef3bffU, 0xe4f4e2e356f04143U, 0xc2c41681b9f1df1bU, 0x1f15f94306fc03b6U,
  0x6e21099004a681d2U, 0x34ce723e23d00fe0U, 0x947ba53fccb3dc1dU, 0x9c09ca33e235f719U,
  0x32ff28cb29ab0b4aU, 0x81fc3fd603aae4fcU, 0xee3b1b0781eb020dU, 0xff731212b9dbd8f8U,
  0xe82db2cb3beb07d5U, 0xdbc7810e28e222e6U, 0xf2c8ca13d231013cU, 0xd0fd1dcb1103128aU,
  0xd7f052a6c80f02feU, 0xd2fc81d525042e02U, 0x170ae04e232e00cdU, 0xc9fa4224a501e3f0U,
  0xae3cfbb18016b7fU, 0xd7eb2be91fe911daU, 0xffe67e14d6f237f4U, 0x136c08d5cdc01b81U,
  0x57fd0bddc8dc119bU, 0x713f79c25f90d7cU, 0x7fd9f1744a1a41eeU, 0xff39afe410bd7544U,
  0x4c26023d7dbe017U, 0xa043e02136a060a1U, 0x143511cf8110dae9U, 0xe0310e41d61ff6e6U,
  0x361224631add3ef9U, 0x15e081e30dd0f9f7U, 0x30a5d7c1b94d62e2U, 0xea11c5c9dbc081f4U,
  0xc5200b02d9e920c6U, 0x3ae3cef0ef0ac9f4U, 0xf6dd1ceff0f6d8d5U, 0xc0e5d0f9d681e82eU,
  0x54a1dfbf3ff9187fU, 0xb0c80f1fcdebfdd2U, 0xa0f6c214b73fff38U, 0x1d9faee2ee2c214U,
  0x2bc3d7f62dd6812bU, 0xfdf6e2f254f20ee9U, 0xf7f644eb3e44e6eaU, 0xee35d1f3e315e8e9U,
  0xf31b4726162b7fe5U, 0xfceef9bdcf1f42dbU, 0x2ce8166709ebed06U, 0xb07fc2d5c121f7f1U,
  0x42dc45155b1d12abU, 0x2dcfcb45043105bdU, 0xfdf0e41d3c81160eU, 0x42a0b382a470c9fU,
  0xc87f100dcb0e0de5U, 0x3a634d0cdf00cc8eU, 0x21fa47c4f2ce0a0aU, 0x34f30caf7fde49d8U,
  0x30bf0ad4dd4832d5U, 0x60f1fe201247531U, 0xfae1d77fd616fc79U, 0xcc40cebdb34d9da8U,
  0xedc02d3523e09c2U, 0xe0422604eb3ec9c8U, 0x128186ddd40a0a41U, 0x24fed924d1e50757U,
  0x12023de07ff947beU, 0xf90bcdb71b083b12U, 0x41f9fd12e8b109eaU, 0x6422f6ebe3b3f853U,
  0xaa3f147a19f9c67fU, 0x121eedd518d13d57U, 0xdc4570fe0e6f50fU, 0xd681175a50e807e6U,
  0x6619ee3108f5feb3U, 0xc91a0ff2edf8f005U, 0xf243399581bd9355U, 0x46d21b4b10ad1540U,
  0xa09e9230035ed87U, 0x28ae8150180ee117U, 0xe60d23d6d71c477fU, 0xef1fd0bd19ff1cc5U,
  0x2c13b4f71b2e2d32U, 0xc24f2735b77f12d5U, 0xf313f918dd07d8d6U, 0x2935604b200b213eU,
  0x30680d5501bec2eaU, 0xedc2c3994663dc7eU, 0x8100c024b5e8e630U, 0xc69edbfcee11fe4fU,
  0xe308e9f4e2e184deU, 0x4f407f47c02e02cfU, 0xa261934f3ab0ba7U, 0x2e223b11ebe3edU,
  0xaf1c287f35e7e9d5U, 0xd7e14eb9354a7f25U, 0x2cff16ba481fd7bbU, 0xc34ca3c8018eb2fdU,
  0xf459d4f8d27f31f4U, 0xc4131745adb514eeU, 0xe103e0d8f6445438U, 0x140fc2411c8baad6U,
  0x228115ee144300ccU, 0xc80261f6090ef5d8U, 0x32956418d7bc429aU, 0xd41fe7f5ca2fbd1fU,
  0x287f1d36e98ad4b6U, 0x131bbcdfcf0f2befU, 0x4a2adbdaf8de1d7fU, 0xe430411ec9f20d1eU,
  0xe6e90be72bc0e146U, 0xe542d8bbaad2eb31U, 0xdf0bf6ddbd265a7fU, 0x2404dffee50c24e6U,
  0x93e003b10400144U, 0xc23fa4b881b5dc24U, 0xe7e12ecfacc64b3bU, 0x1d3603cd7fe5c8efU,
  0x4e2d8f80434ffc6U, 0x13f93517df8db1fcU, 0x1b361cf10281e0c7U, 0x9ada133a891fa80aU,
  0xb5e39bd714f1d93dU, 0x974f7f673c2c8b49U, 0x25334ab7d21536dcU, 0x55187734fed7d430U,
  0xd0f0cf173fdf7fbbU, 0x605ea08fed73a28U, 0x1be68dc321fedd42U, 0xca87751381d0843dU,
  0xc328f203448620d5U, 0xdfec7fbf4307fe9U, 0xed1f2101433b1699U, 0xced9b6c8f340ebe9U,
  0xeea77e00bc893e6U, 0xad48fd97f5ddf1dU, 0x2a2b92282426594eU, 0x34120c181122f49U,
  0x185f0516ebc6d8ddU, 0xe61303e71734d9e8U, 0xfcfa33f6de1ece4dU, 0xf809aee17f0a2d28U,
  0xfbe4ac30102344f7U, 0x617364617f04281U, 0xe3ead070ab5911cdU, 0xfa2feed3e30013a6U,
  0xbce64b138c1300dbU, 0x895035b0d7fcdc27U, 0xd2fe81f416e63e33U, 0xd62625b6ea25df5aU,
  0x3e0a158837b050f3U, 0xa041dec067ffb28U, 0xd0febbe7b201bc01U, 0xee101ebc0e19897fU,
  0x1f053cd7e0474827U, 0x56eb7302ca8d0024U, 0x8b3981834f3c26cfU, 0xf80322e9afc6402eU,
  0x925d452c82c6703U, 0x1d193e46a3a500ceU, 0x345532b7d38119bcU, 0x8f11dacf8303d016U,
  0xe5e925e60ebc1b20U, 0x2de4461e31d87f2eU, 0xfdebde8d8fa28a1U, 0x6f1812862ef2ff6U,
  0xebb00ecdcd1b045eU, 0xe1fad3565016e5dbU, 0xaef4f1d61fe44715U, 0x7f1d2acae71fda16U,
  0x32d000002d4U, 0x26fffffcdaU, 0x2230000008bU, 0xfffffe8cfffffaa8U,
  0xfffffda1fffffbdbU, 0xffffff3f0000087dU, 0xfffffb9b000000a3U, 0xfffff34700000063U,
  0xfffffc59fffffe22U, 0xfffffecb00000a79U, 0x303000003e8U, 0xfffffeadfffffe0cU,
  0xfffff1a9fffffc59U, 0xfffffff9fffff24cU, 0xfffffad1fffff4e4U, 0xfffffefbfffff9e2U,
  0xfffffbc8ffffff75U, 0x1a40000010dU, 0xffffff2600000189U, 0xfffff787fffffe52U,
  0x18ffffff56U, 0xfffffcd3fffffa20U, 0xfffff68dfffffe11U, 0xfffffc460000062eU,
  0xfffffe62fffffad0U, 0x6490000019fU, 0xfffff785fffff8d3U, 0x27100000319U,
  0x279fffff5fbU, 0x437fffff8e4U, 0x45efffff559U, 0xfffff4a5ffffff32U,
  0xfffffe1100000253U, 0x39ffffffaf9U, 0x27fffff57cU, 0xfffff7e5fffff9bdU,
  0xfffffcee0000044fU, 0xffffffae00000034U, 0xfffffb840000036bU, 0xfffffc45000003a1U,
  0x13afffff76aU, 0xffffff93000000faU, 0xffffff42fffffd21U, 0xfffffa52fffff547U,
  0xffffff2ffffffb5dU, 0xf0fffffc09U, 0xffffff5dfffff782U, 0x9ffffff9d0U,
  0x69efffff890U, 0x7e000000f1U, 0xfffffc39000001a5U, 0xfffff4b300000316U,
  0xfffffc94000003f6U, 0xfffffeb9fffffcaaU, 0x2e40000012dU, 0xfffff9d30000012cU,
  0x82a00000215U, 0xfffffa68fffffa17U, 0xfffffac200001374U, 0xfffffcdd00000139U,
  0x35effffff7eU, 0x77fffffcebU, 0xfffffe8afffffca4U, 0x88fffff763U,
  0x42efffff24aU, 0x1ccffffff7cU, 0xffffffb50000029fU, 0x33100000019U,
  0xfffffa590000031fU, 0x80afffffecdU, 0x108fffffc18U, 0xfffff321fffff2dbU,
  0x650e350e2f3bc6bbU, 0x4781cff0dd36b181U, 0xd81c6af296c1613bU, 0x188f0249c581c87fU,
  0x7f81d1ff917fe6ceU, 0x86f00dbaa16b8d4U, 0x92cadd4b67e20c9aU, 0x322fd744eddf46fdU,
  0xa8b0c2dcd0e312e0U, 0xf2121aa91438f4c2U, 0xc6c1162d26a0e3e8U, 0xe2a2450b00e07ff8U,
  0x2144a61c111954e2U, 0xcbafcd483ef313e1U, 0xad881ad37c1d9c5U, 0x341c81f533d9c63bU,
  0x167f7fee6a1aea47U, 0xf07fc6a481f281e4U, 0x805fdf8147f68c5U, 0xdd9796255757ccb7U,
  0xfc3e551fb1214f31U, 0x7fecf4b58bde8125U, 0x5ac7e906ea2697b8U, 0xb1df0efc581fd81U,
  0x8981817f1fbbe381U, 0x27209b24e28133aeU, 0x9f827ed47fb4039bU, 0xac64e2da4db748e1U,
  0xcd061e1efd94c9bcU, 0x158fd6390be51f1fU, 0x408720ef5fa6661U, 0x928a9bf07f08afadU,
  0x20be27263aeff7f9U, 0x3d59d28155eed57fU, 0xf25b23630b0fee25U, 0x1348d7cacaa7c542U,
  0xeaf5dacce02721e6U, 0x82c5eac4063492bcU, 0x21fde7f7a63a3a0aU, 0x38cb15b93e96b0f6U,
  0x240132082bc3fc81U, 0xfbddfee4fce73dccU, 0xc29b683520fbd591U, 0xdff50c1cb59339d4U,
  0xba974ef49bf308feU, 0xd22cf5a70b9319edU, 0xcc3e04dcfed3f9f4U, 0xaabcd11f3e0261fU,
  0xef81c2ef101bf019U, 0x551b59af832c99aU, 0xef04cdaa63ed391bU, 0xb08b4b9e3b78131U,
  0xf5d9347f1326cd26U, 0x133d039be281eae7U, 0x7f7743e06b312ca9U, 0xb19c64adc02c8acU,
  0xef7352cf9681541bU, 0xf4c7081031eeac32U, 0x169cd622814c2bb1U, 0x3b7f7fd8d75781efU,
  0xb6abbf234feb1090U, 0x3c10c57f18333ef9U, 0x1beae2ee9d8fc8fU, 0x56f75aa0c42873c3U,
  0x4c21ba27f60e0e7U, 0x829f5b7f03f72003U, 0x4a1d817f2081fe0cU, 0xeb5400a0001b6f56U,
  0xe813aa2b47efadc4U, 0x797fc1227f8db90bU, 0x4a0e2296ec48af7fU, 0xc65da0b6b31ee809U,
  0xb65381d64778ddbaU, 0xf2f5811a7fbad0d6U, 0x817ff77fd923d8c4U, 0xafa017f81bb6e23U,
  0x1b0c7f64be716beaU, 0x7f2588f9de70bc02U, 0xe6a8504b81817fbeU, 0x7f7f816e7f3b45c3U,
  0x9b81440412817f81U, 0x7f817f621f7f3bb2U, 0xa96f12d2f5b817fU, 0xca0810607fc9da30U,
  0x7fc24de27f5d267fU, 0xe44f19cbef5dca00U, 0xf9e95a7f3f29d07fU, 0x5d55f6493181c204U,
  0x81fb38e7817f2f4eU, 0x7fda0503ddbea77fU, 0x94e7ffb081081319U, 0xede4b38111f4be19U,
  0x71591ed816c8106U, 0xe9e626f845cb61f1U, 0xfdaf524e488a0ef6U, 0x22a2ef51814929cfU,
  0xea1223fc87f0d5c1U, 0x2abde2f3dcdc25e0U, 0xc7f46a0c3b0f0306U, 0xbd41e7e962e0c8bbU,
  0x150e0b0702b2f913U, 0x7f9b811818e00903U, 0xf0a845b2df382bc3U, 0xea810d14e75d96eaU,
  0x406de402e067f23U, 0xe2409c1b8dbdcf2aU, 0x4d95df4026048534U, 0x2ca846b3d4140cdeU,
  0x707f2aa124481281U, 0xa12fed00dadc95feU, 0xec3a05cc9f8b6ceeU, 0xca5a351a16c5dff6U,
  0xdda0b94521f918b6U, 0x11c42c8111c9e7deU, 0x7fe021f441f74d72U, 0x12b4d50e0c79e1fcU,
  0x81c5d64ada91d531U, 0xdac843cb8c910accU, 0x198144812779de28U, 0xe891391fe57f213dU,
  0x1119be16fd25816eU, 0x26d620a7e2687f7fU, 0xd349cecc8a0db6bdU, 0x7f28970ba22bece5U,
  0x63ee7893f945a91dU, 0xd94d8181f8168ccdU, 0xfb44a281940281c9U, 0x817be715fc81a00bU,
  0xc567c515a4304381U, 0x927f2a4954b53efdU, 0xd387af7f15907fa1U, 0x49ae2363f94414ecU,
  0x68f9480294b72956U, 0x60a2db0378488181U, 0xcce0817fd962b50cU, 0xaafdd5e281f88181U,
  0x7ff47f14201cbb77U, 0xd7de0d4f2f65eb7fU, 0x2014f7120a329d29U, 0x7f017f1fc17f2263U,
  0x817f39dc947f2fcfU, 0x207d845f8216e1f4U, 0x97034ea9126ccc1eU, 0x7fd315aced16b9eeU,
  0x99d829dacde403c7U, 0xae26dbaff3058104U, 0x35081e39233f2d9U, 0xd3c7f4c1face8d9U,
  0x13dcf03042be19a3U, 0xbb0e178e60d1c9cU, 0x30faa6fe9cdaeb55U, 0x6d9d9e9d20103cfU,
  0xb43fce1dd55dcf33U, 0x30cc6811607c1b2U, 0x34ee47f60e81cf3bU, 0x3781bafa18221635U,
  0x1aebace4c865da2bU, 0xda21407fda32a3f9U, 0xced03bb381175905U, 0xd661bc239600aee7U,
  0xf6a8d747a4578110U, 0x33ec11a61c1400e6U, 0xffffff8a00001ff7U, 0xfffffcccffffe6daU,
  0x1710000225bU, 0xfffffd21fffff051U, 0x271d0000111fU, 0xfffff2cd000007f2U,
  0x1a680000043cU, 0x9defffffea7U, 0xffffefd8000006c5U, 0x3c55fffffb00U,
  0xfffffd63ffffff63U, 0x1316ffffd460U, 0xfffffc8bfffff6bbU, 0xfffffc1800000ef5U,
  0xfffff36dfffff9abU, 0xfffffd58fffffcedU, 0xfffff50000002126U, 0x344fffffbcdU,
  0xfffffbe6ffffd86bU, 0xfffff68600002b36U, 0x80700001a49U, 0xe28fffff418U,
  0xfffffc6cfffffb10U, 0xffffeea3000002edU, 0xfffff77e00000940U, 0xd5c00001c72U,
  0xfffffda9ffffebafU, 0xfffffe4100002104U, 0xffffed2100000a87U, 0xfffff9f8fffffdddU,
  0x1ef5fffff66eU, 0xfffff3db000002c4U, 0xfffffe6100001649U, 0x333fffffee9U,
  0xfffffb56fffff850U, 0x15fb00001c3aU, 0xfffffa6100001ec1U, 0x1dfffffef3U,
  0xfffff39a00001ae8U, 0xffffff4400000009U, 0x2266fffff5e5U, 0xffffe9fa00000e2dU,
  0xffffe5a1ffffffccU, 0xfffff95500000a33U, 0xffffed20ffffeabfU, 0xffffedcffffff9b8U,
  0xfffffbf7ffffeff5U, 0x5e6000020aaU, 0xfffffbc9fffff0b7U, 0xfffff6b9ffffee5dU,
  0xffffff05fffffa71U, 0xfffff91200000a18U, 0x16fffffb11U, 0xfffffd52ffffe076U,
  0xfffffb6ffffffe05U, 0x84fffffee9U, 0xfffff89ffffffb5dU, 0xfffffc0cfffff924U,
  0xffffff75000001caU, 0x7c4fffff552U, 0x2971fffff2f0U, 0xfffffd0f0000178eU,
  0x26b4fffff826U, 0xffffdf38ffffea61U, 0x2454fffff02eU, 0xffffff58ffffd364U,
  0xffffe7f8fffffa6eU, 0xffffff16000000f0U, 0x1c71fffffbdbU, 0x1796000006dcU,
  0xd33000026b3U, 0xfffff6b9fffffe3bU, 0x39061b3351b24515U, 0x2f7f1af145603edU,
  0xc40ae7fce4eee51cU, 0x6919fd1be157aed0U, 0xcd108ec93c763148U, 0xfb9e192edea4f225U,
  0x1d1a54e4eafbea16U, 0xf25dbd1517a2ce14U, 0xbf81ffd391cd2604U, 0xda3ecd4b47c84f15U,
  0x35f2ac10f6c9d2a5U, 0xa008faad1bc705deU, 0x15341f0d15eb12a7U, 0xe8efd8f3f8eaaa28U,
  0xe68d0c370ae5c12dU, 0xd6e6c932170e2dd1U, 0x125100dcc6f54a26U, 0x138a00f4db05a903U,
  0xa133d9cae756cf8cU, 0xd21ae41c22293014U, 0xe5f4dee7183cc4eaU, 0xb210ff11ebcbd413U,
  0x6d06efdee320f148U, 0x242507fff8d82201U, 0xc1102424f9f1eff1U, 0x420d4f26d9cc1926U,
  0xd6b6f7ee11ebf8e2U, 0xd6aaf630d131ef11U, 0xcb3939c1def07f04U, 0xde6f210e8000114U,
  0x1dd3edfc3d0af2e2U, 0xb6d7dfb4a10e3b2cU, 0xaf1f60d190ed2aeU, 0x52137cbd9dcf2e7U,
  0x196e223f38233618U, 0x70aede708f29c06U, 0xdb9b23350f25e1f2U, 0x1c32b217effa08e4U,
  0x262fe6ed60c7d351U, 0xe80e1eaeeba714b2U, 0x6f32cd1ecabfa03U, 0xcd1930c62916cd06U,
  0x10e9f32a0907c6a4U, 0xbb3adb92d534001dU, 0xb3352bccc30cda20U, 0xf6343030ff6fcbc5U,
  0x38dff704fe31cfe3U, 0xdd15baaff9070a25U, 0xafd811fbe043fba8U, 0x23e7aadcbab6ebe2U,
  0xca3e390a459ecc81U, 0xcfc34bca1e54bc3fU, 0x5ccc09121b3b413dU, 0xb52c0dc5e8e10ef3U,
  0x35e8df39f3fe19d6U, 0x1cfd46fdfc0adf1aU, 0x1ce7db2337bccde9U, 0xe4fbeef4df1003c6U,
  0x7432a34f5f31616U, 0xe016140c4bdef3e0U, 0x25dce1d8e8270d13U, 0xd60b2908f1201d20U,
  0x3b29d815d2dcf814U, 0x13b9ea22e8ea1711U, 0xe6e4d615e81a1feaU, 0x85530d5f3810fc5U,
  0xde2bd721ecd83d16U, 0xf10cd0f2431ec811U, 0xf5e01ae6cff8e2ecU, 0xe0ee0b114935edcaU,
  0xacc5bbcf1ff2d415U, 0x22e12e1a081b02e1U, 0xc8cad7276ae9d717U, 0xa46d1f6f3122fedU,
  0x574b0ffce9a40ef8U, 0x7ce939ccf831dee7U, 0xbd11cb1beb42c80aU, 0xcab8bac31f25d638U,
  0xe3a42f0e3d2fcd0eU, 0xf61adac2cf07081dU, 0x2a56ef1e14e41ed6U, 0xfa080922f5e2cdacU,
  0xe3c18c70fcba602U, 0x102c0fa22c222cf1U, 0x34084d2cd8d6df25U, 0xded121f6d3b80dbcU,
  0x1deb1390efa4c90bU, 0xe181d7a6ce08f2baU, 0xf4bcb0ceccce960fU, 0x35f0f8c3152538f7U,
  0x20bdf602fa0c23a5U, 0x5a0f1ad3d065eeffU, 0x341220fceed503f1U, 0x370426d64f0321edU,
  0xf52f11aef4a801faU, 0xcd31274b0c2cd9fcU, 0xd41323e62455bfdbU, 0xa1024881b8e2a9e9U,
  0x53f3b02a58083418U, 0x55dd08c027f5e2faU, 0x1e24e101fb09352bU, 0x25771524018f05e3U,
  0xb6a93da2210e57dfU, 0x2931fb44161dd2aeU, 0x30cfe904f5c01614U, 0xfe0651e81a12e8f9U,
  0xea1bbf1d380f6003U, 0xb1c0c531eb24eea5U, 0xa92fb121122fcaf6U, 0xfcf9bd23f8f35506U,
  0x1ad2b7de3cc315fdU, 0xebea493d7413cb0aU, 0x1dea04f73adbdc09U, 0xd254eb5f000d812U,
  0xee6810d31f51731U, 0x2d3c093cf1e8d202U, 0xda06c10af201ac16U, 0x41d4ed00960c2014U,
  0xb3ff45c0362f25f8U, 0x28d1f2eed0192a30U, 0xff0335001c6dc50U, 0xdfe9ebee0a03ec18U,
  0xc2bd1c81de7d6faU, 0x35dfde21df17ca4cU, 0xd9bb03e1ea150ee6U, 0x26a307dbbefd25deU,
  0xd205312ae73adf0bU, 0xe808e7d243bcf112U, 0xe02de32a503103e5U, 0xf1e912cebc310201U,
  0xe6ffdfefd8f112efU, 0x458b08bcc70931d6U, 0xf1c2f501f7351b25U, 0xfd9145170cf3c3f6U,
  0x3909c50edab9e00fU, 0xfbbb1453feb6a8eaU, 0xd94de614e3d316efU, 0x60681db02c49648U,
  0xc0bb1fe834ebb617U, 0x20d10cd62926f0d5U, 0x112bf5cff814b5fcU, 0x4620cc0fa4eee5cdU,
  0x27feff0f164db036U, 0x50dfc11dc1df4f8U, 0x7f1aeef503f53421U, 0xbddaca0dfb4bbbedU,
  0xc0c1e20e0d50ccfU, 0x126f903f32a472dU, 0xdefa03ebf6f52814U, 0xdbfcf06c11d2431U,
  0xf7f3e3e9f4fb3518U, 0x4bc12af820e02cecU, 0x1afbfb1135cf3e2aU, 0x1ec2f8fa12e734b1U,
  0xf20725ef1e0a3c11U, 0xdad5fd4bd8f5f3f6U, 0x25e0f0ef1e421d26U, 0xcf46e7ffd33114f4U,
  0xfcee32f2d503df31U, 0xf8272a0510324728U, 0xdb01f304df04c6d0U, 0x1908090511c65000U,
  0xe37da25dd29141bU, 0xfe1e181910f9b92fU, 0x252df3fbf64b380aU, 0xa4062a33e9101c0bU,
  0x9131eeacfbd09f9U, 0x3e15ccecfad3fd08U, 0x33d5261b26490606U, 0x6e03502c31e72bb9U,
  0x17f92623d2f30e22U, 0xbdaef7d5f5d94151U, 0xb2112d1ce3f31c0dU, 0xfc1a5108f748cb00U,
  0x3e54ee1914c00627U, 0xafd214e3c730c300U, 0xef30f914e037e705U, 0x16000c09232cd52dU,
