/**
  ******************************************************************************
  * @file    network_data_params.c
  * @author  AST Embedded Analytics Research Platform
  * @date    Wed Jan 15 11:14:01 2025
  * @brief   AI Tool Automatic Code Generator for Embedded NN computing
  ******************************************************************************
  * Copyright (c) 2025 STMicroelectronics.
  * All rights reserved.
  *
  * This software is licensed under terms that can be found in the LICENSE file
  * in the root directory of this software component.
  * If no LICENSE file comes with this software, it is provided AS-IS.
  ******************************************************************************
  */

#include "network_data_params.h"


/**  Activations Section  ****************************************************/
ai_handle g_network_activations_table[1 + 2] = {
  AI_HANDLE_PTR(AI_MAGIC_MARKER),
  AI_HANDLE_PTR(NULL),
  AI_HANDLE_PTR(AI_MAGIC_MARKER),
};




/**  Weights Section  ********************************************************/
AI_ALIGNED(32)
const ai_u64 s_network_weights_array_u64[81252] = {
  0x7f0000007fU, 0x7f0000007fU, 0x7f0000007fU, 0x7f0000007fU,
  0x28e34fe90000007fU, 0xe446da131bca8a65U, 0xa18820fcd815158U, 0x2b431001243e2a8U,
  0x1215fdfef71517ddU, 0xe8c92626daca1dbcU, 0x223a7f350e36fecaU, 0xb93666fabaf60429U,
  0xc4432b96dff5edfaU, 0xf319b9dfaf81db22U, 0xf6c0fc17d75206e3U, 0x41348e3c47f571eU,
  0xe9d5f01da2a2d824U, 0x552af9671a0adf26U, 0x303546300065e437U, 0x636245eafb4efe74U,
  0xf1b08909fbbf7fe1U, 0xd65930d722054be0U, 0x4cf5e1f123ca2aeaU, 0x7f0372ab822ebdeU,
  0x3be9f7bce926167fU, 0x12012ea91301b208U, 0xf304bee2e0cb1330U, 0x17a0e7e2810e34e5U,
  0xc26d52401d81224U, 0x35006907095b0109U, 0xc9524dd57f0bf605U, 0xffffc43ecbb64e19U,
  0x437affffd8bbU, 0xffffc985fffff4d9U, 0x36d5fffff8acU, 0x32c5917fffffc6f7U,
  0x768117885feca15dU, 0x7f556a48fbb1a26dU, 0xd74edf13bd913f8eU, 0xac377f137f817cb7U,
  0xf3f2358149a1db0eU, 0xa7c97f3005d06106U, 0x601201386728b59U, 0x15a026781b3U,
  0xfffff1be00001aa8U, 0xfffff8f4000000a8U, 0xfffffe5a000005e2U, 0x11e50603000004acU,
  0x6f5bc431c9da9255U, 0x41aaabfd16b48152U, 0x2fc726927ffb8c3bU, 0x7f81bfd2de819536U,
  0x32d0ddaf5fe6ae70U, 0x2defdb405f15d57fU, 0x89c60b81f3d354a3U, 0x8f4a811dc8d70ddeU,
  0x15942dc8d5efU, 0x1a9c00001f8eU, 0xffffec18fffff3b0U, 0x2707000037dcU,
  0x812d99d9fffff287U, 0xa080220ec5932beU, 0x7f93eafbU, 0xad7f097f00000000U,
  0x687f0681527f9781U, 0xb10598817f19U, 0x33b620000f842U, 0x3f25c0005dcc9U,
  0xfd6c0002f7d4U, 0xc2d081ff00014ffeU, 0x9f1e7d6c0541ce2eU, 0xf17ab18181691bdcU,
  0xc6770efc8fbb0102U, 0xac2693d97f0c0e60U, 0xbd81d6a6ef441181U, 0x811cc844b9fe7934U,
  0xef59a1c06b06e656U, 0xe02e381f4efU, 0x179bfffff17fU, 0x1211ffffe618U,
  0xfffff99e0000148dU, 0x9bcf843e0000179dU, 0x21571d7f4081fe92U, 0xcee37f9fcb19135cU,
  0xdeebe97fe2fdd324U, 0xbc07eeb54a8a9a3aU, 0x41fffe00dd81e6a7U, 0xbaef041d47f8a61U,
  0x9c813af9723681efU, 0x81def062a9020024U, 0xafb7811f94c032d1U, 0x599619398d9a9d72U,
  0x222b5a7a812e5013U, 0x7fd3e9e881d1043eU, 0xd3d568813117c1e9U, 0x48e62457293909cbU,
  0x1f23f081f90c4b81U, 0xe46f4fe35a7d28bbU, 0x761d05af36f77f32U, 0x8174964a20638126U,
  0x5ecabe046c0139dbU, 0x2b94210e5381e5U, 0xf0de81e505f7c881U, 0xbbe2b6b143d70218U,
  0xa029679a1ad37f50U, 0x30e0ca3d7f0e3d4dU, 0xb2810aeed83081c7U, 0x456a47b38425de16U,
  0x2f12ff500a3e81f9U, 0x2ff0c0108347fc5U, 0x2f819bd781b5a34aU, 0xd7fee42bc58ff24U,
  0x7f74feda4ef00ceaU, 0xfa81cbcf31fff9a8U, 0xce403e7f9ab16f8bU, 0x8141b570303f5b34U,
  0x2f7c649761d5071cU, 0xde0957883abb812dU, 0x53361881d381e5e5U, 0x232b517f9fc451e2U,
  0x98d42935afe92a5fU, 0x3f92acb6981U, 0xfffffe1500000118U, 0x1cbfffffeffU,
  0xfffffca1fffffee6U, 0x57fffffd9eU, 0xffffffad000002eaU, 0xfffffefefffffebaU,
  0xfffffcdafffffeeaU, 0xffffff60ffffff68U, 0xfffffcb700000099U, 0xfffffd59fffffda9U,
  0x351fffffed3U, 0xffffffc6fffffbeeU, 0xffffff3100000212U, 0x2affffff98U,
  0xfffffef8fffffeb1U, 0xffffff34fffffe10U, 0xfffffe01fffffd96U, 0xb8000000bcU,
  0xffffffa000000028U, 0xad1a518ffffff48U, 0xcccbd111ed0913f7U, 0x95d90fe1d54f89c9U,
  0x7fa049fa040be8c6U, 0xc5636c120938f54aU, 0xbf06f9f7051a6983U, 0x7f7f29e5067ff217U,
  0xd243b9e8041bca05U, 0x147d9d483e1d05a5U, 0x813859166da3e743U, 0xd59efb0fbba262bfU,
  0x31bfce1c3f2dd3ffU, 0x68cf810b3522e6c7U, 0xe6811d40591a1e32U, 0xa7f2902371cffd8U,
  0xffe47e7fc1815ae0U, 0x5716a87f0f2023ebU, 0x5485095db17fc1a1U, 0x760c030b7f20e7aeU,
  0xd02af8ece1131413U, 0xbde7e24bbe04532bU, 0x6ecc7fb058eb1613U, 0x8258ec34082f818dU,
  0x3841817fdc7f7f92U, 0xedfa812c357f7f2bU, 0x9b9de7cccdedfe23U, 0xd5290c447f0cf47fU,
  0x447f0ffe3e03e581U, 0xc02b6c5f8720557fU, 0xdd6703067fba860dU, 0xad817f7e81f77ff4U,
  0xf70b1cfd1adf7fe5U, 0x3c6145081bbeb82U, 0x97fa1af0c4c6405aU, 0x325eacffe8a5dc81U,
  0x81df2e3ceb48501dU, 0xe4281a3d07db7dfaU, 0x7fcd377fd121f798U, 0x5b9ffb0cad403d4eU,
  0x9aeec77f15f0bd8fU, 0xd6d7fae1e355247fU, 0xe8ee1e1408c52a4aU, 0x9a335de61de00cafU,
  0x223018fb0719fdf6U, 0xece3992f04fd5922U, 0xffffde07070bfe4aU, 0x27d9fffff5faU,
  0xfffff94400002f4dU, 0xfffffb7dffffeaa3U, 0xffffeddcffffefddU, 0xfffff992fffffd94U,
  0x36befffff370U, 0xfffff29200002916U, 0xffffed3200000c70U, 0xfffffeedfffffdfbU,
  0xb5fffffd33U, 0xffffee06fffff132U, 0xffffe969fffffeb8U, 0xfffffe52fffff9f8U,
  0x116fffff0b1U, 0xffffffd1ffffff1aU, 0xffffe5f8fffff20fU, 0xffffe394000007c9U,
  0xfffffe5100001b12U, 0xd9ffffc698U, 0xf920042000001e14U, 0xba29e4e5dae29fd5U,
  0xe34ad2351efe7f36U, 0x490b2bb649fd212aU, 0xe7573539f0145ae2U, 0x476f4821d41bd721U,
  0x54c49f3b2ecef9d1U, 0x413470e34ba33f5U, 0x1315b290e93ef3a6U, 0x2abf7f315d05d1b0U,
  0xd1cb28aec31331caU, 0xbcef1d0dde4b2738U, 0x3c7d74f488c8e28dU, 0xe558f8367ff7d206U,
  0xadca15a79b53d25dU, 0x60c4e71baa36ed9fU, 0xecd2d8db10e12a25U, 0xe80b1607b3c481e0U,
  0xdbe316a9d831b4ceU, 0x213815f3a024e72aU, 0x23590f8111d6450fU, 0x44e43def6184865U,
  0x27c75fbf75c1cdcU, 0x36711f0237620914U, 0x7267e51685f95804U, 0xbddc570ab8e863a5U,
  0xf4ed1e4de05ef07fU, 0x26ccad295ca0d112U, 0x85b8bad81e50acdaU, 0xc86adf5a71cf87dcU,
  0x33988e1948263addU, 0x9e6916505c2bb7d8U, 0x3b5d350823dc8db9U, 0x23631fac301b86d2U,
  0xd845591a342e55c1U, 0x3e45be2281a3c03fU, 0x81eaf336b2f2d02eU, 0x2a330ac20bfec7ffU,
  0x848eb283108ed2fU, 0xdea47f9343d0209U, 0xf2b7d8e1c6fcfcf2U, 0xce81ca2125db3033U,
  0xcbedd9f131022a64U, 0xe0ce8529ffcbf4b5U, 0xd7eaf4b790eeb701U, 0xc11be56be0bb28dfU,
  0xe3d7703492bbb60dU, 0x30c93d395d4a0ad6U, 0x54b067372a5b4c57U, 0xfbf537c002d87fU,
  0x5f69cd26f3dad72cU, 0xc903c9bbf1255bd3U, 0x11cc38b91fe820ebU, 0x1af8df34cf2e43fcU,
  0x545f0a17dff02081U, 0xc3debe6272b920cfU, 0xcc0113bad230681U, 0xd831aff7592a4821U,
  0x11bf8e4aafc8d2eeU, 0xf5623ac1cd1a19ebU, 0x7e4407d66f06b2d2U, 0xa4e7ebf0c712d6b6U,
  0x941eae741c179d7fU, 0x45d1fdf9fa63c230U, 0xbb11abc402e9d2ceU, 0x3828b4180f3a7bc7U,
  0xe9eb47d64147bd43U, 0xaa3d18cce4801faU, 0x1e2793ebd826db81U, 0xe3d6165bd9a92164U,
  0xc0f0151a31374e4dU, 0x40d5cf62ca47f026U, 0xb17f653bd43f2227U, 0x5febea0f10d9b036U,
  0x2a4d15cc2b47da2aU, 0xd93f14fe4853c6U, 0xe027e28114d1f2e8U, 0x150efc661ec3ff22U,
  0xffe871094d4743c6U, 0xc43fd2ff1a11522eU, 0xffffe6572fd14c05U, 0x3324ffffd595U,
  0xffffc98900001cc2U, 0x1c79fffff03eU, 0x251cfffffc31U, 0xffffde5bffffe02cU,
  0xfffffcc40000054eU, 0xffffda74fffff35fU, 0xb8b6a906ffffeda5U, 0x5d2d39f1cedf9688U,
  0xe2ae2b22a8d97f73U, 0xe91b7f6267da4b7bU, 0x3c12281ac2f84d13U, 0xcd000eb21524de7fU,
  0xe3ec2b7f03b56615U, 0xcae43fe3f2ebf5fbU, 0xd747b9de761ada1aU, 0xb9bc18437f26ccfeU,
  0x2a0d32d8dd47c223U, 0x1ea9b152f07fbd43U, 0xabbdea1f5bfffd9U, 0xdc2f7f50690715fbU,
  0xa919c963f348d9a5U, 0x4a8fdbe0b681bb38U, 0xd47f0e21e00fd304U, 0xbe0ffbf0df38f77aU,
  0xf3ed7f701f0efe27U, 0xf5742538cd3ad526U, 0x7f31d5a2a949ee5aU, 0xe5be50db856d1a84U,
  0x4b55decb09eef8c3U, 0xbddbcce17710c0ffU, 0xea20c038a6a71881U, 0x278df224f936e8ebU,
  0x9e4a0f4b3748815cU, 0xf814e200ce1b052U, 0x560a034d2a6f2345U, 0x81e669e3d6f13d20U,
  0x2626813a42e457b6U, 0xc6254e13cccd9438U, 0x1d7f25fe52a83402U, 0xdb22b7af542dcf26U,
  0x7f551009fcb6b4c1U, 0xad1be14bfa2e0101U, 0x7f438461fee1022U, 0x2b48c4171dfecd81U,
  0xdae63adcdde124f7U, 0x815f15f02637fc0fU, 0x3fc612c563c5eba9U, 0xef533875bb815029U,
  0x847f38113e15de09U, 0xd4cb53e3109cd02dU, 0x95066a4c6b1dacaU, 0xdb3b15bfb08d2528U,
  0xaad0fa78f2212e7fU, 0x7f075cf4166440c6U, 0xcddaeae31d945832U, 0xed0722f3110f810aU,
  0x4bcb02e5f150eaedU, 0xcd814fe507ebfedfU, 0x7e5e7f443b200bcbU, 0xf36b417285a3918U,
  0x3c523ad5df41b5d0U, 0xce8116d9ceb2fef2U, 0x4a50abcb3b2d10e6U, 0xbdbe2ae72a7f12b1U,
  0x2bdaa2190b9d1ae8U, 0x464d1a5a43812afeU, 0xddfc25e102cbd5beU, 0x657581cdfcb74c27U,
  0x252acc732c22b04aU, 0xfee5d49f7fd34a26U, 0xdc96de5e3a235878U, 0x5255dd3cdab1b22U,
  0x8f399c88462afa7fU, 0x2a7fd18d70d5ef47U, 0xfebf9e5c2a3cddffU, 0x810c57bb0f12c0b0U,
  0xf4c430176b953ba6U, 0x4e81c1f6d217a7fbU, 0xe5403c074c2b84a1U, 0x2814834efd5cabeU,
  0xecbbbed5be484264U, 0xe64e2bb5ab1b12f6U, 0x726321810aef4781U, 0x37db205f0e2b33d7U,
  0xfd937fbd00c9a35bU, 0xc420f31309acf525U, 0xd1f51bf71f9f1f00U, 0x6a047a0861fcb92dU,
  0x7f6d3eee813bf131U, 0xaa0cbd34e54d36f0U, 0xcdcf3b2dbaa5f0ccU, 0x57267f89fd19dad5U,
  0x2623ab7f48c6dfe7U, 0x170c28f4e911d817U, 0xe7417fd94fd0e8f6U, 0x7307e5b5989dc80cU,
  0xdff1e3b6c33cfc7U, 0x3dc03dec4a116c6U, 0x6d5bee81e8d28110U, 0x17c20d0e3ce41e4bU,
  0xec5fab81aa2a1d24U, 0x3a059b62cb3c58fdU, 0xfffff8c0fd87d62cU, 0x520000002fU,
  0xffffff5500000081U, 0xffffff340000001cU, 0x13c00000135U, 0x5ebfffffe28U,
  0x15400000349U, 0xfffffb7efffffe8eU, 0xffffff35fffffe8eU, 0xfffffff0fffffff5U,
  0x51d00000147U, 0xfffffc1f000000c9U, 0xffffffaa000002ebU, 0x118fffffe90U,
  0x6300000013U, 0xffffffa8ffffffd9U, 0x11c00000117U, 0xffffff15fffffa7fU,
  0x33fffffeafU, 0xffffff3ffffffd8eU, 0xfffff8fc00000218U, 0xaffffffbbU,
  0xfffffd2bfffffeaeU, 0x4cfffffcd0U, 0xc2ec7f0f00000173U, 0xf517eec5b5fa3f90U,
  0xb7ef20ef16ebde8aU, 0xd69ad80f81cc18a2U, 0xeae935199bda2546U, 0xef81f4efbe061e75U,
  0xd70b397f811e08c3U, 0xe98e7fbbcafca00dU, 0xbcbc400673cdcf53U, 0x3b988f265ae3d52fU,
  0x2b9d3ffc00f77f49U, 0xb1c6f5fc8ddf81c9U, 0xed13e804d9d20edaU, 0xd3b2fc813646c625U,
  0x81ae7ff953f101c3U, 0xbcb5ee19b6817f66U, 0x49bc9b59fbe27cf4U, 0xd905baf8fec3e5f5U,
  0x11235003f981180aU, 0x417fffeee21f08e5U, 0x95add13d0a7700d9U, 0xc9818a050a32edb8U,
  0xd49579ec26d8497fU, 0xab87ff20c7fae0bU, 0x3b7f0dfdff13cfb6U, 0x694ef4fffa248154U,
  0xd581740e7d7f816cU, 0x7f939b315db59363U, 0xa28165b17fd1ee77U, 0x5a3b88116050a0cU,
  0xff1bf617772b0795U, 0xd32e0a2a7f7ff60bU, 0x9ba760cb7fc8cdc7U, 0xe5c8d7c90fa1cb7fU,
  0x8dff481538119f1U, 0x812ccaf8fdde6449U, 0x2094bfa362f8181U, 0x59e20ad8d0e7f381U,
  0xfff5f7f1bd1dbb7fU, 0x38db8381d8783ac0U, 0x8195e3e51f01ebfaU, 0x66a8009681520364U,
  0x7f3efc540669c815U, 0x7f4510d6f05e1058U, 0x5b83b7f27fdb6e4U, 0x790881a242b967e7U,
  0xf3897ff465c8c70aU, 0xc7a91f07cb31f57fU, 0x66e3f40734b8afe8U, 0xec6ec96e42f101aU,
  0xafa071d36d4daf0U, 0x18c20b9fe38170ecU, 0xbb51a10fcfe897d9U, 0x853adae0f3f6732fU,
  0xfffff7a3a59934fdU, 0xffffef98ffffe82cU, 0xfffffcf4fffff3b2U, 0xffffe5a000000cacU,
  0x170cffffffe8U, 0xfffff935fffff8a1U, 0xfffffb50ffffee60U, 0xfffffc2100002116U,
  0xfffff5bcffffe50aU, 0x33deffffd6b1U, 0xfffff81200002815U, 0x932fffff291U,
  0x173cffffffddU, 0x2eb400002e55U, 0xffffeb13fffff703U, 0x1cb6fffff1e7U,
  0xaaafffff129U, 0x2e17fffff01bU, 0xffffe10300000dc2U, 0xfffff690fffffdc3U,
  0x99800001cc2U, 0x1a7500000594U, 0x138300000f31U, 0x6bc00000694U,
  0xd8de42f0fffffd9eU, 0xfaf9e3154005d3c8U, 0x552acc07a08ff229U, 0xee503830bc06fe10U,
  0xff4fdb04012e430dU, 0x18410fe3022dafefU, 0x3c77360fad81b4dcU, 0xf886be28210ae031U,
  0x30377f16dafdf306U, 0xd1403d165eb5a804U, 0x4b7c45de51cc3de8U, 0x323beadda1abc225U,
  0x22edc18e0b9122c8U, 0xdc1a9feed8c32af8U, 0xfbc8d34629c3d91fU, 0x3ab2d9326c45183fU,
  0xffd54111071f36bfU, 0xf2da257f9cdd0fbbU, 0x2f39ccce5e413b9cU, 0xf76cf912bbd9cfc8U,
  0x6d2e1e372f2747d5U, 0xd613fc6cc5c7aeb4U, 0xbaeb0430fa285e59U, 0x222c5108bfd581d4U,
  0xd3b5871df8f408c1U, 0x37f8f6d3f0b5d531U, 0xfb5d0f2d2bccb005U, 0x98dcf2be331fdd05U,
  0xe4810331104bd804U, 0xb5c030164bea0cb5U, 0x27f11ab9413ff2daU, 0x1e3ed1de6293c05U,
  0x3e2ad5cd26691719U, 0x39e6814040f4ca2aU, 0xd2bb2ec042ce2b0dU, 0xc927d3f2340110edU,
  0x849fb29a956c0c6U, 0x3a39df8111dceebaU, 0xaa38de3813fffdf2U, 0x14a7d42e4ab742ffU,
  0x3298e012121ca3ffU, 0x18c240e118e5f0adU, 0x4f31b82205c4f202U, 0x2fae2abd222a8d26U,
  0x29bcd7ba723afb18U, 0x2fc1c8447ffd3bb8U, 0x74dbb1f4496b113cU, 0x8ffa021513fedee0U,
  0xe14204baccf93535U, 0x3bdd4442f9c22fb1U, 0x7976f717e62c04f9U, 0x565113f7d7ed1549U,
  0xe044d9e945dc7f2bU, 0xc919481ec83eba36U, 0x7efd6cf3c1debf6U, 0xc8e2f7fc9ec829aeU,
  0xb8eab501ee2f22e6U, 0xf0a4d369d1390c15U, 0xe7e274230d953f81U, 0x23bfaebd0dc647e1U,
  0xf7641749b92cacd4U, 0x318f31d3f46cbd3fU, 0xe610154b1d270eafU, 0xc3f648aa85eac328U,
  0x3a437feeda2f0bd1U, 0xf6dace01d7c84390U, 0xc420efa52c050ed9U, 0xcefcd6ecac2a9cd0U,
  0xd81705af5c5f68beU, 0xbf17357f541b10faU, 0xfa60c4582103df10U, 0x2645df6d6027fdc5U,
  0x747e013bea1be924U, 0xb8e92fefd8d01adeU, 0xec43f9092eeb07d2U, 0xe2f8f5f80d19037fU,
  0xcaf8199573c3e3c4U, 0xf723384c245510c6U, 0xb2193bc8ae3c12f0U, 0x691909230c3d0f51U,
  0xc24ce23ac157cbb0U, 0xc97a65f7e63cd158U, 0x4cc291ead7bb50fbU, 0xee0e792e81cd01b7U,
  0xa725061b0fcde0baU, 0x59243dfe3f9ceab7U, 0x3cbcead1254635a3U, 0x909b3072de714e9U,
  0x45fdc535c69c43daU, 0x190e3102b97f36fcU, 0xd9a906f411614ee9U, 0x47d81b1d914a3010U,
  0xd31346f024ae7ffcU, 0xb90850211720a120U, 0x300726cee115fff8U, 0x3630f9daf80d3f3fU,
  0xfffffc0f2fe8d928U, 0x13f6ffffe02bU, 0x2141ffffe9c8U, 0xe0ffffffa0dU,
  0xffffc33effffe6acU, 0xfffffd4d00003782U, 0xffffe67cffffd3ffU, 0xfffff388ffffff62U,
  0x3dbae981ffffe4eeU, 0x737c3b83966f314U, 0x4017f27f5b234021U, 0xe91d4213362ff73fU,
  0x4158a6a5037615d5U, 0x3d08dcc73014a2f2U, 0xabd0d0496481e3aaU, 0x3b0a52cc9cd6b73eU,
  0xd4daf9facaeb8139U, 0x4404bb7fa3ba4000U, 0x9094a4402203f14eU, 0xc1cf460578ff1609U,
  0xf233e025e93d2281U, 0x6d83dd7b0814e0aU, 0xf32b7f03d5c3d1f9U, 0x985243c92bee1ab9U,
  0x69d73e9bbf0d5b53U, 0xecc0939593f7f5aU, 0xc808eceebdca28d0U, 0x90c5b39ae87fd837U,
  0x428beb9cafcaf3fU, 0xcfa630ef7f28422bU, 0xbdd1f9eafb38d74cU, 0xd1c768cce25f6e6U,
  0x30cf49f5f8fb5181U, 0x9b20de42d47fb946U, 0x669eaeabf6146ce1U, 0x681ba00e22f08deU,
  0xf7fdd47f0d1762f6U, 0x56fe0e0d9fe45a10U, 0x2e4a8fca32cb051cU, 0x381bea3c2505107fU,
  0x5f7ca6887520107U, 0xa03f8c3e7219574U, 0x1aff1d0edb568132U, 0xec91e2133576657fU,
  0x2e9f201f06354a55U, 0xdcb4227f21db210fU, 0xdb3135381cfcc379U, 0x33f91611647520d2U,
  0x1dedbebca1771b81U, 0x53bdf348ece4d5f2U, 0xdbc828160d34ff81U, 0x192f708122de1699U,
  0x9e05a140693e334U, 0x4b8130d33c7979c8U, 0xb2218fd5dedcbaddU, 0x8191de0ac255f0f3U,
  0x82ab05e9a9c242eeU, 0x9de67fbc4c366393U, 0xe833c2adabbf3bf5U, 0xfd701b105f47cd7fU,
  0xc9f9738142dcee62U, 0xcc2b11ecda69eb31U, 0xd4128dfc7343d2ffU, 0x45d949d235d03a7fU,
  0xa827bec00604b1e6U, 0xdfa468126551feeU, 0x40ddd4d247d0eebdU, 0x1565352d81f6321fU,
  0x81d8b3223c18f320U, 0x250560bbae2acc0dU, 0xc9acf6f6d7210fe5U, 0xcd587fc7e4be3555U,
  0x1303ee00d6e30461U, 0xfcfd4b2f1a087fcaU, 0xa11fc321d2304df3U, 0xb7f7149b564dc37fU,
  0xff0003e826fcd809U, 0x9bac44abd8194a7fU, 0xcf0e29e55944df60U, 0x1902a3f457ef81d3U,
  0x591e48ddd254aa85U, 0xbf3a222e590c4742U, 0xca204cff311d597fU, 0x8131f4084736c21dU,
  0xc70bfe08dbb6bfceU, 0x3dd44b6141f224c4U, 0xf947087f81ee0de8U, 0xf81e33e042f01154U,
  0x1e339b7fc236bcacU, 0x2747c6ca305fb86eU, 0xcec520ef039d2a90U, 0xcdf1f79ece04e4U,
  0xe4d85102f013813aU, 0xedb7bbc6370afacbU, 0x558dde859d4fa7fU, 0x1c7f0c08c0b0bf13U,
  0x7f09f1ad24432eebU, 0x791fe301f311e0aU, 0xdfb0e853ec074026U, 0xd72206e60446af37U,
  0x8ed7dca7b97f6943U, 0x1b30558141e8f7c3U, 0xfb5a4209461b381bU, 0x91cce903c3b2475cU,
  0x15a1a7ff2cdU, 0x228000000c7U, 0xfffffd08fffffffbU, 0x16d000003ffU,
  0xfffff985ffffff0aU, 0xfffffb9100000010U, 0xfffffc9e000001aaU, 0xffffff70000000f3U,
  0xfffffd74ffffffcaU, 0xffffff44fffffcf0U, 0x19fffffff10U, 0x7500000060U,
  0x97ffffff64U, 0xffffff42ffffffecU, 0x1a6000002daU, 0xfffffe2800000004U,
  0xffffff7efffffeb2U, 0x373000000e8U, 0xfffffd8500000054U, 0x264fffffb01U,
  0xfffffc17fffffee4U, 0xfffffcb70000096bU, 0xfffffd9cfffffeb2U, 0xffffff4c00000192U,
  0x211fe3670000013bU, 0xe6fcf4f1e707270aU, 0x5cee0dae8c6db05U, 0x6447fc4bbac0fd10U,
  0xc24ddd607e681d1U, 0xe80cce18b443fa2bU, 0xf232df40fce80081U, 0x170ddc31fefc2d55U,
  0xfeff8147b3e9aa01U, 0x362920612bc917deU, 0xe5f5affe1fd5c0bfU, 0xe31fef0e8fe09c9U,
  0x2a360555c5d531adU, 0x41ae2484f812621U, 0x52050a4005d3a114U, 0xc8136aed44b558d0U,
  0x15010605f470d802U, 0x1f28f927fb091afaU, 0xcbf7ba1eb7f9cbf7U, 0xc4feee405bcdeb1eU,
  0xafdbc1ac2d3d4fdU, 0xea5953c338b045e2U, 0x810ee14cf81df0feU, 0xdefc225af4dceccfU,
  0x6f5f62196458a41U, 0xefeacff01edbf028U, 0x5f3f02eddd9d6dfU, 0x23400b815c147fdU,
  0xd60d1d1cf5cec081U, 0xbff1d645f005ffd3U, 0xd756e87fee7fbdf9U, 0xb2fd102d814453fU,
  0x4beae226e508f832U, 0x4c106624f4cab2d8U, 0xff81c18de9c1a1e4U, 0x24270d1b201e42fdU,
  0xf57f817a9ed15dc1U, 0xf45ebf3c2bcf7d7fU, 0x4d1aec00de0c0b71U, 0x7fb034f02b81a381U,
  0xdad5d00a58ef941dU, 0x4c5d18ff5be82ed1U, 0xc52fb766a5fe504eU, 0xd336fc7f679e7007U,
  0x7f7faa400422ee2cU, 0x52cf58a07497e4b0U, 0xdeadd72505eac73aU, 0x4820087053f6e9c8U,
  0x9ffcce758a33e33bU, 0x81360a347fa22a04U, 0xef291927b202fd18U, 0x400634887f992ceaU,
  0x410cdf5bef64cf20U, 0xf846e8105aac0b9dU, 0xc8fc21428138e2f7U, 0x15ceee0e25b10e26U,
  0xe625d03a4503da11U, 0x6230b9cf5f812f3U, 0x9f0e257ee02cb2a5U, 0xfa03d739089d26f0U,
  0xf6204831d028b2bdU, 0x9a35fafdeb023a0eU, 0x9c6d812ac3f025bU, 0x2798243e0109a6c7U,
  0x1206c2b63aacf119U, 0x620a5a32ce0c2e08U, 0xd822bf35e6b37fedU, 0x2b7f420631f77f20U,
  0x21140e22b2412d7fU, 0xf887600d0fcab5daU, 0xdbd5afe373c8f055U, 0x7f6e7f0f5fe83cfcU,
  0xdd0ac30cd1e92342U, 0x8c6b42ee3dcc5ad0U, 0x2d421154c8586f60U, 0x1a817f207ab4e7deU,
  0xcbddb75b2cdded6eU, 0x457fe9fe7fe6e581U, 0xaaf8fa34fb3b0b52U, 0xb320062705c039e0U,
  0x1b049d2cbf0850f6U, 0x2ad01adb30d6fe09U, 0xd7f7a37fdf6a2266U, 0xf031c70d22811cf8U,
  0xb9f31e620d17f9cdU, 0xdcfb0c2f09cb15f4U, 0xbf010a1307f1e207U, 0xefd11c70e0ff614U,
  0x321152cda72f32dU, 0xc6ed9832e1ad09ddU, 0xcf0246170451fcb4U, 0x510f1eae80bf8f7U,
  0x2bfa0dc2b337d50aU, 0xe0bc1e72f4ffe9d4U, 0x2191f0d7428b072fU, 0x6809671eef1c1f19U,
  0x9df737ef1d0369eaU, 0xd8531ec401fc34f1U, 0xe38b381817f4f47U, 0x2c22942f0f6d1abU,
  0x12b89b017cd9092dU, 0x764f537f0cb77f01U, 0xc7037339faf26816U, 0xb6397fbe01c70dd5U,
  0x1f2aa5350c417439U, 0xa2af2c473506b4aeU, 0xb3d0d13c2b5c385cU, 0x412b210cd8f362b8U,
  0x81f12513e40cd4f2U, 0x942545e30fbbf7d1U, 0x1e1d24bca5017ff5U, 0x18ab0a021be712d1U,
  0x94ed816207583e44U, 0x50ed6fe189b00abU, 0xbef1d56f83fd0deU, 0xcdf619a8e10608c6U,
  0xef019033e5dcd0d4U, 0x58ffdfeeee06aecbU, 0xb4081a18d2643917U, 0xf001c732a1cbb915U,
  0xd4fae2ca0b24bbd1U, 0xf6f9e205d602dbeaU, 0xf3efd383b4e8e9fbU, 0xfbd5157fe200c2e9U,
  0x14eddff94bb0fbfeU, 0xf4ec5ad808074209U, 0x9d0c591d22fa1cd9U, 0x52c13eecdfded0fU,
  0x318edb0d64660ecU, 0x23e1f952f2fd9ff7U, 0x33dfdcf246154129U, 0x5ce13feec6055025U,
  0x9709730ffdfdd1c7U, 0xbf1f6594f6ee02b6U, 0x4e10a3bbf03249ffU, 0xed863cf81227ede5U,
  0xf5ecc5ea7f815519U, 0x5111f921c4ea7fb6U, 0xb400ea3f300dec9bU, 0xcee56cd8d716b1c1U,
  0x1af390cea4c73bedU, 0xfaba072ae71981ffU, 0xe506cad2de0e2b50U, 0x22d7ed1ddc8334e1U,
  0xe8f3da2a17e6ce17U, 0x9e019e4b916dfe9U, 0x47efa6cefdd9e6d2U, 0x50fadd4fe41bdeffU,
  0xf7fff9e7eb35213cU, 0xf9d7b439e8bdbaf5U, 0xffff8cb82719e9b6U, 0xffffe6cefffff80fU,
  0xfffffb2400006bfeU, 0x35e8ffffc2d0U, 0xffffffadffffeb3fU, 0xffffe694ffffec37U,
  0xffffeb9500004131U, 0xfffff12efffff6dcU, 0xfffffd520000496dU, 0xffffece0000039d6U,
  0x4549ffffd6d6U, 0x542700002b8eU, 0xfffff0d9ffffe304U, 0x34fbffffb78cU,
  0xffffcdcaffffe21aU, 0xfffff82c0000227aU, 0xffffe6dbffffd7f0U, 0x2bf700004389U,
  0x29f800002463U, 0x3365ffffe907U, 0xffffdfd0fffffd78U, 0xffffe1e4fffff145U,
  0xd19ffffd787U, 0xffffe648fffff7aaU, 0xd5d61b39000030b5U, 0xea3db5b80cb8aab5U,
  0xb40809c1381ec30cU, 0xe889c8bd0cfd96d6U, 0x3b3f30e2d8c81e2U, 0xc2dcca8bf3e4d62bU,
  0x1fcd1146aef1af14U, 0xe9df0e5fa6bd18dfU, 0x5a1a9946a6b970f9U, 0x9da4f3f6341dcb97U,
  0x13da3a68b83c2832U, 0x4b8102aef7df0192U, 0xe9d0d80e02f73032U, 0x299be0173dfb4629U,
  0xfaba01c2b81d1246U, 0x4be041cfbb1ddccdU, 0x5224f202f109d4ccU, 0xe037815f21d05ec3U,
  0xc7cde2cef72000e6U, 0x6fbafde7a2e0db1fU, 0x2972e939196b9804U, 0x760ee1adbc2a7fb9U,
  0x3dba0440f044e0e7U, 0x2ead505362410a49U, 0xb3bdeefcccdecb16U, 0x646f5ce24fed2a01U,
  0x48c0407fbfa75728U, 0x43ddc54921fefcb5U, 0xf030662bb20171feU, 0xcd2153bb22b2c3eaU,
  0x1c112251e8d0f8c4U, 0x1342fc3becd0cfe4U, 0x35299294bd00d810U, 0x81d210c49f0d803U,
  0xc2ced57706ce14faU, 0x5cc63158cc0bc0aaU, 0xe9a2f324ad81d841U, 0x24dbc36e322b60fU,
  0xbf02a5f9a4f8cdf7U, 0xc5d22a180bb340bbU, 0x4e93ad1ebcb7e7afU, 0xe638e51ba5c00fabU,
  0x41b1ceb81120913U, 0xd30c1fe618e238c8U, 0xcfa1ee3504d2fe41U, 0x34194501ecf34ffeU,
  0x210cc6ebf71f3c16U, 0xe8071547630d7fcbU, 0xce0133fe5edff8f5U, 0x9ec5571a8e0f402aU,
  0xfac0ffdf510a0e3eU, 0xc153af4b2e3dc433U, 0xb502380a1e4625e5U, 0xb9f370e11caeb56U,
  0xe997b1c033487f11U, 0xaa04bcbea50d7fcfU, 0xef3cc609ded3f449U, 0xc0623d68e1b1c0eU,
  0x167de32041bae2aU, 0x382c4b220eaced4aU, 0xe7fb4b1e0a0ad8f9U, 0xc5f6f87036e2af05U,
  0x260f9aa6d2db0c54U, 0x308f1a3213e91a55U, 0x2bfedee83439f638U, 0x477fd949bbd12814U,
  0x1a563812d80be7daU, 0x16b3f2f8c4f0b759U, 0xf981474fe4c66bf2U, 0xbd1aec4d0ccc0dfdU,
  0xea35f24b26024c2cU, 0xdc9cd0abbb43f0dbU, 0x654d112U, 0x0U,
  0x0U, 0x0U, 0x0U, 0x0U,
  0x31f6863300000000U, 0x698920e9f6cb8120U, 0x9ac9810b26ff091dU, 0x4b7911e5d0c250b5U,
  0x894a7f39480244fcU, 0xc2812f3ae01d0913U, 0x14276a2f5bf3436eU, 0xe43b6a3c7fc5f54bU,
  0x7e81e9da10b15213U, 0xc017f81e4a04e16bU, 0x1617cbde7f6ff866U, 0xd4bf3b17f5b5138U,
  0x7f0014c6cfde3539U, 0x1cce0347cd2b07ddU, 0xa6b7b1c70681704cU, 0x727fcfeaf2c8f1deU,
  0x27314f16094ac2b8U, 0x1089ee3481f6dc41U, 0xac918ac23c13cf19U, 0xc805517f44f5c72bU,
  0xc3fdebfa4e2d814bU, 0xbed52dd3a00e32b5U, 0x7f000c784910393fU, 0xe195a28bbab88160U,
  0x252a6ee0298a08bcU, 0xb57fccddb0e15b3eU, 0xf2ebf3247f282729U, 0xe3ea39e211c8bea2U,
  0xe50d81de2eb453c3U, 0xb7c046d592329800U, 0x32ae4922cc2cf581U, 0xe90826d2b1e47f10U,
  0x32fc35b581f3a5c7U, 0xbf29c6c827dc3c4dU, 0x811825b37714e6deU, 0x158107aa321aee31U,
  0x5f2bc35eec193a76U, 0xbf1fa881dcc6672eU, 0x68c43f4e814acbacU, 0x82c01a3c4ef3f33eU,
  0xc22d84814e946faaU, 0xc557b4961b141a1dU, 0xdc0cd36623810cb4U, 0x9bcf60debe816a4eU,
  0xe8992ec03ec45a81U, 0xeef9cf2974f9d31cU, 0x28c8bea2ac7fe1caU, 0x81e2da9059db3c5cU,
  0x193bc1570d884b07U, 0x81daedd03ae39dffU, 0xcefc4a90c0537f24U, 0x1dc4378816d2718U,
  0xfb1aa3c194237fb6U, 0xe04afb3f8146da34U, 0x810fed260fc0d5efU, 0x3347100d6a385df2U,
  0xcf8126b7f002ebb1U, 0x3b0e6f554660d807U, 0x7af2754cc8819334U, 0xd4460d385c022103U,
  0xfbd813207f3ea6cdU, 0xfdcb81b1c7de0522U, 0x51245fe90b2e21d2U, 0x1237f9c722fa81bfU,
  0x1ac9337f394ed9aaU, 0xf9f6313403c4fbfeU, 0xe714984e816cd9f4U, 0xc5d42b31e27fb0d9U,
  0xeed0e21d0c5833d4U, 0xe70b7f0c8550dc81U, 0xc4de3e509175f14U, 0x2981d91164e211ebU,
  0x8976eb51dbe8U, 0x733400009bb0U, 0xa0f800007142U, 0x8bc400010eddU,
  0x5da8000083eaU, 0x7d79000095c7U, 0x90e10000879eU, 0x6fce0000893aU,
  0x6e8d0000a34bU, 0x9f090000751eU, 0x66b50000a04cU, 0x8eb700006621U,
  0xaa6800009bb5U, 0x93870000dac5U, 0xd26100008f4cU, 0x7ee50000c689U,
  0x81d10000b52fU, 0xf5e50000a9ffU, 0x7a4b00007b08U, 0x7c2200008c2bU,
  0x72fc0000a2bbU, 0x98bd0000ac43U, 0x9dd10000b6f0U, 0xbdfc00007db1U,
  0xfeef811d00009353U, 0xe2321ab35833cc17U, 0xdab004e0d683f3fU, 0x24061140fddbdf1aU,
  0x294fe1cdd4e7c853U, 0xd4f0ef26070ff2ecU, 0xdffedb112b3dc3fbU, 0x4efd72e2f2f51eb5U,
  0xeece143c7fe563d3U, 0xbae4cfd712012c9dU, 0xed771d4f34d126d7U, 0x1b58f937b5fc4459U,
  0xf6f3257954cdd6f6U, 0x288bd01b57463b05U, 0x1cc34e3efee90b06U, 0x56fe4002bfa019efU,
  0xc37f5dde0d0927c7U, 0x54bee4ff20f0d9a0U, 0xf2b319275d0790ecU, 0xab09ddccefe9142dU,
  0x6bab16dbd5e7fc53U, 0x19c31f5859088162U, 0x705ad59ce59e61fU, 0xcef6505c62d8423cU,
  0xa8bbd207921d4d08U, 0xddebd102089f00d5U, 0x553ce7f3a23f3e50U, 0x3ceecac3fbcf7fa9U,
  0xdf6cf737e5f8500cU, 0x5eadb6ae28f81f43U, 0x43a6c026c02f9c66U, 0x24bb81efcacfeef2U,
  0x1b1744e5233fbad2U, 0xcb37d33e49e234beU, 0xe6f173ce28b53b1fU, 0xef683eb62b01b34aU,
  0xbb57e70fffc20fadU, 0x3fb3208bf22d3e1eU, 0xef254e02ff0b3feaU, 0x5221b3dc77fdae8U,
  0x2e3e8cdeffdbdd1U, 0x19e4d4b1fcaa55d2U, 0x5bae0ea436bce0c4U, 0x8d241d8bc081edfaU,
  0x1e04f33cc6bc172fU, 0x3df1df05a057badfU, 0xd35f1c0290228415U, 0x4c308449d92f3236U,
  0x5a4a3bd23d22430eU, 0xf214bf8217c92fedU, 0xce417de4d19f2cc6U, 0x1cdab0ecc3bccb15U,
  0x7faf63415bfb5c39U, 0xd01feb336212e6fbU, 0xfd6bf47069564fe8U, 0x572a1ebcb3fd0025U,
  0xd20931c73b6bdb81U, 0xbe3a1ec71465cc45U, 0xee35323c4a01101aU, 0x2fac490ff341e321U,
  0x3a266d1f2559ed99U, 0xdfbe771802a3ee4dU, 0xd0fa23e2f6432c0bU, 0x16add4d1fb0f46ecU,
  0x47aff6e2814be447U, 0x28422aef1ae122f1U, 0xc6b9eb97d6f7a9e8U, 0x1f60362d6eb3ed13U,
  0xf638c9e97f56cce5U, 0x282945cdc1d060fdU, 0x565cfc38f114fa8cU, 0xec59f71a5d961fc6U,
  0xcf3ad7e1e6c6ea23U, 0x42926f10319bde4U, 0xc1e8220417d2cb33U, 0xf40b219050ce1c81U,
  0xda2ff2de143eeef4U, 0xf0c0012b30f4e6e9U, 0x27f4fe11bef4c923U, 0x1d18c91bd12905d4U,
  0x10f8e981152e12efU, 0x1e2adff353a4e920U, 0xd31be711bfddbcbdU, 0x6e106d08c63c057U,
  0xc1343e312e2bf01U, 0xdbe5cad93011f477U, 0x151133f7164f3775U, 0xc23e94d62e7d02aeU,
  0x3d457f4cc71b14bfU, 0xac13393fd507ca4cU, 0xcaaff23f1e46f9caU, 0x52b4e0f5fdda71cbU,
  0x3770d8cd280d0b54U, 0x61086818148100b7U, 0x6bc3f5b827f45d0fU, 0x6e0ce532f558150aU,
  0x55eecfa521b61be3U, 0xeb1121b17bfb400U, 0xb1d681ae13a449fcU, 0x19b1e7265d01b4fcU,
  0x1714c8274c04ddc0U, 0x55b8bfc2083118feU, 0xb019e192c5f20f17U, 0x9cc641ec37257e02U,
  0xc14eddec41cc4a00U, 0xff15a91dd0596cfdU, 0xb623b714347f04b9U, 0x36046554dee8bd39U,
  0x8153a820382954d7U, 0xf2263130de9f4609U, 0x49f318461af166c7U, 0xe00ac12beebad7d1U,
  0xd042908b9b094457U, 0xdb0a8d1766ebcd36U, 0x141f59ae9bdbf911U, 0xe3af07efe8b9dab3U,
  0x3bd0384e6405b72aU, 0x564ec4ee49b0d63bU, 0xbee12286352927dbU, 0xd622fd5f5e7f40c5U,
  0xb7c426d81819309cU, 0x1ab7f51756e713caU, 0x36c1f5e2454381c8U, 0x4c9ea1b430af247U,
  0xeb5b12ee36184648U, 0x281e022a24233b6eU, 0xb4db7f0ece010526U, 0xa44636caeee1cb3aU,
  0xad9e36b2959eafU, 0x3ae2bb350aeafc18U, 0xea1a890df93f5db8U, 0x4c3b4706f0e2a8f0U,
  0x5fa7c418d7e12726U, 0xf1894bc359369258U, 0xd21138ffd8f6b53cU, 0xcf9616e3a6ed1a16U,
  0x3e81b397d626b9e7U, 0xde3efed7de67ec00U, 0x70a020823b2be1f2U, 0xe33a14bb14465f06U,
  0x18b5371eb60057baU, 0x90328ea7d811aaaU, 0xd5bf11db45221720U, 0xc0a5ddca390717beU,
  0xfffff49e021fcefbU, 0xfffff58bfffff0a0U, 0x6befffffb0aU, 0x2d000002acU,
  0xfffff2c300000882U, 0xfffffda0ffffe2ecU, 0xc1afffffd45U, 0xffffe784000005a9U,
  0x11eafffff6aaU, 0xdf8fffff4b3U, 0xfffff40bfffffc66U, 0x107f0000163bU,
  0xac0156a700000432U, 0x7f7f100f5634a216U, 0xb8e2d7f006d3aa4dU, 0xf000166a791d920U,
  0xf3f7d6647fd82be6U, 0x1446312ae922c7ceU, 0xeee593c52812f02bU, 0xe124afe98ac6ad36U,
  0x8c60811599871416U, 0x832ef02aa3cecdddU, 0x2eda702132617f0fU, 0x37a0da1def65f9f6U,
  0x22971ce91520d3daU, 0xdd34504a8f7fedbdU, 0x3ec149a01a17abc8U, 0x7e70a0aeaff4e5cU,
  0x21d8774d6a87af39U, 0x8adb2e8abf34f41dU, 0x53fbc11d468195e4U, 0xd91447b126a23b05U,
  0x81a8d82c8f3313f4U, 0xb91f75dc260ceafdU, 0xcd37f6b57f31f338U, 0xdf2e24fff2dace2fU,
  0x738d8d55852048d0U, 0xd1e3dffd52a4f65cU, 0xfb9945a475425788U, 0x9033bc03e5ec3881U,
  0x8d193378332c03d4U, 0xf3b5ecf9d8d8efe4U, 0x92ef6943307f22e5U, 0x3d2aa75481a5e706U,
  0x11090bcb20e9f78bU, 0x2af721119c481e25U, 0xfafad112bbab8133U, 0xe6f5d65dc2dd36deU,
  0xe721f5dd60b036d2U, 0xd44164abdb7f0009U, 0xde40ab44fd28f33cU, 0xdd814ecef9e8a498U,
  0xd638d64742220de1U, 0x146e4128f6b2ba8aU, 0xd5fb49cf4708f05fU, 0x13e808f1063a1cceU,
  0xfff264e98864f630U, 0x22035f19d7257ffcU, 0xe3414b25d44ec981U, 0xc0f6e862c908d664U,
  0x31eb8105750a1021U, 0x3af90e2635edcee4U, 0xfafde4cdde41d810U, 0xd7c516ba191f294bU,
  0x2fe24c9d2dc171aU, 0x1f16dc7fba004724U, 0xb2dd0b77bdbb6041U, 0x4e8f100b62811a32U,
  0x6b51ca002c61fa2U, 0xde320b3532fce2eeU, 0xd7edf503f4f302e9U, 0x3126e021f712177fU,
  0xfb24e41503e10dedU, 0x1ed601e818351324U, 0x274119078113d3f2U, 0x8c40f1a13b2d2807U,
  0xc5f37ff31177173bU, 0xe053611b1b17bd67U, 0xd1a06030612cb3dU, 0x309ee81e4d71823U,
  0xd80d931023e52c6dU, 0x7ac51fedea93d1ebU, 0xe405cfec1ce9b344U, 0x6e29217f3a18097cU,
  0x5cf8ed7d4c304d47U, 0xebb52c35ecfd40f5U, 0x18bda67f022354deU, 0xfd10ef1f68e6e51aU,
  0x7f5a1704fd150b23U, 0xd4e307be3f12e0f5U, 0xf7293cdfce19f82aU, 0xc5444c58c9e1c8d1U,
  0xc1baf481a7c7d3e5U, 0x26a841f9e0e6502bU, 0xb07d77debb8fb4dU, 0xcc406d4d042264c8U,
  0xa0314ee9608122d4U, 0x26a444093aef7fb4U, 0xf88a4ac57d637de7U, 0xd90df5f2bc00564fU,
  0x3ac61906e7125d81U, 0x48aff29cb51b5992U, 0xd0ec20459d5da533U, 0xd0105acec50846e9U,
  0xaf1f819439182528U, 0xcd5a58ec4b2defcdU, 0x6055f8463bbc5a5dU, 0x7f59f6b4fde12918U,
  0x31a1ce464eb7983dU, 0xdc35c600660e1e77U, 0xd95e3f010443cde1U, 0x611a22ab0a09ba7fU,
  0x3881e7471eccc112U, 0x96fe042b6702e8b4U, 0xc9f5e7066a987410U, 0x7fea46f0e431ff0cU,
  0xb9def0ec26111bc5U, 0xb2cdfcff9eecd2eU, 0x16f332edc9027fe5U, 0xf9fcf139082a72feU,
  0xbefd9c8f28e2300bU, 0x131be134ea15b7b6U, 0xcd1c40558f814727U, 0xd191005389ed0ed3U,
  0xc8c912fdff21d781U, 0x125319d2cabe1127U, 0xd8cbde2534586df8U, 0x120dd71f307fd063U,
  0x224529c443a7ff37U, 0xf2a7c9deb5ccbba7U, 0xe2f6d70bfb496933U, 0x2e7f9320c6ae6338U,
  0x6dfff9235ecbbf5aU, 0xcfea0213018150adU, 0x5d13243f5bd2b521U, 0x423dcdd71022d235U,
  0x1f17c8291011f6daU, 0x3f2411f8fad68119U, 0xe138c117f6c6fc0bU, 0xacfe7f22404ae031U,
  0x23dc0d4c14a80df6U, 0xecbae7cbd50b0836U, 0x9515c8dabd147feaU, 0x3f510968d45f132aU,
  0x3201ddde47f5cca6U, 0xeb94551f0aeef01U, 0x4ddcfcfa0710815fU, 0x5e94a4115fcb513U,
  0xf38f0f8bb81fb32U, 0xeddbf8da3f2f2d68U, 0x186781d74b19e133U, 0xb29bb50509c705e3U,
  0x3f17d43e07f2f3f7U, 0x231a1e7f2269ad71U, 0xea29d0e33ef80d2aU, 0xf211e5ecd83dc042U,
  0x8a81f8051835f52aU, 0x523816fddb3d1130U, 0xf160d7a941cf68cfU, 0xf1a38b83fe216d4U,
  0x4ff6d40802040334U, 0x7f5f0bf4e4ffd272U, 0xc829c7d4ead9541fU, 0xa4f146e31dfd012bU,
  0xe7fe7b85cb70231U, 0x103bbbd92f86eb27U, 0x14c7091981131626U, 0x29e7c65a181ce1edU,
  0x6c224732e9f3f925U, 0x9dc8fe6181fbf3e7U, 0xa60c03ea4847d7ebU, 0xeae538ea51e82731U,
  0xce3c4212001bf7b2U, 0x3e3df044fe988b23U, 0xa007f105ef5cf7fU, 0xe7f739f1cf2e30e1U,
  0xf75727cd11c22ff5U, 0xdb81f59ddac72233U, 0x93ed02dbd306308cU, 0x38124109c7e3008fU,
  0xb3e4fb112b442a34U, 0xb33f22be09574b79U, 0x2681d851380628fcU, 0xdab36ffa43a70decU,
  0x7fe1de0d25bf168fU, 0x86cef9b12ad3e789U, 0x1deabcfecb2547f3U, 0x23a3b9ff9a81cb19U,
  0xe2519875df07f75cU, 0x3d93bd9e2c9c312U, 0x25f32fe91c18be81U, 0x50fbbe9226d0f15dU,
  0x25e9e630d6250dd0U, 0x43614eecde981c6U, 0x701d700e8b5b21eU, 0xe276d20af9c7f8f9U,
  0x3a81d6c2d52c9e0aU, 0x21b250e8bed1b036U, 0xfb4de22a0eef2214U, 0xe9320e471c5309a2U,
  0xc9cdf12934e0bf0aU, 0xe4afbfae77f1a0cU, 0xb5131681f3d81feaU, 0x2e66f618eac04bd1U,
  0xa229c4f508dfe63eU, 0x1fe9dd00fa162b0eU, 0xf181bd4f120e321aU, 0x89a42ce80cf8fdeeU,
  0x297f18b2047300b3U, 0xc41502d0a34db025U, 0x37261fc6fe3dfcccU, 0xf38cc25b4e522975U,
  0x106827aa19f961a6U, 0xc611f22d49813e0eU, 0xd57fef95bbe01910U, 0xe6eca910f026042eU,
  0x44ca1414981f3822U, 0x6662ed9c2a9e17a4U, 0xdbeeddad7fbd57f5U, 0x2ff0398190e20179U,
  0x662fb46514cc36c5U, 0x633477edce11d50eU, 0xe7c1c5d6c7006fdbU, 0x27020901fc2c2003U,
  0xb4e9e20bd6221efbU, 0x1d0ebbe63ce51b81U, 0x66c1381df0eecbeU, 0xf7dac206d0185aecU,
  0x861e255b280858c9U, 0x33479bf212ae4aecU, 0xf5091b298acecb27U, 0x35d881f8c67f1a25U,
  0xf6e813d53dfdff4bU, 0x1c0cb62d282ceef6U, 0xee7fed42c318b501U, 0xa62aece33b206843U,
  0xf9f7070769c730d3U, 0xe2deca25b3082defU, 0x7cd213be9814353U, 0x9429ecd5f60e72b2U,
  0x15e5dc0e408d0e69U, 0x27e6c3c61432fec4U, 0x122798c3378112e4U, 0xf72d0b5532ec0acdU,
  0xa0027ccd1c0dfcf0U, 0x2511f605dc203125U, 0xbd1d6c0f81ceb0deU, 0xf2651a43f3fd55e8U,
  0xf0c91b14d27f45d0U, 0xa253d1ce213e9a97U, 0x4b49e147f20a6b22U, 0x25b6e03631fc7f35U,
  0xb38607da32420aa4U, 0x2d543a03446dced6U, 0x5bf91e12815607c5U, 0xfc0467cf1fee14b5U,
  0xf2cbece8ea0b034eU, 0xe130423a2bef4f73U, 0xd803fa2b60810d05U, 0x4bea0527dfd68105U,
  0xd52212cf0bfa8242U, 0xb60c02133de70323U, 0x5d4c32468157ff3U, 0x59fac264ccccf937U,
  0x7fc91e30785230eeU, 0xb416d52f64d9d73cU, 0xebe612576a2fe113U, 0xf43026d238cc08abU,
  0xb2815102e41819d3U, 0x56ee54f5c34bf2ddU, 0xae2703fd101dee03U, 0x3a00f51094d0f815U,
  0x1db2107f1305e2d7U, 0x92ba6c1cc52bc93aU, 0xf01d7fe85d42443eU, 0x164718d58974c144U,
  0x7fedea449e76954dU, 0xb39c03744e0addfU, 0x1d24f9d916d7e0faU, 0x299d7c0d34a354ffU,
  0xf0846029ec1f25U, 0xd84ee4c7fcbe3ff9U, 0x269481c46d1cf981U, 0xce479b785dfa7a56U,
  0x680bce5088fc9c39U, 0xccb509083b1c67bfU, 0xc909353152359525U, 0xda4a3e1e68e9a90cU,
  0x2e07de75b8ff9c81U, 0xdefa81c33ee2c24eU, 0x4bd416fb2526eac9U, 0x1eaadce50f50d7a6U,
  0xfcc82204adde4b43U, 0x7f6fff1f73e94126U, 0x19141740feb46938U, 0x3023e91ececf2e81U,
  0x4ce8eb16afe4c3ddU, 0xcd898d0112f1817U, 0x25d0c91df9d5d217U, 0x7bac8136141af511U,
  0x41dd81d20a63e9bdU, 0xcfead18f5023464U, 0x59342e1c268bb5eeU, 0x4b4d81dc1a10f523U,
  0x619e5da707e6845U, 0xed7c3ddeee6020abU, 0x812959003739e143U, 0xae1bfbc3224ad716U,
  0xb91b5d6cad513c3bU, 0xa7f6bc4fc41b010aU, 0x255fcb0c1d9e7b26U, 0xf5b8810b311254a0U,
  0xfabdf7c2e9f423dbU, 0x7fd58ef9fcd2fa63U, 0xfd3401f7cf10105bU, 0x23bf5259fad9362bU,
  0x19fc480479cd81d5U, 0x38388b4ca149ac5U, 0xe0b8ab134bf491abU, 0xf7f3a1903ee1627U,
  0x9a42d03bd8361441U, 0xd6131ccd12b0d89cU, 0x1ab425f8c4e437e7U, 0xedc73b275d173eb9U,
  0x5a0fa500f5b9857fU, 0xe84cddd900dacb26U, 0x2aff81eb61c9de34U, 0xb63d23fae515e0c2U,
  0x4616b881ed12ea58U, 0x22244a3dbfd09b06U, 0xb9a0399b1f73514U, 0x633a36b4dc007fd9U,
  0x50173ba9d2e91728U, 0xa6c6b3ecc4311a24U, 0x3dd9acd00ba3767eU, 0x6a7f07bdff0a4972U,
  0x7fbb347cfeab3c14U, 0x193005d2f8c39fd6U, 0x192243c30cbeaeb5U, 0xba2fa1d907ba1d3bU,
  0x25fbfcfe573967c3U, 0xd9db81fa393a58afU, 0x825231108b3132feU, 0x1a205cb2c305fa28U,
  0xd3600f9c81622167U, 0xb0e15b90c44fee04U, 0x11d64552c136019eU, 0xefd6bd7f1923d028U,
  0xf91bc63cc7cfe9d1U, 0xfc218c9b13fee7edU, 0x26ea2e2248030003U, 0xeea6e123eb6581b4U,
  0x1e33c6c664c4cfb2U, 0x3d3d06e6d1b06409U, 0xf9ff812300e87f27U, 0xc3133bddf4fef20aU,
  0xf5f308dd17b0071fU, 0xd1e4a0dba775532U, 0xdce6fab135f4fd1eU, 0xd105c67f0be05222U,
  0xaaaf5df40caf1eabU, 0x49513cfa1b5b9d12U, 0x2940277fc99e034aU, 0xc73d51ea4a1f2a3dU,
  0xecc6f6267ff17a29U, 0x12d2bc113209e746U, 0xe3f65a32f05e061eU, 0xda05447c2dc35725U,
  0x1df35e75991b1e24U, 0x3dc63b7f33b76381U, 0xe90e2cc863468a26U, 0x871fd74310a5fb3dU,
  0xfffffc0d26fc00aaU, 0xfffff323000000a2U, 0xde0000003eU, 0xfffffc18fffffe4bU,
  0xfffffaf1ffffffa6U, 0xfffffefc000005f0U, 0x12efffff84fU, 0x294fffffbd8U,
  0xfffffbe4ffffff06U, 0x10bfffffce0U, 0x3fffffe4cU, 0xb600000022U,
  0xffffff1cfffff7a5U, 0xfffff815fffff3f2U, 0x70cfffff74aU, 0x1500000028cU,
  0xfffffce8ffffffb8U, 0xfffffc4dffffed53U, 0xfffffdbd00000399U, 0xffffff7bffffff5fU,
  0xfffff8ae00000025U, 0xfffffb7cffffff5dU, 0xfffffe4c000001e4U, 0x7600000270U,
  0xfffffea90000027fU, 0xfffff828fffffd86U, 0xfffffdf6fffff915U, 0xfffffc6cfffffc30U,
  0xffffff5c000000a9U, 0xfffffc58fffff71cU, 0xfffffd55fffffe24U, 0xffffff8affffff9eU,
  0x1e1fffff573U, 0xffffff0bfffffdf7U, 0xfffffd1effffffd5U, 0xfffffe780000006fU,
  0x330000002cU, 0xffffff3f00000041U, 0xfffffddffffffd19U, 0xfffffd52fffffd53U,
  0x11800000332U, 0xfffff206fffff1c5U, 0xfffff81efffffeb7U, 0x3a8fffff99cU,
  0xfffffd5800000008U, 0xffffff97fffff816U, 0x11bfffffc61U, 0xb400000087U,
  0xfffffea700000471U, 0xfffffc5500000079U, 0xfffffe75000005fbU, 0x2ffffff43aU,
  0xfffffb82fffffe27U, 0xfffffe39ffffffa0U, 0xfffff66d000003e0U, 0xfffff9efffffffb6U,
  0xfffff96dfffffec3U, 0x1ddfffffd46U, 0xfffffd24fffffff2U, 0xffffff10fffffba8U,
  0xbdd624ab0000001cU, 0xa418ec7f8120e91cU, 0x54d60ec0cff4dec2U, 0x3be09212d5a3e2ebU,
  0xe478695536afc292U, 0x294de425a1292911U, 0xfd2907e2ca26a9eaU, 0x4949c4371404340bU,
  0x11cfb0d1ce23d7fU, 0x5c3e9d126681dfeaU, 0xc92ecf1de908b2bcU, 0x424ce0dcc6c130e8U,
  0x81cabe080581dbd3U, 0x23f4aa0f2f585805U, 0xf5527f3edaf26d09U, 0xd6cafbb8cc5f2bd5U,
  0xeba6e02bdc7ffffaU, 0xf00169913c8029cU, 0x7f14c204fce9a0b9U, 0x817f4b1764b98fdeU,
  0x407fce32d9c5cfcaU, 0x3a0ef2f0f3f7e323U, 0x313107d1f05a30b6U, 0x8742d723fbd15542U,
  0x938dc1a7f1343d9U, 0xef1ef0d70e39ebe9U, 0x7862a7e1c9f33ef1U, 0xd9f4f4a997da33fdU,
  0x6e5817f05280030U, 0xecf972c8b2087fe4U, 0x15fd04ac1f1201deU, 0xc5b1c1d8bfe8471cU,
  0x4d3bd213c8beebc8U, 0x26fa9a070015aeafU, 0xa47f16f50963b0d1U, 0x2a5ea6f5c9c4cfd2U,
  0xfcf41a4a16be1633U, 0x5247e2c2e52e3ebaU, 0x847fe481c1d1210aU, 0x21a9bbd93df031afU,
  0xffe7d5d21c499adcU, 0x5a14c1a3f2b47feeU, 0x2a2ed7d8b80575feU, 0xfe1b97f708e8982fU,
  0xfae20ff101e743aaU, 0x1ba6efa911dd0b15U, 0xf08109c3d4b724ecU, 0x5c35dedaf1eed981U,
  0x421ede3511f19ca5U, 0x46302cefdc53c1fdU, 0xa111aa414aac2b1U, 0xd700d86304a8deb9U,
  0xecbe1a9ef36945cbU, 0xbb31f9a8dd8ecdf5U, 0x4fe064200f181U, 0x11fe1ce8220c8104U,
  0x288809970bf135d0U, 0xe308f803e0d97fe4U, 0x936fbb32831beefU, 0xf43e3b354dd50be1U,
  0xf2e0fe95b9c4170cU, 0xe58e12cec0e06912U, 0x2e15e1c2ee81de86U, 0x558fbf15f12aebbcU,
  0xdd1d42b6f87f9507U, 0xeae939bb36d8e30cU, 0xdf27c77f23f1baadU, 0xb2a2dca97ff623ebU,
  0xf41b0bb238c281d9U, 0x4537da24c9d7f5ceU, 0x2cbeff9006eda4a8U, 0xf8bb468f11e9f613U,
  0x4bee0d02d2cf21ffU, 0x3bf42de11113c3d8U, 0xe8581136f2cdd85fU, 0xc21d0c3b1bbd09c3U,
  0x98ac1e6dcd3cfbfbU, 0x4cd727b5f66348f6U, 0x30cb15abcb92d022U, 0xce1c7f7f01ee97d0U,
  0x5a6ea34ede7942d6U, 0xfaf62725810b9705U, 0x674b113b2ff2103dU, 0x1ee2f1abe5d71567U,
  0x561715fc4ac4101bU, 0xe427f4e28124b3f7U, 0xec55b1ced4d512e2U, 0xd1f1ef4f11ebefe6U,
  0x1612c3e01727f7f1U, 0xee6226f4375acb10U, 0xfb65d4cbb07f28ceU, 0xe1daf220d97fe3deU,
  0x1a136bca30013504U, 0xe926c4cf11acba09U, 0xbeed090d19d3d7ecU, 0x747f414d14f74ae8U,
  0xe74a06c41a9f0dU, 0x593d27bfe7110d08U, 0x1b1bf1e7bdc6343bU, 0x5b77b2e802a30f21U,
  0xb02463efa068e53aU, 0xfe53b4f1e02917b3U, 0x1f000ee18e5617f8U, 0xe3afb11e101c7f7fU,
  0xc02d3c0d107f0ffbU, 0x2a52e4d4cd116ed0U, 0xcdca81e4eeed15dcU, 0x65423fc812318e5U,
  0xa9eaebea04ced1c7U, 0xdc1bc233da5e31ddU, 0x765466d6020b18c8U, 0xf4ee221bfaf4e8f7U,
  0x622430c2b92670cbU, 0xc576e8ef30280ee9U, 0x6c81d0a746c17ffeU, 0xd1db27e2e77fd612U,
  0xb2ea9e20cf129b3U, 0x4c49f085e02e10e8U, 0xd5c816cceec2cc61U, 0x8e1ce3684a2d31faU,
  0xfbc8eceeebf95a03U, 0xe5bcd6ece9f836a7U, 0x7a160a43c266d6c5U, 0xf0644120bbabec4U,
  0x27ece62fda0e1dd0U, 0x2c1829dd400f0b0cU, 0x203a224edf5f984U, 0xd431acb30046eaU,
  0x72b2b0145c5e3e4U, 0x4fbdfaee2fed69ecU, 0x31100ebced1df955U, 0xea2a2e12fee0f38U,
  0x3724f2259d1243b9U, 0xff105b205a2f9f16U, 0xb5cc212c0605e01aU, 0xc6e424cd810a4040U,
  0xccf30113be173e83U, 0x59091873cb21fbf9U, 0xfaf70917f310f8d8U, 0x95d12b3fca3e0529U,
  0xfd0469b24d22bc1fU, 0xe6d9365f4370f0aU, 0xed9839e2fc432325U, 0x4b2b0fffe5f1b7ccU,
  0x6636810f08d518eeU, 0x11100bdae0f407a5U, 0xf581f3e61fdbfe7cU, 0x71fe2a5be40b23b5U,
  0x5910240c5febc0caU, 0x9bf236fef6ecbd26U, 0xe6e2fe7f1cef3303U, 0xaa9d1a24f748d4b6U,
  0xc6b67fe4d75a7facU, 0x61e1ad9e0ae814dU, 0xd3f27ce36edd012bU, 0xfb2ff658a747f6e7U,
  0x1b0d482c9113ec81U, 0x37e7f40c0ff4ce32U, 0x3ccf2cdafed93618U, 0xfffbe700eaee02f4U,
  0xfe7f1546061cb93dU, 0xd130d7cdf410e35bU, 0xb2e6815d07000612U, 0x1335fc05cd3eb3e9U,
  0xd64063577f10cd36U, 0x195fc833971f28fbU, 0xbaf7ed3900fae5f1U, 0xdecd68e31a304ee0U,
  0xc5adec37f818841U, 0xf4c3171169dc1e2fU, 0x443e0c7fd0eef3d3U, 0x3fa5d00a7e209ddU,
  0x49d52e93236781ffU, 0x8db10ebf3d36505U, 0xd550e4d0aef4ea26U, 0xcc5c7fe30628a90bU,
  0xbc4f81ba0c7ffad7U, 0x222b9bdcbe16e72aU, 0xe92e592ce6311d3dU, 0xa12b66547b7f2625U,
  0x2b50ebf799d27ffeU, 0x8120cef1daf14bf0U, 0xfa024b20b81a08f8U, 0xbc2aca816bc3cb09U,
  0x1a0fdff3f3237fabU, 0x52781b4e9efef17U, 0x16d23f1c00d32126U, 0x7f1534d73167f4e0U,
  0xc13edcc5f87f0dd7U, 0x608de8d99f16073aU, 0x5cb5881191cf15eU, 0xf91b87a52e4ef6c7U,
  0x457fabf71d46edf7U, 0xf7d731ea104b5816U, 0xb1490375f01e2131U, 0x292b90ddf024c37U,
  0xc7fcc2ec09d52ec2U, 0x30e40d568fff1e18U, 0x206e50a81191e315U, 0x33dbf9f1ec3efdbbU,
  0xfad8b2e731eaad13U, 0x3e8f90ddbd907ccU, 0xeedc0df53f2e49ffU, 0xd0020a290bfbeed8U,
  0x19ccc808152102f8U, 0x18f607d1f2d4f57fU, 0x9e1cc2813f13e73aU, 0x5440ff24c13ee7d9U,
  0x2de8e47f5adab5U, 0xe6eef0049c36e83aU, 0xdba2ee0499ed477fU, 0xc19cdeebd205f681U,
  0x2ac4ee7fdfe25d9aU, 0x232d2ec51f01cdf5U, 0xc6ea0737ec11dd24U, 0xf4e7d8f329e88eeeU,
  0xe57fe41ac50df20bU, 0xc8a93508664a4af5U, 0x9efe809dd09d3dcU, 0xf61bba0fa70d14e8U,
  0x24ea15edfffcd508U, 0xcff4ceba7ff4ea7fU, 0x48fefe05aa01ebe5U, 0xfe3b05c92800aad8U,
  0xa3fdfd2fa41ce82eU, 0x1cd81a4b07a03516U, 0x94213d0d110bd5d0U, 0x8d817007d13f0bc1U,
  0xf0d97fd001fcb870U, 0xdcf7f4c24ed2083dU, 0xfc29924db71055edU, 0x7ff72ee5d628f497U,
  0xf7b8f4f1fd24f608U, 0x2facda6033e21U, 0xc32d16adfffd07e7U, 0x410120ec125f166U,
  0xbddfdae1ecd9db02U, 0x85ecc552d2ece6fbU, 0xff5dc1bc17d00dcU, 0xdee70c4d5ad2bd35U,
  0x537f180ad2ee0a0cU, 0xea47e919f7c3e3faU, 0x81d529023a312efcU, 0x124148ea60b7c77fU,
  0xd0fd39eb6cc81114U, 0xf304a002bfbf0a14U, 0x62e9ffeadefc189fU, 0xf1b40feafe2ae1f6U,
  0x66c602dcf2f9781aU, 0xac2bfef8c0d42a4aU, 0xf5164e03b81ee621U, 0xc8f2b5020055f8eeU,
  0xe70de8e3e326f77fU, 0xf9124904ce7fd91cU, 0xd0e02915fa55012cU, 0x7f5503ffe7c11f12U,
  0xac20e9fbcbd47fdaU, 0xefcf35dce307c424U, 0xdf4132dc38bd1553U, 0x82c10d703255c81U,
  0xc0f4d3d6b2d73d5bU, 0x1ae2f80c03e03a3dU, 0xedccf307e3af14dfU, 0xc6e02019816d2ef5U,
  0x7fb7f3e1f8c9fe73U, 0xd0dc3e5bd618ed1eU, 0x40d28cc2f608fc08U, 0xf909ad9a0954ab52U,
  0x331633f017761df7U, 0xd8fc16ebd63f414fU, 0x3f9dacf438191026U, 0xcbbdf5152ecd1babU,
  0x1fc434ec82d1c40fU, 0xe53356b71ebc082dU, 0x5e21fbace4f9daa2U, 0xb3cccb3033f8010aU,
  0xf9dabc2919fd4f56U, 0xcf31a3831d24ef5U, 0xe5c37f3a18ed0defU, 0x17d0d9ee19e3fa1aU,
  0x3bf50029c0f7fa2dU, 0xacf5e1da0ed1f429U, 0xf8fbd3eea4f2e8ffU, 0x157f3cd444243dc3U,
  0xc3fe0da18d22d131U, 0x42aee726b7dd1a31U, 0xedb6230ff6e2e9bbU, 0xcfa309f8fcd5c1fcU,
  0x1de56ffe011f0908U, 0xa1cdba7ddf8b731U, 0xafdff551340321e0U, 0xea3ddff4e3172252U,
  0xd0302a4e1ed55dc5U, 0x32ca1c20db4bdddaU, 0xe202daeac7ba0ef9U, 0x21d2122af31f1125U,
  0xcd10f8db20e5eb60U, 0x26f1204281a10215U, 0xcd4c3eccff0be5d8U, 0xb0e518cb8af0d37fU,
  0x30227f140bcc231aU, 0x9b12233717d4cfbfU, 0xb28e433a9e4278feU, 0xf2c340e7cd271433U,
  0xb190b9243df40010U, 0xcde4e7140d7f55e1U, 0x6fdc07c3d459f497U, 0xd5aaf863d07f4020U,
  0xce11dda8360e2df0U, 0xf2274981114010ceU, 0x49e9ea5fccac0e46U, 0xd51337c410ede4e6U,
  0x9fbc0309bbb5f5a7U, 0x25d1fe2cf725b2deU, 0x16c809b85d640d76U, 0x4c2c78319fbffdb5U,
  0xd825d204ecf7cfd4U, 0xcde00409effb3e43U, 0x2b25ef0920d43620U, 0xa9c104547ff18ef6U,
  0xb7f1a80ebde27f19U, 0x6de0daf6fd7f48d4U, 0x6c1172ba63f3722U, 0x7fbff99af5e4e403U,
  0xe12b45c9d5f83406U, 0x460bda30e7ff080dU, 0x1f0d27c60833f812U, 0xebe00981da2dc678U,
  0x1b2dda290222b920U, 0x20ec10a6af673a3fU, 0x15223e16bf05dee4U, 0xc927c0eabe0148a6U,
  0xfdd3dfffdadff04fU, 0x23190287ede23515U, 0x11f21311c20d5bdU, 0xc407c9ed81df4941U,
  0xf125b9dbfa2c7f57U, 0xe3c01a73ded057e3U, 0x10be14fe601feaf7U, 0x79a85c911df01830U,
  0x24ebfc61f41ce5feU, 0x7fdbffdfe8061915U, 0xc9d79784e3ccb635U, 0x7f59dafb0834011fU,
  0xdb840bb4102a41e6U, 0x2a1af4ccff22b8ffU, 0x1bccdd0e66e11dc5U, 0x9cae6be080bd153U,
  0xbc27bbcadcf04518U, 0x4c0be5ebf543e1d7U, 0x9feccc26c8d10dc4U, 0x1be2812040066c58U,
  0xb4f3597ff9ea408aU, 0xeab750375305b810U, 0x2fcb3f9e1fb30509U, 0x6dfa2341c9a6e808U,
  0x388c0c4df6dcfcb9U, 0xf2dac750a8b20196U, 0x39722bdf1c176aeeU, 0xd9811192d260c514U,
  0x27e91afc0e0daae8U, 0x1941c07bae1dfdcU, 0xd59bd9b728dbe545U, 0xdd81b2f4f9221e23U,
  0x52d6d2a8f41c2df8U, 0x8101dbf934ee1b81U, 0x2614aeb7021407fbU, 0xa67f7f16fbd00981U,
  0xcd60e1f6e75880dU, 0x120cf8c70cc408ceU, 0x7fd41915b8d0e333U, 0x1d610fd0bee0cc0U,
  0x1ddddb49969542b7U, 0x12f73ed90e264e32U, 0x818aff8101309a22U, 0x52145e4cf28U,
  0xfffffeeafffffa19U, 0x401fffffe2abU, 0xffffff3dffffdbc8U, 0xfffff41b00001fffU,
  0x23be000015f8U, 0x1d59000026c3U, 0xffffed99fffff385U, 0xfffff7cb00002d3aU,
  0x26d5ffffe652U, 0xffffe67effffffe8U, 0x318700002226U, 0x31d8fffff36cU,
  0xfffff7e1fffffe95U, 0x25dbfffff932U, 0xffffe6cb00001aacU, 0xfffff595ffffe0ffU,
  0xfffff251fffff672U, 0x9c700001691U, 0xffffff8fffffed0bU, 0xfffffb1d000007bfU,
  0xffffef9300002dd6U, 0xfffff9f7fffffaa9U, 0xfffff90bffffec32U, 0xffffe50000001e13U,
  0xfffffb6e00000667U, 0x1651fffff1afU, 0xffffea03ffffdd0bU, 0xfffffcebfffff3f4U,
  0xd26fffff08aU, 0xfffff754ffffef69U, 0x99fffff07aU, 0x200dfffffe09U,
  0xfffff64bfffff76eU, 0xfffffdc100000064U, 0x17cbffffdbb4U, 0x277bfffff3a5U,
  0xfffffac100000f5dU, 0xffffe5adffffca7eU, 0xffffeb0800002b48U, 0xffffff6800002a36U,
  0xfffffcb7fffffb17U, 0xfffffbceffffec98U, 0xfffffc4afffffa5eU, 0x3f1fffffef9fU,
  0xfffffb2f00001ed4U, 0xfffffe01fffff862U, 0x5effffff1daU, 0xfffff5b3000048a3U,
  0xfffffd17000032e3U, 0xfffff93fffffee76U, 0xffffab6cfffffc76U, 0xfffffdb7ffffdfc8U,
  0xffffeb42fffff6d8U, 0xffffe32bffffe9edU, 0xffffe4aafffff6a2U, 0xfffff908ffffff3cU,
  0xfffffc93ffffd1f0U, 0xfffffa9000003af6U, 0x790ffffe972U, 0xfaa90e4300003427U,
  0x1e1f2a81e185bf01U, 0xfe2de0d41c2a3518U, 0xee28ec54ef0ffe5eU, 0x20fee8f9bec425ffU,
  0xe82a0b30f90af2f7U, 0xc8dd17cc311ec728U, 0x18059aedf3034404U, 0xfa29d429fdfe1cf0U,
  0xc9d6461bdcfd07b0U, 0x7f8c2022ac74006U, 0xe1e8fff219e83d98U, 0xbcdbe00c26dff1c3U,
  0xe5d72f25ed9efaa4U, 0x3926cb22dd08cf04U, 0xe0dccf2d44f11a2aU, 0xeb3a0342af3cc7bdU,
  0xb32f380236c92ec8U, 0x113dd6b3fee61a14U, 0xc4e44c2204a3d8e3U, 0xf3241ff7cbf40e1dU,
  0x11bee1c8c8313e03U, 0xce40c20cae1222cU, 0x1b51cbb227c943cdU, 0x4bc5f235eab99427U,
  0xb1cf58eee281b5b7U, 0x20ecf02f01dffdd0U, 0x31f3dfb8f0c9ff0fU, 0x2ebd2cccdad626f9U,
  0xcf65a63de2ce9df4U, 0x49b30cc7e0c18e00U, 0x4af8dda5f8fab5b1U, 0x47fd23eadac7c9e1U,
  0xca1d129928bf92b5U, 0xdd1283aec50a9e29U, 0xa4a7d301d60808e4U, 0xb4e2162fa420e0e8U,
  0xc0312baa3625d626U, 0x129c2827ba1ce512U, 0xa731f8b459c1fecaU, 0xea03c148df239ab8U,
  0xe89bb04fd02b9e32U, 0x4a989e9bd9c09381U, 0x3b9cb1e1a708cd81U, 0x4ed30e2fad1ac107U,
  0x70a0f095d022eb5U, 0x41e42ed2e6e303f1U, 0xe61e12163be20f05U, 0xfde54034b1fe2cf6U,
  0x342420245ec8f415U, 0xc4f84b332f0bd433U, 0xe323e8ce3bddbbf7U, 0x223b45d00ef1ed1bU,
  0xf1cbb04bf21feebcU, 0x150115dedbf0272eU, 0xf5bbb30719ee10a9U, 0x10f7382408041e03U,
  0x5c1bf3f90758adb3U, 0xf3d319200989fb3dU, 0x29e82f091bd80381U, 0x4d15f10449343f0cU,
  0xfcf428dee60b6d4bU, 0x3319d1181ceb1c00U, 0x430032f43ea605e9U, 0xd254621c5035dd23U,
  0xf3b30ec86227002cU, 0xb7fd054ac2e8f42eU, 0x90011ab4f1f3a9fcU, 0xfe3e9a04886dbf4U,
  0x39d3994f18b18142U, 0xc6c52cf8ac18b200U, 0x4996ee1c33f91b2bU, 0xe9048921fa8c2035U,
  0x1ed0c423c915b306U, 0x12b3cae9a77ecd3cU, 0xecc6cf433d1455ceU, 0x3413e509dbfacaebU,
  0x125f9252b09ed1fU, 0xd5335955c312d21bU, 0x21fff9dac2ac1610U, 0xe02cc9e7e6eff801U,
  0xdde923cc05ad2bfaU, 0x1dd6e816e909004aU, 0x53f825fa1f001f2bU, 0xe1fa1ed016303228U,
  0x29e8814b30aef408U, 0x5123cf1fcf9cac4U, 0x1506f6f90e05f9e1U, 0x47244de001e80bf2U,
  0x3b27371df943d71bU, 0xca49ffc0d01b840U, 0xb34ba327e0be9b01U, 0x4c172c0ba90a07f4U,
  0x5ae54639e52dab62U, 0x10f19e744aeb309U, 0x9287d8c196ce8fc9U, 0x1cbb93d918ebe207U,
  0x4c7c4cdb6e5b005U, 0x432db35890a0ba86U, 0xf0c94d1d50f03bf0U, 0x3541052ccbcf992cU,
  0x60af9349362095f0U, 0xc2cac110d9d0eb01U, 0xbe22354b12ff0d94U, 0xd7c68144e5048dfaU,
  0x9ef35d3758debac9U, 0x19b22f74ee083ccbU, 0xc407eff133d0c329U, 0xe9262423e82b3810U,
  0x37a0ffdbc4fdc41aU, 0x1e0a26fd1a1a1d07U, 0xf51225dfd0a6d2edU, 0x7fc2662cf4d8b4f6U,
  0xd6d625feff0be738U, 0xa44d8c119073043U, 0x2c2d192011cdf248U, 0x180a19d5c019a01cU,
  0x4ed843fec64e1234U, 0x50ee36f8a7133a53U, 0x1635fe6039bac322U, 0xdff8fdfecdf1b220U,
  0x1fe71dfbe70631e4U, 0xfc0ad33dcbe0e7d3U, 0xbb44f201fd23ec11U, 0xf025f6c1bceef1f0U,
  0xddddd6d429fc2d20U, 0xd120f016f6203e40U, 0x25cb38eada1edaeeU, 0xf5c14af0f6023d5aU,
  0xdd1d0ef1f3ef1702U, 0xf859a12523e9093eU, 0xd600c735f7edf3U, 0x1a1702b7f916991bU,
  0xf1f40c0981caf6fdU, 0x32f3204eed2aee5cU, 0xd57afbdffaeab101U, 0xaf11f76ee7523239U,
  0x2e1441c9b9ebfa20U, 0x5c31ccde070b5002U, 0x34da36f7973dccfdU, 0xd9ddcdbcea03290cU,
  0xdbe9162abcb86ef3U, 0x45ff5b400ac4e817U, 0x1bc84beaecddd840U, 0x2a12cbfa42083c38U,
  0xc0c32d7e15c70241U, 0x4e61611d0d38102U, 0x16b639edf225e643U, 0x2c1bcb0909557770U,
  0xb02a0f2cefe547e1U, 0x1146d9b6dc1fc01dU, 0x192df2ba349a48fcU, 0x85a08fd455e5adb4U,
  0xa1e24df31eb4fa8U, 0x98fdb12149c1c654U, 0xd9aa11ea3aabf68dU, 0x1bebe4a54759440fU,
  0x8fffde1bcae5f3a0U, 0x364b16f48fe0def9U, 0x399fc9b38e04a4dU, 0x22931bcf33c9af08U,
  0xac5eb2deae24af1bU, 0x188363c62baf81bcU, 0xeea690dccde71d4dU, 0x9e16c43dd13bc4c8U,
  0xc8d1bbfee3bbe1d2U, 0xdaf1ea47310c0811U, 0xf1d23c0c5f17a5f3U, 0xaa184f459803b814U,
  0xd40cb8eaff0a2749U, 0xde93db2cbdebad8U, 0x1dadfd46f890af05U, 0x6e16a2bd2301442U,
  0x59c1f5fc17432dd1U, 0x1435c8fe0bbe5922U, 0xedf59166e0c938fbU, 0xd62cde2bad09dcbfU,
  0x621efe0cd2e207a4U, 0x1b3fd61ecce343f1U, 0xee711ace1c07fa8U, 0xf49dee9b481b0cf7U,
  0xbab9bc2f8ca1d8c8U, 0xd5fa1adbaab3e718U, 0xa022e7e2f281e1e6U, 0xee9ebc6e6baa613U,
  0xa6b8b3cee59bfd24U, 0x1f8d9a2fd8da33f7U, 0xcf73fcc8bfae3dbU, 0x9ebebebbc999e12aU,
  0x9d02c6d7b0f5c5ffU, 0x518ba241f03c797U, 0xff2efe619e7d4e2U, 0x2192aad1e7df01ccU,
  0xa93c0aba39a1102bU, 0x12c919e4a8dfa817U, 0x8b40103811d841ccU, 0xe7e6ea0a06dcd8fbU,
  0xd6efdcfbff0edc22U, 0xb0919edc906f360U, 0x44f42219980ef422U, 0x7ee2026e116eff2U,
  0x39a6032f2f1ce5f7U, 0xe32e482b17cdac35U, 0x17f3db2e15fbf937U, 0xdfe213ca21dfe24aU,
  0x14e1d40711d3390cU, 0xf229eb33f11f2709U, 0xea7bbdd0e2a0b21U, 0x1a102321ed1c0a3dU,
  0xf955c719fb8118aeU, 0xcfd8fd2b3dcd89e9U, 0xaf003042c3535aeU, 0x20ee8ddf92d22ffU,
  0x2bfad3e50a050518U, 0x2714fc3c151ff30cU, 0xf081eecd252947deU, 0xfd4b2c3d14ae23d1U,
  0x2d14def4c2fd1ba9U, 0xd049de4c228ae8efU, 0x42e01ded831f1813U, 0x9ae44acc3331f408U,
  0xcffe9e410f245dbU, 0x22e2010217001bf2U, 0x28c3a90b3eee060cU, 0xc5cbf3c8cef708bfU,
  0xbb543e903e4b3e0U, 0xe3290eedd620d734U, 0xb90f410ffb954b0dU, 0x1fd11cebf7d132fdU,
  0xeee110470ee6df2cU, 0xf7a7920118d6abd7U, 0x3b4022e82402ed06U, 0xe5d1b4fdd2c03897U,
  0x21dd52e38e415d7U, 0x57b52a0895c1219cU, 0xcf4b49922eb9e1dfU, 0xf4fc9bc7eac6d9fbU,
  0x81c1943136136030U, 0x1125a8ae9fd3bcd4U, 0x923131edda0503dfU, 0x2703d2ed322bd1b3U,
  0x1d0bfaf7f4f2ec0cU, 0xa1721dc0602daf5U, 0xa407c328fa0007e4U, 0xed10bfe4d5fe24fbU,
  0x42e30140bf8ce01U, 0xefe607de4828c1d8U, 0xcf5ebfb27e906f6U, 0xf2bf0eefe4230905U,
  0x813ee8f91f05f7b0U, 0x10fabeeb0723decdU, 0xf4d8391f2211050cU, 0xe442050b43e6e4f4U,
  0xacec110ce7b6dff3U, 0xeb33ffdbf41a24e5U, 0xe62a5e05f5f36645U, 0xa60affef2b1115dfU,
  0x3bd214ddb1e91c21U, 0x6fe794cf23ec1c2aU, 0xeae2f6481c1edaedU, 0x2cfc173516df2cfbU,
  0x967f4f42bbe83dd8U, 0x2a279727a6433dadU, 0x12531bd35bdec801U, 0x3bf5f1ad1c1be4eeU,
  0x363b7f00dca3e8ddU, 0x1515a68e41c7af1cU, 0xc2110dbc1cef4dd7U, 0xe7f2e71ee521d0d4U,
  0xd52822c3e324c362U, 0xef61bae69dd7cd15U, 0xfbfecc2df9ed2229U, 0xf1f5c00157faf0U,
  0xd904af1029badfe9U, 0xfa9d2a12fce81227U, 0xe5ff2bb0d90104fcU, 0xea15efcafffbd9deU,
  0xd8304bbc0346e5bfU, 0xdfdc1ac81c10e500U, 0xf108e30f35eea9faU, 0xf2c03bb71650fa62U,
  0x4fd6e9f5400d244eU, 0xd15c36e842a8cc17U, 0x81a609160914d805U, 0xa902e6f439401ae8U,
  0xe5bc6f5ad054fe7U, 0xbd9cbf5eef0333ecU, 0xbfe2dabef18de321U, 0xeae35e7d8ea12e5U,
  0xa34a4af1b318c21bU, 0xfbdf25a5fde701eeU, 0x2cc40a19fac20e16U, 0xafbb37e8f881b9e7U,
  0xf40602eced87eea9U, 0x2acf13d127a74ee7U, 0xb722ebf3be17e72dU, 0xf0d3c91d86d297c0U,
  0x11bf212a06be0fe6U, 0xaf9f49d4a4d44ffU, 0xaa99f947d68bd1abU, 0xd8132dddfc0ccbc2U,
  0xe6f275b727d21f14U, 0x6522ffeeedc52aeaU, 0x78069f95661f450bU, 0xe7ae656472fd122aU,
  0x28e1ba3c350ef6b8U, 0x196d4a1fc4ed12fbU, 0xda01e0240a9b201fU, 0xef68ff40eeb8dd49U,
  0x551acfbed70a13d4U, 0x532773e8bebd5e1dU, 0x391105ccf9e48c45U, 0xb31bd80018c83d4dU,
  0x5e4c9ce0c4e21ee5U, 0xc061facef7811562U, 0x379f13dae14d2acdU, 0x27c2fcccf0e4bf86U,
  0xa2c2d0e3daa9a7efU, 0x32de0e332ef738a8U, 0xaa011b38dbb28dcaU, 0xcab8ece2349b0dc1U,
  0xdaf92dbdec1cec39U, 0xf04e21117d7c0edU, 0x2fe11fdbf7e5adfcU, 0xf5ca13242417a40eU,
  0xa022ef7bd34b6e4U, 0xaaf2a2fc31feb2f1U, 0x3d81fdcec71e34d0U, 0x3c4bcdb8e634a9fdU,
  0xdcbfa23eed2c5feU, 0xc21d014c4ef95d0U, 0xe205caaf2cf1d5cfU, 0xa20b3239f6c1adc9U,
  0x9dd3d815bcd8e4e2U, 0x52efafa31d0f913U, 0xbfdf10e8f1c3c504U, 0x5efcd09e224bd5aaU,
  0xe1e0062fe8a5dfcbU, 0xd4dc81cea63fbae7U, 0x83e8e4d005d09a09U, 0x46abef93ae20fcc2U,
  0xb3ff3a36a9c3e906U, 0xdbf215000c0eb8e6U, 0xe60a3ab21be8c235U, 0x21f7942711b7f4f6U,
  0xb7105f28280bb48aU, 0x57131fd5b902d2e3U, 0x2f9cbb2f234a96ebU, 0xabd6f6ab2e129fb4U,
  0x2e1d12f08ac452aU, 0xc10a419b503ec13U, 0x33a0c2813d2f950bU, 0x23d96e2db07dd90U,
  0x4a46b1def258a04bU, 0x413fcee4bcf0d521U, 0xa8eef90c8f37ff8bU, 0xf8ddf193b7f8373aU,
  0x82223b48064916c7U, 0x1086daf092ddc9ddU, 0x8e9043eb39c6ba90U, 0x9aeaef1340ed0c0U,
  0x41ce37d50bdcb604U, 0x2210b30af0371bc0U, 0xc52ddd0500c63a9fU, 0x186412f8ec46ed3cU,
  0x3ce0ad2d034a2134U, 0xc412196cc2d9d5e0U, 0x2a3c30dd1a0ceb46U, 0x26bb7c1ab734c41dU,
  0xf2eac0d51b1f0742U, 0xbb0b2a0b14e52b3eU, 0xf2edd5d61eb48105U, 0xbe2c4bec23e73bc4U,
  0xfc56a8ede8090245U, 0xfffe2af1293d000cU, 0xf619c5f60cd7c73cU, 0xdc01f106feff0a23U,
  0xe2006d415c50606U, 0xf1e9efc7f3fe3281U, 0xe13fdfb1e22d608U, 0x15b436e61c23e216U,
  0xe6f5cf2f2f341710U, 0x6105b13eaebdaf5U, 0x18f3e9c0ee29c5f6U, 0x1602d8fe11ddee19U,
  0xefe81cfbbd5e0041U, 0x3114ed1adc29d11bU, 0x2be92fe1d8faf70fU, 0xc9d0bb0c05191308U,
  0x1ec3e84029dd24bbU, 0xd7fab1082607d3U, 0x3f2042e549ed348aU, 0xb281f8c84413ffb1U,
  0xf3c3841a3bc015e7U, 0x4e1a44d31ff08bbfU, 0x10279e34ffb8b817U, 0xe40f139cef39b9baU,
  0x95e598d1db0ae001U, 0xc616eecb4d433699U, 0x3c5dbfe94b22ccb7U, 0xb4bcb52cc4d8aca1U,
  0xfddd8884344da924U, 0x1f15f28ee795f2d8U, 0xb7041c5c2d53c89eU, 0x211b032d0e9e4df7U,
  0xeeed21330ea1f624U, 0xcbe8fcc12ffafef3U, 0xdadcdde5e5a6253bU, 0xe72fdac8f7280325U,
  0x1629e7c8ebf6e3f5U, 0xc712022a13eb2d24U, 0x743d22eef12cd909U, 0x2afa580d01955541U,
  0xf3fbfb21d54846feU, 0xd2da0415e82601f2U, 0x6021fd31c9222125U, 0xfc3e2bd6b829eca9U,
  0xfec4150ebc194ed4U, 0xd1f8330732aecaf5U, 0x41d2124c24812426U, 0x1148d4f43ffa1c50U,
  0xdd360306101d13e2U, 0x5f1d21dcef3427d0U, 0xc6e92226b127ccd6U, 0xd01811abf84c16deU,
  0x10c1741622fd1e31U, 0xe4ecb412ebffd4f5U, 0xc22ac9bd032faf07U, 0x14d44bb137c68febU,
  0xe540e53a1eadd8fbU, 0xdbee13f6b96f810dU, 0xfd1dd54113254b19U, 0x3d352505fb1718f8U,
  0xe41d9d10c573f1a9U, 0x8d100a7301e20e8U, 0xf6f815f514181415U, 0xdef5c8f44fd507d1U,
  0xcabde7d6011681fcU, 0x3dd3e3976e0ce8aeU, 0xe1b52dbbf34737ccU, 0xf81b25ea68dec7b1U,
  0x2e5ff0c00accfa46U, 0x2f53c1db9adafbaU, 0x8edeafd43122a7a3U, 0xdaf2efdb4e3218f5U,
  0xb13b1790cd83def7U, 0xb125433c2eafcf35U, 0xe52ddcd11e9d3c0aU, 0xd5330e16be2bd9c5U,
  0x3bc5c700041fde33U, 0xcbf2ee56U, 0x0U, 0x0U,
  0x0U, 0x0U, 0x0U, 0x0U,
  0x0U, 0x0U, 0x0U, 0x0U,
  0x0U, 0x0U, 0x0U, 0x0U,
  0x11fcdc5700000000U, 0x24f6e1d1bcbd2f10U, 0x6355e8b4d1f704faU, 0x29027feb31e6eec4U,
  0x2718f2eeff09122bU, 0x8ffe308f1ee16ddU, 0xf3d50d1d52de08d6U, 0xe0108110c9ead716U,
  0xcc1976b661d6ce7fU, 0x23d6cfef7d029905U, 0xe21cebc8fdd8ba59U, 0xc753b41f71d01109U,
  0xff92d2107ffc15e1U, 0x22b31c2b4428152dU, 0xd92e0b0d06e31019U, 0xf11f831eff0c7e0U,
  0x84403e11862cc34eU, 0xf33c0055d7dea05cU, 0xab1e7fef1d0dcdfcU, 0x2afe0024161e4d0eU,
  0x7a04271cc0f2d63dU, 0xfc2101b01bfffecfU, 0x12c87f123805cc2eU, 0xf21afe2d3ce523eaU,
  0x14dceaec15320f1aU, 0x90529f3fe3caff6U, 0x2cb4eb3a01f07fe9U, 0x2cd228f424d8f2e5U,
  0x257fffde2ebaae12U, 0xf5b7f00bc70b1d0aU, 0x364e1aca0f23f529U, 0xd0bbeb1ff3cc9217U,
  0xd7f3c481e949bfbdU, 0xacec76d0c0001500U, 0x4c8d9d8cc2fbc9dU, 0xa1b9ebfad23d8122U,
  0x26b79c3a3f0d21edU, 0xb419d81cb63338f0U, 0xf000d2fd3621e244U, 0x161408f740b449b9U,
  0x3e41d47ffa41010aU, 0xd7193b13f8fd30fdU, 0x6b4d53d90625022eU, 0xd6ed1319cfe415e7U,
  0x147fefdf1ecb1afdU, 0xd909031ade4cdef4U, 0x3f1f242d3be87fdfU, 0x3510f795eed5ff22U,
  0x28e9a730042d3cc9U, 0x3dd102d315f629daU, 0x32fd3df1d9124be3U, 0xe2f549b881b9ff44U,
  0xf2e0de2dd9bcd70fU, 0x712ef12440b3f000U, 0x9b4f065f56d8b874U, 0xc354bf7fbffcf0ddU,
  0xd2a7e5b44d49e1cdU, 0xe7ec812bbb27f3f2U, 0xfde5fc4ddd24f8d3U, 0xcd21e81b10c7051bU,
  0x4023c4cf202cf232U, 0xc90dc2fde427fb38U, 0xeb0e81f8e2a5bbf4U, 0xcce0e9bb05391208U,
  0xd5121cc4b485295dU, 0x813ae01f256664d3U, 0x31f2fccb43c3f22dU, 0xce64030bc460612U,
  0xf3096430ab64e398U, 0xc9beaa59f773f84fU, 0x536d64e19fd7f81U, 0x2932dea86b4ae519U,
  0xd6cbd6175df169eaU, 0xe526ef7f2bf7191eU, 0x9b05170cfbdfebcfU, 0xeee5ffe416b7ff1aU,
  0x221c2a3018f0ff0fU, 0x21dbd0c4e8200200U, 0x3ee181f90d250ee8U, 0x1f1f81eb1b5a17fbU,
  0x6c3f1d4ebc6dc35U, 0x2de7f0caba0a2a12U, 0x420690d8c1da3103U, 0xff1f441bd31a00b9U,
  0xe128d315f5f7dcfaU, 0x2cdf05dfefafb581U, 0xe51121fbb504d628U, 0x3121ece2461ed83eU,
  0x1452899ed239634U, 0x774adf2937a40441U, 0xb4f45fd1fe7fcd46U, 0xdec17fd3422298c9U,
  0xfb2e46950e1354cfU, 0xba1c2a4236b036c6U, 0xcf0132ffef354121U, 0xa3ed00e5ada3a10eU,
  0xfc0f1a06e50d4100U, 0x7308128f2d9f213U, 0xa1088117f9f72afbU, 0x2049efcfe220b6e1U,
  0x2dedee03f5d50ddeU, 0xefcce105acdb15bcU, 0x43a03064d03680cU, 0xed2d1324810a1be7U,
  0x686b0112ffe8ea1eU, 0x1b0ce82f270e2d0bU, 0xf0eda4039d23fa46U, 0xf803284627d9b4ffU,
  0xe815341725d9ddc6U, 0xb824de4bf6f2f07fU, 0x8807ae37a8098a04U, 0xf6fc812f1e60cbf4U,
  0xfd75c3e4cef7f110U, 0xbe2d2cc90f35e02eU, 0xf036191816d8c6b3U, 0xf0f636d2c7e0d40bU,
  0x45ce7d7e8dc1981U, 0x28f71efdebf5e104U, 0x2740d4390602e532U, 0x7fcb2939ebd93f36U,
  0x81be140011eb332cU, 0x87d5f1d5aad0f909U, 0x42547f1613c0e01aU, 0xf5d337ce3d0207c8U,
  0x4bf6fe1623fc50c5U, 0x151320f6110e04e0U, 0xffc80b08e381cbf1U, 0xed0fe9fee1fe1a14U,
  0xeed7b24e151cf538U, 0x270703d7b8eed8caU, 0xd5e3f73ed2435e7fU, 0xdbd0d415c9fc2391U,
  0xd11f13221f45205dU, 0xb74a9d05ddb62bccU, 0xcb15e405ff8dfcd9U, 0xf0d102a6047f8a45U,
  0xc54000e8d113fd7cU, 0x1de229e30e2ea222U, 0x8132156a05daf253U, 0xe662d3fbba81c42bU,
  0x1a351c012699b138U, 0x323f3a2ff27fec11U, 0xef31afff2c28ef12U, 0xe48fdf325e66067U,
  0xd2bce80508ee04c7U, 0xd8d8f42e130e921eU, 0x4734b6497fc61cf1U, 0x31305f031d96fc4aU,
  0x2bb4a6d74d16e4d7U, 0x7f2cfa2212f9f9cfU, 0x62dccb0be1f65e07U, 0x7fe5bae0dede14f6U,
  0xee2ae3c5c3386734U, 0x46fe781cdaffdfd2U, 0x7ff844342d230265U, 0x37e313fcdddfe4ffU,
  0x1215e6d1f3c512ebU, 0x1ba7e837cc152dfbU, 0xd5edfc0b2204e32bU, 0xa2c7f1e2e0ec000U,
  0x60336a30f06c10fU, 0xf5d416f9e4114be4U, 0xf5432decc30617d8U, 0x5679a351ede62527U,
  0xd7abccfa1dee401fU, 0x2b11e5f810d47fddU, 0xe0300dd2b8fee108U, 0xbba02f81d94138fcU,
  0xa6d5d7e03333bc3cU, 0xc7a8a3aada75aed3U, 0x3a1ed130e24df8efU, 0x360eeefdbe81a6b1U,
  0x27db09fb36044250U, 0xcfc26b514f1aae6U, 0xdcdba904f3141725U, 0xe225f581a2ecb3f2U,
  0x821b0ddc0bdeb211U, 0x190b2ae64d3ed638U, 0xe5abe887e2d72fc0U, 0x847ff01426de1838U,
  0x1bf327592f4283caU, 0x1dd7ff83e3cb07e3U, 0xb91981be342ef8e4U, 0xa513c7942c2228ffU,
  0xdaec71c8dec7c240U, 0xc3eced2ff91b1118U, 0xd1812aeec21bd9fdU, 0x263d2c28ed160f51U,
  0xde140517f7e01b7fU, 0xe93dffeafff81907U, 0xbf8fde617f3ea11U, 0xf825071bdae7fb01U,
  0x265f61023920cedU, 0xf98dfcde0018dcecU, 0x81d93cdf10851bbdU, 0xeee2d416c9b3b9daU,
  0xc9022a06df248141U, 0x962b1ad6f2219418U, 0xddfae2badc0ede08U, 0x94f112d107abaf01U,
  0x1db400f836d2ea51U, 0xd77f11e550b20352U, 0xf8e9b53b2628e9f4U, 0x9dd3b3dfcbe9b216U,
  0x3fd4bbe681ccb7c9U, 0xc9f626003d32ef2eU, 0x250c0ee402eef713U, 0xb936e3de10034149U,
  0xe81fe3cf6e5ce26U, 0x24f23e1a13f809efU, 0x1f06de4ae81a04ecU, 0xc81e8130b1f171aaU,
  0xdf3b0243acd08fbU, 0xeaf41fa128defda2U, 0xfe4fd622357fb817U, 0xf8d79828cfa2cb3aU,
  0x2dfff91b6fe7b7f3U, 0xe9d7e21f6cfbe321U, 0xa3d67f482abe341eU, 0xeddddbc7143bd7faU,
  0x14b32be3b94f1f07U, 0xe5a7f6e3c2f02027U, 0x50d1c1cb9e7781e2U, 0xd2331c3599c9b5beU,
  0x2155bb2836060210U, 0x3d27ea31c97cb021U, 0xd817eac202d8f3c0U, 0x9193e7f262ef1feU,
  0x51d35091ee0ebe7U, 0xf76be82beb2ef50bU, 0x9321f5f40c270f13U, 0xbaa43fe9bc213dd1U,
  0x1022b8057f031100U, 0xb9fa124e0bfa0923U, 0x41410804f2f0087fU, 0xd1db3d24dfd3ee28U,
  0xe830e5dfe0f0ba05U, 0xd18c2bcc7fd66626U, 0xfe9a62d7023ed20cU, 0x5397fdeb2051499fU,
  0xcb062ddd0ab93aeaU, 0x162b6233f5d6d234U, 0x7f0c086228003c38U, 0xc8c840ecbf1e1043U,
  0xad5710e0e66a845U, 0x38f439d99007c7deU, 0xce9843b4814bc70aU, 0xe94ff12fbb7e84aU,
  0xd90c524c5f0be752U, 0x1ac93ec63b1fee28U, 0xf044d397311bf623U, 0xc5dbe67ff20208f1U,
  0x81ddc0dcbe231acfU, 0xd3b4b3703f6e31bU, 0x11f3f3d2350fd7d7U, 0xbd1ecc7f0c51a302U,
  0xaf2cb2edb33fbff4U, 0xc24a08fbff18b7c1U, 0x36227b0f2ef9c929U, 0x1f2f08f1360432d1U,
  0x720ce0cc8146dcd4U, 0xc0e2b35ea2fd1e52U, 0x1a512419e7dc2bd3U, 0xc824d2683cdad817U,
  0xffef3413e9208197U, 0xed100fd60246e32eU, 0xfa12be07eef5d2a5U, 0x8c2dfd27180c2c17U,
  0x16d5efedc716ae04U, 0xbfc22422ab328116U, 0x1e18f94cc1b1dad1U, 0x1a16c0b2fce114faU,
  0xd90c3f3008c413dbU, 0xb0761f6f72632e9U, 0xa29e6bcbade107fU, 0xa112bffac6e9e7ffU,
  0x1f5210407fe3ec33U, 0x80baf35dd03f4e8U, 0x3623cb31b8f922f0U, 0x13f7152cdb1d590bU,
  0xe170f0e2a157f9dU, 0x210b252af7e0063fU, 0xd8e8102c27c6d2faU, 0x1ad8150cf60dea1cU,
  0xf3ffd4e923cd0081U, 0xe6e23c17d18677d2U, 0xbd14e132c4e3f2b4U, 0xdd077f814041baecU,
  0x33d0e709dc230949U, 0x2dec0dd346311289U, 0xa1c200040f03f25U, 0xe528132727cbf9f8U,
  0x2612e0d1d97f1bdfU, 0xe1e17f2c4c46be2dU, 0xfd16b9c914cacea1U, 0xf714c204142ed407U,
  0xd444e3b8301abfeeU, 0x3320c3d0fad31837U, 0xdf7f8afc0a29d0f1U, 0x1508e5ec3fcc705bU,
  0x12f9e8d0e7b20d08U, 0x39326555e4539bU, 0xde43e19bdccf3252U, 0x7f2ecad4eda2f9f7U,
  0x60e2742fc7782dceU, 0xcbd2242aaeae705U, 0xcaa8ccbdd37fe906U, 0xc7390233249f2ddbU,
  0xeae702b14cfad0efU, 0x1881f3e8ee0ba2bcU, 0x84acfbc1b3df45aU, 0x5cfcbd04f50520c2U,
  0x22f6ad3023ecefe2U, 0xda241b6cc8b6e7e0U, 0x9e42cfb2f1ccdd81U, 0x68d5e8d6b5d794ceU,
  0x7433e4ef12f7b62bU, 0xcff928ae27f2714U, 0xf92275c9d741d5f9U, 0xd30f924e5210a39U,
  0xd1e2c805e7463200U, 0xe14d1b015b2f420cU, 0x417ffb1d1c34fc3aU, 0xda2943f92233117fU,
  0xfc46c8ba25ff184dU, 0xde2403f62b2c6165U, 0xec2600c80014b73fU, 0x2419331e18b0173aU,
  0xbced1598e4f60f19U, 0x7f0b211f0995f6baU, 0x3ec40b04e1fd1933U, 0x15302f81bf17062bU,
  0x69e8bc2db1ad5c25U, 0xf00242ebe0082cc6U, 0x44cdb12e8321d4e7U, 0xe60000e5427f4cc5U,
  0x34e6bd66d206e9e2U, 0xe32a0cdf5d394745U, 0xbe01083c17deb108U, 0x135a3d68113f301U,
  0x3aa12793c74a0512U, 0xf007e80f8d29c2faU, 0x7bf203d1dbe80c27U, 0x212df87fb6d6e0c1U,
  0xfa2ae8de3358fef8U, 0x59ffe77f0dcef119U, 0x10c8b4f004eb0d38U, 0x364f3f773e2cc9a6U,
  0xca2fcb11d323d3f5U, 0x84862135a54f1d2U, 0xd34db1f2b40ddc8U, 0x41e9d17f15d408efU,
  0x52111d3ef4f43809U, 0xe8fdf9d112f8b4e7U, 0xa7b582c55a1a1a17U, 0xf09eb449b471ac1U,
  0xd4dedd0f29377f6eU, 0xb07e3e327744bd13U, 0xd8810893b130a34aU, 0x44b5d9c221cfccd0U,
  0x4ffe21ece3fe2fdfU, 0x15d3b1ccb838ede1U, 0xba021781b4b0492bU, 0xcdb369d090b07ddU,
  0x21f910c96dc117efU, 0x3ec3950150ce32eU, 0xea2bf2cd22dbec7fU, 0xf7df24eb0bb004f5U,
  0x29e9f234132d7ff0U, 0xeaca4bf0350838ecU, 0xf02f1f2939aff289U, 0x372efcc7231149feU,
  0x2204eed211d1bb06U, 0x72da04eb2104c402U, 0x93f41d91c7fc7d8U, 0x2314391d31bcf33fU,
  0xd9e1c2f9bcea2b07U, 0xad50e261327f2dc7U, 0xa9406fe80aaf11e4U, 0x690b3ce91f7f1cd0U,
  0xff24d01404171409U, 0xc3feb2f8fd203ce6U, 0x2c85a25dae9d1ffU, 0xe6fea6e9952cd9fdU,
  0x70ff3c29c828dca9U, 0xc61918517544353dU, 0xe2c9b793578a7feeU, 0x8ce20e01a52902cbU,
  0x5eecfb0ffebfb705U, 0x81042f2bc043dbe4U, 0xecfad99510ed2005U, 0x33c959ffe8113dc0U,
  0xcb01b2398df11830U, 0xead1b90f417f11a3U, 0xe164d623e1dcc4c4U, 0xa09eb1dd00abdfeU,
  0x2ad6243edfe0366aU, 0xdb7fe3f46441edf8U, 0x4ac90cc15f03fb2aU, 0xc4fc0e1811eb3151U,
  0x1bf116f0e77f7d63U, 0xddf70dfa12eae8d3U, 0xe981beefdc00f6e7U, 0x49fa2f0fdeee01faU,
  0xe1f9c594d051abf8U, 0x4ddf39e60914f2feU, 0xddd5052804e002e1U, 0x30aeb0837f5f92aU,
  0xcd2a7fed2fdfb907U, 0xb36b2ae2e4ae2e26U, 0xdbd7dd3b0848f2dcU, 0xd15ccd2168b17fa5U,
  0x34eb332af6440201U, 0xb40fe9a5250c112fU, 0xeb37f20037e6c681U, 0xdc190d1f1de8d4fcU,
  0x451bdbffbe0b6d09U, 0xe5184414e5bdcd01U, 0x243d04cc2ec546f5U, 0x121fe937ecdecaf0U,
  0xd22b512f32f77f2eU, 0xcdd61613f6f1ecd4U, 0xd3b77fede14864d2U, 0x9e9cf0535bef851U,
  0x863ba2fb7201a2aU, 0xe05f1c4a281d1c2U, 0xedf0f4b9cc700795U, 0x1ae00ade23ca1721U,
  0x1221b566de52424U, 0xd8aa100ef5c19185U, 0x34f5223c18a3df81U, 0xf3de0bfe1fe0308U,
  0x4c364451f3712710U, 0x10a72177c8dffef7U, 0xf7f3ef3d6f43917U, 0x3e4235420e3fee27U,
  0xdbced844f5cbffedU, 0xef7adc5eee072c4U, 0xdbe95887112e3181U, 0xe4c2fabde7f0e402U,
  0x6ddf14cc5eee321U, 0x379eaebc812ffd96U, 0xe6ce26fc9f012c3eU, 0xbdf0ddbb17c0f162U,
  0x82e89b278136d4f6U, 0xe29dfd1a26135adfU, 0x1cf7fcc984c0d969U, 0x3c170ad44adc6427U,
  0x1581971245ed3f0eU, 0x327304f31fdb1e79U, 0x8a094254c011U, 0x773200005961U,
  0x954e00008accU, 0x551f0000774eU, 0x8bf00000740dU, 0x7e5a0000864fU,
  0x6e6400005885U, 0xb14700005943U, 0x7c5800006242U, 0xe62e0000a116U,
  0x5304000061e3U, 0x6b680000a410U, 0xa43e00009050U, 0x67c0000062f0U,
  0x5d2a000051d4U, 0x70040000836dU, 0x9d9000005996U, 0x753600004f06U,
  0x8d8400008ad9U, 0x94460000904eU, 0x833c000076e4U, 0x55d300006331U,
  0x7fd5000097edU, 0x77560000bf5dU, 0x7e0d000095c2U, 0x50c300007510U,
  0x8f6b00007a69U, 0x8c2200008d99U, 0x6514000078b3U, 0x7d08000092ffU,
  0x589e0000a142U, 0x7c1700009935U, 0x9b2f0000b397U, 0x6c9400008098U,
  0x875100008366U, 0x889200008ffdU, 0x793f00007c78U, 0x59c60000852eU,
  0x896600006e94U, 0x92f200006ca5U, 0x9cc500009642U, 0x870d00009ccfU,
  0x9ba10000a0ccU, 0x744c00008d17U, 0x72750000615aU, 0x946100008c6eU,
  0x8770000084dcU, 0x967600009232U, 0x72400000b3c3U, 0x5aa20000873fU,
  0x7b3f00008c06U, 0xc7fd00006440U, 0x928700007262U, 0x7e2a0000796eU,
  0x65d90000818cU, 0x866100009b44U, 0x760600008201U, 0x987f00008c63U,
  0x9b9c0000952dU, 0x90c300009e1eU, 0x46d11e1600007e25U, 0x49bfbcd1398cb12U,
  0xcb30feab4b853b35U, 0x1d9ecd1b26c61a01U, 0x65ea993f2197d901U, 0xf50a2ac9cd2e58cbU,
  0xfa3869d2f1cc3b05U, 0x25e3580c48c3fb81U, 0xd721365a05e727d8U, 0xb7dea313121c18f0U,
  0xfff2e33c40bee0deU, 0xdd63074f0816f921U, 0xceb3d1ef24f074e1U, 0xc614ba10ffaedf36U,
  0x10ad6139e1b1059U, 0x5432c240271ac8f0U, 0xaeb9a7edf5f83f14U, 0xe146d941af44440cU,
  0xee3920eb4fd93d92U, 0xb5bdcd919cbbe9f0U, 0x7090633202635bfU, 0x34f0aeb409e02814U,
  0x1086f1ddcdf8da34U, 0x37eb0f25640db92cU, 0x35ebf0f6f202c7edU, 0xc435ff36147fe717U,
  0x3004b2fa0e22121fU, 0x1e2b5a1ffa19ee4eU, 0x3cb21f26c118f8U, 0x87cc26f70e21f53dU,
  0x172823e8982c2228U, 0x2e3628d4ad42e8c8U, 0x9f6e61846927f29U, 0x9d2afa50c2ef0022U,
  0xea12ef20e106bcfdU, 0x3be5e8c7cc96e1eaU, 0xce2ee3fb52c327fcU, 0xe8f61cf8d420411fU,
  0xe9e60050c13acec8U, 0xf2a942f7e43406bfU, 0xbd3ed0f0ef2b08c5U, 0xe2290621bbd22c12U,
  0xed40fc6539f81815U, 0x26e326a7eb1dadc8U, 0x3334e9dae13a01daU, 0xc51911000ffafe29U,
  0xaaf51481100dec18U, 0x7fc6f90aea1cefdfU, 0xf3d0b6b0eca4dfe5U, 0xe31e1c98d800bb5eU,
  0x191ee0cc6ac0ca2aU, 0xfa41fdf6b41046f0U, 0x17f1a4f8b22f24e6U, 0xfd39ac1655d6313bU,
  0xbde2dcd5e13fc5d4U, 0xdd0f610e16bfbab3U, 0xb2fe1bdb0cfed931U, 0xbf06e8f5e43a1926U,
  0xf7bbe0ddbb05a819U, 0xd73cb3eb57ded6f3U, 0xca292314fe2807dfU, 0xecfe8df08de1418U,
  0xd4fcde26cd22281bU, 0xd6fedac7029daab0U, 0xef0f02d8ed9ad90bU, 0x33f0b8e8da08ae06U,
  0xc89340b2bc0f08ceU, 0x91be44d3410dc9e7U, 0xbe030323b65afe99U, 0x1f0202fd25cb4925U,
  0xe8de1801ef31d34fU, 0xc8bc02e5ea9a2b1aU, 0x81ee1d041894fdabU, 0xad2322f0bbfad247U,
  0xe5d8e3d22f0e2629U, 0x10fb6f05fa55482eU, 0xf53c30c92caeeddeU, 0x3ee61604c70b552cU,
  0xfdf01e409063401U, 0x18296ff20d7647abU, 0x6fe51d0a21030993U, 0x4666f4110370cd9U,
  0xd8510d09ed44f33eU, 0xaaab0aee4dda1c14U, 0x4aece67fe23c29U, 0xca27dc210c053d3bU,
  0x221b37d10ceddb0fU, 0xd422a82c44131a18U, 0xd11a06f0d6c6fe1bU, 0xddfb2f12ee005e39U,
  0xf0a5354dd3600743U, 0xcdd6c53ae90423c5U, 0x9bfc5353f3a09a3U, 0x5be719eec546c244U,
  0xfb26d47430bb4d3U, 0xc846ef01ce1df81fU, 0x2beef9fe14d643ebU, 0x2f78120a73caf7d3U,
  0xfaf7d6d002bf32ddU, 0xfadd34c2f73ede21U, 0x1422f700edd54ee7U, 0x3cca49b8deff1c7fU,
  0x2b70fec0bafc1442U, 0x2ad00d231f1c9bfaU, 0xff33bef60e1b3304U, 0xeccfe50b3245deccU,
  0x32fffe2bc70fc632U, 0xf1ae27e839032001U, 0x10d8ba374f48d5f9U, 0x3febf105d3e8f52aU,
  0x15d9576e53b2e90eU, 0x312c23ee246115f2U, 0xeedccb0b5801ca44U, 0xdadfc7a3f6c3e9baU,
  0xc92eb72a14f3e4a4U, 0xa5f1f181e815d1daU, 0xde44dfde05d92cc4U, 0xd83af84d0b277532U,
  0xcdcffa28fbd5b8d1U, 0x1ccd060610a102aeU, 0x4e361f1a4012b137U, 0x2c54fadff3df1752U,
  0xbd152f5e1dafbfeaU, 0x1b6717ebf9cbe1b7U, 0xaac73cebd2e3d9afU, 0xad7647aa5038fee8U,
  0x6a389d3a1feedcc4U, 0x4200340f01e21446U, 0x3ffe8d043f103e8U, 0x22d817c81ddb379eU,
  0xcaefbe638a4d1436U, 0xefd3a43b4f22001U, 0xbcd61feb263a03abU, 0xfcbed1b80cffcf0fU,
  0xbf2e5881e4419fe2U, 0xef600b68a52a61f9U, 0x4ee9d7bb44ca473bU, 0xd3b01d8c731e515U,
  0x220a57e5b4241cb4U, 0xffb62ed91b2a4deaU, 0xedfb26f5aee5eaaeU, 0x4a34d5d5660609f8U,
  0xfdb1c2c8311ac4e2U, 0x3d38ecfe7ffa2a38U, 0x1ccdee08dafed1cbU, 0x2b710411ab9e5938U,
  0xc01b26ed02144012U, 0xdac5c0014db0166eU, 0x266f4e5f122dcfc3U, 0xfbbbe922ec04bb2fU,
  0xdfd1f4cf410524daU, 0xd336d0befec146f5U, 0x2940d023cde9d1aeU, 0x2d07900350e032b3U,
  0x12d0d1f66025a3e2U, 0x3129e7f1c28bd2cU, 0x74bf21c070bee7fU, 0x9adcaf0112a06f5U,
  0x19441d2ef5dfcdfcU, 0x5118fc51be2fe6dbU, 0xfce3ff0c0cf2b2a9U, 0x3d1ef2fdd1bbec5fU,
  0x5d25213ac1cd0243U, 0x38d5f22d03ce9c3dU, 0x2316f3001bc858edU, 0xeaf12ad622230909U,
  0xd9ef22f71cf4b407U, 0xe8ad3df652e406bbU, 0x81f2c1d31bf4cbf6U, 0x523fd2c120ea2302U,
  0xfe08ac15d3c9ea26U, 0x2d3b22a7d6fa25b7U, 0x5146ef13bcfedb1fU, 0xfeaa7eff7ead121U,
  0xbeb209bed531ca2fU, 0x1103aa983e0002f6U, 0x4ef9b208f934d9feU, 0x2094deebe30b88e9U,
  0xffc8ef08efe71d1fU, 0xd7d30719441aefeaU, 0xfa2e1df4120a0bfdU, 0xb02db09c4e3f1b3U,
  0x2ecb12fff21907c5U, 0xf300f6c8e7adc710U, 0x3ee1fde1e0070febU, 0x312b3eefe52cc5f1U,
  0xfe1824fc1ddcc000U, 0x32e502ea09243ceeU, 0xe1bc1b092cff0905U, 0x24d13513000a1c8U,
  0x1edf2015271adc0bU, 0x38d20edcd1bc15d5U, 0xf114f127f4baf7d5U, 0xb7e5cc3948e6decbU,
  0xffffb21ce019e8ecU, 0xfa3201368133c5eeU, 0xd9b8fcb149ccb9cdU, 0x4a84d7c2befb9e14U,
  0xf72e0cf9c90405c9U, 0x17d8e2047fd1f831U, 0x1eba381923355c0dU, 0x25f545d0afaf1d26U,
  0xda5c2b0eecdf35ceU, 0xdfc514d8cc5a2878U, 0xe6ffb6070342b1b3U, 0x14dc6054d183e3eU,
  0xeb3f122412244fd8U, 0xfd29f60bffccd0daU, 0xc7c0b922f9d628acU, 0x2f2190e00d3be05U,
  0x20649a39ef25e6a3U, 0x941c712a351cfdb6U, 0xd33116226a0010d4U, 0x22c159500ddef7eeU,
  0xeffccee4f22ffeb4U, 0xa9ecfe7d528cbeaU, 0x80620371cf647eaU, 0xba11103212ffc2d1U,
  0x23492b0f18afcc46U, 0x5cb061d08333327U, 0xcaf41ed71957dfc9U, 0xe43cdbb87f1f0509U,
  0x3dfbeab19acf9faU, 0x4c3c45321b0a284aU, 0xa5fd23043138e3e7U, 0x4bac0451dffd0ef3U,
  0xdfb225f306e0c542U, 0xe6f635242544fe56U, 0x4524d1e1ea102808U, 0xf5b2e3e9282fea2fU,
  0xdac500aaf4468158U, 0xedd045ea0832b3d7U, 0x142b1253ff469f16U, 0x1926d9d2c55f63ccU,
  0xd51f7afbf94cd81bU, 0xeafe1d280b151e17U, 0xf8cecd44fc4023e7U, 0x3ecf18c2bd1cec2dU,
  0x27470ae7a72d221dU, 0x1e1261c3432c7dbU, 0xfce429c2f82a1bc5U, 0x1e2c0956d761c1a0U,
  0xa2f046b0f0d44ad6U, 0xf32a03e7155eddc5U, 0x165c313cf2cfb479U, 0xb95f121d0df049e8U,
  0x3523ed140c31e2eeU, 0x3610d6f8d1c4dbdbU, 0xedec11292f37d3e7U, 0xf8ffd21510d3eaf7U,
  0xf016d91ffceb0fc5U, 0x2120dd1adde1a799U, 0x74b112e28eec3dfU, 0x222c22ef3b053f07U,
  0xf031372b1a3e5421U, 0x2800dfb249fa9f7fU, 0x183ae9e2fcbf13d2U, 0x45d8610423d223ecU,
  0x410adbd6cd08dcb2U, 0xecedf318d0d28e81U, 0xf3326df62acce2cfU, 0x320be2dc4343dedcU,
  0xe727d716f04028dbU, 0x34292af33ed0b6ccU, 0x13ce39f0f9efd7dfU, 0x39a654341e37a8d8U,
  0x580873dadc0d392bU, 0x39002a9228ee0342U, 0xef08db364ad0a959U, 0xec8dcea15c2e38cbU,
  0xdf0d00f9135e1a08U, 0xffe8c508e2dce442U, 0xd00fd90024dbc53aU, 0xe1e114ebbcbb21edU,
  0xc2dbf4d62aeddae7U, 0xcbe41ccfc61fecfeU, 0xeebef71a05c33009U, 0x2ad4407ffd35c2eaU,
  0xf047ff1125f6d1ecU, 0xd33608e8e9334112U, 0x19043c450e00d13bU, 0x29c3027f44e01db4U,
  0x204003d1b137dae0U, 0xe2e1d56def62ee2U, 0xe2ffc92a25e2bbedU, 0x51e8ee0de0bd021dU,
  0x7f190a01dfea0217U, 0x35c9c721e7f5332aU, 0x972f27120e06f9e6U, 0x34fcda22e7ecf1e3U,
  0xe3214faf22a14e4U, 0xdcf218ef2cff2842U, 0x28d8cdfc180d2015U, 0xd91029f3c0011d17U,
  0xd60de2ff18cafdedU, 0x2f3ce8da09ebdf36U, 0xfcd15318ce061fdbU, 0xe111d851d1fb1bd6U,
  0xdb281e0cd0ead7bfU, 0xfff60bfc0924f643U, 0x63a8c82a24f6fc22U, 0x36503deecd480e3aU,
  0xe3dedef351c136dU, 0xfca4d72dfd1af4d3U, 0x3c0f30bedb0ae4a4U, 0x2c0a142a4518e9abU,
  0xf5db1c33fccdca0bU, 0xef24de5d2afb0aeeU, 0xeb0248c6e9ee133fU, 0xfa2cf34a00fbe4b5U,
  0xa54b28255b2bdec5U, 0xe7097f3210ee0d19U, 0xa6ddcafc2d22efb2U, 0xd2e75d1dd1d30c01U,
  0x40e7ef291bfcd00bU, 0x167fedbbfd4f92aU, 0xb8ede0fe3c33e32aU, 0xa5cfe2f02d120efaU,
  0x5429190effbb2506U, 0x52101f90e116b1fU, 0x15db81380e3ae93cU, 0xa7db38e799b5ff26U,
  0xdc30ed0f2f1325fdU, 0x36cdfe2011e41a1fU, 0xcbe814f32c4206f1U, 0x34f9a9bceacecd0eU,
  0x1423f1af25d13d4bU, 0x15b8dd4a032b48c4U, 0xc7c769ea1ef4462aU, 0xd811dd0c047bcf02U,
  0xe0f22c11b9e2dcf7U, 0xf30f28f043f937daU, 0xee0ff92115bcfee7U, 0xeeefd2ede0fb17f0U,
  0xf4e411ebddcd2eebU, 0xfd04f2fbd71e16fbU, 0x1913cfcd00f1152dU, 0xe109263ac513001fU,
  0xf8270dc5d91102f0U, 0x115ecb83d1fffc7U, 0xf5bfee14b7f549f4U, 0xf40e1bdeb17f4bf8U,
  0x6d10f0eda1ac645U, 0xd4221be4144bf3e5U, 0x382bb3463ef12611U, 0x2ce10f34352e21fbU,
  0xfa470fdd244d0301U, 0xf5093806edbd1244U, 0x4976e8b92fb2febaU, 0xbaed301932dbfa1bU,
  0x6709d4faf7c9c412U, 0x11c4f8c22cf3172aU, 0xcf8af00359f171ddU, 0x4f61c1b8fdfbc3c6U,
  0x14601f61c2d4eae3U, 0x2ed16410e44f4343U, 0xc40ab50381f1f2d1U, 0xd7e82439d5cc2719U,
  0xfbd60ae4c221f730U, 0x29dbd8d8e3e810f4U, 0xfffffc4a11fcdf35U, 0x31e00000898U,
  0x202700002307U, 0xfffff1c4ffffdefdU, 0x5e200000894U, 0x250ffffeb8cU,
  0x1a380000254fU, 0xfffffe2a000009a7U, 0xfffff1b2ffffebc2U, 0x4d4fffffba5U,
  0xffffecfbfffff55cU, 0xfffffdf40000080aU, 0xfd0a18f1fffffecdU, 0xbbdb597f04ca2a5bU,
  0x30502ae2df0e5748U, 0xc307f4e9f41ac83aU, 0xfffc7f3bf04ddaaeU, 0x17d66ff4a8423f0dU,
  0x40e90d820df68a58U, 0x45697f53fa2c1568U, 0xeae109879c4fd1d1U, 0xbe040125103c12c2U,
  0xc636ee184245cd42U, 0xd803d1dcdf28d5ceU, 0xe84d034fd2237ffaU, 0xb9fa45de3a7ff913U,
  0xf840f7ae2e14184dU, 0xdd12182dcb2becabU, 0x1711db01310638c7U, 0x3b323d06eb813500U,
  0x1904d97fa95fbaf7U, 0x35f90a0cdac6f5f3U, 0xdbcdece7033f54c2U, 0x2305eeff2fb2340U,
  0xa2c6cbe2f3f9bf2cU, 0x117fc3ea1f7ae705U, 0x31aeac231114cce1U, 0x2d07e4dcbb06fc4bU,
  0xfde70181131e4109U, 0xfdb9cb493afdbfafU, 0xb77f20f14f2632afU, 0xca2213e62027bb37U,
  0x7fea0cde6fd6157fU, 0x909ec2a2519e4eaU, 0xd781e9e62fd68bc0U, 0xbf39f6ca3bf80d01U,
  0xb9051a7f4514d213U, 0x48ce63d7ea270bd3U, 0x512e8845ee09d13eU, 0x81fd70f1f0e3b821U,
  0x2ee2b9a8d292325dU, 0xf45554f6fbf21dU, 0xc72e29b981a2ab2bU, 0x49ae87327066d43U,
  0x182dddb39dd6a8fdU, 0xc2fce29f4c7fb504U, 0x2ed5ed9fb1239f2U, 0xa3291d8144a711f7U,
  0x21386c110ef82977U, 0x1d3006d3edd70edaU, 0x3de01fb6eb191067U, 0x274d3bb2115d8141U,
  0xe6e3e15de9e32b1fU, 0xff01183d0531102eU, 0x7f2d3af7e48cf7f3U, 0xa80420fbfce9fce8U,
  0x3114f92ae70525ddU, 0x220e0b35e107d543U, 0x4d21e9812b422431U, 0xb4d8bf2b73f8c6f5U,
  0x1b02adf0e957e5d2U, 0xd352bddd7f07e5eeU, 0x33c1d4ecc2c32d09U, 0x550de6d307c7eb2aU,
  0xe5813f7e0bded9ffU, 0x3b28d442cdf31529U, 0xa467259ff4dbfe4cU, 0xaafb216f0bef81dU,
  0xe7c8f87f31467fe3U, 0xb8c60b0fe6d4001fU, 0xf4e321a0b9eeb505U, 0x12fee1b44500ef05U,
  0x36dfb1d0fb1d1ce3U, 0x1e7702d90c2ac801U, 0x18360801f6487f0aU, 0x6df8ec0b42340043U,
  0xc08640f00210eb0eU, 0x402606600515818aU, 0xbc3d39bbd4de1581U, 0xfdec6f9d4df260aU,
  0x3bd9206f4d5c22fU, 0x3ab754d7173210a3U, 0xc5814efc27d154a1U, 0xcca00bff972ec55U,
  0x32d0bc9913acc930U, 0xff6a23e4ffdb0e1fU, 0xee3ae30b2a81f50dU, 0xf9e0f6eef7ddf95cU,
  0x3ef0e602fc7f3a00U, 0xc5b2bdec1d02b0eeU, 0xcbe012fb2a67f9ddU, 0x27ad217fb49c0022U,
  0xe2721724f9f1ff14U, 0x2a7f170fc7febf2cU, 0xa10b120ab89cec26U, 0xe5e53c072e1e60d1U,
  0x471b7f64b352191aU, 0x53bcf0e809f7b2e1U, 0x810105f2b9a9e8fdU, 0x4fbbab2e10a239ddU,
  0xd3e69d422ffaa2ecU, 0xe68c573defe73d05U, 0xb13d5dc2e2e8bf5U, 0x1fbe4e2ff381a6f6U,
  0x64f4dc7ffae877daU, 0xfd41139ff1b72340U, 0x2fe9b6085402ef1fU, 0x5029c5401c7499b3U,
  0xe9ca90182e0c82e4U, 0x6bff5eec14cd05afU, 0xc610570b0d813bebU, 0xf018fcf007a7b8d3U,
  0x5c3a7f622d282dc6U, 0xecbd5259fe1b53bU, 0xc8cf07d9a9d82621U, 0x10cde87f2323222cU,
  0xdbdeffd03032264fU, 0xdfd6c80cb29efa0dU, 0x45e1cc005d613101U, 0xf8b2921caf0feb7fU,
  0x5f7ae62dfdc55b3bU, 0xd7cd8eb2fe781e2U, 0x1c30da64b96d3f57U, 0xb1d0b05bc3a6a22bU,
  0x7f5b38aed956feecU, 0xc9ad3eda08af3896U, 0xc815f981285206beU, 0xf2fd3579bb380618U,
  0xc516e3d8d4f10b13U, 0x111921e481415f48U, 0x18e5c7401adb30d7U, 0x20744306562b18e1U,
  0xb552382e5c1360edU, 0x210d24d70361a8ebU, 0x51c4392c3f427ff7U, 0x5024261cdd15df57U,
  0x8de258c171c2b7fU, 0x47bb241506220156U, 0x81f74e31f0051318U, 0x1e003ac20fcbfe61U,
  0x10b2eac628ee363bU, 0x12057fd4f525cae2U, 0xc612cc340bddea67U, 0x31f2f200c8b3ecc3U,
  0xcac5326a03d70381U, 0x12f925299bbf0f64U, 0xa8f7580ed9e74540U, 0x4c199e283d7f23baU,
  0xe1f91b352af1dd57U, 0x51be364ef105cea7U, 0x3c0681d254ffe31cU, 0x1bcfd53febe31e07U,
  0xc7b24b4661291fb3U, 0xeb1daf0f080df5e9U, 0x4a6ebf16a18120eeU, 0xcfba6a8f08c22e07U,
  0x55d2174eeb81e1c5U, 0xfe853dd6463c0c7U, 0xd4429e2c0b054f17U, 0x2281cd39f03fcf59U,
  0xcce6ec7d7631594bU, 0x5e7f085d16e954e8U, 0x2d24f67f0f33a5ffU, 0xd14bea6d2fbea399U,
  0x937fff1e548bf20cU, 0x413440a55ecfc05U, 0xdbec251be12f0434U, 0xd3d826fad6e126ffU,
  0x173181fcc6f8fdf1U, 0xe42f5625f30828b1U, 0x3ff8b927de29a5f9U, 0x16ace9e7602137adU,
  0x6d0f246ce17ce81U, 0x448540bfb53d3260U, 0x33f060df3f1792daU, 0x25d80ee6c3eb0900U,
  0x6a1efce240af7fd3U, 0x81293b035a0daf28U, 0x30d83ce90732a102U, 0xcd7f7bdcac03640dU,
  0xb33debe635bc325U, 0xc14f0c16c25e2fd9U, 0x1dd2d481ef8c6e0aU, 0xca0349c81a25f298U,
  0xe8bdba2403dabd26U, 0xe3a538813bcbf5b8U, 0xb9c23c17f2e31b11U, 0x49b6480cc04a555dU,
  0xcd3930730fef254bU, 0x1ebb02f5032d2c81U, 0x63ac3426cbc2fe15U, 0x25c625edea0efe5aU,
  0x36e9afb97ff5e1bdU, 0x7e3611ed7c02f1d1U, 0x43d8c2b0e26d347aU, 0xe0d3bed3cdc77fc8U,
  0xcaf32202f8997325U, 0x104090126da2480bU, 0xa1a48da7f2ddc60U, 0xeebe3e28fd403d69U,
  0x40e00605131649aeU, 0xf8e1f9eb1e0a2031U, 0xa8fa59feb40ffa81U, 0x29d511d25131b3baU,
  0x31ef0defe9d9f207U, 0xe534f2f2103f370cU, 0x154dc4ccb4e97fe4U, 0x3008c6a8dcd6f039U,
  0xd9f434e33e7f4b57U, 0xce08f2d1da1f95f7U, 0x19e3361426473a10U, 0x4504281400e07feeU,
  0xed5939fad9cfa91cU, 0x18ecc3dd943222f2U, 0xe71a3dcd427f33bdU, 0xd546551f19e5435aU,
  0x5a34ff81c85be43aU, 0xb6eef85508b60b01U, 0x5bfaac12fe0aedb4U, 0x897e4c8cb303ef3U,
  0x44e2eb811edf5512U, 0xf312ac0951b67815U, 0xf6d0bdd519694bfeU, 0xee3f1ebcfa62bb07U,
  0x8164409f81a6c41aU, 0xd04bfcea22015f0bU, 0xe3bf3b2d305a50b4U, 0x9ed040254041e1e7U,
  0x7fa60d00fdccf8feU, 0xf1824bce84562028U, 0xa2e5859ba31d13feU, 0x7f5bf6c3d3f1c892U,
  0xfb37e1a768e8d006U, 0x2a0be144c0efcd09U, 0x67af0438d9816e46U, 0xfbd32be8121e22f5U,
  0xad0f7e9b12c03dbU, 0xeee50e2845b6d4f5U, 0xe4e5edc6b6f81749U, 0x7e3fdce63813041U,
  0x316690f018b3c1baU, 0xec81bad8e802d111U, 0xb6811fee225e400cU, 0xd8b1020be5ef5e43U,
  0x4c45cecc2727b4aeU, 0xdf7fe9c7fc9f0829U, 0xd11723e2163a1519U, 0x8fb5e1edac9f638U,
  0xc81fec018c2d6c8U, 0xf42035b06538bcddU, 0x8d0a0e21fc1e36fdU, 0xf5eebecfc2191badU,
  0x37f9bc1cfd00b724U, 0xdefd2dc630f28106U, 0x293c0f191b1d40f5U, 0x2b1d35fb3b243025U,
  0x53e6ee2581de1ff9U, 0x39d0a3eef7a9690bU, 0x1be121eaf10b61f3U, 0xffcbe318ea81ee10U,
  0xae1972fbeab124eeU, 0xd581d027071a6754U, 0x33774eafff1b26fbU, 0xe8da572a31870dd4U,
  0xa4df7e46810dc7dcU, 0x2408089d18290757U, 0xecd5e74d0df487bfU, 0x8e7d612d1c281c9U,
  0x803e31506f616c5U, 0xa01ad10333f1fbbcU, 0xc17302c400d5e008U, 0x2d8e0a1eb55e81e4U,
  0x1c31e57f093f24dbU, 0x2fb41cac14144125U, 0x2fe90fbad0c720d7U, 0xd7d7dc1327c97c39U,
  0x35221fd0e9792d28U, 0xb1b10ef22d0ed581U, 0xfcd1f506061aca17U, 0x4c1c999ea181d100U,
  0xecd5d01039ff1919U, 0x1db534e53cdfbceaU, 0xd18da0047df311eU, 0x1202c5e410acf1ddU,
  0xb6bebd074ed47f10U, 0x23ae2c11880c0cc5U, 0x4be6def4d39d7f42U, 0xd081908a119c80dU,
  0xe2dcd108e80ca755U, 0x45cc2c3e66d11e14U, 0x1dd5a9656c2fed7fU, 0xcf1602cc032dc681U,
  0x55dc02496c0360aU, 0x2b1e2e1d0640bb0eU, 0xe818d31f1dcb197fU, 0x16ca79a4c37bd300U,
  0x2eb2e0dfd92b2d6eU, 0xe8e0522f240881d9U, 0x3fd52d40270bf902U, 0x1eff2c2647eb27d7U,
  0x3f4bf1f3202eedd3U, 0x98d9c6c21ced81c2U, 0x9b3df6a2e539f5ebU, 0x210f8bf3fffffc6U,
  0xf106de7fa910fbcfU, 0xec11ea2a9dc834d7U, 0x7fbeb4c42b82c6daU, 0xc78da23719ac21d4U,
  0x21de1f06dbe212fcU, 0xafdd22aa2325afdU, 0xab864efb30de19ccU, 0xa5ec45fe297f29c7U,
  0xdd2d33456cbd72cU, 0x731f14fc0cfce0f8U, 0x113af8fc20c56081U, 0x41f69cc5f381a04fU,
  0x1126efdef210edf8U, 0xf81340255dc6561eU, 0x24eba7e10c4fef2dU, 0x7e9d14f7f1706faU,
  0xfde99681cff8abafU, 0xf441e84414c6fb92U, 0x4cc6093c305ed998U, 0xc6faa23a985eeffeU,
  0x52b7add5ca4f0a4fU, 0xc760ed26c5b39a9bU, 0xe3f10e47f8f0e9eU, 0xe4f32fc9a881ce55U,
  0x3e11de1726ec6fffU, 0xdcc976fb1001084eU, 0x7ae3ebd481ebf6faU, 0xafc10bee45f3f7eaU,
  0xdfeadeedc102f188U, 0xf5bbcde3fd421a9dU, 0x81a0f0ceefcad2d1U, 0xdf48bbdc266c19abU,
  0x160a5327ef5a2fd7U, 0xfb8100f823f4f50bU, 0xcf0d0542a5241feaU, 0xbf61d0fece4ae7fU,
  0x352539d302f8d7f7U, 0xfb3e253239e3deddU, 0x61fc4d80b179ddcU, 0x19fc3c7fbe0f2144U,
  0x377ffed3f0316701U, 0x150e4616193f3189U, 0x21cc24f3f6a34c2bU, 0x620ca6c2a0dd132fU,
  0x5ea9f58104043f3eU, 0xd1c3f1cf32f90474U, 0x4535cc12c6b7242dU, 0x4b00136cea7fc1baU,
  0x27fdefc932bade89U, 0xde9f30c5efde8fefU, 0xbc117f6735cc12fcU, 0x270c9c0ec5337cfbU,
  0xcad7fabef9ffac06U, 0x45c812b16847ec4eU, 0x602573377fd1de11U, 0x5953ee8111ff57c9U,
  0xdcc7751b3f26eecfU, 0xb40efc3b006e00fU, 0x7b304e91bc2U, 0xfffffe7bfffffdfcU,
  0x34900000064U, 0xffffffe4fffffd29U, 0xfffffbf4fffff65eU, 0xfffffe8cfffff9caU,
  0xfffffc45ffffff0cU, 0xfffffe830000018dU, 0xfffffa71ffffff6bU, 0xffffff1bfffffe79U,
  0xfffffedeffffff8bU, 0xfffff9edffffff32U, 0x28f00000049U, 0x126fffffb6aU,
  0x1efffff2ffU, 0x1c8fffffb1cU, 0xfffffc51fffffcc3U, 0xfffff7affffffa5bU,
  0x9e4fffffc02U, 0xfffffc55fffff81aU, 0xffffff930000037dU, 0xffffff89fffffb82U,
  0x104fffffaafU, 0xfffffd25000000eaU, 0xfffffb40fffffe5dU, 0xfffffcadffffff0cU,
  0xffffffbffffffca5U, 0xfffffdbffffffe58U, 0xfffffecffffffe74U, 0xfffffc12fffff3d9U,
  0xfffffb5c0000005eU, 0xfffffcfcfffffa7fU, 0xffffffb1fffffa62U, 0xfffffa5c00000143U,
  0xfffffd99fffffed0U, 0x1d200000458U, 0x2efffffeb2U, 0xffffff68fffffbebU,
  0xbafffff1feU, 0xfffffe6400000020U, 0xfffffb5ffffffc15U, 0x4e1fffff41aU,
  0x1ea00000040U, 0xfffffe76ffffff2eU, 0xfffffd11fffff796U, 0xfffffc8ffffffa87U,
  0xfffffbc2fffffe13U, 0x54dfffff641U, 0x440000009fU, 0xfffffcc3000002fbU,
  0xfffff2a7fffffea5U, 0xfffffe3ffffffb00U, 0xfffffe0efffffe0aU, 0xfffff761fffffc2fU,
  0xfffff58dfffffb05U, 0x16fffff869U, 0xfffffaec00000109U, 0xfffffb0efffffdf4U,
  0x27dfffffcdaU, 0x37000009fcU, 0x7f518810000027bU, 0xc0de3ce4f842cf69U,
  0x4edd5d298e22909U, 0x16d7352bed0ab11cU, 0xe9bceb11d0257f0dU, 0xe614ee171f2ab7ebU,
  0xf0d9bbaaa7422544U, 0xed1edcd1d6dd0397U, 0x9d394403cce8c87fU, 0xea7ba3fa3ea2dfaaU,
  0xd4b81132082f81aeU, 0xa626344036ada3b7U, 0xa03097ec9c8902b8U, 0x30d309f8e6beef44U,
  0x1c4f27ddcf2aa6edU, 0x588401a1b42a81c7U, 0xffbe7fc62549f729U, 0x9db1f0d9ee809fbU,
  0x92c342e5cc74bb27U, 0x341cb15bc7777ffU, 0xbde9be060d01f0f5U, 0xa305d4d6d1550b4cU,
  0xedf1c4ee3b2b01a5U, 0xa7b8503de503b747U, 0x7f2b81e4c0f7bf0fU, 0xecbb5d2ed564d9b2U,
  0xcc0a28f665b02bd0U, 0xf3f281f7ca18049aU, 0xd43cf8e2eab9fa29U, 0x4b3076d4eefb87caU,
  0x315e6fad51bb8dfU, 0xe2d2ad3f8f6f9baU, 0xeed7c337b3fa2d81U, 0x89e915e7cc19d204U,
  0x5038d15fda026e15U, 0xe0810652da11a308U, 0xedf113fa372b2d4eU, 0xf998d23ce4e8f5bfU,
  0xa5cf045df6eb0ff8U, 0x59f493ffb52ad202U, 0xb40e3323e77f46d7U, 0xed5106016dc554b8U,
  0x5546b41626e51fceU, 0xfae3d806fafcebfbU, 0x7f375cece2e6d61bU, 0xd986e90fe882e5b4U,
  0xd1302795f67f9db6U, 0x59a8c63dafa20a82U, 0xb82d68ad2ee5c233U, 0x5258fd78e3f06006U,
  0xec37f7ffb383ef3U, 0x16f400d20f061393U, 0xf896b77f3efedf7aU, 0x28b0178e0953ed9U,
  0x660dbfc99639f504U, 0xc327ffde533341bU, 0xea0d2001591c2fbcU, 0x2a1c16fb20a743ecU,
  0x41de2db7f5136ecU, 0x6f1629c908000144U, 0xa2cf11e7c2f00ce3U, 0x8a3d2181fc6ba9d2U,
  0x27d18b1ba2dbfbe1U, 0xef0c7f0f7f05a803U, 0xdf74d77fe7fa142eU, 0xeed3361d043b1c12U,
  0xd70ac0d1b400e303U, 0xe4c28120dc2eff68U, 0xa7c1027fdd816de1U, 0xa34b788ff0409ccU,
  0x67ea61c2f8f80f42U, 0x81e203edf8d835b3U, 0xc5d416e818817f59U, 0x543d17d97bf556d7U,
  0x30313102ffed1830U, 0xe62c0ad0e40500d8U, 0xe88a31d3f8bcdb79U, 0xd3eb2ce8ce4f23f2U,
  0xc7c840cce91705c7U, 0x2081d8ecd7272225U, 0xc46e30411d8ad06U, 0xebe9f4f9d00c5307U,
  0xee78fbcc8ea1ae4U, 0xc30f33fae2ccca4dU, 0xf166fedfe08aad22U, 0xfab40e2af91bd49cU,
  0xf416554a27c59b81U, 0xac4daee2b5d80be6U, 0x58407fe81af00a7fU, 0x45b1701a6a8f3e8U,
  0x14f51cfe81408caaU, 0xfe813e10f4d1093dU, 0xd105357fb62410bfU, 0xd6c72b93ba4bea37U,
  0x3ba296e4d35b2608U, 0xdeefc6c9fb8cb4edU, 0xc0f2eed10065227eU, 0xeaed9ac12419f303U,
  0xddc321dfebf9e910U, 0x1fedffd8d4bcc42dU, 0xccd82a17080ce3d6U, 0xe0fe7f3560fdf4ceU,
  0x2a43b0dbed2302acU, 0x1d6331cc279f0c6eU, 0x1f854ed01c0c38cU, 0xcc69f507b206fe83U,
  0x1ccbdb0c15e10bcbU, 0xc607e073bc261299U, 0xc20ff604effdf103U, 0xe96c246dff33869U,
  0x1b90dd4b6d7a1d4U, 0xd6fbe8b7474c4715U, 0xfae5f00ef704f305U, 0x17f4ccf4dbc9fcd0U,
  0xf6d108ccf5f2d510U, 0x89030efefe531010U, 0xc37742f93c1decedU, 0x3b26e5ea260e0db4U,
  0x114ad6ab04001eecU, 0x20f87cde0104f0ecU, 0xa5a20aeadf8f1b9bU, 0xf611fe113551b0f8U,
  0x24d1d315dc260dacU, 0xaa351a2c00b8feebU, 0x7f00c642bfd4337fU, 0xffb13c2016e32cc7U,
  0xd20513ce064338bdU, 0xf18f985b02f9ec7eU, 0x34b9ccc7e5d62ddfU, 0x5f2712c7be33faf4U,
  0xe1f7eafba751f4e9U, 0xe7f00e50af014d1U, 0x10f012e401e90e22U, 0xef6bfad2582d7fccU,
  0x150de0b704f45a09U, 0x81021701e8e540b8U, 0x816923db3106d118U, 0xf7eeabbf0726e6e9U,
  0xbbf52c1b1ffff8acU, 0x38e1b428cd180d75U, 0xcfcf13df250ffbd3U, 0x9109edc3de51ebf2U,
  0xfabbdf1afe2d2660U, 0xb2c1aaf8fdc93f01U, 0x373401a6a629fbbfU, 0x4686170a1822402cU,
  0xcc3400f104d454b8U, 0xa1ae0de722e04a7fU, 0x227f250c38dd47baU, 0xfe2581dbc5b3542fU,
  0x31fa140be53124d9U, 0x1f9827df3ac21750U, 0xbef94eef28ef3efaU, 0xbbca2af7bd56fb86U,
  0xe92216e40403d210U, 0xd6440bd115aed2c2U, 0x34ff36bdfade55feU, 0xef4ca53bfbcbfeccU,
  0x269c13e5f0c5de2aU, 0x18431f2fbe81f965U, 0xa074d90fe521d4a8U, 0x1431dd295cc6adaeU,
  0x661acffc64e06f0U, 0x4d6d03c6ae0c1a74U, 0x47fe81dd5ae475bU, 0x2efe0ff8e628b681U,
  0xed0241110aa28efU, 0xd82e7f1513c14594U, 0x9ed1ccda17f1bd3U, 0xf12d0007fa7feff8U,
  0xd02a0df8bd810eedU, 0x3e503c64ac7f77fU, 0xf64df90954a5f0fcU, 0x12aee3dbf2e1e4ffU,
  0x7e02005a0901a2dU, 0x9420f51ca9cef428U, 0xcfd71e487fd78beaU, 0x130abef0dd62efb1U,
  0xe4427b0ebdd3a6eU, 0xf9f055610bd26913U, 0xf9620813d1a50285U, 0x19faee3aeff433b9U,
  0xe72051fd02d516d1U, 0x4a14e127f902df21U, 0xc547122ce904f7f0U, 0xc6d2ffee81c1cb12U,
  0xc90b0ea571faf306U, 0x90e00fbb3a5f545U, 0x1df9adeedbcaeaefU, 0xc78a2520ebdd2d7fU,
  0x811ac8e3aaf6dbeeU, 0xca2101f3411bb2f7U, 0x3bf6d70dda5c02d9U, 0xf9eab8a6e11357d0U,
  0xf6f36424240f70e2U, 0x4fd38ddedc218c8U, 0xf4d40b0e1e1dbfaeU, 0xfbf7f4dccabce9a9U,
  0x28f6ed623be1d61bU, 0xe71db0d9efe09f1U, 0xebc921ec24f029d0U, 0x99f331b52200ecc3U,
  0xf5cbad33bbecfd59U, 0x51bb95be00121be0U, 0x14fe2502c8091419U, 0x9d48c3e48107dd93U,
  0xf65ae3df340ca3fcU, 0xfcb60df71c70ff38U, 0xff31ebfd03274fe2U, 0xe032b802212a419eU,
  0xdb7f3608eb1d57f2U, 0xa72923eb48dfcaf6U, 0xe0fdc5cadce8eaf1U, 0xb9c605342a26e4a9U,
  0x3211bf1bc3c0f006U, 0x8ad326d73930fcccU, 0x810b08d537278ac8U, 0xdaf7f727f81e2c3cU,
  0x1aea7db0f097ffbU, 0x6b080d1c81232a12U, 0x2ddff0f6fa1ef0c5U, 0xbc25cdfa2fb441e1U,
  0xd1811ff345731034U, 0x112d25ece60605deU, 0xca2d850aaec41d81U, 0x1fcf11d21a4c270fU,
  0x368c1be77fdb244aU, 0x8103384a37e22602U, 0x7f60a59b82dd5a4U, 0x1814e4d131fecad3U,
  0xb8221fea1ac5a2b9U, 0x231b73d9f2817fd1U, 0x237fdecf97a4f3adU, 0x2d9c2ab016bb053aU,
  0x82a77f2af9dfa0cU, 0xef56f8020a12007fU, 0xf141e9e51dd5f3c9U, 0xd446b208d3e6eeccU,
  0x7f082bddd0d3280dU, 0xfe60fb01dacf2d70U, 0x190f1bcaacf4dfe0U, 0x4f10df746f77ff9U,
  0xc1320a1356b273b1U, 0x480b0ea8e469f2d1U, 0xf04bcde02050cb22U, 0xbd271c25ccca31e6U,
  0x26113ce32e95133cU, 0x77a0eca0e81e381U, 0x61aae3ef25bd40daU, 0xc8005fe0dfabf504U,
  0xa4de0630d7fb276cU, 0xe6f8190640d2c3dcU, 0xdb23d52dba0ef2eeU, 0x170d2109e1b83e23U,
  0x150813690dfe7f43U, 0x1635fecdded5fd02U, 0x12f0ee14f50e58aeU, 0xab7f1dc5fdb8400aU,
  0x7f06e681f819d6c4U, 0xc07f1ef10916ba15U, 0xef030feb93e103d2U, 0x45465ab07fad230eU,
  0xf021f912e69ff09cU, 0x7f46ecf7eb97edacU, 0x88814edffdbdfb33U, 0xe01e0312d1fef3ccU,
  0xd83d250c4832d8d2U, 0x10f2e24f81fae340U, 0xf7c3f6320aca5aecU, 0xdcf4ee7511031014U,
  0x1f93ebaedb50402U, 0xe9bb0cf8bd32aca9U, 0xe92ac7110181e3e4U, 0x49ecedc52cbfcb05U,
  0xc6cf4ecc9f31ccfU, 0xd2c72806fed522beU, 0xd62954cf1704f1dcU, 0xd3e9e10d0df80304U,
  0x2e27bbda0114e4a9U, 0xd4db43ffdb08f457U, 0xf57ffc0ceeebc2c9U, 0xa3308c30ce881c4U,
  0xb7a80a0ed92de72dU, 0x1ab20717dff71fc1U, 0xb50eed510ef13442U, 0x96141e91c15293eU,
  0xb81a0ce6129dc9beU, 0xd0fdb90cfdd02122U, 0x19e5e91c41e0a2b0U, 0x151211af5bbe6fdU,
  0x81cd14be0b1ad7caU, 0x8b103a200ff2a9a3U, 0xd215e0ea20217fffU, 0x5b0f5160317f8b5U,
  0xff0c34fdbf2a220dU, 0x35550af71df9c4e0U, 0x923fdeb826c3f800U, 0xc6a6080924ee04fdU,
  0x230102088bd117e1U, 0xe223c331b8d80d09U, 0xf49d31064a7f4757U, 0x109a3fe83d89307fU,
  0xbfe8eb697f931327U, 0xf081dd69bfe08118U, 0xdfa7c9e17fd3aadcU, 0xff3824101b08edf1U,
  0xf42e49a6c3d753bbU, 0x7f70d8a181d0d8adU, 0x119c16ee4ff74e6eU, 0xcb4869cd848ca5d2U,
  0x1de2fd3851e13f48U, 0xe0e4d181eb9af608U, 0xbf1cec2720baff0cU, 0x310c2efaf9e40d2fU,
  0x1149e09fdeb3eebbU, 0xcd232deb0b06c97fU, 0x110833d639c36312U, 0xda49ff3a5cf57fe8U,
  0x2dd4d3f8ed30adfcU, 0xe6c281d70bdfa210U, 0xf21d12f9ccda7fb2U, 0x1d59489eff0619ecU,
  0x4a3cc9dc879ce0f4U, 0x3c81e9f97fd5373dU, 0x9b144581d4a981cdU, 0xfc881c7f2ee7652aU,
  0xdea001c2f3a220d6U, 0xa3411b3fffcd005aU, 0xf0056a4516d0ea4dU, 0xfbf7e547f8d7ea16U,
  0x97fc2be509a2075bU, 0xff2fdd9d4d275ebU, 0xaa600a0a391f3e2bU, 0x2adfedc7061fcbaeU,
  0xbf28a8ec25cbad1fU, 0xfb2106db86cb57b4U, 0x4a7f3481450426d0U, 0x21f2c012eb921ebeU,
  0x4b61812725c7cb09U, 0xa8a42006f7dbb504U, 0xd1d3173deb0f031eU, 0xe6f31b0aefb7eec9U,
  0x4eeeb7f9ca9e313U, 0xa3297f37e0ea30U, 0xe2b1c17fd481c5bcU, 0xa48d7f9ffa9dd3f8U,
  0x11cbf5e0b9e0ec05U, 0xdc08f22918f4000aU, 0x2cccfbb010e50481U, 0xfdeac2e5f8c0f50fU,
  0xf8c2fd19cebd4d81U, 0xfc547fda1200eea5U, 0xf58411e471ceeeefU, 0x3f15cee8f4ed86caU,
  0xf9ecfd4cd50cc5edU, 0xdb19f91500f0c639U, 0xfde0e1e1cec88ab1U, 0x81f2f54f92e9e687U,
  0xf59b001fdafffc1cU, 0xa9c9af4007a1fceaU, 0x8be24bb521c55225U, 0xab1adddec092f009U,
  0x19f5c6484ec2394aU, 0x3dd4fded1218e99dU, 0xe387e7072fb9d213U, 0xceb8e21d0004ed08U,
  0xe8443c22f917abc6U, 0x10a23dd57e062411U, 0xeaf1f2efca26c3ebU, 0xb302d65fe315f207U,
  0x3f0f110b34ee84eaU, 0xa4ffe28a0e81dc04U, 0x8bf132bd4c6fda0U, 0xfeb100058b8139d5U,
  0xdbe5da1881e447beU, 0x2f4f336a3e6eU, 0x1e7ffffd4beU, 0xfffff24400001b7dU,
  0x472fffffa57U, 0x16b8fffff5d6U, 0x2178ffffeb44U, 0x1aad000013fcU,
  0x22c0ffffd68cU, 0xffffeacf0000024fU, 0xffffebe7fffffe9aU, 0x2bbf00002a8fU,
  0xfffff05a0000354eU, 0x66cfffffe27U, 0x2029fffff000U, 0xffffe5c5fffffcfcU,
  0xfffff442fffffe86U, 0xffffef4e00000b39U, 0xfffff57f00001e64U, 0x2eb8fffff5c9U,
  0x1787fffffee6U, 0xfffffec700001807U, 0x1db3ffffedf1U, 0x4c100001c20U,
  0xfffff0c3ffffdf92U, 0x231cffffe08dU, 0xffffede4ffffd8c8U, 0xfffff82c00001293U,
  0x2297fffffc1fU, 0xfffffcc50000020fU, 0xffffff44000017a0U, 0xfffffb90fffffb9bU,
  0x2989fffff7c4U, 0xfffff68400000006U, 0x1cad00001c84U, 0xffffef45fffff1ecU,
  0x2779000025f6U, 0x18d400004380U, 0xfffffc3bfffff4b3U, 0xfffffe33fffffdcaU,
  0xffffe4c700000fbfU, 0xfffff27d000011d1U, 0xfffff317fffffa0eU, 0x39c20000288fU,
  0x2c0f00000bd7U, 0x2afffffd8feU, 0xffffe0b4fffff576U, 0x757000028f3U,
  0x86fffff785U, 0xffffee270000175bU, 0x281000025cbU, 0xfffffc0c0000217cU,
  0x1f85ffffde57U, 0x61ffffffe8dU, 0xfffff67efffff417U, 0xfffffc94ffffe6c7U,
  0x2eabfffff21bU, 0xfffff083000019dbU, 0xffffe67dfffff962U, 0x19b4fffff7ceU,
  0x92bfffffcc1U, 0x15dec01a00002429U, 0xf7e2be1c12fe11f2U, 0xf6f8e1efe1281eceU,
  0x2f1a02c20dcd0b1fU, 0x1a3a0b29e8e12953U, 0xdafca513d3008108U, 0xfbaece1cd8bea3ebU,
  0xcfd8fefe38c42211U, 0xfe2f0ed71624e0a8U, 0xe9e020e73b082367U, 0xecc8095136e3d9f0U,
  0xc62dcbfddff53017U, 0xd7c5f8c50eead3dbU, 0xcb30fe24d532e700U, 0x40d0bde92afd1cfdU,
  0x99eaa0e42aee1414U, 0x2a4fbb90482f98a3U, 0xcd9e4f1bbcbe9bdU, 0x35dfdd2c4f3d2a0eU,
  0x92f9052630dce8a9U, 0x92cdba0528b90f9aU, 0x2424c4df02936d1U, 0x98a3d6c5ee3844cdU,
  0xded41014a50809e8U, 0x48da02add42e81f8U, 0x1e13e4201fb53c02U, 0xe22344c2b532d855U,
  0x8a27aaf360468bb4U, 0xccc3deaaadd555a6U, 0xe53e213ebd38cf2U, 0x26bc01819defba8fU,
  0xd0a3d01af9b50a1dU, 0xf2119cd72dd7fd2eU, 0x5359afe30b41e39U, 0x110e26b7db0f874dU,
  0xd1d6f71c11f9fcf0U, 0xa51ec1fdc7c6eeb8U, 0xc29c1404b5e7f2f3U, 0xb313f3e9bcc4de9dU,
  0x9afcbdf7fca0a809U, 0xc4f333e12683f2f7U, 0xacfabe81eafef0cU, 0x2fc922caead3dc03U,
  0xda0a06ceee0efea4U, 0xefe8ea06acd9eea7U, 0xdfe31181060612f9U, 0x29eca5239b461cdaU,
  0x283eed1249e8c00aU, 0xca699c05efef1300U, 0x48a62ec01a03d142U, 0xe04d0634575ebdccU,
  0x29bbe60e14c6ede2U, 0xf11739fcd2c3d614U, 0xa50ed7e2be0c25c8U, 0x5003334d6a16c0eaU,
  0x3fb92acb20b54efeU, 0x1c3228c644f559e7U, 0x50d30bef001dc654U, 0xb28ba131ce52ce1bU,
  0x265d28c409559adfU, 0x53084f2cdc28f7f9U, 0x18dc9b228147f1e5U, 0x1f0eb30bfebfdfd9U,
  0xd50046cb0414c041U, 0x61020ae4b920fdd3U, 0x1af7f124fd45f6b1U, 0x421dfa3113c01e1dU,
  0xc61a15dccc261a0bU, 0xb291bf4cf0201c8U, 0xdcb0e2ff69e330a2U, 0x2dfc81f436e86625U,
  0x343e5b28b9092823U, 0x483924d21e2c34c6U, 0x42b3f4da0c0af082U, 0xe2ee17361522e4eeU,
  0x321017d51814ae18U, 0x4ff3b0aecc60edbU, 0x1228a129bdfe13feU, 0x2e035cf1eaf1c5efU,
  0x15d6e7c5130c05efU, 0xeff0de14111709daU, 0xf20cd7f432e439e7U, 0xcbfdc0c30fedd3f7U,
  0xcef409fbc9cc0b24U, 0xcd00e6d701f1eed6U, 0xce426f1e7f318e9U, 0x3f32937ebd1dcU,
  0x1f15224d0bd50af8U, 0xff81f4fbfee7cfbbU, 0x19e635f22e43fbf6U, 0x3636b0409611140eU,
  0x4629fbd0e4d72a1bU, 0xdacdc52bf218cdfcU, 0xb54bf70e22b8ea2dU, 0xbc0e0ceae2130904U,
  0x410601f3c72f083cU, 0x44dd0e00b807c6e5U, 0xe217f9e34865c7f4U, 0x30f42c351217e6a8U,
  0xf3ea810aab314544U, 0xd608b7c8f20f002bU, 0xf9b7863abd690108U, 0xe7bd21442030fd04U,
  0xe8071cd3d5db520eU, 0xf8caf1b36032600fU, 0xdb1dea0bea052817U, 0xd60c749d2a0eddf3U,
  0x2f0cc7e78127529eU, 0x45e043e53849cdc7U, 0xe2f3efcfccc6c52aU, 0x11a843230850d5c9U,
  0x24f4a50f3d114edU, 0xb832fddcd3330f33U, 0xa215d61daa1217e6U, 0xfd43c607397cc2bbU,
  0x23d0e80c214932b1U, 0xea0c1227193b1af0U, 0xf516fc4418222e25U, 0x1013ee2aed16d001U,
  0xf822d5e4ff3b0b4cU, 0x2d0381484f45e03aU, 0x180e191e09d10713U, 0x8bf063a94e73d13U,
  0xe9e710411d8f0bb7U, 0xd2ead3150af4edebU, 0x1a21f610dee70131U, 0x1d12f8bc0b0af7c3U,
  0xe5e2db25111b1725U, 0x7d801f535e3b9eeU, 0xbef8d718ffee0d0dU, 0xf71c41c20be2291aU,
  0xfeadcefd893718efU, 0x4d5f81e1a1fbffaU, 0xcfed32ff19185be6U, 0xf1e445a92f075547U,
  0xd11227c5080fedf7U, 0x4113114cce924dcU, 0xed4ba19e61cea13U, 0x1542edfe9d1b0835U,
  0x22c628b1c12a54baU, 0xc1f212094b05c5e9U, 0xef45eae91fff3709U, 0xe1300cd407cd29f1U,
  0xc402092bc2e0e127U, 0xd735d7de0e19c295U, 0x5f720f02b14ec14U, 0x5c542c17e1e8e4fbU,
  0x462e10cbfe14573bU, 0x209ad4eced42f520U, 0x25018331e3c81d9U, 0xba0deb2abcfef71aU,
  0xf115300cc419fe3dU, 0x9f3f4f0b18cd17b9U, 0x3746deecf6aa3000U, 0x1dc03af7d58b32edU,
  0x1b20e8ed229215c3U, 0xebd09ff7c334a79dU, 0x36a406f597ee00b9U, 0x26e02ebc27043ddfU,
  0xe58481bf8848c133U, 0x49bbca130549fd00U, 0x27244853eaf4b9b8U, 0xb3cb05ab1f1fbc2eU,
  0xde19250f3b9b97f4U, 0xf7db3d1204c13cc6U, 0xe0df4dcea609fea0U, 0xffd95106ffc91910U,
  0xd28f0235ea0bc0aU, 0x47d2b410db082d16U, 0xec93ff49d6d023b2U, 0xca31fdf733fe250bU,
  0xd228f21ec42a3819U, 0x1016f9d0ffc3ebfaU, 0x19c94b5bdcaaf722U, 0x2ee91202f0f1b9ddU,
  0xf1db1729dc612cf9U, 0x32305101dc11d01U, 0x25390f81eba93b1fU, 0x56fbdafb23d2e816U,
  0xd353dd0ab2a5f41cU, 0x1540c0f1f11225dfU, 0xdffcd6257fe80b0aU, 0xca25061b03110d32U,
  0xfee5f30529e336f1U, 0xef2c094d3b43673bU, 0xdcc03fcbaeee1c6U, 0x26c3ece8f845d2cbU,
  0x5ef61145132208c9U, 0x25c8fc1067d71745U, 0xd42108f500c11246U, 0x10f84445d9830efdU,
  0xcb040f0b00222507U, 0xb02fd42412e5b6ceU, 0xe0595605f0040b17U, 0xcc4f1927eab254edU,
  0xe6c4e72feee7f800U, 0x32f5141da00004faU, 0x10fbecc7faf5d400U, 0xce34f8d8e4d6381fU,
  0x41a213b9b4d0c406U, 0xd30df4f2e424ef11U, 0xfe5b74c07fc17f2U, 0xf2221edfe3fd2d34U,
  0xf010f6ed0716f5f3U, 0x453839c64deb05d3U, 0xda020dac43451825U, 0x4341dce91617e835U,
  0xf2e424baf30c181eU, 0xdd81b7f91426f1e0U, 0xfeeaf41efced99eaU, 0xcff7ebeb042ef8fcU,
  0x2923b3ff21e583e8U, 0xbd8aa2962d2eaa20U, 0xeb1f2db936308aeU, 0xb6fbd1ad01baa9e7U,
  0x1c890a95f247e993U, 0x2df4fb81d5fba793U, 0x5c666128557534cU, 0x35b37e5a4576325U,
  0x8959ae891c041494U, 0x9b4598b762978de6U, 0x9b2556eb4edffa46U, 0xb33a95b2a0fa0831U,
  0xaad4d7b1a86601eaU, 0xa1e48ce0a79bb4e3U, 0xd32704d99810df56U, 0x6e2f004c0d2e837U,
  0xd713044fdd58e4cdU, 0xd4fd05ee00fcb7e7U, 0x123bfbf0d82d6622U, 0x11eaeffbe8c9311eU,
  0x2a4a381b533df623U, 0xe515310d46e30829U, 0xe7ffe3dffa3bfdfbU, 0xe3d29cfff51dd7b7U,
  0xbc250eaa04c0e7d8U, 0x210e7fcea370fd92U, 0xdf4222262fe8122dU, 0x715a825fa0ded4fU,
  0xf672dc01b11ae2bU, 0xedfe35051be818ebU, 0x31f4f922952fbf0bU, 0x4b16229ee81ffd1cU,
  0x383c59c91667ae28U, 0xedc71f8ba6d3e801U, 0x1120d806616bfa4fU, 0xff55f27bef28304cU,
  0xfb3243c51c423413U, 0xda172032ca06c609U, 0xc72ad3b424450e07U, 0x48d59c0ded682df9U,
  0xdf49cc251939db2fU, 0x690ffc53f2d3472bU, 0x2e83b8311026cc81U, 0x8ffeb1e5a21ae0fU,
  0x3ea127330feb2600U, 0xc798ede73b980bddU, 0xde311b1cba8fa655U, 0x1bcfe4020c3f0a12U,
  0xae4d03adb740b920U, 0x10e7e444b5c93001U, 0xf202fcb6e097951cU, 0xaf461224aafa864aU,
  0xe7be81a1315345f2U, 0xc3a106921113e1f4U, 0x441d411c081a35beU, 0xd59b4530e6abbcf3U,
  0x2556fbac97112713U, 0xe42619d0bd59c1acU, 0xdcfa08feaeeaafd6U, 0xc551db07ce0fcb36U,
  0x5cab9e9a0a0ad81dU, 0xb6da9b81ac8e649fU, 0xc07c8633fb8d533U, 0xc9da64849bdfdcd7U,
  0xb04710960fcab15dU, 0x8c5908e2cc30af0dU, 0xdcf2e636f7d4ff93U, 0xbdb6cab715f8940U,
  0x25e1a7bc5720ee10U, 0x588e42ab1cd7953aU, 0xc29c6bd9b8821fd7U, 0xb7c82588ad3524d0U,
  0xbce53bf0fb0eae0eU, 0xa2d631cebc95d7b9U, 0x3db8ad9f1c475de9U, 0xa19ec0062d168dcdU,
  0x28db11aa171bf32fU, 0x81384d3dd9e82994U, 0x179f9d8f05fe50f7U, 0xeea8889f88b8d759U,
  0xed12ec31cf1898ebU, 0xf0ce3f40afe7e8d8U, 0xdfdd154dc4e9b9a3U, 0x4a871d9482b30310U,
  0x151eb5c4dea8c0d6U, 0xe1c913f5ecfa2d50U, 0x4c3892b9c006fee9U, 0xda27e0fae5d1962dU,
  0xcf4140f6cc10db44U, 0xfca2c53455b8e391U, 0x115342428b468e5dU, 0xf33bf588a2dba919U,
  0x26d80167fac8dc9cU, 0x9945a8cbbb3fb0e7U, 0x1dd2d124324f8cc4U, 0xaa3e9e8dd8cd2788U,
  0x66d79a36a7e44fb7U, 0xc61da9ed1f354bbfU, 0x5e2caafd87f8039aU, 0x815392295cf85d5bU,
  0xb4398f0cb862ca7U, 0xa3139e5d6ac4a7deU, 0xd3dc58d90a8dc4b9U, 0xea9b285a10c01065U,
  0x31ea36416839d8ceU, 0x2220c5295514ecfU, 0x4369adba8f73eacU, 0x418df7aee3e38faeU,
  0xfb50dea691b13649U, 0xf5abf509c88eed88U, 0x2a2f88f1b7862715U, 0xa4abd300ab8102bbU,
  0x2002f0f61b9d201cU, 0xd22da7bce6013ee7U, 0xc99b553a3d954015U, 0x4860df0130d028dfU,
  0xe8b5400a30a6d2dfU, 0x38a1f9f384303e09U, 0xcdb2efe73a5c394bU, 0x34100bbec4dc8f9aU,
  0xfe080a4b810bd9faU, 0x22fb2d11ee220f10U, 0xa2363e2412ca4819U, 0xe2aa22c128e5ac3aU,
  0xfeeec10ffd1e28ccU, 0x916d82c2df0bf26U, 0xe4270223ffbcf630U, 0xf3f51ec4c61d07efU,
  0x48d14feb1c24c0feU, 0x392b32e518e810faU, 0x231e240ce109f5cfU, 0x8c8d5c10e2a0a3cU,
  0xacb6fb2dfde4be10U, 0xf50b25c6f608dc1eU, 0xba42faf60fe11d00U, 0xee22f5d1acbbb58bU,
  0xcd25e9c7b68bf7cdU, 0xb70c3c3aab201603U, 0x3517e5bbc9a91d1fU, 0xcaa949e322bdf4bdU,
