<<<<<<< HEAD
/**
  ******************************************************************************
  * @file    network_data_params.c
  * @author  AST Embedded Analytics Research Platform
  * @date    Tue Apr 29 16:35:28 2025
  * @brief   AI Tool Automatic Code Generator for Embedded NN computing
  ******************************************************************************
  * Copyright (c) 2025 STMicroelectronics.
  * All rights reserved.
  *
  * This software is licensed under terms that can be found in the LICENSE file
  * in the root directory of this software component.
  * If no LICENSE file comes with this software, it is provided AS-IS.
  ******************************************************************************
  */

#include "network_data_params.h"


/**  Activations Section  ****************************************************/
ai_handle g_network_activations_table[1 + 2] = {
  AI_HANDLE_PTR(AI_MAGIC_MARKER),
  AI_HANDLE_PTR(NULL),
  AI_HANDLE_PTR(AI_MAGIC_MARKER),
};




/**  Weights Section  ********************************************************/
AI_ALIGNED(32)
const ai_u64 s_network_weights_array_u64[33601] = {
  0x7f0000007fU, 0x7f0000007fU, 0x7f0000007fU, 0x511c50000007fU,
  0xe3a0635edc0affdU, 0x307599e8e381ec59U, 0x39a11526fafaf7d4U, 0xe65321d3084b0ee8U,
  0x32d6154ab68576b1U, 0x47126f28df57f581U, 0x81fe13e5cebecf68U, 0xbe2940c1c1b5e5b1U,
  0xcb491dccab0edb60U, 0x1fdbf1410c6d5508U, 0x16fb7ff19e7b4be8U, 0xd4f6040ee3c9d73cU,
  0x461cc46309dafc4bU, 0x7f16f060e60bf2fcU, 0x311067d9b343d01aU, 0x2504bf0508c5f50fU,
  0xcd797ae65ef263e1U, 0x6416020818901dcdU, 0x2621763b8125e0dcU, 0x7299c487ab1f1e79U,
  0x6f47f820e3eb103U, 0xcd2cb5a5fc022b6fU, 0x4c85cc15961d5f95U, 0x147fe64329c2fc32U,
  0x51ef2a01f51b2c1cU, 0xb7083eb63005d8bcU, 0x2bccb6a6321dU, 0x3c68ffffb4e0U,
  0xffffc83cffffd947U, 0x2e5effffbab8U, 0xdf55ff73ffffd626U, 0xfbc93768bdaeec84U,
  0x6dffbe3bf1bafc6U, 0x31bef24bfa20e1b4U, 0xe2c222fdcbc0f2d4U, 0x4331fac6ee7f9ee1U,
  0xc43049d5d346094eU, 0x439ff0a2ce2d5c0U, 0x1603f9c04df9f4dfU, 0xaa2debb8deeac91fU,
  0xc8381625c292dfd6U, 0x8230dba21131cbbfU, 0xce0239df37c80f18U, 0x8d44ffbbb50adb20U,
  0x777f7a9072b0d36U, 0x813d1a002e1f5223U, 0xd7dbed2800921239U, 0xa37b29e220ae0b57U,
  0xd99b2c20c6942139U, 0x110015d02b6dea05U, 0x3ab7610a1c011ee6U, 0x146eef2749d0c595U,
  0x2a5f347f183118baU, 0x21d60f5bfc06e5fdU, 0x2b340af70517e1e1U, 0x230b3d063defeab2U,
  0xd206160e301c3debU, 0xd5ef292d17beefbbU, 0xec16ea7fddbd4b06U, 0xf4f9065d0ba92fcbU,
  0x3327e45607dc07f0U, 0x2bd00d4d3206fbf7U, 0xd8ebb33123c2feb1U, 0x446f91fc5eb012cU,
  0xe8d6c143b30b19f2U, 0xcdfdc856f8c3cbccU, 0xe8ee1f01e3dcc604U, 0xfedc1ee9067f0c09U,
  0x2dc513eb123aef45U, 0xebfb202d0b1fe300U, 0x4e01a124e42ffe1U, 0x1ec905fdf31feb11U,
  0xf10af52a31faf713U, 0xe806e6ef38f517d3U, 0x15fc14f4151110e5U, 0xfcee10bdff11eafcU,
  0xd1a1ea14bbf62469U, 0x22e739fcf321d234U, 0x32ab01041e2c200cU, 0x2ffd0dc9d5eac776U,
  0x2d9adefafe0d9a0eU, 0x19b102adeec0d63eU, 0xabc35d6a916dc7fU, 0xec1f2fd1f4f6d80dU,
  0x48310d10d9febf16U, 0xfbeee22f1c56d000U, 0xd0e7fdf0395d4c3eU, 0xab8d9e1ce55be2aU,
  0xbb112745f2d5c7c8U, 0x9da3910e81bdbf9U, 0xa7021742d2cc0f2eU, 0xbfe1d519d3b8b7baU,
  0xfdfce85717aee4fcU, 0x49a4c6d10381edaaU, 0xc341a1e5fa4a3931U, 0x413e0d9e9f749d3U,
  0x2300e6e5b615248dU, 0x1c71e44400c8431eU, 0xb70607c5ed3242e7U, 0x9c4c60d8a1ef3a6U,
  0xf440952ef5c245e1U, 0xd7cf81280c6d28c8U, 0x21b220de9de4f7c8U, 0x17d81a2ec1deed16U,
  0xe8e842d5aae8100fU, 0xb223b55bae0bd09U, 0xdc273e37f726bf17U, 0xd414e6d3fad7d908U,
  0xd418422415c82118U, 0xd13af635d153dc10U, 0x103af507ee7f04e9U, 0x31bf0cbddf161208U,
  0x4c33bbb204cf2db1U, 0x32bbc1da3e95a4e1U, 0x6b0afda6cc13ee2eU, 0x62ee9fb50bff22e9U,
  0x3a04fb1d34eb3ca3U, 0x6028ba813d5110b0U, 0x18cb9ee4040ae328U, 0xe20581c93e3626c6U,
  0xd95f64083a2735f0U, 0xd075ffb7f32b23feU, 0xe10955791cda270eU, 0x658a8b661ce51U,
  0xb83b028131e9221cU, 0xdb273f15f106cd46U, 0x1e1f4feaca393ae0U, 0x2442fed7c81d1b0aU,
  0xef224d3cc01809e3U, 0x445fc2ffdc5616f4U, 0xd7eea992014fc8feU, 0xfe4ff247ac88e1b3U,
  0x294ecadfab12b0fcU, 0x9dafea8f3d5f1faU, 0xca81dce09ba7cd00U, 0xef14e4e2a3b5f0abU,
  0x36f4d3e7cd12e03bU, 0xdc2bf536c30bd803U, 0x28dcba2b1f2df4f8U, 0xe86c24d4311a5904U,
  0xf6c0fa7c1aa154d7U, 0xf22cefbfe2bc3f30U, 0xb08455aab21e14b3U, 0xc08320e8c3dc11bdU,
  0x940debf9da4a7fc5U, 0x2311732ffb2f6aeU, 0xebd8bbdc5edc1aa5U, 0xc633fcc956c23f42U,
  0xf1bdfeceb1b6fe30U, 0xfa7ead5e4ec32dcU, 0x9ebb07a70aa3f030U, 0xa3ad189a2cd357a7U,
  0x88afe98104c34141U, 0xc1c15efff6ba70efU, 0xe826529dd64f0d0cU, 0xf04e801d808f0adU,
  0xd90dd61e303529f6U, 0x211ef707fcf72a13U, 0xdbf6d2161bc6f01dU, 0x2befecf1e934c92cU,
  0xef2febeedcb7dffcU, 0x1911034cde8117dcU, 0x28e7d514e603190dU, 0xda90edd2f933d516U,
  0x5cf1ce618fcf81eU, 0xce00803dd31e41aU, 0xdb29d918ee81d8c1U, 0xb4d1fc171011d0f3U,
  0xd7b7e6e41231e00eU, 0xcd4f3f62cf81eedU, 0xf51228290a44f7dbU, 0x22edde51a4920daU,
  0x1503200012e32300U, 0xc6081af3131aecbcU, 0xdc4222735daU, 0xffffe08e0000407bU,
  0xffffd76e000019bfU, 0x1e5b00000d06U, 0xffffee9400001610U, 0xffffb683000035faU,
  0x34a800004b97U, 0x1baf0000637dU, 0x7ff558f100001c06U, 0x42b72fb429b723e3U,
  0xd2f20f0cd1c8a613U, 0x664c1d81faff039eU, 0xb9443de7e22745a6U, 0x3fb7c7818d9cee95U,
  0x3a3d9f22eae41b95U, 0x15344a52ef485e7fU, 0xa7abf245U, 0x0U,
  0xd1417fdb00000000U, 0xdb227f3a247f19faU, 0x81b8366f819a3bf3U, 0xc07f1102d27f6154U,
  0xdd4a7f8bed198781U, 0xc43d81488bca81ffU, 0xde2f7fffe82681f7U, 0x4e7f1bcf507fd485U,
  0x91940ddb737fU, 0x41420000932fU, 0x7f300000900dU, 0x783b0000bd6cU,
  0x74ff00004c6bU, 0x747c00008bb0U, 0x76ee00006d62U, 0x81740000a1f6U,
  0x1281166c00005bf3U, 0x96d3b8218a02a4a9U, 0xe7555e34241dcf0bU, 0x9cef5b66fad1a96fU,
  0x6f359dd15cc11581U, 0x812c1144db4a35f0U, 0x838640862203b1d0U, 0x557f50121a2a43a4U,
  0x47ed81bf557322f4U, 0xee2d9aa5f555f458U, 0x9000a5c1c346514dU, 0x6ffdf10c3242aedbU,
  0x64c5ed440f7f7127U, 0xce3c3de681898ddbU, 0xb20d7f172964872cU, 0xe6ad21094065d3baU,
  0x4416e50a34003b3fU, 0x69db966c2e8178b0U, 0x730b3e86e82bd762U, 0x15e80c61cb53c958U,
  0xe956bcc081b9732eU, 0xdeaede42482435fcU, 0xcd9603dbc27fe7e3U, 0x60a16d8140932e0dU,
  0x5981afe1363509faU, 0x57e74d944a48e398U, 0x269d4a230e23ad20U, 0xcfde7f814cbd8727U,
  0xb081acea46212448U, 0xabf25f2dbd1a2630U, 0xb1db1fcb71de618U, 0xbba717e4d04a0d7bU,
  0x130a810eU, 0x0U, 0x0U, 0x0U,
  0x0U, 0x0U, 0x0U, 0x0U,
  0xa199a3f200000000U, 0xb842bed7f456bf35U, 0xa2ec354c81a7bcbaU, 0xf35c15b907f0ad5U,
  0x143bc781c04ab215U, 0xdbf1e3d7bfc5eef2U, 0x9052f85d435ca89aU, 0x68aa99d05c2e0458U,
  0xc1439cf51200427fU, 0x9adf5f7feb3301ebU, 0x99b1c5a0b03878d2U, 0x3c7f6d56cb036e58U,
  0xb026d37c91d9ea0bU, 0x2429f1184621e47fU, 0xe87c94a615ccd31dU, 0x7f48eda6d0b11ac0U,
  0x2658c9590d15U, 0xf160000045fU, 0x5e1fffff9e3U, 0xffffff7b00000822U,
  0xd51f35600000050cU, 0x642b25ecfe8f1d9U, 0xe806ca7f09ee44feU, 0x9a171627363605f3U,
  0xea20be581ac516cbU, 0xad1fb52be3e3342bU, 0xf1052fd1e10023c1U, 0x8b410232ecda4cf4U,
  0xab01d82d02c66006U, 0xf52d6efc0ece470dU, 0x99e8dd3beb1a3cd2U, 0x9ad5bc7ec63b5119U,
  0x162751ff1dee2b50U, 0x902aeeecf3b501e3U, 0x8c06ce41fefc51f1U, 0x36ffeeaf1ae47f05U,
  0xe2f0f60ffd17cfc6U, 0xc0fde8f206de1dc8U, 0xe6291102331120f7U, 0x63dfe90bee32707fU,
  0xdafaef22e351f0c7U, 0xdaf8e50bfbd624ecU, 0xba2c2f02f4d1e6c1U, 0xe50a161bfbe4e1d7U,
  0xdcf0e728081b3634U, 0x3309ed26e91e26dfU, 0x24d6cfd7da0ae2e0U, 0xe5a9be30f9ee0aefU,
  0x5f1af55b326e60cU, 0xcbfcc240bf02020fU, 0x6d51b0bc527fa18U, 0xf94ceb3ad0ebfbdaU,
  0x813cc245d7d91438U, 0xc2eebfe3c9ca2cfbU, 0xc7be01f39c0b0017U, 0x43c7e7fc9b2aeefdU,
  0xd748c6d1fc48edf2U, 0x953acc070ab6c430U, 0x9b7fe01bf8333c1fU, 0x106fcaff1720dafeU,
  0xd046d8ec1ad70827U, 0x7383d240b6be601U, 0xdb4b0913d46a11ebU, 0xccb0a09b50bd9f4U,
  0x7ca0f2eb235f10cU, 0xfbedb5f5fd2f0811U, 0x121214e55f165116U, 0x19f4dd24f8124a7fU,
  0x1dbdc3daed0f5e23U, 0xc9fe04fede14c31cU, 0xd811d018ceff396bU, 0xdec419ac2ce9254eU,
  0x12d1f00ad1e02255U, 0xd618020c2604e425U, 0xb073fd619ff4076U, 0x185515b21f20c013U,
  0xf32012bf1948f9eeU, 0x1d0161b4156ee034U, 0xe4013bc712b88196U, 0x12f8cadbce05acd0U,
  0x504fd1ddfc16020fU, 0x703f90102e991ceU, 0xfe10e603ea09f1dbU, 0x17d4111f1b361decU,
  0xdb2a203bc726033eU, 0x1bdd174cc066ea57U, 0x54af45eef848e44bU, 0x5816250b93248732U,
  0x4d01174ea5f596e5U, 0x81bff4ef4f4cb22U, 0xab03e541fbd3d081U, 0xb453bc2ac2ddffbdU,
  0x6f7ba38ebec03c7U, 0x2a11f41b7fe90afaU, 0x2d0afc1358d33128U, 0x15b8c60715ad0f1cU,
  0xbece6bb23af12e1U, 0x2fad2b193da8e411U, 0x3cf5fa0340d5d60dU, 0x1716da0e65fbd9ddU,
  0x2bc00eff68110ce5U, 0xb0e315053bd8f2fdU, 0x18ac0c400ce53931U, 0xbd5befa1239fd0fU,
  0xc1be04f8f8f03bf2U, 0x3e9ee4f9dbf63fd5U, 0x3681b6c81b030dd6U, 0x2bbaf1facc04dff6U,
  0xdaeef7e8044b1e16U, 0xe5050eead91016d0U, 0x22ee2b13c9f2fbf3U, 0xd61133f904c12617U,
  0xe9ee1e1eeebfdc10U, 0x341d2e0634e5474dU, 0x41d5ba900dd88eeU, 0x1e260fa9b6d881b2U,
  0x3a391cbfafe4f002U, 0x4c2a00b6ec2df1fcU, 0xd52de497be4097abU, 0xc70ee47fed0dd5e5U,
  0xc135f657b1dd2b48U, 0x1f1b13290dfbf220U, 0xae16d443ef06fe22U, 0xa12402f9c6cadf3bU,
  0xe51dfa33ebc6134aU, 0xe5032505e5d2ed06U, 0xbae520e7b2cf3fe6U, 0xb9e812dfcdfcf51aU,
  0x29371e95eb9bc106U, 0xb0f418dad2189797U, 0xc7def755e750eec5U, 0x11242bf2c8154d20U,
  0xeb49bfd301dce8baU, 0xb612a449d1421beaU, 0x9f10a6be3ddb2126U, 0x8a2e957fc40f45aeU,
  0x1bdf813bf2fe4bdcU, 0xd1161d9727f071fcU, 0x4407af4eabd98e4U, 0xc72808cff0c9a8d9U,
  0xd19b1ecccfbe003U, 0x2b2cf7f32563f926U, 0xb9ce0bb3c313c1c3U, 0x4a5e53fcad9dbf1U,
  0xfe2f46fbd457297fU, 0x2623f9fcdc42e853U, 0x1161ffc070de9f9U, 0x826f6d5efd8c099U,
  0x320619061f2b3d21U, 0xd1ea19f2ba27e7e2U, 0xd6274112151c2efeU, 0x1bd65ae1167f3b4fU,
  0xda2065120c33dbf8U, 0xdf104ef61af3d931U, 0xf6e528d3e308033cU, 0x215129bdcb3bb5f9U,
  0x17391800d5ab8186U, 0x180defd6090ee959U, 0xb14f3efcd3d1a79U, 0x20c1808c8c4aee5U,
  0x41f66417b5f0f72dU, 0xd022e48b606e468U, 0x2b4b2833b4e4ecdfU, 0x5f8ff41dbd40f90U,
  0xf9c1c832cdcd1e41U, 0xe4fac12ce2165d08U, 0x1708de5602056a37U, 0xd3eccf712adb53c9U,
  0xc2f1bf761e243322U, 0xcce6f67526eb2bf6U, 0xd208ebe109f76ddfU, 0x270f814d20026104U,
  0xd3fbbb4d1bf804c6U, 0xf233e0ce0c265211U, 0xf6ece03ce6f407c2U, 0x8f3311a06722532U,
  0x8d594633c8ffd9cdU, 0x4dacdbe02e440b2fU, 0x150c2ff97f0823U, 0xafe12f7faddcaedU,
  0xbe44190ce1ece59fU, 0x1fe9fe320e0d4ee9U, 0xafc0c23eb1a06e2U, 0xfcb52bf002680552U,
  0xfffcf81bbd68d123U, 0xfdb31522e3260343U, 0xe8e95e0f8112f3e3U, 0xf118f5f4dff40ff1U,
  0xe716dfe3d326ee10U, 0x2f9d92dc0f8c31bU, 0x8648ea45cde0ce1fU, 0xdad5281dccff0a12U,
  0x93f7c8d7a2c5ea02U, 0x4a921d5c79dde3bU, 0xa1ebe639d025a901U, 0x81001925cbffdfd4U,
  0xefe3f3eca5cc4e1cU, 0xa10911d4a709f1d6U, 0xb6efcf13b3a4d4d2U, 0x2818ec2a87f2e8d9U,
  0x112f42902f3e8faU, 0x1b4481cad3d4c6d5U, 0x5109b2c49f02128U, 0x2deed3e91828fee4U,
  0xeedde2f7f905acbdU, 0x492dc6d6ec4b0c50U, 0x5d5e21d0176f63dU, 0x1411fadfdac204e4U,
  0x1a1f3008fc05d3d6U, 0x46212f05ba1b103fU, 0xe413f4fa52292515U, 0xbe012eec1be3d7d0U,
  0x19012bf0148108f9U, 0x65dcf4ff1b435a23U, 0xd6eecde0004ef8b6U, 0xd9fa13fed6b233dfU,
  0xec80be71eea292bU, 0x7e61b20e936203dU, 0x48d735e2bb04b3a7U, 0x29de6ed9f27f2a24U,
  0x4ea57f3c014e0d4U, 0xef4591212342c0cU, 0x27f73007d71627f9U, 0x14c9dc17b42917e8U,
  0x2d300bf5f4eb4501U, 0xc9f2e9e1fc03fdc3U, 0xfff9c0f326080bfdU, 0xe6d923f9eff92203U,
  0xf63b0f19fdf21c0aU, 0xe0a4016efc723ceU, 0x31241b2afbf607d2U, 0x25a245d0ff5edbfU,
  0xf3201601d31b0ea4U, 0x15484e462e030bb1U, 0xc25f0d3f2717d094U, 0xf975142e3c35dd81U,
  0xbc1e22dc262a14a3U, 0xc550ecee118b3f1U, 0xf8491bbbe539b30cU, 0xe64ee58d110bfed8U,
  0xfa423b950e25cef4U, 0xb11927d90c7f0e02U, 0xff21f8c9fc63f711U, 0xc9e90cc1f4e6ffefU,
  0x28041ceafe37e212U, 0x1b0d133de50fe310U, 0x3d61cb9e8f511fdU, 0x40f410b7a4c2c981U,
  0x1e25da43aeeba7bcU, 0xf6bcde0f2b2f5109U, 0xcafeefb6fafce3dfU, 0xe1421c4fc7e2c4d7U,
  0x5f5f8140a1eedf0U, 0x46f3e3e933b3fdc4U, 0xe6fbb6e61de2f7afU, 0xdd0e51c154c1510U,
  0x3f1306191d580b4aU, 0x1ee1413f71008e3U, 0xbb6f113e6461a7fU, 0xffe0f3e4bf06ec16U,
  0xdc0428e1eebc1421U, 0x1e141cf610f30320U, 0xe9051225fc09e4d3U, 0xd0cd52e0ab516f3U,
  0xb508061cc09acd13U, 0x3e5b43622ce0527U, 0x7f05af4adde04020U, 0x5d7dbeeb656a710U,
  0xd2eb38a90dcf04U, 0x5e6f10edee2f8eaU, 0x623f12ff421effaU, 0xe51a07e4204b0ae7U,
  0xc303faf7dab8dff8U, 0xcde2f5ebfaba1bf1U, 0xc2270f12f0acd00bU, 0x1940faf920c913d6U,
  0xf50ecfe39d9e206U, 0x225bd7fe7ff1de1fU, 0xf503f8445c050f40U, 0x211ff9f631f7f4bfU,
  0x430e573050f41947U, 0x3abcf0f434223525U, 0xf2e4cff50748181eU, 0xe4e90921375ee7b3U,
  0x6dde11c24041f05U, 0x33c1f4e0d92df83aU, 0x6bb630edf4551f5fU, 0x3b0d49bb017ffee5U,
  0xcf014b20e8e7e2acU, 0x18cf38e9ef0219efU, 0xb8efd64edd05c910U, 0xcbeeb662f01a16f2U,
  0xddf0cb3f1b0defefU, 0x810a4016060537eaU, 0x883fef341d0ff919U, 0xce0cff402cf7230eU,
  0xbaf147de25d40714U, 0xd7291bd70bd2de93U, 0xfc1905f8050423d4U, 0xdd4dbeee2ef317edU,
  0xdd6dc2e77f23cbe6U, 0x14379a0d301e1257U, 0xe6bd98e61e4d1253U, 0x9044a02f2928c7edU,
  0xfa0bf2172dc42134U, 0xebf0e0e9652c363aU, 0xfd5c0e40420e110U, 0xe7d3f738c4eec02eU,
  0xfffff3df0c1e607dU, 0xfffffea0fffff9d0U, 0x23a00000323U, 0xa52fffff4cdU,
  0xfffff1cd0000082cU, 0x3be00000042U, 0xfffffddefffffc6bU, 0x6bd00000910U,
  0xfffff2f8000004d2U, 0x855000000d1U, 0xd2000003bfU, 0x531fffffb32U,
  0x642000000bdU, 0xfffffdcbfffffff0U, 0xfffff880fffffeeaU, 0xfffff8c900000714U,
  0x5525d41ffffff77fU, 0x790dde636c23773aU, 0x6d6b79277f691fcdU, 0x316e98b46cf2b3c7U,
  0x1216b0af0532a93aU, 0x8191ecc045ab64f4U, 0x1631c6245546f2abU, 0x6566ff19bec76862U,
  0x6339f42b540668d8U, 0x601dc169f8d67477U, 0xe258fed8a5dc47d6U, 0x6e12b27f919a2462U,
  0x68fada2549bda58U, 0xaea55f68e71a43b6U, 0xe3c101e7aab6c8acU, 0x45382881b1b5dcaaU,
  0xc4810c9e4210fe20U, 0x9bf1e61eba588751U, 0xabedf018022a1708U, 0x87cfea6ec30d525fU,
  0x19f2b0db225e47ddU, 0x14983df461c7bab3U, 0xc2b83f115c9b058aU, 0x6835ef81e6b6aa40U,
  0x1f7559b0c3a5e4b3U, 0xa7ca053ce20ee5dfU, 0x8c695fbbc7e005efU, 0xe37a3161ca2a6b93U,
  0xa90d0ce3f829d67fU, 0x876b96813577167dU, 0xe093f6d000044a20U, 0x446d34c13632761cU,
  0x9241ed24bae75fc0U, 0x20812368654eccedU, 0x445e59c12c12abc4U, 0xbec78573c62efb47U,
  0xb3fb35151da56445U, 0xde68b5fc6373e759U, 0x2212f1c535e93029U, 0x5181b5375b06e00bU,
  0x57bdc70ee938a418U, 0x14a1d2aacebd9f3eU, 0x24810aa328715998U, 0x1139b47d218d2cedU,
  0xbebb6018e2b0f155U, 0x167faa0ce94b59acU, 0xf76ae0a717b94fc1U, 0xb13172402442242aU,
  0x311543fdc154f1a1U, 0xb131bd2dcddad00U, 0x62202a98ec297f60U, 0x25c14a1aa2035ae7U,
  0x1d1ac10a0e62f3b1U, 0x21b73bcf00b3e731U, 0x52262cdb53833e1U, 0x54012ef9c06869d4U,
  0x3f60eb1b81a84044U, 0x27cacd06290321b5U, 0x273481879fc7db22U, 0x4d5263be20919c1U,
  0x20f9dcae1bd45f9bU, 0xc6cda83c9007742cU, 0xfcbaefb084a9d0c5U, 0x2c917ff523be211aU,
  0xf5893c1fU, 0x0U, 0x0U, 0x0U,
  0x0U, 0x0U, 0x0U, 0x0U,
  0xb0e6b24c00000000U, 0x44877fa9de29b1f8U, 0xeb322f6638e7d0d8U, 0xb927fcefc246de7fU,
  0xfd335ac7ac1ec1e8U, 0x4137d07132da7ff9U, 0xc7da552307ce373bU, 0xdb40922fea643ce5U,
  0xb00a7d5a71a5d81U, 0xd67fd35a6b76193bU, 0xda7f2e1fd74a1e03U, 0xe84a627b70fcfcbfU,
  0xbc9219247c016447U, 0xf9c325c4f652c09bU, 0x73e61234d27f6540U, 0xf4bd135718478147U,
  0xfffff3d169f8cf89U, 0xffffe24fffffeda9U, 0xfffffaac000013feU, 0xfffffca3ffffbb7aU,
  0x381011e3fffff366U, 0x61ab69b8cb0a35d0U, 0x6b73c95e213d4acU, 0x2cf206fef7c3b3a0U,
  0xf7cfd316af58313cU, 0x72f24dc442602537U, 0xd74dcaee55b82fedU, 0xf748810bf7225606U,
  0x32d81836ea377ce7U, 0xcb8609347a1242fcU, 0x1efe0b0c282cf824U, 0xaed0fc36240ee922U,
  0x5a31ffa645d9e64fU, 0xb3d302212cbf217fU, 0xf0d30a25e6c20244U, 0x1fc08ff843d6d10cU,
  0xf5d5d726df32e50dU, 0x1df7d8f2f83b1d0bU, 0x29d904172911b515U, 0x2c19050e9902e3fbU,
  0x3decfb0eadbd25beU, 0x4f320ad414e4e512U, 0xddbde900c90c28a7U, 0x8f83acbe575eca6U,
  0x4b08f7d325bffd01U, 0x20e9ea06cc2536dcU, 0x372cf7f2daf7efacU, 0x34263a2d1b811905U,
  0xcd14de3dd8e4f8e1U, 0x103805ff17143a37U, 0x2b2a18d257c24229U, 0xe520ea19b9f3e511U,
  0xc026e6f82826f71bU, 0xfba776bb25d33735U, 0x23d13dfce9c08f81U, 0xdad6f9d6bf2bdfe1U,
  0xfcdf93fbe11e020aU, 0xf1ee2600af50e51aU, 0x31d400f02e03ead5U, 0xa4db8a60ad04f8d0U,
  0xde05db0eaa4fbbe4U, 0x1d3000cfe5b3f8ebU, 0x20f4c3fba07fff2fU, 0x1dac414aa4c3dbbU,
  0x5af0ea4ad8313eb9U, 0xc9a1ebd1023d3a1fU, 0x27a907e700ffd5f7U, 0xc9e5eaedd8e781d4U,
  0xedb03ac70028e813U, 0x2df9fdccfbdee7ecU, 0x8fe1de204b6b3f3U, 0xf9da4ee206d6c916U,
  0xf6d946e302aa08ebU, 0x380613bd29cee3f5U, 0x862baa5203a3bc5U, 0x440df8ee2a0e0e6cU,
  0xed07c52e4c3af03aU, 0x301d0ab5ca58d8bcU, 0xe467b6e8b0d21e31U, 0xc04ecff49cdc15d2U,
  0x143c4504c4c40e16U, 0xe757200b0ef9cb0dU, 0xb41fec06a7f5f448U, 0x590c1100d1e3157fU,
  0x47f552d8d81e12bcU, 0x3713f9ec051bf0b2U, 0x13ee2406b73c021fU, 0x361d130cd41b0a06U,
  0x352e29c9ea7f001cU, 0xf1f8ffe8e5f62e15U, 0x4ad8e3010c20dbU, 0xe22ff822c10e1e26U,
  0xcc3ed15eed054a0bU, 0xf6ee0df80afa64e1U, 0xf715fc0d536109f1U, 0xce29be712c0a29b0U,
  0xefb7ac7ac34d3fd4U, 0xd20cc93d032f0281U, 0xd3fa195113e8e595U, 0x24303abbecf4fdbdU,
  0x8e0470044fcce27U, 0x1bed1b22f439f5bdU, 0xd9002525e61bdf12U, 0x9c1db0db0e52130U,
  0x1711f6fde7d32bd1U, 0x644c0581f81c39e8U, 0x3f2f9be4d4eccc46U, 0xe4bd2029c328df24U,
  0xcfb5ad63f222dbd9U, 0xd19c3007efcfad0bU, 0xe66219d350d7b6aeU, 0xaa1cc9461bc2bf77U,
  0xc7ebe7122c2df842U, 0xf80df0eb3b02b206U, 0x8a070e130c15fdf6U, 0x8c2f0f1c5e81f013U,
  0xe0daf2043286e048U, 0xfe1f4bc0fb0ac1f6U, 0xe5f65e861ccae544U, 0xa4a4dd19c9a5e802U,
  0xcae7e03becefee29U, 0xcce8e722abfb13e7U, 0xb0280642d5fcd536U, 0x3d2a088103e1e7e2U,
  0x371dc1f918dc1954U, 0xe9c3e12cc9352402U, 0xe9dffdfa2c02e8edU, 0xf8b0c4063c1e1ac0U,
  0x282aea112d5fdcfbU, 0xfc8f1fae037fd47U, 0xd5cc0856057ffd20U, 0x251021e51c469dafU,
  0xb9f720edc0eb1b4aU, 0xbbb12918bcfa4f0fU, 0x400868f2f439633cU, 0x2c3028b3d303ef50U,
  0x4a2511f0b14c333fU, 0xc1231940e914115dU, 0x204cc8eb7fbc1134U, 0xd910c31f330b220cU,
  0x851edb5229ffddd6U, 0x17ff544816d71a07U, 0xbd0ac7432e0d390aU, 0xc82c09e1f809b5a4U,
  0x25502e01469f2330U, 0xca14fce546002468U, 0xdabf50b80d95f1U, 0x1abb2acff96afbd0U,
  0x2b37229a1326d3e9U, 0x8db8c9231bd3f2e1U, 0xdaf30eb0f41cf0b9U, 0x24ea3cdd19e9ecedU,
  0xebf1cd34b62ecfb5U, 0xe8ed1cd30f2f2125U, 0x4e031081f1d2fa16U, 0x2f3fb16eef232d2U,
  0x62d44efce6ced91bU, 0x1f4c07cdf5250dd9U, 0xe3bd5fe5f1f9121bU, 0x2bfdcdbd09d5cec6U,
  0x69edf8bfe2d6ab12U, 0xf223181007c6b6d9U, 0x7f0546cb421439e0U, 0xf91c4cf037d4fa10U,
  0x15fe13ecf0cafce8U, 0x46f90de440dcd6fdU, 0xf93225be5f2acee9U, 0x17ff1d1dede534f2U,
  0x544a17d0111216adU, 0x3d7fdcbb33930cdcU, 0x81f072e02d45c05U, 0xd134dc50e00111f7U,
  0x1c4adf6d25f051e9U, 0xbef245046e6542aU, 0x690412e6304afe08U, 0xa33fc0ce517e328U,
  0xe9031827cf7959fbU, 0x5b23d8d1022b03e8U, 0xcc0fc13fbf24ec2cU, 0x2a16ffbcbb0dfdcdU,
  0x615d29810bd8eafdU, 0xe07cdd00efc2300U, 0xd57ffe58cf352df2U, 0xc427ce452efc37f6U,
  0xd331f54f0e662415U, 0x4d191cf9220b78fbU, 0xdde3bff71848091eU, 0x2a58e5d5ff22cecdU,
  0x190705160fbe020eU, 0xf6d93a0615f7eb90U, 0x25033fc4ece40988U, 0xfb1ddfec1efc00e4U,
  0xe120d60bfb193936U, 0xc8220df7c709323bU, 0xf133d60b05f220ddU, 0xf7f1df80cf570efU,
  0xf442e7f8f5ba5005U, 0xed0bd01ced593a16U, 0xe50100f4dd08f424U, 0x16f6cae21e211bf3U,
  0x30e210bcfd4e223bU, 0x3432cafc1c1ae00fU, 0x13e8cd22b86f3275U, 0x313c0eedf312dce7U,
  0x31fe0efec5fe4820U, 0x5a9d735db2b02f4U, 0x925d2c13020d7b9U, 0x2befda33b715e50bU,
  0xebf5e500e77ff502U, 0xfbdef705e742b826U, 0xd5a7d354d22720f9U, 0xdfbee4593d2405b7U,
  0x4c7af20b14e5efdaU, 0x2874479705ee211dU, 0x344aeded8182f22aU, 0x6012d3e6c626cac8U,
  0x51e122f3081cf1faU, 0x10e906f3241a20f8U, 0xfbdadcdd403dec40U, 0xcd480f121d90ff31U,
  0xf4f527d62481f672U, 0xca18cd332208f923U, 0xda221e0d309519efU, 0xf9b8cdf40dc5062cU,
  0xd5fcf6edf7fdeeddU, 0xeadaf0f901b0f6f8U, 0xd6d92bf828fbd827U, 0x652ac002c7cd8adeU,
  0x204049acaf57f911U, 0x7f2961b81dbc0791U, 0x1403240bced2dcbdU, 0x7df49be2b206faddU,
  0x6e5110f5e337c40fU, 0xedcab3f3fce51fd4U, 0xe615121cffa5cbd5U, 0xd31ddb072dc8e69aU,
  0xf17a1c0f0916e9fdU, 0x600237f729e64bfdU, 0x58fe4db67f332a21U, 0xc204bd593503eceeU,
  0xdfd2c133e71c3e27U, 0x3add26ccee3c13f5U, 0xd307d3400cff93cdU, 0xf71745e202044435U,
  0x3d0063aae8aef8e5U, 0x203c0bd2dbf003e6U, 0x6201acc03114232U, 0x2447f3f1d018d7d6U,
  0x2b0425f5c00cffe3U, 0x27f4fef2d22f210dU, 0x7f93fd3e351fee3U, 0x67080ef1121d11c6U,
  0x7ffec8ae081907c8U, 0x19f7e9a0a8eed6f8U, 0x2b0118e9bbebcb02U, 0xaa7dfdf031cc803U,
  0x15d5fad631e7bce7U, 0xef0eebc9ddfedc04U, 0x3f5e7b8edf4edf4U, 0x171512d4ed81bdf1U,
  0x80ffffbc8dfc2cbU, 0x1ddb04c2dceed126U, 0x10101ff2fae4f704U, 0x47f11e2f3e7ed23U,
  0xc024115332de2d72U, 0x8f5392037bb0203U, 0xe00db60f03f8ed0eU, 0xad33d23e122d1c2dU,
  0xec2221e909ff450dU, 0xecd116f1cbd1e9d3U, 0xe51a1c24f929cc09U, 0x35b74de3e2ebf3feU,
  0xf6b70ccf0de6a3e0U, 0x5d9913ee8449b8e9U, 0xf2d8b32ebf1c89ceU, 0xf1018eff2537d3f7U,
  0x42b6c9efb81ddba6U, 0xb6e7c4fc25af8aedU, 0x7604fe97bf1c8120U, 0x16ffd4c801f9f419U,
  0x13bff0fa5386c1feU, 0x334355ffe7f3c916U, 0x3e0e2e16e74b241bU, 0x39eb0cc6f147d3d8U,
  0xfd1023fea647cfcdU, 0x40d9d9f6f1f7191cU, 0x2ff0cab6c13f202cU, 0x3948ffb9e3ede4e3U,
  0x7f0002f507e22604U, 0x4aeab4dfcd06dddeU, 0x431151d4ddf10112U, 0x53f050d3b02cfc14U,
  0x28fb0ffedeeefd2aU, 0x362d15c4fecae0c0U, 0x4adf5db3f8052f2fU, 0x23e52af9d4eeef17U,
  0x21266192d5d8fe0bU, 0x55095b9e33f50c11U, 0x7f3219d4f10f1ffbU, 0x240b2eca04c0c214U,
  0x485119852ab6cc81U, 0x4840059ee9d20b3dU, 0x70df379fbef0d9e3U, 0x7c6639ae2a1a0ffU,
  0x1dcc4223f35627c0U, 0x72195abbffa8dac4U, 0x5efcec971e0200b2U, 0xe2cfa1dcc32ad4beU,
  0xba23d828dd32144bU, 0xd655e32c4cee02f7U, 0xd919f801fa9e267fU, 0xbbe2b61f0db7fb28U,
  0xfc1dedb10ac3fcecU, 0xc400e55500f84720U, 0xd6b7d738f627befbU, 0xe1e510060616d4afU,
  0xd5e2ac5467fa08dcU, 0x271833b90823aa08U, 0x92e34f4c520bc00U, 0xcd30d0f9091cd4ffU,
  0x179e2cf9f238e928U, 0xd5f6d2daee0c93afU, 0xbcebb820d629b630U, 0x56a738e70a2b10f9U,
  0x3bff009b3d9481ffU, 0xf822dedf1fb7d4f6U, 0xe912f630bd330026U, 0xf02ef0d912b1f534U,
  0xc4ccdb881c25271U, 0xf5dce131c1ed3e0aU, 0x49cc332c05fa0ec7U, 0x41be28dc4b40e7c3U,
  0xabd27203b370adfU, 0xeedcc40c19f0b1d6U, 0xe1eb0c09c4c191fcU, 0x4e05490108b5d313U,
  0x301ffe06e8e520d5U, 0x291ac6f8ffe9ca92U, 0x9e6e61cef28e5edU, 0x1efb21ea33d8e595U,
  0xe913e10d0124c418U, 0x3cf41e11f7e0bd29U, 0x7f2015c616e1f5e1U, 0xd17b7ecdfda3d40U,
  0xe381d301dbc61240U, 0xd0aa29f2041ebecaU, 0xd99c0b2ce415aed3U, 0xff7bf12000ca8d8U,
  0x2929dad1f306d0b9U, 0x1a23d9d413b60953U, 0xf0b8fae8c0061c16U, 0xfdd0e116da07c1dfU,
  0x3c7f911140aead5U, 0xb43ea51e083dfa17U, 0x11aa0521b358b759U, 0xeaf6eaf208150850U,
  0x561d2fbd25fcbde8U, 0x971c3f0ce0bc77fU, 0xa7952bccac62a49U, 0x4d126fd7cfe21b35U,
  0x15155a0ff3c82116U, 0x133b33a5e2a61a2eU, 0x402f40040fa74c2bU, 0x5f1af5d20f1c48d9U,
  0x65ea3cfe7f18fc08U, 0xff34082146cdb1d7U, 0xaeef1c33d92b0411U, 0x11ce64c4341530f2U,
  0xb0d2cd553dffe004U, 0xd629ecf52718ee08U, 0x39e351c707f52b3fU, 0xe04f2ed28df1816U,
  0x2bfe02ebf4f1f00aU, 0xf18bb412c310745U, 0x380016fcf151061bU, 0xdd2400f8c6e0ebf7U,
  0xa3bdd37ff44528d4U, 0x4f3639b3f26df70cU, 0x272e23dff4a707f9U, 0x70bec12d7313354U,
  0xfffffa1fc05a2834U, 0xfffff90bffffff49U, 0xfffffae6fffffee6U, 0x7c8fffff8efU,
  0xfffff95700000067U, 0x5aefffffae5U, 0xfffffe86fffffffdU, 0xfffffb3100000573U,
  0x189fffff4f1U, 0xfffffda5fffffcc7U, 0xfffffaf900000723U, 0xfffffd96fffffb28U,
  0xfffffcdcfffff46aU, 0xfffffe93fffffa61U, 0xfffff33700000370U, 0xfffff7a7fffff7e9U,
  0x49bfffff7efU, 0xfffffc51fffff8b5U, 0xfffff823fffff79fU, 0xfffffa2200000300U,
  0x444c240dffffff6bU, 0xa92b350808b3c00eU, 0x81dda4b91ea6a1b5U, 0xb7823bd1d11c4dfaU,
  0x4ad6ffb139515d57U, 0x69740c5729279bf8U, 0x15cf14f075ba1eecU, 0xee47dc33e9c20710U,
  0x42c509167f89cfabU, 0x192173ed6306d37aU, 0x1ab402f3c321ede0U, 0x15c39a5ae25c4a9U,
  0xed44abbfebf49b0fU, 0x41d12618f3044e81U, 0xcb4ae200eefc23bcU, 0x1d81b4eca6f55f0cU,
  0xbbd85023ecbd46c5U, 0x8f44c38c8ebfd93eU, 0xfeb81d701dc37f9fU, 0x1818bff9a92ae2c8U,
  0xb24da286a2fb3c11U, 0xf4b3268e4016c62cU, 0xfd8b3478212d433aU, 0x8b0260c34a0a542cU,
  0x2d7f8a355a6152e4U, 0x8710452de8c8283cU, 0xc799cbce5a35d6d7U, 0x16a87181fc4c85e2U,
  0x3125673652f93513U, 0xbff32182e32771cfU, 0xd3f2df03f6ae3affU, 0x66f176bca613fa64U,
  0x4ed905f04e1205e8U, 0x6fedac5fdf17feeU, 0xf318de4dae11271cU, 0xc2cdaeb7eeaffe53U,
  0xd93bc6760733954fU, 0xeaf58d9415c5dedU, 0x412422fdc529e9d0U, 0x62a56d621e0b47c3U,
  0xfd47443a42fdcf81U, 0xd80fdbabedd32218U, 0xf1ed199a19943b3eU, 0xb0c4ac812bc8c5a5U,
  0x289007f819bbdebcU, 0x50f9220aacfa4e0eU, 0x6a3f4ff7c350e2d6U, 0x26450104ceb20102U,
  0x6d79effa34295c3fU, 0xa1014478b9bcee2dU, 0xa8a50a18ca40ca7fU, 0xfda242ce05bb9dd6U,
  0x1ac020bff7d3ab07U, 0x4633fd0c150b0df9U, 0xe5f998c6161cecd9U, 0x9f3eae0810345feU,
  0x22d4d5263545144cU, 0x2dfb0ffea3334071U, 0xb3c04b03de0c564dU, 0x2d84c9f72d417f53U,
  0x5dc96e81fcc47452U, 0xa04e9820bbc0fa99U, 0x1e1fb2bcf6ab6345U, 0x69e0c9f0032edf3fU,
  0xd9115b455977c8d9U, 0xc3ed0bff79f9e6ccU, 0xc368ead637173f7fU, 0xd6c49661ff54ebbfU,
  0xaf7987b6bfcd15b6U, 0x538c19dd3d43a93aU, 0xbd6f2e2e03de4d7cU, 0xb4395692203a9903U,
  0x31fa3bbea3ef8f73U, 0x12812a11d5b3d86eU, 0xe91b7c8de8c2afabU, 0xc9db4516d752430U,
  0xb12139011051e100U, 0x1e43576400381e15U, 0x22b1b45c4e071dfeU, 0xfc812ce4bd3230edU,
  0x364b6ea6U, 0x0U, 0x0U, 0x0U,
  0x0U, 0x0U, 0x0U, 0x0U,
  0x5fa4e700000000U, 0xfeaf8c8abdbc12c0U, 0xd60beb568110a2e2U, 0x6bdab03a0955447fU,
  0xf78116cc9b6fcf3dU, 0xce1a4e9fce656d01U, 0xebcb81f1f69237c3U, 0xc59a21a99637305cU,
  0xebdf4a678b9d1ce9U, 0xefdf951c39ea6ba0U, 0x101eb3d1bee5b181U, 0xd7335523814d0de0U,
  0x5cf417bb1d6173eU, 0xbff0b8b581364252U, 0xeec8c1296a45819dU, 0x35b92a0bc27fb853U,
  0x479b9c26422fU, 0xfffff314fffff211U, 0x28f40000226eU, 0x7b5000008ebU,
  0xed81a9d1ffffe8c0U, 0x5b2f144bfa05efe5U, 0x7f3f02d8395bf67fU, 0xc6e7a07f4924ca07U,
  0x9bf0d0279bc5dce2U, 0x81c99d4cbe017f17U, 0x1523a17f5817322fU, 0xc387fac96a44bf8U,
  0x7f485fb128f533d5U, 0xe7fbb2f66214700cU, 0xdf79a681d4491f7fU, 0x781f81636233100U,
  0x1c33cdbac4ef8cbU, 0x7fae98b58174c334U, 0xc44393681ffb0101U, 0x7210c1c818977f31U,
  0x6de0815c36f9307fU, 0x1ef51bd1f109abf2U, 0x2781f5221f7f0302U, 0xbe3839534ae3f651U,
  0x7fd00ca5c57f3ea8U, 0x40d4323ab9f683ffU, 0xeeb1482d2ce81c81U, 0xc12c81b9397f4cb2U,
  0x81f1e0d4ef27f2bcU, 0xe4feada2354178b8U, 0x3fc7fa75b7ff564U, 0xcff897d7c742e3f3U,
  0x8112b90725814248U, 0x57d5a8f51326522fU, 0x81facd31a621fe7fU, 0xbdecfdeba56b390fU,
  0xfb7ff8c4d4ce7f67U, 0xd810d32a11f559caU, 0xe9b02e00593fde7fU, 0xcd3765d681113a2fU,
  0x597845fd7fd6c8cdU, 0x172a7fde550e7f3bU, 0xc95810f22e6fcc1bU, 0x6d7f6c317f2675adU,
  0x3ae9813b62d4564eU, 0xe7c444d1491dba42U, 0xd38147f581031c14U, 0x3636ced86ed304b1U,
  0x58de819202ab8140U, 0xd881ea51c0537428U, 0x81e3dc97f966dbeeU, 0x3b3034fa60b44103U,
  0xfffffbb80a815057U, 0xfffffb86fffffdd1U, 0x31cfffffff1U, 0xfffffeea00000162U,
  0xfffff9a2fffffab2U, 0x57bfffffeccU, 0xfffffd6ffffffbe2U, 0x40bfffffdbcU,
  0xfffffe38ffffff4bU, 0xfffffdb5fffffc8dU, 0xfffffcc400000089U, 0xffffff3ffffff889U,
  0x3020000022bU, 0xffffffe500000026U, 0x3c3000002dfU, 0x118fffffb79U,
  0x2f90000024cU, 0xfffffdfa00000217U, 0xfffffb570000026dU, 0x449ffffffd9U,
  0xffffff3ffffffb62U, 0xffffff7afffffdaeU, 0xfffffc9bffffffdfU, 0x38ffffffd37U,
  0xe3fad62a0000007dU, 0xf7f5e8b7e270454eU, 0xf9f7d2db01cbcdf6U, 0x4a25257fdfead60fU,
  0xeb9f1006d3daceb1U, 0xdfe8c91c9ffc07c1U, 0xcb72011ce8d8141fU, 0xd281cb02f3f84168U,
  0x992d8137acf0ef28U, 0x1257251c029700a6U, 0x91a0d813e2ed6af5U, 0x2903ced32481d99aU,
  0x5221672d8bd8ff2fU, 0xd79ef04831b97f4fU, 0xcd0e95028501f108U, 0xf33c0dce178ecf81U,
  0xffbade4d3527f36U, 0x6a70f690c5e5e137U, 0xb7cb02baf6bdd6U, 0xa5bad4d9d517e37fU,
  0x2effc80b9d18050fU, 0x71470a07ffd0a84U, 0xdef0d920eef6f7f5U, 0x43df1be39300813eU,
  0xb932a92fbb10b805U, 0xadc5a4b9d5f7fd5eU, 0xae8c359f437bee9U, 0x3a3128d469e4ef9eU,
  0xc7f02521e0c2bba3U, 0x20d4ce13ba2ab8d9U, 0xf1e803150cccf8e9U, 0x77adc5b235057b1eU,
  0xb20aa9ffd1d42d3eU, 0x2f166719f8812ee7U, 0x23c72302bbe807eaU, 0xdbd8c79dcdaf15cfU,
  0xe1565c1cadec1d1aU, 0xf4a60de522eb613eU, 0xa51bd845b4f37f7fU, 0xd67d4919e8bc41d0U,
  0xc18193f2f15eb655U, 0x2eda81a772a70185U, 0x8a9d2fbc431817aU, 0x25b91f7e42b369f8U,
  0xcefe9b4d98684047U, 0x97f7fa70e97d2aeU, 0x21e493ce013a497fU, 0x7fea828165b4e222U,
  0xbf814720b36d8c75U, 0x8f104375fecfa37U, 0xe4faa87081772e31U, 0xd2b549050cebfc0U,
  0x25ffc2ebd7db07f2U, 0x3b6ff9acd0f1ca67U, 0xcf3336d6b1768142U, 0xcac0b2d7dd1a2aU,
  0xd5cdef7ff37f043aU, 0x7022bb553d2dcb3U, 0xda0a1f19cae5979dU, 0x4376d4a9cd27ad2eU,
  0xa6f2553adbf7bf25U, 0xec400cee9db3b08U, 0x815adf20d8e0fe49U, 0xde082b3403cfcee1U,
  0xfdc7e50bdfecf911U, 0x12190df08ca613dbU, 0xc9df0f32c5cf0ae2U, 0x59072e8f7fc95b03U,
  0xbc18d008ba133f69U, 0x816f00f7ddc1b7acU, 0x81bf81d92bff2f60U, 0x1224cec655894f81U,
  0xdd39e87fa514d74eU, 0x44da602e78da6ee5U, 0xe22cd03f8d421a70U, 0xed4d7fe40baf5218U,
  0xee5afdf49736271U, 0x509cb975db402a1U, 0xcdbedc0a817fb97fU, 0xf4dfea71178136caU,
  0xebfac63db2713229U, 0xf36a35b43cb74f05U, 0xcb0fcced0f05180fU, 0xe27d7b332dbc751U,
  0xcaf82a16e246e957U, 0xe6a3eb1820ea20cdU, 0xb1ede03cd447062aU, 0xc2027a60feb05eeU,
  0xef1cecf2d4e2dfd7U, 0x19e9d5d58101a939U, 0xf449f4fbbc19e936U, 0x3428e4cde2d443daU,
  0xb43cc0b8d7ecdbecU, 0x9303493af5eedfd8U, 0xdfd0f00e509c8f9U, 0xfe810805a9e92de7U,
  0xb3bcebe6d0d1191fU, 0x7f3e3ee027f769c5U, 0xcf3002dca50b2949U, 0xa22bf514e0e1e29bU,
  0xe5ede0ea4757e13aU, 0x1aaccffbc9bd39a8U, 0xb2413903d221ed08U, 0x15df7f4672e06d9dU,
  0xec3fc31bc1071228U, 0x996d3722edef07f4U, 0xc6fea7f27f7f222bU, 0xfa0910e7b9bd1da7U,
  0xba265413ba32d9bdU, 0xd7ae017f00312786U, 0xde3fbcfeae0c2ff3U, 0xa4eb39e7d1d654dbU,
  0xb619e5ee275285e5U, 0x305fef96911e3afU, 0xc12af627d33d3fd4U, 0xcbecf7dbb6e027caU,
  0x9e35bbfce20105c1U, 0xc1433ec9ce08b29bU, 0xf4122908dfdca2d7U, 0xe420fd09ba2fd067U,
  0x1bbb8108eb1d1a63U, 0xe1ef17f7c33f0203U, 0xa072f496f3abfcdbU, 0xb8d31047d0dfe5cfU,
  0xfb07ee2f1707debeU, 0x1eed111001184717U, 0x10a863dafcd508c0U, 0x65161720170f38fbU,
  0xac0fb6abd4b02ae7U, 0x97051c34f2e07f19U, 0x1aefcd57356be0ceU, 0x400ae8de02ff35c6U,
  0x8135391d080b00d9U, 0x3035f7f1ebfe77afU, 0xb774e0e7f2ca28d2U, 0xdb0526edf4092784U,
  0xcc08d37f61047bd1U, 0x3dcfbf9b30023edU, 0xde52e233c80d22b1U, 0xd0ef161af0261899U,
  0xf03aabb7f9af40e8U, 0xc1e1e3e0d11de5caU, 0xba09e83e1c090ee9U, 0xda16f124101032b5U,
  0xdcb53cd51add38e6U, 0xf424fadfa2473d9dU, 0x87fe6c6eed415bbU, 0xb7f826f7aafb25c1U,
  0xea1dfa22e21c06deU, 0xdc121a04df2ce03eU, 0xfffff6e209d04fabU, 0xffffff5ffffff441U,
  0xfffffc7c00002aaeU, 0x26fffffc42bU, 0xfffffe86fffffe76U, 0x30eeffffff1aU,
  0xffffe5b8ffffef21U, 0xffffef28ffffdaf8U, 0xffffec3800003f86U, 0xffffd00b00001cf5U,
  0x5960000044e0U, 0x5c2efffffeb6U, 0x521fffff65bU, 0xffffd19cffffe159U,
  0xfffff7da000025a5U, 0xffffe8c7fffffbd1U, 0xfffff61efffff972U, 0x2ab700003714U,
  0x1d00001df3U, 0x205bfffffcabU, 0x3e4c0000006cU, 0x2400002faeU,
  0xfffff800ffffd8caU, 0xffffe4a30000233bU, 0xe3dd424b0000343cU, 0xf55abdc223bd9bb9U,
  0xcf0b24d94c3dd62aU, 0xfb85c6c848239fdeU, 0x30a908394b9982f6U, 0xc5b7c78122eff15eU,
  0x31e7fb20a7f3ae3cU, 0x18e185fdb9811c9U, 0x2ef8ae40cff07fd6U, 0xa19604e91447c6acU,
  0x38f36239c52c3b4bU, 0x69b81cbd2d1d14c9U, 0xbac6cb16180d286fU, 0x3aa7d62d36f67f50U,
  0xcea70899c30e2438U, 0x21e545feda21d3ccU, 0x3a10fb311a58ecefU, 0x36ab4922d42acdU,
  0xaa9a97bbf0481af6U, 0x3ac1c7ef940fc3d2U, 0xe74085c22d0895f8U, 0x1ea6a9aa8e154485U,
  0xd688bb309248f0b3U, 0x38814531f837d401U, 0xab9192b6c1d7e402U, 0x4b43f896fad17902U,
  0x44a54f36bfcd5356U, 0x18d98144db28afe3U, 0xe85c550da6f93fe9U, 0xd8c65797abd0b7b0U,
  0x5e5f3c530cdb08c7U, 0xfc1a09442905a5d8U, 0x4851c7f6edd4feecU, 0x184020054a1df3f5U,
  0xad19d34b30b842fdU, 0x7fd04b361722da0aU, 0xd893d612aac8135eU, 0xf965b139a632c2f1U,
  0x9704b7efb8f89abbU, 0xe4f3162547a0799dU, 0x7fbf9e0ea104fad5U, 0xeb73e9348596f0e1U,
  0x30412e79c292d42U, 0xf410d6da09d26be6U, 0xc6b222242e1d1c63U, 0x550d2822e8c63d29U,
  0x59e5f424f248fc30U, 0x6330c4037432b93U, 0x280d2fbf7fdfe6e0U, 0xd4a92919c4ce010bU,
  0xf2cd0aac141f3f13U, 0x9730a347037fd8f7U, 0xb31c2d0f0beffbcaU, 0x32d139fefa0ad442U,
  0x1bc0e3980e3279dfU, 0xea26cfad810267ddU, 0x22ac42cf0eb565eU, 0x10f3eaeebf2dfaf6U,
  0x361b32ae610c80bU, 0x310d5c0f09f5f104U, 0xd72056470ad5cd09U, 0x23f41a4a1221fa6bU,
  0x2af6d1ba132d0128U, 0x1ce31c465bd84424U, 0x3f06cc003b60ec7fU, 0x304ce537daeb2541U,
  0x185b6910f33ecbe7U, 0x31990925ea0ac561U, 0xe7de3557d4f14325U, 0xd74c1322f2991b59U,
  0xffedb4547b245c29U, 0xcee4c4b2d43440d7U, 0xf37fb72bU, 0x0U,
  0x0U, 0x0U, 0x0U, 0x0U,
  0x17cda52d00000000U, 0xd297fa9e0fc48134U, 0x81318550c80b1738U, 0xf74dfbe8bac67a06U,
  0x8b0f465e66eb0f7fU, 0xb0923847b14fc419U, 0x6b39026d7fee5c44U, 0x287bc3597fd6c665U,
  0x2fbf15472e237f08U, 0xdbf6de1144c72558U, 0xcbafc9881e138139U, 0x7d5a0e64b5d3336U,
  0x705a3b8181c01a03U, 0x53ccc474ce413d59U, 0xd9c78f2802a83f5cU, 0x232ddad581b1cac6U,
  0x26517f2cf140f1e5U, 0xd102057fd7ea5f7dU, 0xc4d854db552ba3dfU, 0xec013e6611ef0d7fU,
  0xde0dfc092f7a814cU, 0xe295f9cd4545dcabU, 0xee2d160f6f17fedU, 0x140781e2d3ecb12dU,
  0xfc2a35d92bd1e1d2U, 0xc75481fb980b3014U, 0xbf62e5530354c2cU, 0x9f353bd97fcd94deU,
  0xe73681cf32bc2e33U, 0xd7193c11e3048134U, 0xd9cd7f31e358d391U, 0xe9eb440db6085037U,
  0x4cb029f19dc0a981U, 0xdb40e1de21b14c68U, 0xe91b26c07f2ccae0U, 0xd8b4eab01981bd29U,
  0x15090851e1fdd01aU, 0x3e419cb6dfee7f25U, 0x2dae057faf1812d2U, 0xd81c525ad1efe007U,
  0x8104ecbc10c42221U, 0x10785092e8007f62U, 0x21bec9366fdaf08bU, 0xdfeb25e2d8d37f2eU,
  0xc581acc832946f91U, 0xf500c8614a22d029U, 0x1d81ca9db574a63eU, 0x890544c739b57d5cU,
  0xa426c24ac8815018U, 0xdaeea6a87f099f2cU, 0xe6073794cc533119U, 0xd987177deb7feff6U,
  0x7a1a83a78b187fcbU, 0x81371224cdebf530U, 0xc928f91710a9c5e1U, 0x5127f3a6d30f37dU,
  0xa5980537c0677285U, 0x467f3b49d77fdf31U, 0x7358083e23c0c433U, 0x2f24f37f1525290cU,
  0xa72a7f4f351d1d46U, 0x141bc2f2f31d18fdU, 0x403d2ef31eeef6ceU, 0xf52ff1db471f81d8U,
  0x81cc46192f63a7d6U, 0x429c0a3d2dfbc4fdU, 0x8de5977cd47fdbc4U, 0x814332372b58db40U,
  0x3ee7d10fb3354ef0U, 0x819256fa017feab7U, 0xe7d9e6ef14560875U, 0x5ee09be3c8b5c0e7U,
  0x72d9507fa5cbU, 0xc7090000e1afU, 0x12cd20000c5d0U, 0x87300000900eU,
  0xdfa00000a53cU, 0xad4e0000a155U, 0x7eb00000f0dcU, 0xb5b40000bf7eU,
  0xb1c300006948U, 0xc807000094b1U, 0x714e0000c637U, 0x6e7a0000f1ddU,
  0xaa9800009bf9U, 0xa9110000989eU, 0x86830000ed00U, 0xdbe70000ec11U,
  0xc3150000a590U, 0xe27a00007b8dU, 0x69c400006bc5U, 0x8fbe00010d55U,
  0xb441000081baU, 0xaee500009596U, 0xdcfd0000c3f6U, 0xf7b3000097c7U,
  0xfe17d2240000a115U, 0x11f03c31ed291dd8U, 0xd54cf5d947ed0fa5U, 0xa020daf7c6a53339U,
  0xe02094aceb4213e7U, 0xa74103a83c9e2f7fU, 0xf6ffd61a1c01ae6fU, 0xdb37db00faf2ea33U,
  0x23d271e6133ce1cfU, 0x15d2fe6c32b5f0d2U, 0x24222b449bdb27fU, 0xbfc7c5070005f3d5U,
  0xd93c520b5b50c8c0U, 0x3c642f427165216U, 0xcc22b90f86232232U, 0x94467f10cff5e82cU,
  0xeb6965102e8c69cU, 0x3de429f4a7c82922U, 0xbaa4b6f8cd051917U, 0x6fd5e3ca96212f54U,
  0x3e4a37d44c48ba05U, 0xdfc406f34019e2f6U, 0xc7dd31376d55d5faU, 0xe6f3185fb27fb5d5U,
  0xd0e80df3015f6ac4U, 0xc4b4b481a5b3f9e6U, 0xea580b9ce1550c14U, 0x674d9ace3d67d581U,
  0x63de43775a8edd1U, 0x4a05fee7abff9282U, 0xbf130f1f4923f2d2U, 0x90de61655d3cfdfU,
  0xcaba074681b5bd04U, 0x39e816c91f8d331aU, 0x42fdf0e4fcc4eea3U, 0xa33812ec54d71a7dU,
  0x4d5908fca2349bdaU, 0xf22221424001faeU, 0x913dec7c4d0f6f6U, 0xe51af1e7e827f21eU,
  0x5bc333bff7e40404U, 0x6c0c2de62e8007fU, 0x21ec9be9b12f626U, 0xef5d9077e2d0d6aaU,
  0x5432a4b29eee79cU, 0x605014d27089601U, 0x60b18f2c782f9beU, 0x28e16b2a0d7fc553U,
  0x60cda6a911401631U, 0xde25d2928cf77339U, 0xff5740e2d161c8aU, 0x55b6ffdc04ce8d5fU,
  0xff7fd7acf8c4e72cU, 0xd1157b0ebcdca793U, 0x37e5d84f74c4174aU, 0xddf3f754280ee0d6U,
  0x62c7ce301e254ba8U, 0xd0c1302457f2e02U, 0xe6110f3b3637d526U, 0x19fe01aa4fd3d1d9U,
  0x2fa5ed1619351ed2U, 0xe33cc6042111becaU, 0x405eae6ca3cb92cU, 0xe6121ad2dd07197fU,
  0xefda30c534dc26f0U, 0xe233c16700ab11d9U, 0xa0f9f6e89320363aU, 0xe1eee9b605390af8U,
  0xbbc59cdd5ee7cdf3U, 0x2b3945055cdc4aa6U, 0x1b3acdcfba00525eU, 0xdfd4581298964181U,
  0x21f1c5f966a32e4eU, 0x3ee64af6071b81c3U, 0x2b5718f052eba4e2U, 0xeea2e2430d8d4c7U,
  0x32e2ab1949ca3e1fU, 0x1d0601349adaeb95U, 0xd828fef62af1374cU, 0xeaad37e7e9eaea5aU,
  0xd1ffb919e42ecb03U, 0x8b75ab8d40e4781U, 0x15029aac57285350U, 0x47f312bd62a9ce4bU,
  0x60a7bba33b37cc5aU, 0xedc7d1ca28062fd5U, 0x1032f7432b252d05U, 0x2b16e2e3f40acfU,
  0x970422ebcbc3c981U, 0xd6d11221ec0ded9aU, 0xcc51abf5deff25b9U, 0x34f5814d9bd2632eU,
  0xd61dc89fb20d1d7dU, 0x357fa4be89a3d560U, 0x71afaa3cd08e32bbU, 0xd5e9b56ef25ebe4eU,
  0xc10409ba8bdU, 0xec00000678U, 0xd5dffffe95bU, 0xfffffdb7000018c2U,
  0xfffff9f6ffffed84U, 0x108fffff3feU, 0x779000009b9U, 0x72600000af4U,
  0x8533c281000007bdU, 0x3649052c6704fc54U, 0x7bc6196b4f4ed2c3U, 0xde4c3b7fa420a869U,
  0xc536fb10f33abcdeU, 0xcc21f5a60c4a7783U, 0xf6d015eaf9977fc0U, 0xf232c2031f001f14U,
  0xdbddd306142881f1U, 0xef355e07e77ff3c1U, 0x237ffcefe800e7d6U, 0xc95c2cebee30104dU,
  0xfa1b7f2e34e86bc6U, 0x60fdf71da65bf9d3U, 0x81b6c99ffb845233U, 0xe3cf4cf040fd7aa0U,
  0x9f90a64ee5611310U, 0x1104543aa5512ba4U, 0xe25b3832b4813d4bU, 0x87fa7ab6bb79d37fU,
  0xeefe8521ea1628e7U, 0xdd65ebadb4b82f96U, 0x1a9b2fd9bb7f9aceU, 0x9908fd7ff648177aU,
  0x85d80621a41ff65dU, 0x9aabba883f1b02f9U, 0x5f2711a37fb635d2U, 0x789bdd002f9bb9beU,
  0x4726a4c281ea9923U, 0x99d97f39dc2ebe0fU, 0x557bc20c301020d5U, 0x2d237fdf12ae8d53U,
  0xf004430c44bbedfbU, 0xb251f834c8f8fe37U, 0x931726c341e3e781U, 0x1981644c7a8b194dU,
  0x42dc4338e13a13b9U, 0x93bd63081a5f39c5U, 0x3e278d78c5f32581U, 0xe3339dd9c36cfda7U,
  0xdbf93c1d7ffa3817U, 0x31d51508d705f6f3U, 0xfae7e681c6bc7fb1U, 0x220fe5be29079a63U,
  0xa9352be93c1ef107U, 0x5db2ff7f28f2482fU, 0x4a16f2db32f8c72aU, 0xce6836fcd40e7275U,
  0xe9aa44587f0137e6U, 0xde19d6c11a194181U, 0xddbb1e56e62848e9U, 0xadf914e11b7f2ccdU,
  0x1310e1d1eaf025c8U, 0xc5ed7feaf7f6f70aU, 0xdfec0c3acdec38f3U, 0x419e9a333567f1bU,
  0x4ebb7ffda9f35baeU, 0xb3ccb54bc41c61bU, 0xf0d83e3248d8b9a9U, 0x7035f6d9a5f5ecccU,
  0xf5c7ab2ac6a7247fU, 0x3b2e09face7ffbedU, 0x155bc22e01eb4d2eU, 0xba54c6bc547f1ac6U,
  0x8bdf814773b83af7U, 0xff5b120beaef7dcbU, 0x3a7f9dc2f7d80330U, 0x514853dceeefc8ecU,
  0xba154349c308b8beU, 0xac9ac7ef7f8b56c2U, 0x27d2f0c1c236ef14U, 0xbccf7f124cc8a06cU,
  0xbe7039e1be4dc9a3U, 0x1b32d2819c480915U, 0x3895456226c66958U, 0xd70681024e0701bcU,
  0x30fef03219feaa1dU, 0x2cda131cad03f6daU, 0xd02746494581e036U, 0x7f1b0245caf6d602U,
  0x77dec8fadc996040U, 0xf7284d01acc598b7U, 0x81e812a11ee87fb8U, 0xffb62f35cbecb9b5U,
  0xe0b632121d45ab8bU, 0x122e1d1d02edb77fU, 0x855c95e800053837U, 0xeb8e3744f21cc6U,
  0xe3052bd0f1ded47fU, 0xfb7f09adad0a2647U, 0xe74cc00c5367f937U, 0x3743c6d4181a0c42U,
  0x120208b67f4cbf32U, 0xcdf739b67f32fbddU, 0x93730b3cf53d217cU, 0xb0bb581b9e6162aU,
  0xbb39acf846a53e77U, 0xf52cfee6077f60a3U, 0x710ce1bea23cafdU, 0x7a00f8f0c6211dbfU,
  0xe7be27060f907f48U, 0x58b1373c818aa9e0U, 0x25a52d549a214c9U, 0xd35f7fd32eb96220U,
  0xc5814216b9d947aeU, 0x2bfc1dfe6edfd757U, 0xd9bf915f82eb5ffU, 0xf4f22f03810fcae6U,
  0xe1eb6338db87e11bU, 0xeb516edf937fedeU, 0xec181ec0fff07f04U, 0xf8f321dd444addf4U,
  0x1aa41c27d100c77fU, 0xd6d57fcebd0012dbU, 0xff435abc0042c3bU, 0xd4d2eb1859d99610U,
  0xd60ff581d9e2da7fU, 0x20d31d02c4b107f8U, 0xac41af00366b19fbU, 0x254d489b0056fbd5U,
  0xfb4cd83429d1e67fU, 0x18f57fb63c0bc80aU, 0x4185f30ea4a96958U, 0x3ec12d7f43abb472U,
  0x5e03e544ee2af722U, 0xab46c52041ce81d0U, 0xd621d6281a76eae3U, 0x81b06e0842eaade8U,
  0x11f6e604dfe6df3dU, 0xfb027fbff96f1af7U, 0x1dd1c79dccf33cc2U, 0xa2e04bbf0eec8164U,
  0xfbd0e39ff7d8ea1aU, 0xff7f1ba90c324f1cU, 0xfb5cb06ec0f60c11U, 0x6b333adb6617582U,
  0x8f734327f6814349U, 0x6481c57e33f3ad59U, 0x3cd34b81ebda63c0U, 0x225e99f869bfef29U,
  0xf6ccabeec2d88f2U, 0xbf1445b2db3f48fdU, 0x85ae65a781eb3dc3U, 0xba81cfd850f4bd51U,
  0xbffbef39dceb00e5U, 0x51e91116e4dcb6cfU, 0xc4fd67f2ef967fffU, 0xafbd4e1348047f51U,
  0x4b76877f18031f48U, 0x6a5aed9ebdf763adU, 0xcb99b911d5a30d5dU, 0xf3f0effaff1f0daU,
  0x48165428b304397fU, 0x6081d6fde3a9d0e2U, 0xff0f57550934a985U, 0x7f0c2d54bcf7cbdcU,
  0x52d47f03cf015519U, 0x451e512deb12c7f7U, 0xe729f5c68c0101e3U, 0x167fca39c70153f4U,
  0xfe81dff72229a252U, 0x213f85f4ad6051bU, 0x1e75fd4c732b156U, 0xe719ad03bfdf2cb6U,
  0x8a089d367f2dacb6U, 0xc1b9dd9e40e33f34U, 0x91181a367f6d37fcU, 0xe10c37b6fab51581U,
  0xa736c1c4455bc3c2U, 0xb33123c035f31e44U, 0xe4bea381f8c8ef7fU, 0x3c3270ffba105a3U,
  0xddd92062dc1bba9aU, 0xc32c2eb32f477fa5U, 0x228e2781a40f230bU, 0xebe5d30f793c23bfU,
  0x35609b623b3bb5f3U, 0xe51e043ead2eddedU, 0xb41213252f277f24U, 0x82638d941075681U,
  0xd779950f1ee644efU, 0x813df8523f42ce04U, 0xc0c8b732f3bd4f13U, 0x99dc4fce00627f47U,
  0x205377f50094040cU, 0xdcd47fc7d22e56ceU, 0xe1e25935827949bbU, 0x830003d6bc007ff0U,
  0xe802110252df8539U, 0xfa4f6014f64003fbU, 0x2509c5949d811eeeU, 0x42733d9c9c163302U,
  0xfffffd168194e52bU, 0x1c8fffffffeU, 0xfffffeea0000004dU, 0xfffffed100000097U,
  0xfffffe98fffffe82U, 0x510000002dU, 0x7100000178U, 0x1eafffff84bU,
  0x34ffffff44U, 0x143fffffd50U, 0x3100000296U, 0xfffffe29fffffd0fU,
  0x13dffffffd5U, 0xffffff8efffffd17U, 0xc100000138U, 0x206fffffcfdU,
  0xffffff89ffffff2bU, 0xfffffeffffffff00U, 0x1efffffc5aU, 0xffffff74ffffffb6U,
  0xa5fffffc77U, 0xfffffdd900000229U, 0xffffff25000000a3U, 0xa3ffffff00U,
  0x229fffffd6bU, 0xfffffcc1fffffed4U, 0xfffffe9cffffff12U, 0xcefffffd6fU,
  0xffffff62ffffff2aU, 0xfffffdf5ffffff0eU, 0xfffffb9600000130U, 0xffffff69000005a6U,
  0x8fffffed4U, 0xffffffc79U, 0xfffffdb4fffffcf2U, 0x262fffffd3cU,
  0xfffffbe2fffffdb7U, 0x3e0ffffff71U, 0xffffff41fffffeb1U, 0xfffffd35fffffd06U,
  0xe1000000a7U, 0xffffffa6fffffe8bU, 0xfffffd7ffffffd91U, 0xffffffb0fffffeceU,
  0x1cd000001b9U, 0x126fffffe42U, 0xffffff110000017bU, 0xffffffcf0000029bU,
  0xea071111fffffee7U, 0xfea52222f2b781ecU, 0xe7e5f632e5aa27c2U, 0x3089a62b422b0af2U,
  0x1f10430b2dca4c29U, 0xd42cd92a9d0903fcU, 0xf0111d0b96cec81U, 0x959814e09fc2bdfU,
  0x227ff40b306e725fU, 0x212b1f98fc81170cU, 0xad1ae8c492e28216U, 0x3e57350c20a3320fU,
  0xdffb17dd017f00e2U, 0xebac622008ffb206U, 0xa4ed252d09dd7f15U, 0xdbd481d97c6137d2U,
  0xa2061b3229d1f00eU, 0xe5301bd8da15d5d9U, 0x1f37fcaea9369c97U, 0x10dc07fed385e08U,
  0x215d14ffff0421fdU, 0x43131aa708b0e628U, 0xb0a20becb7fe0d50U, 0x167f74f7ad1c50U,
  0xea033caa0b7d07dbU, 0xd2c43a7fd522c823U, 0xbf43fe1ffd239fcU, 0xafc1abc87f212490U,
  0xb41ae776f2e603f9U, 0x6ea0abc8300f7dcU, 0x252ac99ca66698ceU, 0xf2bf8cffda6de401U,
  0x2752e92863cc2b2aU, 0xcc561081f69aec6dU, 0xd8ab2cff1d3d8173U, 0xf1f16c41ed81d27fU,
  0xe1fbfbede774c6e1U, 0xef4162bcf0cc922U, 0x1ae73fac09fd5332U, 0x1a6eaa5242c18b5U,
  0xb74023240fa1f2e5U, 0x20cadbd00c609e3U, 0x1a04fb81e949c72fU, 0xf3e68e2bcd14410dU,
  0x4853f7ee58813403U, 0x2232e5ce52cb127fU, 0xf0cefe03d41a8c30U, 0xd9db5047ffc0dd48U,
  0xe801eb04f65002cbU, 0x3a9c2e0ee636ca11U, 0x28fe0bb310d73728U, 0xa9d300f30dff0ad6U,
  0x1521490aefdb120eU, 0xe2e881da15e44edfU, 0xd1032481cf5ecea0U, 0x41dda2d2cf9f9f9U,
  0x3c382d51479b6413U, 0xc81deb850baf06f1U, 0x26df0610c92dc428U, 0xc8e915123feced1cU,
  0xc3082d11d24ce0e3U, 0x28bb191fe10289e4U, 0xf805da63bab3599cU, 0x1a81eb03295316e7U,
  0xea282711f0966be6U, 0xeb47fd21a4fabae6U, 0xc332d530b97fa2d5U, 0xd57f925409adf6d9U,
  0xec2f1bde620e597fU, 0xa1b0fbcfab2000fU, 0xf7d412b5deb9ac36U, 0x2f3a4f3910ab5e01U,
  0xffcc69e2c51a12f7U, 0xfdc17f09f51d9abbU, 0xa4445e70dccd3d51U, 0xc5f1109f2e4d6905U,
  0x8c28f84392e858ccU, 0xf0e507d3bc2fcebdU, 0x440a7cf0c6bd4fbU, 0x3ffe038810a309cU,
  0xf66b38a854f5f313U, 0xb50a74cd220100f1U, 0x9aaf43f3124f0d7fU, 0xd3075b29a5f97f36U,
  0x3a97fe50423a7e4U, 0x81ac4925d3ece295U, 0x817f69ecf49b4e22U, 0xa3ccde8d327f3bc5U,
  0x841db84981271181U, 0x310f3a8591de6baU, 0x114c92ccc575001eU, 0x11c712e89a44d584U,
  0xe43a188337dfc328U, 0xef3565b659193d00U, 0xec827ffb75546066U, 0xa2c04dc2de1f664bU,
  0xe0d54d15f20293f8U, 0xc04e2ecdd3d200d8U, 0x13137fb9f1ed3624U, 0xc6aac6b7f33af8cbU,
  0x81213a3bc6dddbd2U, 0xd3fb7be48f518c6U, 0x2015ead7be75633fU, 0xcb8c3228f2e45c9U,
  0xeb2802a845c7e33aU, 0x172854f27fe54260U, 0x961132fd101e0c51U, 0xd5a70b4196141318U,
  0xd1c30a46d12a97ebU, 0x2a43131ae54ad326U, 0x30d1f3b8fbd8442bU, 0x2a62000094d06ceU,
  0xe722571fcaceedf1U, 0xed1d95027f101bd8U, 0x3010039d0f47bbd0U, 0xf90be326b9213eb4U,
  0xf4421cdd74dd164dU, 0xd22e49dd40f60566U, 0x91df15e4d7faf550U, 0xf4df2a35f84bf406U,
  0xe1ca5437b5098dd4U, 0x37b246ea045ae612U, 0xb31dcf7f81f40b3dU, 0x6ba1305f4f74ca1U,
  0x3b18d53e1ed876d5U, 0x9412b09a1a8ba8eU, 0xd23aa435b82eafabU, 0xf268dd15198123f4U,
  0x8e1e4dcc64327f58U, 0x1f715b5fa9a30feU, 0x64db2281f9c80613U, 0x2a370a7f04d1fa01U,
  0x138a69e298f92ee5U, 0xf5c140ec2010fb7fU, 0x9a495a7ba2c71bd9U, 0x81f3418b120a6cdeU,
  0xb143c87f82027fbbU, 0x17b32113915bfbc0U, 0xb24ca81ed45cf406U, 0x41fb21782bb37bbU,
  0x815a7fab7d250e21U, 0x931b58dc050c46c0U, 0x47a35be13b335370U, 0xb2ee050c824be0f3U,
  0x4a815901ebf7bdebU, 0x9e2e2b030ba408ddU, 0xbf4c7ceeb6b6fe7fU, 0x8f0a52811e2a7f3cU,
  0xc514981b8649d790U, 0x1cc4e5d11701c4b5U, 0xa6398140dc226256U, 0x45c3c9be9b0001a9U,
  0x820231832905b705U, 0xb45c69f6363869a6U, 0x7fab4bcd7f253e4fU, 0x81813f0ba43eeaf3U,
  0x14ab2813a204b5c6U, 0xcd7f0509fcc606b7U, 0xf2085cbfd8f5274dU, 0xb4ccf0e2004d275aU,
  0x8f15eb63cb2097b6U, 0x3fe5c0e01c34dcd5U, 0xf4289836f5577462U, 0x1ec4dd239716e1aaU,
  0xc21d3be2ececec35U, 0xf2787e0a28dc7f3eU, 0x9cfb33ef17411848U, 0xc2b2df339534cc1cU,
  0xe1fcf97aedfead42U, 0xf31d120fe52ece03U, 0x28dab5bcf7db2766U, 0x18e7c911f90426f2U,
  0x7f77f0f0ceda6f9U, 0xf1e6c613571e1081U, 0x165a7ca3f3ee6cfU, 0x2bd4f818b7504ffdU,
  0xb4302f814005f235U, 0x515351da18e23675U, 0x8b392812ec32b91dU, 0x19f9be3fff44e52aU,
  0xf60d3403cbe88f2eU, 0x26ba0df80b7f0d10U, 0x1807e46c89924524U, 0xcdc8a503eacff0aaU,
  0xf526d333168175c5U, 0x1c0244fa869cbae3U, 0xfd40a067cae5feadU, 0x4bf3441f3bd15011U,
  0x1132f99a7f4b6a0eU, 0xda13cbf420dc0d1fU, 0x5ed32aa8df1d1f30U, 0xfb1dd734f8e6120cU,
  0x3ce0192681013a0aU, 0xfe825e35a382057U, 0xcf0d6547a2bf0ec3U, 0xe6d42ac4f2ea0406U,
  0x386ac530e8fd30d2U, 0xe92b17af14d7dbU, 0xe97ff52bb4fb4913U, 0x4ee8d3180aebd71cU,
  0xca1be8a36648ef56U, 0xc0ec07d042cfeee5U, 0xa8100e9020b523bU, 0xb9f9e61eb1450dfbU,
  0x7fec3c31d1f4b5fdU, 0xba0206147f9eec3bU, 0xae1c51ffc1051509U, 0xf4ec46c9004eec6dU,
  0xcd159c28ef46d893U, 0x41db1925def1f6f8U, 0xde23a034dff75a57U, 0x4b1c0cdcef10f005U,
  0xc517dd96461220fdU, 0x9f5dfddd361e12e0U, 0xc7b4e7140755ef48U, 0xebae2c0ddfe5eb10U,
  0x1601fd63c916e8f7U, 0xad0e01d54aa81871U, 0xddee3d4d80c4a26U, 0xf7c423f1fe5d0761U,
  0xf2f8bf1f191ad292U, 0xfcc4eb103df31000U, 0xe43ce371e0d7850U, 0x40d51ef51331e215U,
  0xa1ad4bbf1252c08U, 0x14617fea060414faU, 0x50d7e10c037f2014U, 0xfab945739409e818U,
  0xfa19e97fdd08da14U, 0x836ffdf21b7f3e8U, 0xbae2c6dbf18c2b28U, 0x2b6a6fd0530082aU,
  0x2bf3141535dedd09U, 0xe303d70d5c250df3U, 0x3764c2e0153ec7d3U, 0x7ffe19ee10f93219U,
  0xf508e5c7192f4df4U, 0xf92b12eafcc7e059U, 0xd4d0e200fa31ed0bU, 0xfcd5ff5323dac624U,
  0xe801f2510c068371U, 0xef0f6d4dff8ebe0U, 0x43181a20940025d4U, 0xa787f50ccbf4dd07U,
  0x43782934fba4b0f4U, 0x611746c9b88195f2U, 0xfe64f53781c3dda5U, 0x50f303f5ff83346U,
  0x543107ed7c2a62cbU, 0x8342f6113adc2a44U, 0x501715c5cf15e2f3U, 0xf0df1118f421ff35U,
  0x3ccaf45511eb161aU, 0xd8d111c6f4e7f923U, 0x92f4107dda4f8e6U, 0xf8d3d31cddf50035U,
  0x2b7fff2502a3ce9dU, 0x5bb2284d2e2ea2d9U, 0x1374db4dd2f252f6U, 0x3af0292a571d1543U,
  0x4059fed3143d4ce1U, 0xc15a02d825c71c1bU, 0xc8d1ffd6bfe36830U, 0xabd210fd81f7ed1aU,
  0x4efbd22bfcfcdd6aU, 0xe5b41d03f7f0f3c1U, 0x92e4902d48119f2U, 0xf8c3ad2cd649f17fU,
  0x4c530124b9e5ddb6U, 0x7f812a7f31e681dcU, 0x5c26b20aded17f28U, 0x64c758054def0862U,
  0xf249eef8ee1f7bd0U, 0x817f03b328de0520U, 0xff1cd1d4e2f56f19U, 0x59b313db1acf038U,
  0x519ab4e2a1be846U, 0x1f9f8fce5f512d3U, 0xe6dc1dff05c62ff0U, 0x32b81a3bea612a68U,
  0x5018e71edfbd28d2U, 0x41d4123655e3d4d2U, 0x7f67cf07e5e67cf3U, 0x3a0829e95cbb0d76U,
  0xf34fee121d5977e3U, 0x694ae911baef0eU, 0xbf3ad0f8e5292412U, 0x1cc23524bd91c040U,
  0xe1f7ca67270b007fU, 0x10c8d4d6e5c80e05U, 0xd0dfc0f6e7e33309U, 0xe3b6f1250135432cU,
  0x411d0d16f1c94213U, 0x39d20f257124959eU, 0x4726d11fd1c6c6b9U, 0x310c62026ddd7f7fU,
  0x4d1fdcf2fb2279e6U, 0xf36334cc07e907edU, 0x132ee306ff42def8U, 0x4d63a143aecd33fU,
  0xffffdcee36ef816fU, 0x1bc4ffffda0cU, 0xfffffc9efffff568U, 0xfffffb5400002736U,
  0xfffff9f7fffffd25U, 0xf3bffffe27dU, 0xffffe65e00001a19U, 0x58ebffffe887U,
  0xfffff04a00003809U, 0xfffff665ffffccadU, 0xfffff5fa00001c87U, 0xffffc516ffffdb53U,
  0x1a68ffffe8c4U, 0x53f4000000ecU, 0x434b000018eaU, 0x1728fffff687U,
  0xffffd2a600001144U, 0xffffcac2fffff862U, 0x389f00000f72U, 0xfffffb3c00001009U,
  0xfffff919fffff544U, 0x9160000066dU, 0x398ffffde3eU, 0xffffb784fffff49bU,
  0xffffff7e00001452U, 0xffffc51300003fd9U, 0xb98fffff9c1U, 0xfffff58cfffff062U,
  0xffffeeb400001a0aU, 0x51800001a18U, 0xffffee91ffffce59U, 0xfffff23fffffb61dU,
  0x2b37ffffa94dU, 0xffffae54fffff47bU, 0xffffe087000003b1U, 0x31a3ffffe32cU,
  0x283affffd1daU, 0xffffc4a5ffffb7baU, 0xffffbdc7000017f1U, 0xffffe3fffffffbfcU,
  0x2913000001b4U, 0x2cbbffffeac2U, 0xffffdab5fffffccdU, 0x318fffffdc6U,
  0xffffc41a00003f56U, 0x30cbffffdf4cU, 0xfffff496000017a4U, 0xffffe965000039b6U,
  0xafced06200001a77U, 0xdc0e01c9dfc6f42dU, 0xcfbc009104aff0e4U, 0xbbe44e4cd0d95b85U,
  0xfc1e34f5d423c8cfU, 0x171a20ff13f4d517U, 0x2bd1d9f148570903U, 0x43038892e18bb8e0U,
  0xd34437fec7103fd4U, 0xdc2f1e5c0cfb0ec4U, 0x34ebedb599a302U, 0xdde966f58152e453U,
  0xacb9d4ef0f122cfU, 0xbc6226cc1367a808U, 0x59460310b71509faU, 0x8d3fafaecc005dU,
  0xf4bff74eb9ac37ebU, 0xd138f3f1203ee3e4U, 0xd9d83153416c4550U, 0xfa05093713701719U,
  0xf055e33603c2d11U, 0xab5f25c656e6cffeU, 0x3428e1b409ef64cfU, 0xe03164a20f1e6e09U,
  0x8da9b9bd8126e845U, 0xd3a5a5681096a3b6U, 0xbd6f07b4e5219d51U, 0x6def9ba75a19dfe6U,
  0x2cd018e719812be9U, 0x2d62d09d8c1601bdU, 0x5b286433952be2b4U, 0x8b0dcb7eb41d697U,
  0x171726ac4e288933U, 0x30901e14caa0ace7U, 0x2537bb3814a306afU, 0xee9da258acabaccaU,
  0xa4123eebbee2edcfU, 0xd9a4e925a9139fe6U, 0xaecd8149dfaf1d1dU, 0x5e050c30efcc95c3U,
  0x261ee62cddfdc0c3U, 0x82fbe31b7f894a6U, 0xde5f8bd70d241f59U, 0x93ccf1f5a09c9eeeU,
  0xba44c0021a4a149bU, 0x8360bbbb29cedca5U, 0xbf0b3d39ae0d8906U, 0x54a32f8993c76028U,
  0xdde4f52e85d9953bU, 0xcdad31b1ee8a3418U, 0x6093fe17e818b598U, 0xe8f7e9920842a21eU,
  0x5803bed839e83ffbU, 0xe94895fc5609d9a9U, 0x6f746decd534d93U, 0x382cbf9be6ef9f19U,
  0x3e21413be9dd629U, 0xf699b209cab1c8a9U, 0xd8898da18149a4c7U, 0xf3c300699c03546U,
  0x3d412832b3f60bf4U, 0xf51a50f8b3d9a0c3U, 0x172783323c951a26U, 0xb7e82ff5c3c8d405U,
  0xc687fee7813aa8c7U, 0x2abcc020dd545d1U, 0xd3c2d995f1a8d8ebU, 0xc7ddb4302e40bdc2U,
  0xe1b630df00c8bab4U, 0x3ae2f7abed23c50fU, 0x30afe4db0be8a8d4U, 0xd3cadc2ddeccc634U,
  0x3ef361fb112ff2e9U, 0x260cbda9e7ea1611U, 0xea3c306703e1fc1eU, 0x4321200cf1e9f90bU,
  0xa9d05c2232c04d3U, 0xc033e616f6fbdc1aU, 0x103135f7f92ed50cU, 0xe236d00215c0cafdU,
  0xbb3a2844fb4313c6U, 0xcd252626fbf3e729U, 0xc44bd75bcb07f97fU, 0x693cc213e90b15d1U,
  0x1cfbb35216a414c6U, 0x2a43e4d2f79017c5U, 0xdc813fe740e5d3e1U, 0x5a70222598454db1U,
  0xf301b7dd5552c137U, 0x4c273ddda924c917U, 0xbe21040b031e262eU, 0x35d6bafdbea33adcU,
  0xe8f6eb70f60511b9U, 0xd100b74393f2bd3U, 0xd11dac812ac8127U, 0x383730a8e5e43829U,
  0x23f00f0423a3fdaeU, 0x1a1339e426f3f0fdU, 0xeb021b06d11ba03fU, 0x7cb22120df4fb3cU,
  0x15400acff80f0f43U, 0xe932edebece7ebd1U, 0x98a32dfd2133c51U, 0x61131036be5e9feU,
  0xf3fac41b47322147U, 0x34243dd815038108U, 0x33c428273db914e0U, 0xeed2d6093a06c119U,
  0xa1ff3ebe21320bfaU, 0xfbeffb13d84328U, 0xfad7e60d08f2e6ebU, 0xed5221d5def9fcbaU,
  0xc012d2c336f8b906U, 0x7042616eacd11ffU, 0x170e22bd13f91ad2U, 0x2c1dbac9d7fac30dU,
  0x1ed0103e1237e0e3U, 0x32012e2c2434dc03U, 0xeef98110eee7091cU, 0x906c523e80ce224U,
  0x2fd343aa001a0cf4U, 0xfd8eeaf30445f1d9U, 0x11f13513b3f10bc9U, 0xb2feb8fa0b11e4d6U,
  0x3aa7e4f7f4d60ed4U, 0x21133c13e7cc1ae4U, 0xfbfbe1c9fb3693a0U, 0x2e2da3c80755c229U,
  0x9cc1b5023eb239c5U, 0xf520e5cbfb0345adU, 0xef24d0d8813abef6U, 0xa2b41ed70da42ab4U,
  0xfb02e7120db5c5a9U, 0xe934670f171ce101U, 0xe07fe227dec83a05U, 0xf3b33a1808ed1a11U,
  0x320729fa0914e016U, 0xfb1e163af7ef3739U, 0x17ee1f0ce411e3feU, 0x202d03403f4b2037U,
  0xe01661aa07152244U, 0xe9341d3209f9eafdU, 0x19e6e41f3053e90fU, 0x2cf7431c0f271550U,
  0x97ffbeaafd503f4eU, 0xb443b3ee93a7d5a6U, 0x3e55640d2936addbU, 0xe7aaf88aee29fdf7U,
  0x49b4342a47e750a3U, 0x563f0ed42124f1bbU, 0xd2ef815a17885906U, 0xad3c25df17cc192aU,
  0x97d2d1f9ceafa258U, 0x4ebb569cb3cf1ce0U, 0xad25ddba0a24d2bdU, 0x4b09393de53d10deU,
  0xecadff31afc401a8U, 0x4da1dfc383dbd4fU, 0xe5f3e4bbe9e1575fU, 0xedd341021e1012dcU,
  0x11dd1c431fe33a38U, 0x2922f517cef9cfb7U, 0x49fcfe47f814c2b8U, 0x2938d8d6fd2fd9dfU,
  0xdc5df4cbb3132cU, 0x2cd651f9260f2b96U, 0x1b36b522db0dcd81U, 0xb6c857d892e93a0cU,
  0xffe4101ee01bf7a3U, 0x41032ff9fe3eb8dcU, 0xf03bf214e6de37f1U, 0xd5ab343bfd042655U,
  0x243bf5f6d6e63bd9U, 0xea0b056422060940U, 0x2cd63edd041ecad9U, 0xeb33567f013f4de5U,
  0x1bd5c4ef1ef21944U, 0xbcbff2028d3130fU, 0x5bf2334ef47480bU, 0xfeb6f23af9e91f1dU,
  0x253cb9e13f604259U, 0x2417ac53dd39501eU, 0x585cad8554b1bd5U, 0xfd641cccc24807e3U,
  0x647eeffe8104a0aU, 0x151905ff2dfdf3d6U, 0xb8da3d0506d2f9e5U, 0xf500cc2fd4f62bbeU,
  0x2efa810fd5262e08U, 0xfd091c2bd43e2dbdU, 0x44e82dfb0d0d14d6U, 0xe5182befb519d311U,
  0x6c0329f6060cefb4U, 0xf0f7fd6f83ec30aU, 0xf7319cd4d1fa36a9U, 0xd46ca7c131f1bd05U,
  0xf8a4d73251360413U, 0x65fad2d6f3c2be9U, 0x157401d943f03f44U, 0x2f46d869a6f4dca4U,
  0xf609c56abaf3df0cU, 0x6d51ce595431701U, 0x3043b35f9ead0dbU, 0x20f1e6abbd43d5c7U,
  0xd2c2d5f8bece0a26U, 0xad0e03d73959f9f1U, 0x502fe79a2e314502U, 0x27c44e37e5fd5817U,
  0x19fe1321c1a6403U, 0xb2cbc43e5b47ba4aU, 0x473ac0e9ddd3d4e7U, 0x30f3a905ee737014U,
  0x1a2303207f091b3eU, 0xfe05faa5631d17e6U, 0xfe359996cc72531aU, 0xd5c8ecf4fd170d3aU,
  0xadc0417bf5a351dU, 0xd2075dc715c71627U, 0x2e1a12eff61c0841U, 0x1fde372457124fd2U,
  0x41f52dde0b37bf4fU, 0x1112fd1dcdd0f5edU, 0x788fc220034f706U, 0xdb03fb23d612b9e0U,
  0xeb0d070512ece3faU, 0x1fd7391e45c634c9U, 0xfb2ea9f6c812aeaaU, 0xf6f80881ede72824U,
  0x1caaf634191a06f5U, 0xca3581b7e78bb083U, 0x4572a5854db9ebe3U, 0x32b0f6e0e7f5a2d3U,
  0x6591bfd91609e70bU, 0xa89f6b00595b17eaU, 0xf3bc5288fcb44060U, 0x639d9ec630e73120U,
  0xa78f079d343d000bU, 0x9309169e0913c1bcU, 0x60ffc24ae01d2ddcU, 0x11b5f81607aa9640U,
  0x26fad59b5b243950U, 0xe68b2603021cc6e1U, 0x33d09204ba2e2df6U, 0xf46d7a134f28108U,
  0xfdeddb389d8d3912U, 0xe141952423b1c4c4U, 0xb423dcdea0289b3cU, 0xe786043ede0f9eccU,
  0x13f2f4d8a2d717e4U, 0x46a8ac8bc5d3d133U, 0x16b0d35234c8eeb9U, 0xba12c55d4f6c9c6U,
  0x346b5ffaf421b12eU, 0xfadd0e8131d9eed0U, 0xede1e92711ce3e13U, 0x5e4b9412d8b550d9U,
  0xf1cb3422615aabe0U, 0x32dae256021e25e6U, 0x8b30300509fae026U, 0xe639bcd640cde5d1U,
  0x9b31165bf4ea078cU, 0x308c34c014d3e29U, 0x9ed3bf3fffc004dU, 0x5e40c905291d280eU,
  0x295ef933fba92700U, 0x4ccbecef981bceb6U, 0x1cf50d1adaf8e00fU, 0x334aca4e6aa7e665U,
  0x36d15e3bc33fd81cU, 0x2d0eec5e344f040cU, 0x173f2d2be8a8350cU, 0xd6e6720d0a261c1bU,
  0xd604bc38e6f30bd0U, 0x21059ef5df52fd44U, 0x22464e2f6251397fU, 0xe5f6da5329e51b1cU,
  0xe9f373010ac02e7U, 0xcccf53fc00d6f9edU, 0x10271ccbebd1f8dcU, 0xedf6c0b7e18e351aU,
  0x2134ec0edfbb2db1U, 0x6dda327ee9d40b9U, 0x441449259a1f17dcU, 0x1b25830d0111f796U,
  0x43dfa81ee9952f81U, 0x3a01a5e4a8e6c3acU, 0x3593f7dc242c3ee9U, 0x4e51e0fa7d61dc4U,
  0x8eb8222aU, 0x0U, 0x0U, 0x0U,
  0x0U, 0x0U, 0x0U, 0x0U,
  0x0U, 0x0U, 0x0U, 0x0U,
  0xd030d82600000000U, 0xd2cf3ec5bcb8f8bdU, 0x26fb3340fd0ed6c7U, 0xa2a2dbcefb4c81f8U,
  0x47908112643655f4U, 0x5bedd5a92d112acdU, 0xad2a9d38377016f0U, 0xe71eda25bb7fecc0U,
  0x1a73dad3b91c0245U, 0xeb3b3fddbd730211U, 0x6c0c022b18f25f2fU, 0xffd27f42673830ecU,
  0x224bee50e7709c3U, 0xe43423f817ea24faU, 0xee2b3c97fcaf1cdU, 0xbb4c377f205d0d23U,
  0xce1fd63664fe11e2U, 0xbc31394c61a110edU, 0xe5b20f9bd9c1d22eU, 0xc946cb3b7ff360d8U,
  0xe56fae3ff557e8daU, 0x4fd5e6d8709edcdbU, 0xd00fe681062bbcc6U, 0xec9adbde450e0b13U,
  0x25e68c65253154fcU, 0xdd24d4893dc82998U, 0x1620500c8181320bU, 0x63b18ac5a0d7d5d9U,
  0x98c0187f3903a5afU, 0xd19cef021e1ce5e0U, 0xb4e3194448efe7e7U, 0xbf3128126eddceeU,
  0x22d1b121e0c34801U, 0xe3360028fd086c0bU, 0xa0ec20a45c06d20aU, 0xeb7fd5f4a4e8e6f2U,
  0x38b8c525fab826f7U, 0x1ec519810c262f0cU, 0x1bf7ec3c32fd24beU, 0x7e7161c0ee83bccU,
  0x19f783d404310fe9U, 0xec810cd2b622e4d3U, 0xff26ef3fda52e5c0U, 0x812afaab6ca5e60fU,
  0xc8d4c50e738ef1f3U, 0xfd73bf7dada9ef4U, 0xec1236c90cf31afaU, 0xc4f1d4dd7fe52731U,
  0xf9e92a34d3b9fddaU, 0x6031e90fe2a5a13cU, 0xbc5553bdd0175609U, 0x7be22d909811306U,
  0xbefec7c41609154bU, 0x28cdcfec7fb0cf40U, 0x21e8198f0ffe2fb6U, 0x8139c90e620e11c7U,
  0x31dd9d186eac2bfeU, 0xa1df4e81168ff51fU, 0xc9bd64a0de44e0c1U, 0xa820dcf8ff136c3eU,
  0x1ec62bd209d26b4dU, 0xf226ea65f68136faU, 0x2a608f89469e5edfU, 0xd5143022b04b8e0U,
  0x3a23ce0be42a05ebU, 0x9b125ac4557b124U, 0xf0d52d96037f31e3U, 0xfe20187fd9b1e51eU,
  0xcb50b74edcdb4c20U, 0x2fc690ef2abe87ebU, 0x9db34d7f678317ddU, 0x513b2d700ddedb9U,
  0x1731f43d0cc4b141U, 0xfbcf7fb7171cf4b5U, 0xbe651d269596a11U, 0xe621ebf9fefd52eeU,
  0xd31a24d91c26d417U, 0xe1ecf51205d6da1dU, 0xd75b1c9529317f00U, 0xbb56af27c542eca7U,
  0xf60417d2ed1b7f4fU, 0xe94ea8c94848ddb5U, 0x16bd5b4e437ffa31U, 0x14fe0f1bf1a019dbU,
  0xde51cf7fc33d5feaU, 0xf4a57966bece71eU, 0xecf54201fcdd07a1U, 0x8d252ebddd1c41fbU,
  0xe015e47a7f4ac615U, 0xfc78d85776c2e107U, 0x5fde46c55ed85a2eU, 0xf1b11e9e412bace7U,
  0x639a98d71a8186e7U, 0x25f6ff422f2fe34fU, 0x1136db81dc114221U, 0xf3220e40e39010daU,
  0xd0e9150c05ff0326U, 0x11c2deba7fd92004U, 0x531433eb02b36e31U, 0x33d7f70542b12c2cU,
  0xc6f6d1ca1500c2cbU, 0xaec744f411813dd4U, 0xd9fc15cfa4a412a1U, 0x3d03a5a508f910f4U,
  0xc5810508ea10034cU, 0xe6bf1fce2d60d5f6U, 0x421d925d16d42fc4U, 0x212e1d8281ba0123U,
  0xbe4edeecc313e03fU, 0x30d153e4f47f003dU, 0x345fcdefe6e125caU, 0x4df20620e7e509ccU,
  0x8191be9feb1205ceU, 0x2b02adfe28e52307U, 0x4e32975ffaefc228U, 0x81ce9afafcc4140eU,
  0x374fbebec1a00104U, 0x5e5cd218199801e9U, 0xeeaeb97f1b9bb960U, 0x494d01fb1f8624f0U,
  0xa45cb9f6e5018a47U, 0xd6c0123d78362bd6U, 0xc2c620a07f153024U, 0x52d8f72dd4ead3feU,
  0x5295910044f0e84eU, 0xb6da3ca4816119e4U, 0xce31811639ded51fU, 0x8f2721c317f0191eU,
  0x100f98be2a15f3d8U, 0x253449f845e1e543U, 0xc7f11fafc5f22335U, 0x3830a74eabc7cb0aU,
  0xe4f0cd6deaf7812bU, 0x40fdc987de401a3U, 0xabf833feba95e3b6U, 0x3ee18304381dae2U,
  0xc63a08812deecb0aU, 0xecb4424119bd45bfU, 0x7352dd8188fd0d5U, 0xbc157fe6ce6ea01dU,
  0x1819cdc600f9eee5U, 0x1a03e64af0edb515U, 0x222222ff03a193bU, 0xc4ade622c2812200U,
  0x6063e71ad050d20U, 0x2ee2540d1d07f8f6U, 0xdb11546e514d9faU, 0xc2e0dd8826287fc4U,
  0xe1e41b60b410fefcU, 0xda5f9ec381f227f5U, 0x48bacb5b373c78d9U, 0xc01265c46994d205U,
  0x4881c00c1adab60dU, 0x27e4a103d82aefb7U, 0x9d1f7f075344b730U, 0xe804e8bd34dfc450U,
  0x517f621dd1bd2dcU, 0xaafbb2dd7fd8200cU, 0x193faae04de4e732U, 0xde2dd6cf14091bbfU,
  0x8f2440f561839300U, 0xcd9e81b49ad9a327U, 0x53d930cb0bc5bc0fU, 0xd919256f7f05f6f8U,
  0xe72aabffede6695eU, 0xc3b54d393ff998c4U, 0x1c58df6b58d6943aU, 0xa821fce9d5d47f1bU,
  0xa608e511eda48caU, 0xb693f3afcc24e0ecU, 0xedae16cbeaa89f81U, 0x28cf2d23c8244cb4U,
  0x23c21601731a003fU, 0xf765fb16cde84cdeU, 0x114827fbd381b1b2U, 0xf7e6f7814cab2b29U,
  0x3deac90cbb90cfa2U, 0xf6545fdf3d2342e7U, 0xd1c5d2ccac2614d4U, 0x2181b2210af6eac4U,
  0xb113cf02f094be42U, 0xcff725a0a560dbfbU, 0xd60cc3dee8328117U, 0xc2ad9c2ead55044fU,
  0x87ff2e8326dc25e6U, 0x3ab72013518111e6U, 0x1bbc412e2f01ce3bU, 0xd60fdf32181031fU,
  0xf41b39da24fe02e7U, 0x10f527e3e2cfa937U, 0xde104d0152b9f4bfU, 0x3dd730685881ccecU,
  0x2741a403dbe10bd9U, 0xa819ddcf40f62321U, 0xc2ca8b2f7f89c90bU, 0x2ec11acde4582219U,
  0xcc23bafbcce50eacU, 0x1081033561ebb0fdU, 0xe3408c3810132944U, 0x9a047a5523bc4c11U,
  0xc1cad4d817c78149U, 0x11e0d1b3abb5f95dU, 0xaf4a23f819093a4eU, 0xb5471d2c7fd3e346U,
  0x39b425d42107244cU, 0x4adb479e472e9b0aU, 0x49763754e9933134U, 0xd6ce6a04f9811139U,
  0xe020cb2b1d902bf2U, 0xd1ee525265d37fd3U, 0x9142a31de4ff950bU, 0x2dcfcae97f7c6ce6U,
  0x86fdfde901075bceU, 0x5153c6211617dab6U, 0xd42e4ac0faf236b9U, 0xd8e599cb6081f556U,
  0xf8f622d83f21e0cfU, 0x3fe9d125ff5bec09U, 0xd902d0fd81f4fad9U, 0xc207f6a827070219U,
  0xd20dc4225c0e1e6U, 0xe87fc6a0f8f73be6U, 0x45fe5c7f0ed1a5c7U, 0x74c0ef8e64ff39f2U,
  0xa4ee33ef47075838U, 0xde10c9d9f8a4e6bbU, 0xfa25bcbde0eefceeU, 0xa128200332ad81d8U,
  0x1e2687e204d4074aU, 0xf80fb39a7feb2b1dU, 0x88870515d181ecU, 0xf13c174af0fcffb9U,
  0x3ebf0c395284fc3aU, 0xa6cd3e77fe4154dU, 0xfa4b595ce60bf9c4U, 0x5a505f770b145d7U,
  0x5430523f81ed54aeU, 0xf40f1e6906044bf1U, 0xce2a640c7f4626e6U, 0x73b57ea16c30925U,
  0x8b0d1110f270a05U, 0xbfdeaba669409ac5U, 0xd1dc81fb61e4f5abU, 0xd929633dfbe742d5U,
  0x301cd9ea82b716d7U, 0x26e569d4a3f97feeU, 0xb2c1c9902e5255fU, 0xd4db720cd032c838U,
  0xd87f0b95b75549f8U, 0x22421643e3f30a48U, 0x60701db7f06e423U, 0x40a294e0a17d8adU,
  0xc4d381d01cac14ffU, 0xb83d240328189f50U, 0xddfe40626b1303bU, 0xf4eccf7b1bec51b9U,
  0xde32d81c7fc608fbU, 0x3ac8e0010ebbfa04U, 0x19d1be6041155417U, 0x203bf205662f3bedU,
  0xda9cc39e8e2f8e2U, 0xde3ab94eda7f4334U, 0xcfe81881262cc7baU, 0x216d620fb0740bcU,
  0x3daa50c114d22007U, 0x668df044d7fa39d8U, 0xe07f2603db88d0adU, 0xed4ed5e695208ec9U,
  0xd543317fb80cdacbU, 0xd01bf6f8f521d30bU, 0xe60a1369f0b4b701U, 0x2abe32a1ae26485eU,
  0xd4f2675281a06e11U, 0x3ac4c1b110271eb3U, 0x9dd55b9d3fb5d42eU, 0x55ae5382081253dU,
  0xc504c666d5320b1bU, 0x81d9151429c60c2fU, 0xd5d52ce7b4da0a24U, 0xefc75b2a0fc3ec35U,
  0x145d442aee56ece8U, 0x3781900019d0f142U, 0xaec8da752e58eda1U, 0x83bee4c37ce20104U,
  0x1dac41dd781c522U, 0xdc5d34add2c30ca3U, 0xd9c2ab2381393854U, 0xc7d2adacfd3bb5e6U,
  0xa31502dcdbc5U, 0xa0680000afa1U, 0x81cc0000afd6U, 0xc1e700009003U,
  0xcb0100008597U, 0x95000000b4f3U, 0x86f8000066a8U, 0x6e1b00006aa1U,
  0x867b000073efU, 0x9afa00008b2eU, 0x9cdc0000a641U, 0x84b80000c392U,
  0xc11a000091acU, 0xcab3000049e5U, 0xa71900009724U, 0xc2520000c087U,
  0x9f91000075ceU, 0x70e200009a53U, 0x98b800009402U, 0xb2110000a35bU,
  0xafb10000b4efU, 0xa6780000b2a2U, 0xe05b0000b076U, 0xb1f2000087daU,
  0x80840000c2adU, 0x8a7200007a36U, 0x6b1c0000a3b9U, 0xa6ba0000a78cU,
  0xccf30000a22dU, 0xa41800008b97U, 0xa7100000e5ecU, 0x7de80000a1edU,
  0x7b6e000093aeU, 0xb98300008b5cU, 0xa9930000877fU, 0xe9e8000087edU,
  0x58580000a18bU, 0xc4d70000794aU, 0x75960000a255U, 0xb14200007f85U,
  0xa3c800007eb8U, 0x934300008e66U, 0xa48e00008a28U, 0x77f300007d79U,
  0xf0cc00006ba1U, 0xa947000099deU, 0x898600009b29U, 0xafa60000b8cdU,
  0xa619d2230000cca0U, 0x4f21b5e3f5f655e1U, 0xb6bb40e2ea3020cdU, 0x1539d4bef6ddbed0U,
  0xca4bbfb9d43883e0U, 0x10311411dfd8050aU, 0x43b4624c7c6c8dbU, 0xf825b4c52dd2ef39U,
  0xf6d2956df60104c0U, 0x1ed8dce23e21bbf2U, 0x25d0c7e0ad924028U, 0xc3ad0ceafc2a7fc3U,
  0x6d1cb3293113ddd9U, 0x39c2e11bf52deff9U, 0x5303165794b0d4c8U, 0x5028080ff2ca490cU,
  0xc548c511eaf246d5U, 0xd0eef128204fbacfU, 0xcf0b2c9a3af7960cU, 0xa5cd2ee5cdf613feU,
  0xad1afb052ae80127U, 0xe781f4ec3a3b16fbU, 0x46260acab4450a0dU, 0x810b9dd8ef12adcU,
  0x3604ec071ea0261eU, 0x205195467d7c342U, 0xc728e02b32e90aebU, 0xdaaf38f7eac00eebU,
  0x57daf9449a390411U, 0xc5fdf6bb4faa2bebU, 0xedacbdf826b136fbU, 0xe51006fe09db01ffU,
  0x57d424cdd6c6eef9U, 0x4454b6b6fcadc2ddU, 0x313ff8ece6f2ffabU, 0xa4812b001bf930c9U,
  0x7f1b33f2db2e60d2U, 0x7c238cd0c0acf29U, 0x40ed866e6c8e3d4U, 0xc73035337e132558U,
  0xe18e0c4ebe7f091U, 0xe83eac480ce413d0U, 0x45f13daf16e0e1c6U, 0xea17cc184b632d10U,
  0x1ff23ae235d9fadbU, 0x49dde82cd8c22329U, 0xddfe4ea9f24e4ff6U, 0xd03a24c100d8e5e8U,
  0x335a1c162620d8f1U, 0x9403d4f0630e22b3U, 0x4910571f0220aebdU, 0x162dc96a154538f2U,
  0x944dd3d0d3ad5e42U, 0xc83bb5bf38fc35b8U, 0x18b29afab3ddcaebU, 0xda54e3ef9515f6feU,
  0x4ce34b0304350cf5U, 0xec4444b765b63bdeU, 0xccece945941144a1U, 0x65a34637aacc40caU,
  0x11ddd2e53c197f24U, 0x6335e2be1b25134fU, 0xaf20d2181bdc11d9U, 0xb7d442b7c13705e7U,
  0xe9b30409bb2319d0U, 0x14c7162b1002fee8U, 0x161cc3d635380f29U, 0xc1332332bd10c3eU,
  0x22f1fd81e10f4af8U, 0x3aefda40d80a3216U, 0xd4fe262c163aeabbU, 0xd50a982230481f01U,
  0xdfb9fd27c7d28c35U, 0x2ee6e4e2f9de321dU, 0xb5dfdfece7440a38U, 0xca1b7f1105e34afaU,
  0x80806d43df634U, 0xbfe30cf7ee1ffddfU, 0xb6f5cb39e4dc0206U, 0xc70e19d20224fcd7U,
  0x2de3f7ec13351718U, 0xa02ccce14ff0220U, 0x3fe2f2f02cf6edd8U, 0xe8ebf7fa244627d6U,
  0xfb2060f60dddfadeU, 0xbb384ee4a815473aU, 0x3312812409e90133U, 0xe3652b0121d23c0eU,
  0xb3cd4c46e10fd8d4U, 0x33200f4ebffbae46U, 0xcaec2b22121cc7cfU, 0x1fd1a2a001ccf1e4U,
  0x4d2e021cda22ff39U, 0x220be8b8b7d771adU, 0xa11eed4c242d0f7U, 0xb5c42cfc1062c65eU,
  0x5e412705fb01e20fU, 0xdccae6bfd740c6beU, 0x41c100fc4852d5bbU, 0x133f9055be41b420U,
  0x246a04c633df19b2U, 0x32d8ff036514cd01U, 0xd621a6a8eff2f1c7U, 0x5e132f60f56fa49U,
  0x38c6813c1303de92U, 0x2a0a4cdad6cfee0eU, 0xda4cecc8cd047132U, 0x38e04f21e2ab45ebU,
  0x6195c0602e08e3a3U, 0x719ba443d465144U, 0x2cd6cbb9122ab5f2U, 0x1c43f513ea885653U,
  0xc5080e003ee15ec9U, 0xea2750df1efbe5cbU, 0xbf2681e7d4dc51c9U, 0xe935f0b5160633b5U,
  0x19c2a549d72cf301U, 0x3802b29206fa32dfU, 0xd1f42944a1c62c41U, 0x9b23dc1b9e36a909U,
  0x2df5449f182104e9U, 0xb6f4e2c3e1080aU, 0x4eb6e6fb55b1629fU, 0x2b2fdb131853a499U,
  0xa61bf5000eb0dadaU, 0xd8dff9c9e915c5fdU, 0xccfe0b0a06e5ecfdU, 0x95071a2ab607e5cdU,
  0x6737a1591238ad32U, 0x21204311e4591a7fU, 0xf1e438a661fda1f8U, 0xbeed31fddff40cd8U,
  0xb3eaeed44ffcd2b2U, 0x3338caf64cf24dfeU, 0xd4b647812831f9caU, 0xa4c2bdc6d0bea72cU,
  0x18fb240500e12837U, 0xc321e011e817fa93U, 0x42f8f1c8d6a2e238U, 0xa421c529cd1d3fe2U,
  0x37b8dd2d00da274aU, 0x100ed8ad3600f803U, 0x39d6c3237a4bf319U, 0x2b18fef743ace222U,
  0x26e31edab032133bU, 0xb104ede1b8d65b8eU, 0x38d6c90c2931f5f0U, 0xb8f08f2d38e3f9e4U,
  0xb008f3c0d93903e8U, 0xefda1bf214d703e5U, 0xf546f7c3ff092205U, 0xf5d111d5ceac3badU,
  0xe7f00c3010d6c4ebU, 0xe49c1c4ed2bce0a7U, 0xde4e2c2e3c1d15faU, 0xe75293a8138145e9U,
  0xf0222cfbbc1cadefU, 0x3b05dbe9d4be22d0U, 0xc13e235c6c732abU, 0xb0bcc8c16cd3d2e8U,
  0x28cb4815fc01b041U, 0x3b124ed61e121f2aU, 0xa2254f9f3f3e03aU, 0xcc1e56ca7913b167U,
  0x9d32162fc9c0069eU, 0xe42f1e7fc6e7bcdeU, 0xf51cc934fe0ed143U, 0x633d7ca37c6251eU,
  0xc6940400a29220bU, 0x4625c24d263d09d6U, 0x40a7f1cb5d4c9104U, 0x492b8132da0cb620U,
  0xce9ed331f1e21b17U, 0xf0ff085c10f4373dU, 0xbc363418e0321554U, 0xf2b04019e9d403c8U,
  0x5d96b65d94cdccd1U, 0xcfe3c0df946163eU, 0xf234de231bfc4c64U, 0x53161c5e5dd5e30fU,
  0xd4293af9dbf0e704U, 0x251bed04db232127U, 0x1d3826230609fc25U, 0x3945650bf4fd220dU,
  0x243df4afd724f2c3U, 0x10831f90904e9ecU, 0xcf4cffbb10d80612U, 0xe4f017b9e64ceaf3U,
  0x23c050fdbfd17ff0U, 0xd1a52ee905690e40U, 0x32352f21f6011c1fU, 0x3bbc5002d02cffeU,
  0x1dfef2ce01c6U, 0x1633ffffff34U, 0xfffff8e3ffffee99U, 0x98d000004fdU,
  0xfffff751fffffcc9U, 0xd00000a49U, 0x169a00001901U, 0xffffe5f7fffff49fU,
  0x298b94fffffeb01U, 0xc181d8a3c3c09ff8U, 0xc13bff257f5e0a33U, 0xbdf569f4c9487faeU,
  0x1f38b1d65fde2419U, 0xf633d37f30089816U, 0x23c0c1355e574efcU, 0xe241ebe4b6f3bdc0U,
  0x8ccbd33d7b7f0ab6U, 0x9f29a4aaead144bbU, 0xf91cc9f7c207637fU, 0xd835e21d15dba932U,
  0x12fbe47781c3c5beU, 0x49150ed72d05408aU, 0x1431f281bc813a1aU, 0xf516ef1ebc9d622U,
  0x462ff8ffb44bfe22U, 0xb8e9ea7f2196e722U, 0x8115601816a7c006U, 0xf3f23da0f4a0be7fU,
  0xf82091a7c178eb04U, 0x39d5815e36447dbcU, 0xd935b6f0314227a3U, 0x2f9e60be530aefafU,
  0xf2d9bc584ec07f50U, 0xdefc387fbb31b563U, 0x81d2f123e2f1132dU, 0xb91c2ad5f50bd49fU,
  0xc1d8dac5bb2c4908U, 0xfae6dbec0beb8163U, 0x66c49e94bcd6d04aU, 0x814518c1cbe57da3U,
  0xda0481adcb9a9cU, 0xb0f257b1fa17c739U, 0xbbe18441b2ffdef7U, 0x7edc818cd9f05dc5U,
  0x8100ab49d9ff4a28U, 0xebc0a540fcdfde0cU, 0xbb58ad240a1d102aU, 0x10df05e3b76050ebU,
  0xf90854901d0c5381U, 0x1a09214a28432c32U, 0x46d1c36dc23e81e8U, 0x460bb529814966a0U,
  0xc431227fe28bae2fU, 0xd21b2e3bba60feaeU, 0xa686893fbac737dU, 0x2b27c181f86b3c99U,
  0xdd356c3eb2d0bfdU, 0x6f24ceceb77fd7U, 0x1224b27f2c2ae724U, 0x4b1a8b11942fbbcU,
  0xaeee1d31c5f8f065U, 0xe7f07b43dc7c4e2U, 0xf1be0bd1b951ecc1U, 0xf581ef3a39d02834U,
  0x1d6bfb00c310f6caU, 0xb9c924e740fa6e9cU, 0xd5dcb9d6f3fe7f0cU, 0xdb1924b64e7fa1e8U,
  0x700c23422f511d6U, 0x53fa528ead493983U, 0x2fbf812925a21281U, 0xdcf7afb3465b47bdU,
  0xd9a7f7b70cf34c2U, 0x2047b6ca2f710231U, 0x399f7f2452bcf3ecU, 0xb219fa57be5150bcU,
  0x81d6d67c9af4c17fU, 0x382ff948047e7290U, 0xc240f80e22cad963U, 0x4067d3cf3c5750aeU,
  0x7f31d5d0e7814ba8U, 0xf78da6ca9c1b5744U, 0x5a29291e33d4fe22U, 0xd17dd04dd3dcc626U,
  0xfdfa2ee2027fc316U, 0x81cec592eebbcf56U, 0x8f9cddfd3dbfd83aU, 0xda81e051731d3792U,
  0xd02302264d0ce1e0U, 0xfb351fc6257f2d9cU, 0x3e290b3d73f1dbcfU, 0xb40b7db98153e2e7U,
  0xec57e9ada4fd34b4U, 0xf4a7034cd96526e2U, 0x9804f104a97fe6b7U, 0xe8e2dd39ed508164U,
  0xcb8118281f3be16aU, 0xa45edae22d50d4d5U, 0x3be27fd02123feb5U, 0x47413572b5f40e95U,
  0x1a1f9dc67e49ec1aU, 0xfb1d1ce31787de7fU, 0x8179ce0a7ba8b4d1U, 0x4c191ab877f9dbbeU,
  0xf1b0f3383d48bb16U, 0x81e6b04e423346e1U, 0x84a55e370d6bf1bU, 0x3f81019e0abcf57dU,
  0xd4439349f52d963bU, 0x3848e0e0cdb17f14U, 0xa40e1b0b7c3a930U, 0x319e10730caf1d9U,
  0x7fd1070d334d257fU, 0xc9defef425c90ad2U, 0x3141cc603dd61ae9U, 0xc32a28d31c1f4486U,
  0x1e19ebfb538116aeU, 0xc4467f342320f22cU, 0xd7648103b705d5d7U, 0xe6e233e2ef29bdf7U,
  0x81ec375f4ce0fed6U, 0xf4a355c7f10c7094U, 0x8fa6de969aa450c0U, 0x351c2912c23bb73eU,
  0xdbd7b9818e7f4f72U, 0x2df1d20dd4c1554U, 0x2f03250ed4e2e4a5U, 0x2c2c9c453681adeaU,
  0xcfe631f0d2132d48U, 0x393c81af10f55238U, 0x9bfe8129f12364cbU, 0x3bd9031cd33a2ef9U,
  0xb456a378c049fd5eU, 0x376ac9bd3ab705aeU, 0x10671ab4ef5e647fU, 0xc5d53c3bfdda4cf0U,
  0xfffffe49d47f9765U, 0xfffffe1f000001ecU, 0xfffffdb100000155U, 0x9afffffda8U,
  0xfffffff4fffffeeeU, 0x22efffffc26U, 0xfffffd0dfffffefdU, 0xfffffe50fffffeffU,
  0xfffffd7700000245U, 0xfffffe97000000faU, 0xfffffc610000036aU, 0x1a60000023aU,
  0x3100000029U, 0xfffffd6200000012U, 0x1c5ffffff4aU, 0x22ffffffdd6U,
  0xb4000001c7U, 0x2bffffff0fU, 0xd700000209U, 0xfffffe27fffffee9U,
  0xfffffc40000000c6U, 0x6400000067U, 0xfffffff5fffffd8fU, 0xffffff6b00000021U,
  0xffffff4c00000030U, 0xffffff24fffffdfcU, 0x1dfffffff54U, 0xffffff660000023dU,
  0xfffffb72000001c9U, 0xffffff19fffffd03U, 0x68ffffff75U, 0x14100000145U,
  0x81d0a1e4fffffe14U, 0xc931eec613da0920U, 0x367ffd2884fec61fU, 0x5cf4dcfa08f101dU,
  0xeaea25e8bbb81b81U, 0xb6eaddea64c6c502U, 0xe194a4d30ac3011cU, 0xa4be1f9f1cef924U,
  0x9ae6a5ccb74ead4eU, 0x154dbad247fe102bU, 0x1f731a41c27f9d1fU, 0xe3207fa8cbe20767U,
  0xdc1b28acb1bf108eU, 0xc69405a72a9e9230U, 0x1fe7fce85ce0120eU, 0x4bf9c9b2deedd825U,
  0xb0edbdb4937ff832U, 0xbee5c4c87fdbf360U, 0x2d462d56c45fbcdeU, 0xe0e345d2bd03357bU,
  0xc56a3aa7dacae6baU, 0xa79303957fa8ba2cU, 0xefca3d092fbf6a12U, 0xfe01eee00819a630U,
  0xdbf7b8c2816cfcfcU, 0x23fae2ca6701e037U, 0x3267f3158c57ddb4U, 0x20fb1afca3455e25U,
  0xa2e062c3f013fac4U, 0xa4c109f71d86bf1bU, 0xdac61890b3ee7f1fU, 0x3a7ef9cef6f9cd45U,
  0xadd8d2c99056c401U, 0x2581d5ac2f0b153fU, 0x202f0935ca6be5e5U, 0x1ee050fa6070d3aU,
  0xa0d07ff7130803d1U, 0xaff2e84b0881191aU, 0xd41113c0c8c33923U, 0x2d69d734003cc759U,
  0xdcedf31d840bd803U, 0xaa5add010b9df407U, 0x493d0239d161b318U, 0xc0e115e281aebc25U,
  0xedc2fcc39312f3a5U, 0xcab7ebfd0b8eb9bbU, 0x8194e7a50e17d6eeU, 0x26eaf5aceec90b3cU,
  0xfc0637b921edd244U, 0xff29f5b0ecb6fd3bU, 0x1407477f9b6d1a0dU, 0x9dba33b3ea92d529U,
  0xa1f6e7c047ed080dU, 0xe3011dfdde81dfb6U, 0x26e7e5ac24d316f6U, 0x21580aa820bb433aU,
  0x30a70cd1738d954U, 0xf5e8cebe1dba197fU, 0x56304e67b240e5d7U, 0xe5cf1ddef404037fU,
  0x817f21b94ba8eedfU, 0xc27f7f61dec1e2a6U, 0x2881fb8424d915f5U, 0x50a023d50ff0316U,
  0x715d0f2eb150c2cU, 0x25aead8153540b3dU, 0x333c454abe1ff4e1U, 0xdda405e5cb7fe62bU,
  0xaedd4d064f05e7ccU, 0xbded1629ba9f20ceU, 0x23cd7192d0fa60f0U, 0x1a2ce2030311de52U,
  0xfc07eb8ad828fc27U, 0x3b96099d360ff34cU, 0x29f05460f144f6eaU, 0xdcba0ab7fc144c11U,
  0xcce60cdaf90ddc82U, 0x9db4da3dcecd1af8U, 0xc5e57ff0e0e25a00U, 0x2e49ea20fc33bd7fU,
  0xf80bae33f639ef4fU, 0xb541e906cda04b23U, 0x671d3bfbe029ec1cU, 0x9a130ae39abbe619U,
  0xfbb4c2fc81e5e0b5U, 0xbd94d36abbf6c1a8U, 0x96b5070b096cc7e1U, 0x69f3815c031a02U,
  0x62c77012f135f14U, 0x8e3649c0aa9b1135U, 0x60f501e0a2b3a39U, 0xebe411b834cdc0ffU,
  0xfbfddee005fee0b7U, 0x17ccfc6abb38d4c3U, 0x5cf8e29c3f7f28deU, 0xd57fb5d430b821c8U,
  0xd97f6dfdfa0e6b01U, 0x81ded4cd99f01465U, 0x54107f01cbe8513bU, 0xcacc04a4fd03db24U,
  0x52aedfd30c4ea05U, 0x50f43d7ad3250a81U, 0x13bb34c2007f11e5U, 0x1a58a84d3fdb5effU,
  0x62bf1211dfc7fb3U, 0xf0e1e9ebff4dee04U, 0x78f95324fc057ffeU, 0x10dd10af2876e100U,
  0x1ad7e5e52fadeafeU, 0xffdd0c68e92a388eU, 0xa7dd3eedd1532cf4U, 0x3f0e81762868d527U,
  0xf33781d0081043d8U, 0x268a12b4f56e0c2aU, 0x20f9401cf006cae8U, 0xdafd0bc7694b20fdU,
  0x20e2140ee100e801U, 0xd8820051231425cbU, 0xd7163904d0562804U, 0x284ee70d44728122U,
  0xd8e5fa2af8fd71bbU, 0xf2cc3f0d29ea2d0cU, 0x7f0bf9efdf1b2645U, 0xbd7f180adbf42d0cU,
  0x2216d3f4c911baabU, 0x81b8fe2925ac1eb5U, 0xccc81bd81ff9e981U, 0xf313eeadd31035fbU,
  0xa2066213412f6deU, 0xe8f96d34d4bb480fU, 0x6feedf193fcbd64U, 0xae67ed0a4f23eee9U,
  0xe33b81a041acfe3U, 0xc5bc19db27cb528fU, 0x689f7a9815bcf894U, 0xf845e5206be122d6U,
  0xec4123304aee0501U, 0xc1a9550ddcb8001cU, 0x3eec32fc97b5f652U, 0xd054e9a7230e3a0cU,
  0xda04d32e38e5d1b2U, 0xee730f3f01ee48b9U, 0x23a867a2e8bfe79eU, 0x5324db5c294811e6U,
  0x928ee202b3508e1U, 0x1de23936fcf10eefU, 0x1817fa0092940921U, 0x81ba12d54efff2f2U,
  0xfc9ad83efcc9e4b3U, 0xb80b06dbc8d525e0U, 0xac14b81a6f701cdU, 0x7f19f8526760be0fU,
  0xdc118bf939f906b6U, 0x43c501e6007fc905U, 0x432df408e7ffec04U, 0xd9f2ee9450f14405U,
  0x42f6dd2a0be8e690U, 0xe1dd0953f6e77fb9U, 0x26c723d3a7d6deeaU, 0x2544f8ed490d971fU,
  0xc30719540f211288U, 0xd7c5712450e73e06U, 0x40331ce4811a1258U, 0xf848fc04b6262efdU,
  0xff1dc7f319f8811aU, 0xbaa6f2e22321e9fdU, 0xb3bfbfe2dbd6ef9cU, 0x6c4f04cf5c3d37eeU,
  0xda0d697fe722ea1cU, 0xe2167f2d20e57f0bU, 0xcb1829eac9ce377fU, 0xe7baf5bf4df13cf0U,
  0x942ec230490fcacfU, 0xbff2d78be809edd5U, 0xcaadd7ebe1c423acU, 0x354401457f1a67f9U,
  0xdb00325f1e0af6a0U, 0x9ed52d1911017a03U, 0xfe063beed0d5f448U, 0xde8208df04dd42e4U,
  0xbd28c53db01debaaU, 0x96b4f381dec7fdc9U, 0xdce5e4c913c747a4U, 0x3929097b5739dcd4U,
  0xd8fdd544da07c684U, 0xc422f7366ada7a07U, 0x291808daffe8a823U, 0xf59cfba422ea7ffeU,
  0xd0eaeb5ca2d5f9a4U, 0x9f8b02b7bfeb19c6U, 0xd6a59ed581e218c6U, 0x3a0f1836227f8deaU,
  0xf4fd9c37dc22bc81U, 0x9e22940341872e7U, 0xeefc14e634e1ba0cU, 0xe7dee48128d83f02U,
  0x36d4df7fd481f1e2U, 0xa59f1ca00ae048d1U, 0x12b5ca21c2073afbU, 0x4a511df5444ad502U,
  0xfffff9cfecf3dfcdU, 0xffffef76fffffe13U, 0xffffe0c700003589U, 0x476ffffdcbfU,
  0x1554ffffe178U, 0x10fafffff47bU, 0xffffe72c00000850U, 0xffffe60200000657U,
  0xffffd89f00005714U, 0xffffcce0ffffd893U, 0xffffe71dffffd254U, 0xfffff8eaffffe236U,
  0x5401fffffd0fU, 0x8bffffff4a4U, 0x480200003ee2U, 0x18e50000157bU,
  0xfffffc6f00000084U, 0xfffffeba00000807U, 0x5543000019b7U, 0x32d3fffff571U,
  0xfffffd04000001e1U, 0x4fc1fffff6eeU, 0x224600005e48U, 0x140ffffd491U,
  0x371200000e00U, 0x435cffffe8fdU, 0xffffdbaf00000831U, 0xffffde0000000465U,
  0xfffff404ffffb817U, 0xffffa98b00002295U, 0x116effffc966U, 0xffffdf5efffff7c8U,
  0x18bc152100000b6fU, 0xe616382a6244b3f1U, 0xd3a9e9154b0a39bdU, 0x81324df23257f5bU,
  0x1b3be1dbdd2025e1U, 0x22e46a58face36d6U, 0xebd00ef9c0d9d3ceU, 0xf4f42f340aec2286U,
  0xb3985eed4716b441U, 0x2461af90b78cf15dU, 0xe2bda5e282c587a0U, 0xec9dc4c933f4921eU,
  0x343122323de3dca6U, 0xe28e9c3da02dc130U, 0x1387d15089053118U, 0xdf46814f5d39b79dU,
  0xbf13f99e97e5b232U, 0xacf3c2440b35fb1fU, 0x1a3393af26ecd2fcU, 0x2405afd4b4f248f2U,
  0xb9ae0b681ea2ac7U, 0xf83ecf05edf99a10U, 0xdcfd36f94b3c12e6U, 0xa3e8b40a10d1be1bU,
  0x392fb3e4b9d29acdU, 0xf05e2d104fcc5c19U, 0xf93a4658164d4105U, 0x1143dc76f3fee26fU,
  0x7fdddfd9be450024U, 0x77f2f008eb1a401bU, 0x136b054848764253U, 0xc74f0f3cdb0da901U,
  0xa6000d23fdf7bb0dU, 0x2d8263aeabc1714U, 0x433eb424b090c63U, 0x751cd4da3ca9f5c6U,
  0x53ad4da19072d96bU, 0x554eec09c311f6d5U, 0x4b01d87f1b4b1f4fU, 0xd1f9c8dadd393764U,
  0xcd938f63130e4f8U, 0x3a0f44f814df115bU, 0xf810637d3a56b7cfU, 0x87ecff25d9dec9d8U,
  0xe5c60911f35a407fU, 0xdd4d2bdbddce1a1aU, 0x3c4e2c4deee417fcU, 0xfb6228ea47e9e108U,
  0x14d1f3f5e300de1bU, 0xefea40f71f3a1517U, 0x3fe84c69c9d2f4edU, 0x9afbce62362efa7fU,
  0xe03ddcf72d15c51dU, 0xefc7e1baf1c6aae2U, 0x20e664611d4edd07U, 0xbef5eb50ef5bf4baU,
  0x5b060af135e2c8d5U, 0x4708811c2319cdceU, 0xc33a12e3a99ac8fdU, 0x1f8be6d11ffb6d53U,
  0xa26b53fec207c2e8U, 0x1ce9cb3731021120U, 0xbc10ebc0c5320cbbU, 0xaa5d00188618e7fdU,
  0x16c71a1de554ee1cU, 0x3209202aeaed5945U, 0xe60b59d826c2a936U, 0xcd9a572f0998ffe9U,
  0xe91c1f35af2cea76U, 0x3be7edd02903ebe8U, 0xf9162a16e80067d4U, 0x1e0e243404b0ff34U,
  0x3a22cbae815d30d1U, 0xcb813ae997c53e9aU, 0xa83d4ac4f08c6b6bU, 0xf304fbf967c627a1U,
  0x97efd894a4f8a7dcU, 0x4ee29d39c0060fa1U, 0x181a10dae412e29dU, 0xc09f96ff4eb7329bU,
  0x45bdcd0951e1c8a7U, 0xc0a6170e51c62c08U, 0xfc00ea3cff39f0c7U, 0x8d3a20cb725d110U,
  0xf19bf1cbab1a11abU, 0x2fc3dac4810f2745U, 0x1151be0fc6dfd027U, 0x9f34dcd0b635ca1cU,
  0x6e8116e7cefa26e2U, 0x114209edc957c74fU, 0xe001630313e631b1U, 0xce0a5cf748f9146aU,
  0xa273202a74f42eeU, 0xb736afaf99e68e25U, 0x322adc2fe7c423d2U, 0xcedca1b92828fa0aU,
  0xc01adee9e6032938U, 0xde15337803c85d0bU, 0xb1e2ad387b35e57fU, 0x2ae1edd09c134e0U,
  0x40fae3bb9f51045aU, 0x2339d42deda61edU, 0x105bf30c0629195aU, 0xd2ecc9afd51ae303U,
  0xe4e0b36d3dfcc11fU, 0xbbbdbadfcb56bcd7U, 0xbf522af636b545aaU, 0xfa160f2cbe55b139U,
  0xec33d4503d819d1fU, 0xa63a131fe3a7a910U, 0xa9eae6d8f52df4c9U, 0x83ad963b2eb9524dU,
  0xfa41d330f5cf37b6U, 0x1f12d2e956105644U, 0xc8bae3671a6b3139U, 0xb3f2056ef3e40f7fU,
  0x49de314bfdcc4f57U, 0x406a9a25060f1c1eU, 0x18d9444b0a1d12beU, 0xb255cf9e21e63732U,
  0xda198881fb0bd3cdU, 0x89811c8b0d3657dcU, 0x9b9914dc15fcbc25U, 0xd89134d6c398054dU,
  0x33ee462cf0d3b5d3U, 0x858e9ec436019c08U, 0x38204237dac89ea7U, 0xafadd4c21f712203U,
  0xf010192bU, 0x0U, 0x0U, 0x0U,
  0x0U, 0x0U, 0x0U, 0x0U,
  0xc70c01b600000000U, 0x4e24c8f6ffc5fd1aU, 0x44e3aa13db1fae7fU, 0x4bea09f27f173f5dU,
  0x101ea1ad537e4f3bU, 0x927f29715dbde654U, 0x30addd2368eac4c5U, 0x7f6032f851fb20d8U,
  0xe550d57f5d70a3b9U, 0x26e624082b3408e6U, 0xb79f287f3d5537e0U, 0xcabd0161d4582e11U,
  0xc2642bc3c1db528U, 0xda2d4461421b8159U, 0xb91f971ce9db012dU, 0x3d785a7581ec3611U,
  0x817226a258d4c7f3U, 0xcd99463115a0e398U, 0xd76e40b234a145a4U, 0xe718262fca4427d9U,
  0xb4dd2a9adb81318aU, 0xe91f234f1912319eU, 0xecd226e88125a942U, 0x8b1148821eb4af81U,
  0xa8d5afed2e106b9eU, 0xf8e724f2cd7b0d81U, 0xfdc2d4d943cf8850U, 0x81a92bfd0ddcc7eeU,
  0xf00fe93fdbc00202U, 0xd1c6ba7fbf7869caU, 0x9fd0cd14349547f4U, 0x7fe709c00002f29cU,
  0x29c0dc0420e5ab91U, 0x4b48db19105f7fc5U, 0x51c521410347eaf8U, 0xf8a80d3ee7da6ce6U,
  0x9fe43d19f226c87fU, 0xeaee1cd289811df3U, 0x21e014c831935cebU, 0xe838f3d4dfe57fbaU,
  0x6eff738ea6653f8U, 0x6d2b22ee6d5d72bcU, 0x8137b0f098d681afU, 0x61b3f4456d24baf2U,
  0x6cf0073d352ffdadU, 0x7766637fde49d80aU, 0xeefad4b7a103ee2bU, 0x37e194d41c037f01U,
  0xe8b74774c11614faU, 0xcc355c6d5b111b7fU, 0x3f07fbf6f838626bU, 0x214290d90a7f22f3U,
  0xa9c51f81c06c6f1aU, 0x9dc55db0f6eec04U, 0xb9f5d4eced172ce3U, 0x81df15f2398f99c6U,
  0xebc22a7fe6ba2f04U, 0x1054dd1185cd31eU, 0xa2fad8071b4bf419U, 0x5278961fb87f2f6bU,
  0xbeb99f362ead24d3U, 0xfad6402681051304U, 0x33d299d89487dc64U, 0x7f5d1838e7bd0167U,
  0xb8dde8ce1be6e973U, 0xe5f8168197f0af05U, 0xb75fd551d83244c9U, 0x2aec4dd38172e727U,
  0x26aa4a47f5c2be5eU, 0x61fd24cfff941651U, 0xff55f0a50138427fU, 0x6462c813fbce9a8cU,
  0xfccddb7fe7e9d581U, 0x39510fcd666ad3b8U, 0xf704fdc924fddbf0U, 0xffe7d7098100d1a1U,
  0xd8f7a91a0aab2ea0U, 0x402a22152b7f3281U, 0xa0f0903fd333e95U, 0x4ecffb1215d081a9U,
  0x11f1b1022689f4f5U, 0x1828e76ceeeb317fU, 0xa032f181cc690924U, 0x48d7553d25e80af6U,
  0x73ff3ab359ffb515U, 0xf3a6ac0e37f0e359U, 0x1edb307f327f179eU, 0x231f3996524fbe02U,
  0xa525f80f240f36d4U, 0x61aca774b67f95c3U, 0x8b30c8de52f2cdcaU, 0x1d24f8d4ca50cd81U,
  0xc5f367ff5bdd245U, 0x61ab67585cd7df3bU, 0x29bd7fa20afb0ab7U, 0x21ec532cc52872aeU,
  0xad085ce7f12efa4eU, 0x3917a5c5dc58c081U, 0x9fff32c6a6f6a411U, 0xc9f9b4ecea810aceU,
  0x7f4fb815b810febeU, 0xbdf94d178ef55ab3U, 0x6bef7ea7bc6330eU, 0x2281a72bf04bcab2U,
  0xa7be2eb0c2e016b1U, 0xe2070eb30681af0eU, 0x7ff543bf3abbe40aU, 0xe863e0572549435cU,
  0xc241d9d5d11be639U, 0xd6d8af7f85c91017U, 0x94b8412a9cd0581aU, 0x101f42c681a81926U,
  0x23b6fba5f0be5456U, 0xd16d572cf3d33b12U, 0xf10e1c34d120d57fU, 0x541e4327c681a0baU,
  0x34a3ce81e5bd302fU, 0xb73d021dc50eb6ceU, 0x1ea3b134ea8aeb7cU, 0xa81452ecdc51acdU,
  0xb64c3a811b11c5dbU, 0x2be3f8258b0425acU, 0xccf352eb2e37f002U, 0x8165de688b22eb1fU,
  0x364affe6d1258be3U, 0x7f9fe55ab82145b8U, 0xadd327e5bb1536ddU, 0xf87fcaa1e66159dfU,
  0xb4b15aa4b9e9U, 0x159920000e268U, 0xd3db0000f310U, 0xe9640000f3ffU,
  0x110aa00010afaU, 0xeec40000ee1cU, 0x129bb0000ec6fU, 0x160720000b2bdU,
  0xd42a0000d821U, 0xd58b000107c5U, 0x122a30000dd68U, 0xd4730000d186U,
  0xe81b0000e9f1U, 0xe9720000ffa9U, 0xb80b00007f5eU, 0x10c8d00014057U,
  0xce0c0000fb62U, 0x122820000eb3eU, 0x91d80000f171U, 0xc18f0000cfb3U,
  0xdec30000ffb8U, 0x102500000c4f8U, 0xfed50000ed57U, 0xf97f0000d9eeU,
  0xed32000152c1U, 0x1459e0000e4b7U, 0xc0100000ddf9U, 0xd07c0000d3edU,
  0xe91e0000d536U, 0xec3a0000dcdbU, 0xba3a0000ec7aU, 0x1004800011a22U,
  0x6324fd1d0000ee48U, 0x23fa6df0b33cfd23U, 0xa93fbdf33c72115U, 0xc8b01c5dad675db6U,
  0xd27fd12335df54a2U, 0x538f20d9d1e14645U, 0x15cb71e8c4eba246U, 0xf8fbf22329b2a91fU,
  0xc491a34202341c03U, 0xab71de62760e6efU, 0x2e444a5c96471d2cU, 0xc418d3a3d84bf1d6U,
  0xe5ccb007f90a0620U, 0xa60966383417bd8bU, 0xc029d0ce01dceb18U, 0x815cb22d47a0db0aU,
  0xc0f24ef6b0be6c07U, 0x15deca5ad3e4ffe4U, 0x5104f84dcfdddc2U, 0x22bc34cf0d7f6db9U,
  0x894913e4c6d915e8U, 0x1049f3040efbc0cbU, 0xf7b5212f45c22dc3U, 0xccdd05653cc6dd08U,
  0xd9eea732d82630deU, 0x928fdbc5afd2ab2U, 0x895d8108970ba2d3U, 0x40c50a0ae82bf955U,
  0xc31446e33941d80dU, 0xbdf4d1aae9ca150fU, 0xfd3c42c1ad2ad219U, 0xb946fb05154dc504U,
  0xc44cdfe0b1ca636U, 0xed5db4e8ab0abeccU, 0x19e5f4150a3ccb3eU, 0x4ff1793ad4621f4bU,
  0xf36ab7ce8117a02cU, 0xf8a8b8050cd2197cU, 0xbfea432fda26ffc2U, 0xb09af2800d3d2bfU,
  0xd0e4f273dd2e1246U, 0xb4ce5eb251a04f5U, 0x1f533bf6b757a828U, 0xd9024c3cf5e000ceU,
  0x952521d77de2edcfU, 0xc0213d7fd2de34d5U, 0xbc5ce9d03524efdfU, 0x2bfb011245fa74beU,
  0xa82f7fbe05382e2bU, 0x1ff940320a5d0ac1U, 0x2046c6de17ffd3e5U, 0x2640f6012de4e8d2U,
  0x845feca591eb653U, 0xce61de44bf18a303U, 0xf1e943c52d29e4cdU, 0xcdb9d056fef872cbU,
  0x163d2dd4bc1ad3f4U, 0x51c29710db3a9e70U, 0xcf3d226fc3e41de6U, 0x67c00a130a0ac40dU,
  0xf7029c7522f9db61U, 0x7f251867a304061cU, 0x2cb9cedebafd3d8U, 0xcd63e5332d20af5U,
  0x7f1ab0d42cd72b2dU, 0x3ac8ec1601f0a82eU, 0xe91902f0ec3de29bU, 0xd01fbc509b53d3e1U,
  0x25b0df11d5e609ddU, 0x3b2724fc3e200441U, 0xb8433ae003eeb607U, 0xdeb565e836e0d344U,
  0x2592165952bf0bc9U, 0x5a1d2728ce5aa1e7U, 0xd7ced08123e2e0a8U, 0x4ec807df02382a02U,
  0x31b8eae4ea216857U, 0x44ca8c4eaa38f769U, 0xf38d966546a25c7U, 0xa6e7fd35eac1f414U,
  0x40e6d3f6accbf812U, 0xc1f5b6d6d1d1e91fU, 0x4d067fcce7fdd0feU, 0x29ce30fefab8dd60U,
  0xfa2ba90e1042c81aU, 0xf3e1f341283c434dU, 0xf9df52bd38b1e0b7U, 0xd0203df7ff3abefbU,
  0x5316e99ed36c5ef4U, 0xe3e73bb24502ea5cU, 0x23d1e6463db8d2b8U, 0xf2ff44be2ae65debU,
  0x2cef08c6dfce0a1dU, 0x3d2be968472cacdaU, 0x50c1dcfc2b2e381dU, 0xcc26e7f0cc47eceeU,
  0x3cded5df377f003eU, 0xbe9cfd1d61ec263U, 0xc21f393e26e5bb18U, 0xc3ddeca1e8f52404U,
  0xf1093edef1d245f9U, 0x7f1903dc172cdf13U, 0xbb8cf0617180845U, 0xd69f3fa1e9dfa351U,
  0x1c14c8f1f72bffe7U, 0xd43e24c7ef8fc2adU, 0xb7ccb22d1a5cb447U, 0xee20bbdb0aa815eaU,
  0x1e235502e0334539U, 0xc231ccb213bec809U, 0x39421b2f4ecf1420U, 0xa3f0fc81fbb2e4f4U,
  0x7153c222d7d90722U, 0xcf1df93e131508c1U, 0x382cce57e6c6d4a8U, 0x7f23e74907f444f5U,
  0xa0e1ef1e6050751U, 0xf6efb5053924c964U, 0xf200db2028ce0c04U, 0x280711fb49ecb0dbU,
  0x26d2281522d025ccU, 0xc2bcddab3f2a60d5U, 0x12cd9eb464a5283aU, 0x3f7984107e9533aU,
  0xec436ae151ef1258U, 0xb9152bdcf2670821U, 0xd2b1cc0ab17f4117U, 0x32503e5522552f0aU,
  0xfffffb7fcf1dd01fU, 0x36e00000dd7U, 0xfffff81f00000b69U, 0xfffff3e5fffff24fU,
  0xfffffb29ffffedd6U, 0xfffff3affffffdccU, 0xffffff38ffffedcbU, 0xffffef5100000961U,
  0x6c987911ffffeb6cU, 0x59d6cffada6371c7U, 0xd5a95b09d3e9857fU, 0x313c46ddae97a46eU,
  0x10f4f6bf7fa3930bU, 0x14f3eff00d7f2f81U, 0xfcb846b146c6f6ddU, 0x42f7b5b57689b51dU,
  0x181b1631819920f1U, 0x1794dcdadce314a6U, 0x8136b22661157f93U, 0x1d2fbbc114252328U,
  0x24ecf7f31b101ef9U, 0x525036060efbe20bU, 0x8161381e57429d7fU, 0xfae60a3d0d30e4edU,
  0xce15e2ddbc04f92cU, 0x302754328538dccdU, 0x4e82a3fb3814509U, 0x3413d2608100f838U,
  0x54275703f4e461d1U, 0x12abc913ffd60ea8U, 0xedece6e8d9d37f17U, 0x14b122c7337f1ce1U,
  0x81f34d392abb172aU, 0xbc1bcf49d0651eU, 0xc7091a3b672cdebdU, 0x6ec51a14ca0b818eU,
  0x581326aa38fa3be9U, 0x717f4a326cb74aaaU, 0x3b34f87f4ee8356bU, 0x70ed3a69e35dd9f9U,
  0xae26abcb6e907d1bU, 0xd3ee09f81b38cf31U, 0xe7a9e16b812cdacaU, 0x53a27ff388178f32U,
  0x812dc51dc2d30ceaU, 0x4010fe2c09235f25U, 0xb4fc1f7fbdda0a4aU, 0x7525ea1f3e2f5ee5U,
  0xaf1aa50e2d520316U, 0xf769e8c666c27f83U, 0x20cfbc0fc9f07ef8U, 0xdad91de57f4779efU,
  0xbe6181562cbc0dd1U, 0x72c491edb5514cdaU, 0x4a172cc1153d6a24U, 0x40351bc1087f13cbU,
  0x4b9dd4810ffa19d3U, 0xd0bc602342407efU, 0x41064762da34da00U, 0x5a90fb7ffb508f50U,
  0xce1eb531eaf4d8abU, 0x2ff528cfb3c5f281U, 0xe2290ceb033b7908U, 0x249ddedaff634a41U,
  0x2e20ecdb1a81d3f1U, 0xccf94defde04a1fdU, 0xd36083533641811aU, 0x7f8eb404f1e2b104U,
  0x8134bbf217daf205U, 0x567706e2d4f3dee0U, 0xa23681150af2a5b5U, 0x594806bff14528b1U,
  0xb7f937807c22be4U, 0xd0db09346f34e8cfU, 0xc50c81e2ae05c6c7U, 0xf552493a5233b3c0U,
  0x36f72d814abcba72U, 0xe60c40a3f8411f2dU, 0xe9d6ff6a4ce7e7d6U, 0xe516fc4845583bf1U,
  0xd0519813a631381U, 0xc901fff5352b1508U, 0x40c5d80bc2f9f039U, 0xd84a3b5dd881d2d5U,
  0xbade1ac0bd331e14U, 0x234ab081ce2466b4U, 0xcf3c563c675d29d5U, 0x7f192007c4241737U,
  0x81149913e9bffd20U, 0x34658c9834105bd6U, 0x2b76049fb3d66d54U, 0xdd87983f1ecafde7U,
  0x337ff84cb18f7fd2U, 0xd83230ed91df2374U, 0x81ceac2886e321fbU, 0x451adea2bc381024U,
  0xf1e92d2d28d24ed8U, 0x3d1a0d31d446f0e7U, 0x2071994cf49c7f4bU, 0x609e5f5ea95e7fe1U,
  0xe402d81f83c8ffcU, 0xbfbd69bdc7680e23U, 0xfa44fc0c7191cd12U, 0xda41b3c778695281U,
  0xd4ccf43e59f3d717U, 0x3b07c2153c504238U, 0x2072ceff8135f76fU, 0x73bf2d8199fc1299U,
  0x73150dbef43cbcb3U, 0xfddf7e8daab410dU, 0x113c07234c81bc2cU, 0xbbefffb3047f31fdU,
  0x5c301e05378afe02U, 0xa9f5136114ae8131U, 0x1832302e0ef7a1c8U, 0xdffcfd28db1e200cU,
  0xf44e81bb0fd31981U, 0x2766a170f42aaad7U, 0xb2a03d4c314e402cU, 0x9b61054d60ecea2U,
  0x1fa62723b3a37fc8U, 0xcf44a183ecd461cU, 0x38bb1bc02f578146U, 0x1da2d210c6dbebebU,
  0x81eb17f3fc407fc6U, 0xf0b901edd0003305U, 0xf2144b7cdeed2ebU, 0x19fdfcd5c45c18c3U,
  0x3fbe0781c9810f16U, 0xc208d6c6100446d0U, 0x81351a5bb123fb46U, 0xf75eaf193dc0c623U,
  0x81f0d6c4ffbecae6U, 0x5521d6a5bb2bdf0fU, 0x810c9511998e9be8U, 0xe65d08cd3a2f680eU,
  0xc503ead8e0e3ede9U, 0x200911c3ff7f38efU, 0xd006c81d49ecf1ceU, 0x721222c281e15b38U,
  0xf5bbff27de38dfb3U, 0xdfd31ebe7fdb4dfdU, 0xb26ea32efce41894U, 0x7f6283bf0636ced3U,
  0x654fd51e00b43f9U, 0x5aeda7fbce8d44bU, 0xde4511e70e48d8c5U, 0x2af7f9813522e8ccU,
  0xf815845d2c2aef6U, 0xd6bb6f69acb5b14fU, 0x260ccd53f4e15128U, 0x83d2f14f1eb51b81U,
  0x82d7e9a950defc5eU, 0x4a59c8bab27f1002U, 0x9ca403f351ef519U, 0x82eaced936b7e146U,
  0xc0d918513d7f431aU, 0xa7a6b0acfc0b449eU, 0x93c4b646e8be7fd7U, 0x39d0107ffcf00426U,
  0xe5a5fc112b0eee21U, 0xc48b16da6af18e2U, 0xf5215d3049ca7ff6U, 0x3181f7fdc61fa136U,
  0xed72bf1b88e8bee8U, 0x9e6b0240655c2781U, 0xa451000f2e7babfU, 0x4ad32e2381f8ccf6U,
  0xad2d0d9f15b7d2faU, 0x8153fce4deb91fU, 0x81a6f8fa5b1bcb2bU, 0x7989350f379d36f9U,
  0x3a9a7f5dde57feddU, 0xfc0ddca3b643ae14U, 0x6a76e0d25a94c208U, 0xdb8b4ddb9e4973e8U,
  0xd9042fd509be9d81U, 0x27d07f51fe2608d4U, 0x3e00c62fae503af9U, 0xf67f086a4e00c8f3U,
  0x40171c813b27c83bU, 0x1a5e47bcf91321d3U, 0x42a016052619f75aU, 0x8104b8f02cedfe38U,
  0xda4e06944e28f0dfU, 0xe4ad9fddea05ab39U, 0x19024ea4d5e2ee81U, 0xc0e9088f062c579cU,
  0xbe50aa13208104e9U, 0x7fe201fbbef2dfd0U, 0xf4982fa3fef767f8U, 0x65f77fd1cdbdbb05U,
  0xa3f8e20bf7410736U, 0xfa4ba8814b1ccab0U, 0xcf482142a5ea772fU, 0x1fd17f0785bd0c01U,
  0xab22f4cef9ed29ffU, 0x2509e681e448da96U, 0x81fb27fd473dcf13U, 0x4d29abb8f7f7fbc3U,
  0x1c13457fc2070cbaU, 0xe0b415cfd4df2805U, 0xd2bc9881e498f6c9U, 0xf3ee439c790dc830U,
  0x680459d897d109cdU, 0xbdc32308cd8a4881U, 0xd13dffcdd1ab5e45U, 0x559619b67c6ad681U,
  0xf0f929265ee28a95U, 0x7f3a220f4cc94731U, 0x43597f01a573de50U, 0x63bcfec4c161ea04U,
  0xcf2743f2b4eb159aU, 0xccc429275a7f32b8U, 0xec34c35af4cd2809U, 0xa0c7f399ef0fa24dU,
  0x48a7eb81dc7fc2a0U, 0xe0e01cd44136d1daU, 0xf4fdfa4a05fab0e7U, 0xe1aa00fd2ca68c52U,
  0x18212039497fa04cU, 0x2ec7011381cdbd1cU, 0xb31e94eec32848f6U, 0x65fedb81e2cff7b4U,
  0x1c3ce00daac7e8caU, 0xf0be10cf3e7f381dU, 0x6c7f023226b4fceeU, 0xcfe2d442db252631U,
  0xc234b3d75b0c3e06U, 0x7e17e70dce100a2bU, 0xdd37f2ee811ece2aU, 0xdca23381e61bebe1U,
  0xf0c42033ce193018U, 0xcebc15f5f6ea2381U, 0xe4e7d90427252a28U, 0xfed23ee427fd9430U,
  0x83dce73c157fcb11U, 0x1a9153eee168e1c1U, 0x812694c2fae20981U, 0x5909fae3bac233fbU,
  0x508f2f9c1f601c0U, 0xfa2e257f16ad97f7U, 0xca8b4fb61e54e465U, 0x1727f77fb5f1881cU,
  0x3e3825f358f6b4d7U, 0x34360534b9f5222fU, 0xe9dbbdee1e1a7fcfU, 0xb8f300bd197fd4b1U,
  0x215f522f212U, 0x1e2fffffe85U, 0x211fffffee3U, 0xffffff2c00000064U,
  0x62ffffff64U, 0xfffffff6ffffffb7U, 0xfffffe35000000cdU, 0x18afffffef4U,
  0xffffffdd000002cdU, 0xcdffffff94U, 0xfffffc9100000292U, 0x32a00000048U,
  0xffffff8d0000024fU, 0x1410000002fU, 0x84000001eeU, 0xfffffcbdffffffbdU,
  0xfffffd7400000116U, 0xfffffffd0000011bU, 0xffffff99ffffff82U, 0xfffffc92000000c8U,
  0xe5ffffff56U, 0xffffffc70000016dU, 0xcc000000f4U, 0x32800000126U,
  0xfffffb1800000077U, 0xffffffc1fffffec3U, 0x16000000ebU, 0xcfffffec0U,
  0xffffff4cfffffff2U, 0xfffffe8c00000055U, 0xfffffcaa000000efU, 0xffffff36fffffea1U,
  0xabffffffafU, 0xfffffe7affffff1bU, 0xf800000097U, 0x351ffffffaeU,
  0xa20000007fU, 0x580000002fU, 0xffffff3a00000088U, 0xffffffaffffffe79U,
  0xfffffe52ffffffc2U, 0xffffff74fffffbf0U, 0xfffffff5ffffff00U, 0xcfffffff6fU,
  0x3d000004d6U, 0x294000000a0U, 0xfffffddcffffff15U, 0xfffffc96ffffff41U,
  0xfffffea4ffffff5fU, 0xffffff9c00000168U, 0xfffffda300000021U, 0x153fffffff2U,
  0xffffff2d00000039U, 0xfffffe16000002f8U, 0x169ffffff44U, 0xfffffd4a000001dfU,
  0xfffffe9f00000090U, 0x640000005aU, 0xffffffc5ffffffa7U, 0xc6ffffff6fU,
  0x51a547810000008cU, 0xc0fc33e6dd6215e7U, 0xff3155edbfc80167U, 0x44e7f7272ad4c791U,
  0xf7e3dfe407e40accU, 0xed44b105b8c92afaU, 0xd9ecf4da50045718U, 0xfacc202407f4ec31U,
  0xee0e1883fe749d7U, 0xe01df8ea3b2317fdU, 0x1201b7e68bad36d4U, 0xabeae27fdcfee2b2U,
  0x3dffca9ee9addc3dU, 0xe62495fecac02c09U, 0xe988c11cd7f7169bU, 0x52fd328902233189U,
  0x8121ccec39544ee0U, 0x5061ee5cbfaa3d5bU, 0x531dd5e140270cc3U, 0x4501c8ec338fece6U,
  0xb28d44be9d0f18aU, 0xaed6e8ee4a106d5aU, 0x81bc311d0453361bU, 0xcc6f593613026aaU,
  0xd3a1c8f828fc30dcU, 0x6203f4f7a4d229c1U, 0xde21b374c1bcd7bcU, 0x639e2a455e73d4cU,
  0x422e9e4090b4f1f2U, 0x1ebcbe00de2f31a6U, 0x393550ba97023381U, 0xce35fbad1e357ffeU,
  0x3c273a6581d50032U, 0x5905e81317282da9U, 0x1617cb0d3cd0feeeU, 0x4614ec47ded4f7e5U,
  0xc2baff0569266f31U, 0xa6e9fd25e332404eU, 0x30d6f7ac7f450de6U, 0x9bfad5061c0952fdU,
  0x550bf1f292b92d18U, 0xbe1081ffdfebecb6U, 0x80aa8c315ee4730U, 0x4d37a65daed24a0bU,
  0x18d5c774e24403a8U, 0x58147bd5a6cf1199U, 0x832e15d34a044d10U, 0x225387fb9ee29dcU,
  0x3af807e3360ae8e8U, 0x4902bafe0aa9aff9U, 0x628e32cd5cc02d1U, 0x81bcb9050a3a7f12U,
  0x9d0b3a231941fd38U, 0x154eb281334c0ee1U, 0xa130ebd76c251a0aU, 0x303f9fc884ba1032U,
  0xcbf7a8418ee9dd9bU, 0x15f7e3c4048575ecU, 0x18198116bfcb1f08U, 0x1ab8fe7fa61fedb9U,
  0x2d093bd7c4cd5ce3U, 0xdd1744045419f6d6U, 0x1ef91e17a3f00be6U, 0xeb0c3507f914cd40U,
  0xefedaff932eed610U, 0xf01dbf080a8104b2U, 0xc0e081d7291e6816U, 0x8dc26e2df4fd0930U,
  0xb7f23de34f04fc9U, 0x8d37f08142211b01U, 0x5a708ddee8cc146aU, 0xa504e824ce2c0cc8U,
  0x13ddb4ddeda97696U, 0xef2cae03d903e520U, 0xf2a0325987081abeU, 0xede2dea70be64703U,
  0xae1acb460616ebe2U, 0xee1431159bd40c4fU, 0x7c37e1d234fceabcU, 0xf1290de532b92bb5U,
  0xcddf90fe5f5ef12U, 0x829cf2fb60d64108U, 0x9d49eb3feb4100f0U, 0x1bc68cd0261a66ccU,
  0x96e922e75dc03bbeU, 0x12e840288a811dd5U, 0x8103b252f3b6ad50U, 0x282997ff33e6542cU,
  0xab7b101c1d9fb0fU, 0x1850c841e52d2d8dU, 0x1911119de52d3ad0U, 0xbf4da53dd7577ff8U,
  0x2c7f2a3fdca14e54U, 0x637fe285697f1ae1U, 0x116efaba7fdff4b0U, 0x4a0ac77f816fb5daU,
  0xe0cee5147f47567fU, 0x1ce80709267f45dbU, 0x7f11c21f695107e2U, 0x81adfec74bc97f81U,
  0x63d06f6f8bbc10b7U, 0xfe7fcd10eca3f863U, 0x7f55bcab63e57f50U, 0x7cc9bf499f9935d8U,
  0x7f789f34e1697fa3U, 0x5f4dfeb9a7f316e0U, 0xec74ba43bef076fbU, 0x234a3c60b1fc084dU,
  0x2758fab33e7e1ddbU, 0x227fa4aa73d6efcdU, 0x79e10550c56ab6e9U, 0xb38100e53f201d67U,
  0xc3fed610e54943c0U, 0x62d081f34b7f7fffU, 0xaca3d61a569c57b9U, 0x51c7641ed38a2e81U,
  0xbf7ddf18a6811632U, 0x1f4acdc5730346ebU, 0x7fd6e17fe9a454ecU, 0x544cd04e077f24b3U,
  0x1826229dcaed29dbU, 0xc34df71d0e093c20U, 0xdd11591bee1228e2U, 0x114ff6df453c37f2U,
  0x10529c0a4c98bbc3U, 0x2c1ace26e1379ef0U, 0x1b3fceb292d0c2eU, 0xf8252d323b2a15e2U,
  0x3506ae0f155a2cbcU, 0xcb97d9c01ccc64e0U, 0xfc2b2126a1bd08d3U, 0xec37d5f0e9d9f271U,
  0x1d1b52c1ffed5916U, 0x64f7be07bfa737d5U, 0x137fb34bda5b0ddfU, 0xfb19d0a01e027f05U,
  0xbb04360fec080ddfU, 0xd0e4524c8bbe4caU, 0xdf5b360a3408dc1cU, 0x2c4381b64281afeeU,
  0x827d820072ceea0U, 0xab8bd9f0f30d3879U, 0xb0da023c19e6220cU, 0x538f0e71c0478d1U,
  0x9f799ea67f0d2511U, 0x2d41fa1608ba5500U, 0xc316b136cfcbe554U, 0x3601a2c9f4c26c81U,
  0x17342314eedb3415U, 0xf0ceb4216102ab0U, 0x2bcf1ba9f3b047faU, 0xeefc3716ac5e3b66U,
  0x6e3239e3e7bc677fU, 0x292ae8d9b8fc7fdaU, 0x28d0e4ea038c1ac9U, 0xdb1b609eb0109f4U,
  0xf0e9167f55ff27e7U, 0xd3f20bb419df2eebU, 0x10dffdee19fb3df3U, 0x8b763febfb1c32f5U,
  0xf2db47a5ccce23edU, 0xc313dc6c09cdfb7fU, 0xe039811030ee32e4U, 0x8b5b7fecb290005U,
  0x3369e0601053114U, 0x5a1701b7c26d27c4U, 0xde6cc569987f5366U, 0x7f517034fae32f5fU,
  0xe753dbe3ed4d7eb3U, 0x21f71bb15bca040aU, 0x1aecce229376c6f4U, 0xd1e5eb3c0cfd27c8U,
  0xac383581511836dfU, 0x2ed8f8ef5d4153e3U, 0x9fdd38f8160b72d4U, 0x41f97fc409e416a6U,
  0x405ad8361faa710fU, 0xef7fb7077fdb2a18U, 0x570dc0e98ee72becU, 0x4f418114bff137deU,
  0x21137fd2b84e1adaU, 0xf7781418156786cU, 0x534d2a19c9df12f1U, 0xd414cfcfd87055e9U,
  0xe7fad8122af9f7ffU, 0x7ff7eb24b110d002U, 0xe9ef0d63f2281b16U, 0xd21153b22bc72fd3U,
  0x27ff04eb4d5c1ca9U, 0x94e5e511fbcd62deU, 0x1cd86bc306b728c5U, 0xee3bded2fed27d44U,
  0x273ca8fe7df210e8U, 0x59dea204b9fd4f0eU, 0x2a1ea718f3ee1cf6U, 0x7f1358f8a47f30a8U,
  0xc87fde7fc1190e6eU, 0xf10f2362efe13f15U, 0x2501eae006ea0ec0U, 0x16d6b7f527b581f0U,
  0xfd0ce9e99af0e015U, 0xefcaf528f103f486U, 0xdf3267e57f310fc0U, 0x7d2bbd143605c04U,
  0xa784a4ef391046fdU, 0x1b1c1e9e12dc25f7U, 0xc70ef225f9ec7f10U, 0x353eb8fc51c80ddaU,
  0x309a7f7811857f7U, 0x8f09811deeffb32U, 0x34cf41aec6243bf2U, 0xe9562b33ef272bf5U,
  0x31125524bc972517U, 0xa23c52a6dc31cd21U, 0x3beef33867f5a2f2U, 0xf0fd830cf6ee2cafU,
  0x26c6de12ebc33d47U, 0xd90f5fd35bf339e6U, 0x154fcee3e1e43fbU, 0xd4fcf8cd430b2f01U,
  0x5455f3b3d3ec4afbU, 0xc11ff90c0302475bU, 0x4cf083ed258ffec1U, 0xde02c914a3eb6de9U,
  0xfaf7bc10af071f51U, 0x1595c0dd09d933fdU, 0xb3eeead500f3f832U, 0x334331ee9ce55f4U,
  0xe512f7e7bb110b81U, 0xff110ea6fbb52081U, 0xf995830f31000f27U, 0x97d9c9c600ca30e4U,
  0xd57fdbe5d0eb39fcU, 0x17f5e093e51369d6U, 0xa8401ad619521903U, 0x81a0e759e8d851deU,
  0xd10ecb3af1d4c2bfU, 0xa201bf37e1d81ffeU, 0xfbaaee05fd092b2fU, 0xe0fd1534c7262e0bU,
  0x21d9ddd48e50970bU, 0xaef8bebdbe110863U, 0x11710510d6df4912U, 0xd922b905bd4446cdU,
  0x3f1c199f0ae225dcU, 0x15d1b42b3e6d18d4U, 0xed08bceade131edbU, 0xca602ccdfcf64ce4U,
  0x31e6da0739f2f1e0U, 0xe62535c0fd3c39e6U, 0x798247fb01a778eU, 0xeb24cf45fbe23ed7U,
  0xb10ef8530bc639fcU, 0x31b10cbfd6425230U, 0x904031f941f332cU, 0x200ae495b915dd35U,
  0xe03fb78cb2ce1655U, 0xf3adf58c38f46c3U, 0xd30781d3bf481cd0U, 0x7f2609e2f4f619a7U,
  0xe81e41cf2092a29U, 0x91a505dee0f6db72U, 0xbe7656f2f9dc6fccU, 0xa0eb5dc4e2b35d4U,
  0xbfe5c12d1dfa5202U, 0x6dad444bcabb7fa0U, 0xe31b9710e2bb4fe1U, 0xe914272ffb2b4101U,
  0x3c811fdcce477f5bU, 0x27eb0a122013fbffU, 0x1e2ffac2de56e605U, 0xc62de90f97ece822U,
  0xf62e6611bbff7fe5U, 0x9b10b353a7edeacdU, 0x47f6d4810adcd897U, 0xddc5d225ddb01527U,
  0xaae897e6f3f4f38cU, 0xd8217f340f15f981U, 0x131fd1d50e3b1be8U, 0x12ac95c9f5493bfeU,
  0x3a0de25281d241a5U, 0xc2eb06efe9e937f0U, 0xfee33cecf6dc26f5U, 0x6cf0fd6e17f624bU,
  0x2ebdc00d31cee39U, 0x1627de90faf0de23U, 0xb5f10cd1b1fbecebU, 0xf00e630ce6b0341eU,
  0xde264addb202b91bU, 0x49fc0b0612e1b9beU, 0x1e3d80b10dd5bd8U, 0xa5f1adc4f0ebe139U,
  0xd5344bbf05f44be1U, 0x1054e1a11b122139U, 0xedf281c40d500e12U, 0x2241cb02a6f43ac7U,
  0xcffbc253fdf312e4U, 0x7cbf499eecb16b4U, 0x11def6ced8001a72U, 0xddce00be92710ffU,
  0xf4e1d6ebf3ccd220U, 0xeadb0ae6ad192450U, 0x50664e830a24e08U, 0xa53205cdae181692U,
  0x14d70e0c1bdadb02U, 0xfcc88122ff2947d2U, 0xe025dc5d199503feU, 0xc818e7bed8c21b33U,
  0x1ac7229304fd4881U, 0xaa6022e0e47f0615U, 0xc398f19728472941U, 0xf916d679d8ed47f1U,
  0xeaea8d5708d367acU, 0x1004eed9f9172a7fU, 0x6ce0aee81f9f850U, 0x6a1ccdebbe2d753U,
  0x8ded8fe3da32307fU, 0xf0b7f0afcff6bdeU, 0x8139f494ea287ee5U, 0x42ba38e141b7ce1eU,
  0xfbd8df16006902a6U, 0xe212fc590281f202U, 0xcffa2ae903d87f1dU, 0x8c302ab031f30caU,
  0xe72a22dcdb492f1bU, 0xc8d901b500f2eeffU, 0xfc3b9737cbb14af7U, 0xc7f8d77f189c33d7U,
  0x5ce01aa6f0331108U, 0x3333ee05a735f97fU, 0xedc2091581c2d13eU, 0xf2ef85ccc6254a2bU,
  0x1a14443e02aa5becU, 0x8d36c681ae413c05U, 0x49c3f8e33bfb0ad8U, 0x3088a91eef2836beU,
  0xdefdd83bf190e617U, 0xc1d747e7ffd634eeU, 0x72020a81934fdd8U, 0xd0b60c14e1332e26U,
  0xfa89f2a3ed19100bU, 0xe72af57981a26cf9U, 0xac00ce3f24d328ddU, 0x47961aac1d385f4cU,
  0x1de105072819f44dU, 0xe81b5e3b9ddd91dU, 0xd04210e0c20f1b76U, 0xcff6504d2f248c9U,
  0x9fe91f9297eac3abU, 0x24a8fcda17a59cceU, 0xf0baab10e9cd68b1U, 0xc91cf019fa83dfbbU,
  0xe3183dde131f10e0U, 0x5f5e3e3253e25ccU, 0xb81d307135e5216U, 0x2207e7c6dc190afbU,
  0x60bd56baddd1f05U, 0x930f9116f5d0d4dbU, 0x11b90bd60b17504bU, 0x101ff21da20f558U,
  0x9e2beb1ecfebb44U, 0xe3f140f72e182bf1U, 0xeb072d1aed812401U, 0xc8393dc98130c91aU,
  0xf691d7d017e4a4d4U, 0x2fbc2fe17d37f81U, 0xe70ab54ff5acc945U, 0xf2effaadfce74aceU,
  0x114e07b128071ea5U, 0xf208b9d00d34011cU, 0x6b81ba95db07f800U, 0xea09eb74c0b934eeU,
  0xb1a0859fe181de8fU, 0x14173cba19243765U, 0x10d1ffcd3f6177dU, 0x6565e9c9f658U,
  0x140ffffe99eU, 0xffffdfefffffb519U, 0xffffd157ffffbcadU, 0xfffff64600002de7U,
  0xffffcbeb0000325dU, 0xffffea9f000033e7U, 0x4ca1ffffce66U, 0xffffbef800005090U,
  0xffffcd5fffff9fefU, 0x1076ffffddbfU, 0xffffd4ecffffedd1U, 0x35770000054aU,
  0xffffcebd00001691U, 0x3b2afffffdcaU, 0x1c9a00001f1dU, 0x11e9ffffd471U,
  0xfffff8f300002088U, 0x388fffffe7ecU, 0xfffff620fffff9b1U, 0xffffdecc00002f2aU,
  0x20f600005f02U, 0xffffdfd4ffffe940U, 0x663ffffc9e4U, 0xffffeb48ffffeeddU,
  0x43a700001970U, 0x1148000032b5U, 0xfffff7cdffffe4e9U, 0xf07ffffe89bU,
  0xffffe856ffffc6deU, 0x167a000047beU, 0xffffc2a6ffff8b17U, 0x446dffffcbdcU,
  0xfffff40700002318U, 0x1515ffffe0e1U, 0xffffe4a1ffffbb21U, 0x184cffffcac4U,
  0x74e000014d2U, 0x22ad0000669dU, 0x1d93ffffbb9cU, 0xfffff83a00005552U,
  0x7d1fffff1a6U, 0xffffeb7bffffe4bcU, 0x5de9ffffde62U, 0xffffa09d0000332bU,
  0xffffd86600003effU, 0xab800003366U, 0x200dffffb323U, 0xfffffe72ffffdda2U,
  0xffffe2320000501bU, 0xffffdc24fffffba4U, 0x16bffffae47U, 0xfffff87500005570U,
  0x162200003eceU, 0xffffff8effffc93eU, 0xffffe239ffffd87eU, 0xffffdf78000036c3U,
  0xfffff39d0000417cU, 0xd56ffffe390U, 0xfffff81bffffe300U, 0x26ad9f2f0000385fU,
  0xf65103d4feef16f0U, 0xe68c3dddc40daadfU, 0xe9990ac84894caU, 0xa600eff5fd8bd0e6U,
  0xb0a7e1e09d00c922U, 0x1f2b2d8d2fb14928U, 0x17f9f00f1d56152fU, 0x2f2101ab00192801U,
  0x2200dce0bb923631U, 0x1e42fe81da34153fU, 0xf6b396c640ba96cdU, 0x299d2fc931c70e35U,
  0x562498c0b0f4cd2cU, 0xea4a35d19efa99b0U, 0xf49ac41af5ed8ad2U, 0x550833ebbddd34efU,
  0xe85be135cd7118eeU, 0xad6808feca6dccfbU, 0x5036ec2cdff04f42U, 0x4a0e022207e0f4c6U,
  0x7f7011452aaae724U, 0x5bfc7ed0e71bd0d4U, 0x7103012f12687c16U, 0xd735d55d0f07efb6U,
  0xdfc8c3f81753a5feU, 0xfa712a0bdb51cf15U, 0xb0e336d5391807f1U, 0x1339af541daffee1U,
  0x53c08735457416f7U, 0xfd35c09b11310103U, 0xd3f22df032f9ebbaU, 0x20c802ee20c6e2efU,
  0x1cd2f6dbf9d02e13U, 0xdd23e11e180be4b0U, 0xee1e171b1c2b02cdU, 0xebc01dc724eff7cbU,
  0xf4d7f2ffb4de1606U, 0xe91cf411f9cae9f7U, 0x2919f2fd15da1a18U, 0x2fe88f2233d2db01U,
  0xc5ffd2e4ef81edd5U, 0x230c28f0c7d006f0U, 0xebedf61f4cfe1ef1U, 0xfce40e01ffc1be06U,
  0x2ac50e46f6eccc0bU, 0x561b200af335e30dU, 0x243809581b38dbf9U, 0xf8dd1905140bf832U,
  0x3f181f03c516fb08U, 0x1c113f3c37a1f01eU, 0x22322825bad0cd13U, 0x4ce0ffe3e3078b12U,
